<unk>	0
<s>	0
</s>	0
[PAD]	0
[BOS]	0
[EOS]	0
[CLS]	0
[SEP]	0
[MASK]	0
[UNK0]	0
[UNK1]	0
[UNK2]	0
[UNK3]	0
[UNK4]	0
[UNK5]	0
[UNK6]	0
[UNK7]	0
[UNK8]	0
[UNK9]	0
▁t	-0
▁a	-1
he	-2
in	-3
▁the	-4
re	-5
on	-6
er	-7
▁o	-8
at	-9
en	-10
▁s	-11
▁w	-12
is	-13
▁c	-14
it	-15
nd	-16
or	-17
es	-18
▁p	-19
▁f	-20
▁of	-21
▁b	-22
an	-23
ion	-24
▁in	-25
al	-26
ou	-27
▁to	-28
ed	-29
▁and	-30
ar	-31
ing	-32
▁m	-33
ro	-34
ic	-35
▁d	-36
▁th	-37
ent	-38
le	-39
▁h	-40
st	-41
om	-42
▁re	-43
▁n	-44
il	-45
as	-46
ct	-47
ve	-48
▁is	-49
▁e	-50
▁be	-51
▁T	-52
▁I	-53
ly	-54
▁l	-55
ation	-56
ot	-57
▁for	-58
ur	-59
▁on	-60
▁that	-61
ut	-62
et	-63
▁C	-64
id	-65
▁g	-66
ce	-67
im	-68
se	-69
ment	-70
ol	-71
ra	-72
▁pro	-73
▁y	-74
▁S	-75
▁u	-76
ith	-77
pe	-78
▁M	-79
▁A	-80
▁we	-81
ver	-82
▁con	-83
ig	-84
▁E	-85
▁with	-86
▁The	-87
ch	-88
▁al	-89
▁wh	-90
▁P	-91
ow	-92
ul	-93
▁are	-94
▁st	-95
ort	-96
▁it	-97
ay	-98
▁as	-99
▁you	-100
▁de	-101
ir	-102
▁ha	-103
res	-104
ill	-105
ld	-106
▁an	-107
▁com	-108
ers	-109
ies	-110
ate	-111
▁this	-112
ad	-113
am	-114
▁su	-115
ble	-116
nt	-117
el	-118
ity	-119
▁W	-120
if	-121
ge	-122
ess	-123
her	-124
pp	-125
▁ex	-126
qu	-127
est	-128
os	-129
▁or	-130
▁v	-131
▁not	-132
em	-133
ive	-134
▁ne	-135
op	-136
ke	-137
▁B	-138
ant	-139
▁by	-140
▁have	-141
ist	-142
ich	-143
▁at	-144
art	-145
ore	-146
ain	-147
ust	-148
uro	-149
us	-150
rom	-151
oc	-152
ould	-153
igh	-154
ri	-155
od	-156
ect	-157
▁which	-158
▁F	-159
▁int	-160
▁will	-161
▁sh	-162
▁Euro	-163
ac	-164
▁r	-165
▁H	-166
▁Europe	-167
▁en	-168
▁from	-169
ial	-170
um	-171
▁G	-172
▁1	-173
ia	-174
▁se	-175
ure	-176
sion	-177
▁(	-178
un	-179
▁can	-180
port	-181
▁he	-182
omm	-183
▁all	-184
▁D	-185
iv	-186
▁R	-187
▁has	-188
our	-189
▁im	-190
and	-191
ard	-192
ie	-193
ight	-194
▁2	-195
ions	-196
▁L	-197
▁le	-198
end	-199
▁comp	-200
▁our	-201
ern	-202
▁Comm	-203
▁wor	-204
all	-205
ber	-206
▁European	-207
ast	-208
▁res	-209
▁U	-210
▁ch	-211
so	-212
▁was	-213
ud	-214
th	-215
ff	-216
▁Th	-217
▁cont	-218
▁O	-219
ther	-220
rou	-221
▁ad	-222
▁N	-223
ere	-224
ll	-225
ated	-226
ak	-227
ical	-228
00	-229
ount	-230
▁us	-231
cc	-232
pt	-233
very	-234
▁also	-235
able	-236
▁-	-237
du	-238
ous	-239
▁ag	-240
▁part	-241
ost	-242
ission	-243
ab	-244
ire	-245
▁pl	-246
out	-247
age	-248
▁me	-249
▁your	-250
ations	-251
▁In	-252
ag	-253
ans	-254
▁do	-255
ome	-256
ult	-257
▁We	-258
▁St	-259
are	-260
ice	-261
ter	-262
lo	-263
per	-264
ide	-265
▁ab	-266
ree	-267
act	-268
▁Mr	-269
ake	-270
vel	-271
orm	-272
▁Commission	-273
▁there	-274
ine	-275
▁whe	-276
▁qu	-277
ance	-278
ip	-279
▁but	-280
▁It	-281
▁j	-282
ments	-283
gh	-284
ary	-285
ue	-286
▁reg	-287
og	-288
▁go	-289
▁its	-290
ident	-291
cl	-292
ition	-293
erv	-294
▁would	-295
ates	-296
▁un	-297
▁k	-298
lic	-299
ind	-300
▁more	-301
ong	-302
▁been	-303
ction	-304
ry	-305
▁so	-306
▁their	-307
▁man	-308
▁dis	-309
ime	-310
▁am	-311
iz	-312
con	-313
ru	-314
form	-315
reat	-316
▁This	-317
ear	-318
▁one	-319
▁app	-320
pport	-321
▁Un	-322
▁pol	-323
ail	-324
ark	-325
▁should	-326
▁acc	-327
▁li	-328
ally	-329
ish	-330
▁other	-331
▁work	-332
▁ro	-333
si	-334
▁Pres	-335
ign	-336
▁tra	-337
▁new	-338
▁off	-339
ase	-340
▁comm	-341
▁who	-342
▁up	-343
ite	-344
▁count	-345
ok	-346
▁spe	-347
ach	-348
ace	-349
erm	-350
ub	-351
▁out	-352
au	-353
▁must	-354
▁tr	-355
otel	-356
te	-357
ence	-358
cial	-359
▁V	-360
ord	-361
▁pre	-362
▁very	-363
ap	-364
arl	-365
▁pos	-366
ities	-367
ress	-368
▁co	-369
ack	-370
▁te	-371
int	-372
nc	-373
one	-374
▁need	-375
ational	-376
▁like	-377
▁imp	-378
▁President	-379
▁J	-380
▁pe	-381
▁produ	-382
ame	-383
▁they	-384
ject	-385
▁ind	-386
ens	-387
▁.	-388
▁time	-389
▁cons	-390
▁only	-391
▁ev	-392
ose	-393
▁K	-394
▁year	-395
ember	-396
▁bec	-397
▁ar	-398
▁cl	-399
▁about	-400
▁any	-401
▁"	-402
▁und	-403
▁prov	-404
arlia	-405
ious	-406
▁right	-407
▁per	-408
av	-409
ise	-410
▁than	-411
ep	-412
velop	-413
cess	-414
arliament	-415
fore	-416
▁200	-417
▁these	-418
▁bet	-419
▁po	-420
ram	-421
▁report	-422
▁no	-423
pos	-424
▁import	-425
▁sp	-426
▁sy	-427
ass	-428
▁rel	-429
ution	-430
▁Union	-431
▁rec	-432
ility	-433
enc	-434
irst	-435
▁pr	-436
now	-437
▁ra	-438
▁develop	-439
ors	-440
ks	-441
ople	-442
▁serv	-443
▁Parliament	-444
▁act	-445
wn	-446
ures	-447
▁if	-448
▁trans	-449
fere	-450
ert	-451
ew	-452
▁them	-453
ian	-454
ings	-455
stem	-456
▁Y	-457
clud	-458
▁inst	-459
ular	-460
ause	-461
we	-462
get	-463
ang	-464
▁my	-465
ific	-466
ounc	-467
▁over	-468
ays	-469
iew	-470
▁sub	-471
▁into	-472
▁EU	-473
ries	-474
pect	-475
ile	-476
ft	-477
▁well	-478
▁em	-479
▁people	-480
▁des	-481
pl	-482
▁use	-483
▁eff	-484
▁3	-485
xt	-486
▁support	-487
ual	-488
▁States	-489
▁Member	-490
▁some	-491
▁what	-492
▁sa	-493
ful	-494
▁were	-495
low	-496
ade	-497
▁such	-498
▁ob	-499
▁add	-500
▁inform	-501
resent	-502
ices	-503
▁system	-504
cre	-505
ouncil	-506
▁,	-507
ced	-508
▁dif	-509
ook	-510
▁19	-511
der	-512
▁first	-513
ric	-514
ient	-515
irect	-516
lect	-517
▁Council	-518
und	-519
▁under	-520
▁loc	-521
▁partic	-522
ov	-523
▁when	-524
ild	-525
ating	-526
ater	-527
rit	-528
▁mark	-529
▁most	-530
sible	-531
rough	-532
▁inv	-533
▁hotel	-534
▁important	-535
ative	-536
▁his	-537
▁fin	-538
ever	-539
▁countries	-540
▁make	-541
ory	-542
▁gu	-543
sel	-544
▁ext	-545
ound	-546
▁just	-547
▁prog	-548
▁know	-549
▁again	-550
hen	-551
▁propos	-552
▁cent	-553
ween	-554
▁Ch	-555
▁polic	-556
▁includ	-557
▁now	-558
▁ent	-559
ink	-560
▁tw	-561
roup	-562
ange	-563
hed	-564
▁between	-565
▁dec	-566
conom	-567
ren	-568
▁how	-569
▁requ	-570
▁att	-571
cept	-572
▁many	-573
ove	-574
▁take	-575
▁sit	-576
ces	-577
red	-578
▁intern	-579
ied	-580
▁because	-581
ph	-582
ough	-583
fter	-584
ural	-585
▁sc	-586
▁room	-587
pon	-588
▁market	-589
ards	-590
ention	-591
eg	-592
any	-593
ted	-594
▁mod	-595
▁As	-596
▁information	-597
▁bas	-598
▁form	-599
▁conc	-600
▁where	-601
▁col	-602
▁ass	-603
▁dem	-604
amp	-605
▁la	-606
ality	-607
ublic	-608
▁leg	-609
▁soc	-610
ell	-611
▁point	-612
▁rem	-613
▁made	-614
▁cle	-615
▁op	-616
▁great	-617
▁ac	-618
chn	-619
▁two	-620
▁av	-621
ob	-622
▁every	-623
uring	-624
oth	-625
▁world	-626
▁high	-627
▁good	-628
round	-629
als	-630
▁econom	-631
▁product	-632
▁iss	-633
ract	-634
rib	-635
▁through	-636
▁direct	-637
▁If	-638
▁Con	-639
▁way	-640
olog	-641
day	-642
ener	-643
▁years	-644
▁those	-645
▁want	-646
▁sol	-647
ax	-648
ives	-649
▁see	-650
▁pers	-651
own	-652
▁set	-653
les	-654
▁agree	-655
arm	-656
).	-657
▁bu	-658
▁had	-659
▁even	-660
ues	-661
▁tak	-662
▁fe	-663
blem	-664
ages	-665
▁disc	-666
ieve	-667
gy	-668
▁aut	-669
▁–	-670
▁On	-671
▁being	-672
▁problem	-673
ib	-674
▁own	-675
arge	-676
▁policy	-677
▁particular	-678
▁exp	-679
▁min	-680
ning	-681
▁There	-682
unity	-683
▁num	-684
▁view	-685
▁may	-686
▁appro	-687
ited	-688
▁5	-689
ck	-690
▁fact	-691
ection	-692
gan	-693
▁4	-694
riv	-695
▁prot	-696
land	-697
▁process	-698
air	-699
▁bel	-700
ism	-701
de	-702
▁ke	-703
..	-704
lp	-705
▁polit	-706
▁vot	-707
▁You	-708
▁program	-709
▁'	-710
▁area	-711
▁str	-712
uch	-713
▁order	-714
ood	-715
▁long	-716
▁here	-717
▁respon	-718
▁quest	-719
read	-720
row	-721
me	-722
vers	-723
▁differe	-724
ision	-725
▁find	-726
ork	-727
ting	-728
▁car	-729
▁bus	-730
▁main	-731
▁cre	-732
▁rep	-733
▁cour	-734
▁situ	-735
▁rest	-736
ince	-737
lement	-738
ines	-739
▁ful	-740
▁place	-741
▁cur	-742
▁techn	-743
▁sm	-744
▁concern	-745
vern	-746
▁possible	-747
led	-748
▁person	-749
uman	-750
▁mon	-751
▁Se	-752
▁For	-753
▁ref	-754
▁provid	-755
ouse	-756
▁after	-757
ency	-758
urn	-759
▁same	-760
ruct	-761
iness	-762
ick	-763
itte	-764
iet	-765
▁help	-766
ved	-767
ath	-768
▁say	-769
▁access	-770
▁exper	-771
bers	-772
iron	-773
▁ph	-774
▁comple	-775
▁public	-776
oy	-777
▁clear	-778
ised	-779
▁def	-780
erest	-781
▁within	-782
▁development	-783
rent	-784
▁end	-785
▁incre	-786
hes	-787
▁rights	-788
▁deb	-789
rat	-790
▁ser	-791
ents	-792
▁conf	-793
▁then	-794
ertain	-795
▁aw	-796
▁avail	-797
▁therefore	-798
ily	-799
▁present	-800
▁does	-801
ten	-802
▁Wh	-803
ered	-804
▁sim	-805
▁contin	-806
▁effect	-807
▁political	-808
),	-809
io	-810
ower	-811
ner	-812
▁call	-813
arch	-814
▁result	-815
▁used	-816
▁interest	-817
ron	-818
▁How	-819
▁ap	-820
▁stand	-821
ustom	-822
ata	-823
ute	-824
▁against	-825
cond	-826
ason	-827
▁met	-828
▁De	-829
▁fol	-830
ts	-831
viron	-832
▁could	-833
ittee	-834
not	-835
itions	-836
▁both	-837
▁get	-838
▁level	-839
▁Am	-840
eration	-841
▁dist	-842
▁Pro	-843
com	-844
▁val	-845
▁equ	-846
loy	-847
▁Hotel	-848
▁vis	-849
▁Int	-850
utions	-851
▁country	-852
▁play	-853
▁det	-854
▁est	-855
▁different	-856
▁20	-857
▁gener	-858
▁meas	-859
▁mat	-860
old	-861
▁fund	-862
cur	-863
ploy	-864
▁group	-865
▁social	-866
▁Al	-867
▁much	-868
vironment	-869
▁var	-870
▁number	-871
▁human	-872
ically	-873
ran	-874
...	-875
▁economic	-876
▁fam	-877
hip	-878
▁without	-879
▁think	-880
▁services	-881
▁consid	-882
▁del	-883
ict	-884
▁sign	-885
▁free	-886
▁ens	-887
▁allow	-888
▁spec	-889
aj	-890
ng	-891
▁available	-892
▁sur	-893
▁last	-894
iven	-895
▁organ	-896
embers	-897
▁require	-898
▁special	-899
▁Germ	-900
its	-901
▁still	-902
▁international	-903
alk	-904
sib	-905
▁custom	-906
urther	-907
▁term	-908
ready	-909
▁offer	-910
ration	-911
aking	-912
▁real	-913
▁believe	-914
nce	-915
▁oper	-916
ty	-917
▁finan	-918
uture	-919
▁project	-920
▁hand	-921
▁back	-922
▁business	-923
▁already	-924
▁const	-925
▁cond	-926
▁follow	-927
▁compet	-928
▁adv	-929
ional	-930
hing	-931
▁open	-932
ene	-933
self	-934
ulation	-935
▁before	-936
ics	-937
▁look	-938
ants	-939
▁cr	-940
ists	-941
▁start	-942
▁products	-943
▁future	-944
▁lead	-945
▁small	-946
▁current	-947
▁air	-948
ug	-949
▁able	-950
ope	-951
ience	-952
▁environment	-953
▁data	-954
▁course	-955
▁prev	-956
omet	-957
▁That	-958
▁today	-959
lish	-960
▁inter	-961
▁All	-962
itiz	-963
ased	-964
▁design	-965
▁down	-966
▁certain	-967
ving	-968
hor	-969
alth	-970
▁service	-971
▁Commissioner	-972
ness	-973
▁indust	-974
ral	-975
▁med	-976
ier	-977
less	-978
▁national	-979
▁cor	-980
pr	-981
▁regard	-982
▁offers	-983
▁He	-984
▁cannot	-985
▁prom	-986
▁Ar	-987
▁6	-988
lease	-989
▁case	-990
▁ide	-991
▁too	-992
▁question	-993
▁che	-994
ished	-995
fort	-996
▁ins	-997
ves	-998
▁state	-999
rol	-1000
▁put	-1001
▁impro	-1002
ample	-1003
udget	-1004
ately	-1005
▁“	-1006
ital	-1007
▁meet	-1008
▁pur	-1009
ven	-1010
ss	-1011
come	-1012
ix	-1013
▁fac	-1014
▁art	-1015
▁proposal	-1016
▁lif	-1017
▁Re	-1018
▁citiz	-1019
▁best	-1020
▁since	-1021
inc	-1022
▁beh	-1023
▁br	-1024
▁law	-1025
uc	-1026
▁said	-1027
ajor	-1028
▁city	-1029
▁respect	-1030
▁during	-1031
▁applic	-1032
ird	-1033
▁issue	-1034
▁web	-1035
arg	-1036
ually	-1037
▁dra	-1038
▁At	-1039
▁reason	-1040
curity	-1041
ock	-1042
▁ach	-1043
isation	-1044
▁quality	-1045
▁nat	-1046
▁day	-1047
▁ask	-1048
▁However	-1049
ne	-1050
▁implement	-1051
▁means	-1052
▁debate	-1053
▁amend	-1054
que	-1055
▁situation	-1056
▁saf	-1057
▁list	-1058
ination	-1059
ining	-1060
▁bo	-1061
ccess	-1062
▁coop	-1063
▁necess	-1064
▁her	-1065
vernment	-1066
ars	-1067
▁Our	-1068
ank	-1069
ains	-1070
▁cap	-1071
ified	-1072
ather	-1073
▁example	-1074
▁adop	-1075
▁Committee	-1076
▁resol	-1077
ys	-1078
▁ter	-1079
▁common	-1080
uss	-1081
▁object	-1082
▁show	-1083
▁sect	-1084
ways	-1085
ivid	-1086
▁found	-1087
ware	-1088
men	-1089
▁child	-1090
tle	-1091
▁fun	-1092
▁each	-1093
▁major	-1094
ined	-1095
▁large	-1096
▁inf	-1097
▁prof	-1098
▁citizens	-1099
▁rooms	-1100
▁With	-1101
▁rev	-1102
▁cost	-1103
▁few	-1104
▁financial	-1105
▁ed	-1106
▁activ	-1107
ilities	-1108
line	-1109
▁ener	-1110
mit	-1111
▁measures	-1112
▁eas	-1113
▁areas	-1114
▁including	-1115
els	-1116
ential	-1117
▁And	-1118
reed	-1119
▁[	-1120
up	-1121
▁es	-1122
alf	-1123
▁give	-1124
▁elect	-1125
▁ensure	-1126
inist	-1127
▁represent	-1128
▁199	-1129
▁Sp	-1130
▁read	-1131
ann	-1132
▁fl	-1133
ability	-1134
▁author	-1135
ield	-1136
▁rece	-1137
▁7	-1138
ized	-1139
▁hist	-1140
aut	-1141
▁redu	-1142
▁three	-1143
▁taken	-1144
▁cult	-1145
▁wel	-1146
imes	-1147
▁agreement	-1148
▁10	-1149
▁Intern	-1150
▁further	-1151
▁instit	-1152
▁next	-1153
▁provide	-1154
▁budget	-1155
▁ret	-1156
▁ver	-1157
ology	-1158
▁addition	-1159
▁bl	-1160
▁stay	-1161
▁employ	-1162
▁account	-1163
▁opt	-1164
omen	-1165
▁success	-1166
▁ty	-1167
other	-1168
▁energy	-1169
eur	-1170
▁shall	-1171
▁neg	-1172
ium	-1173
▁build	-1174
▁..	-1175
joy	-1176
ward	-1177
ik	-1178
▁An	-1179
▁second	-1180
itive	-1181
ared	-1182
oint	-1183
▁estab	-1184
▁trad	-1185
▁To	-1186
▁8	-1187
▁dep	-1188
ently	-1189
lose	-1190
▁company	-1191
clus	-1192
aur	-1193
illion	-1194
isl	-1195
ivers	-1196
incip	-1197
▁necessary	-1198
▁pass	-1199
▁position	-1200
▁supp	-1201
stand	-1202
▁Z	-1203
▁opport	-1204
ible	-1205
000	-1206
utes	-1207
▁pay	-1208
▁accept	-1209
ules	-1210
rodu	-1211
ests	-1212
▁far	-1213
▁hope	-1214
here	-1215
az	-1216
fic	-1217
▁democ	-1218
▁princip	-1219
▁key	-1220
▁come	-1221
iving	-1222
▁cooperation	-1223
▁invest	-1224
▁somet	-1225
raph	-1226
ross	-1227
▁problems	-1228
▁pract	-1229
▁given	-1230
ising	-1231
cell	-1232
ases	-1233
▁fil	-1234
▁invol	-1235
▁why	-1236
▁stud	-1237
unic	-1238
ec	-1239
pecial	-1240
▁fore	-1241
riend	-1242
▁protection	-1243
leg	-1244
▁however	-1245
▁complete	-1246
▁init	-1247
▁security	-1248
▁tour	-1249
▁Group	-1250
▁health	-1251
bal	-1252
sibility	-1253
▁power	-1254
▁located	-1255
eng	-1256
▁bre	-1257
ante	-1258
▁name	-1259
▁legisl	-1260
▁simp	-1261
▁vote	-1262
ina	-1263
▁always	-1264
▁change	-1265
▁priv	-1266
10	-1267
▁imm	-1268
▁close	-1269
mb	-1270
▁aff	-1271
▁...	-1272
▁unt	-1273
▁needs	-1274
agement	-1275
▁control	-1276
▁comb	-1277
iety	-1278
ek	-1279
▁life	-1280
▁But	-1281
ave	-1282
▁individ	-1283
▁action	-1284
▁9	-1285
▁Mrs	-1286
inal	-1287
▁deal	-1288
▁did	-1289
ference	-1290
▁sk	-1291
▁using	-1292
▁full	-1293
ateg	-1294
▁conn	-1295
ins	-1296
▁visit	-1297
▁while	-1298
▁happ	-1299
wards	-1300
ond	-1301
pporteur	-1302
▁Is	-1303
urg	-1304
▁transport	-1305
▁old	-1306
▁fav	-1307
▁consider	-1308
▁Community	-1309
▁They	-1310
tain	-1311
▁based	-1312
▁enjoy	-1313
▁rese	-1314
▁cho	-1315
ners	-1316
▁working	-1317
ote	-1318
▁short	-1319
co	-1320
▁better	-1321
▁rapporteur	-1322
▁legal	-1323
▁House	-1324
▁integ	-1325
▁pres	-1326
▁pri	-1327
▁subject	-1328
▁production	-1329
▁par	-1330
ung	-1331
cy	-1332
▁net	-1333
▁word	-1334
▁consum	-1335
▁pop	-1336
irm	-1337
par	-1338
ify	-1339
▁terms	-1340
▁grow	-1341
aff	-1342
cing	-1343
▁What	-1344
ize	-1345
▁field	-1346
▁Mad	-1347
▁particularly	-1348
gether	-1349
▁together	-1350
iod	-1351
ources	-1352
ale	-1353
▁whether	-1354
▁sing	-1355
ights	-1356
por	-1357
▁around	-1358
▁whole	-1359
▁crit	-1360
oura	-1361
▁specific	-1362
▁lit	-1363
olid	-1364
▁proper	-1365
▁When	-1366
ises	-1367
ands	-1368
▁chang	-1369
ficult	-1370
ftware	-1371
ling	-1372
▁individual	-1373
▁United	-1374
▁children	-1375
▁centre	-1376
▁care	-1377
arante	-1378
▁These	-1379
▁contrib	-1380
▁difficult	-1381
ets	-1382
▁text	-1383
anies	-1384
ocu	-1385
▁issues	-1386
to	-1387
▁modern	-1388
▁conditions	-1389
▁el	-1390
ury	-1391
fer	-1392
▁various	-1393
▁another	-1394
▁So	-1395
▁non	-1396
pecially	-1397
▁accord	-1398
iation	-1399
▁she	-1400
▁him	-1401
▁water	-1402
▁beg	-1403
angu	-1404
▁systems	-1405
▁become	-1406
▁basis	-1407
▁less	-1408
▁industry	-1409
▁ca	-1410
ux	-1411
▁plan	-1412
▁guarante	-1413
▁Q	-1414
lobal	-1415
▁local	-1416
▁15	-1417
▁address	-1418
iss	-1419
akes	-1420
▁third	-1421
orth	-1422
▁writ	-1423
▁experience	-1424
▁gent	-1425
▁aim	-1426
▁lim	-1427
▁exist	-1428
use	-1429
▁step	-1430
▁trade	-1431
fact	-1432
▁sector	-1433
▁companies	-1434
ament	-1435
▁proced	-1436
▁role	-1437
ons	-1438
▁matter	-1439
gg	-1440
▁book	-1441
▁commit	-1442
reaty	-1443
▁women	-1444
selves	-1445
▁Ex	-1446
ively	-1447
▁gentle	-1448
▁beaut	-1449
▁bene	-1450
▁pack	-1451
room	-1452
▁Le	-1453
▁orig	-1454
aterial	-1455
▁done	-1456
▁appe	-1457
▁wish	-1458
the	-1459
nov	-1460
▁fram	-1461
ense	-1462
▁Ag	-1463
ique	-1464
▁near	-1465
isions	-1466
▁sum	-1467
▁docu	-1468
▁feat	-1469
▁occ	-1470
▁12	-1471
lev	-1472
adies	-1473
thing	-1474
ours	-1475
▁run	-1476
ension	-1477
▁really	-1478
▁research	-1479
▁especially	-1480
▁Ad	-1481
▁friend	-1482
▁Cent	-1483
ety	-1484
▁Sw	-1485
ool	-1486
▁prior	-1487
▁period	-1488
▁month	-1489
▁improve	-1490
work	-1491
▁create	-1492
▁negot	-1493
▁thank	-1494
over	-1495
▁effort	-1496
▁perform	-1497
ended	-1498
▁programme	-1499
ext	-1500
ences	-1501
▁comfort	-1502
▁sever	-1503
osed	-1504
ering	-1505
▁site	-1506
▁move	-1507
▁gentlemen	-1508
▁ple	-1509
tic	-1510
▁members	-1511
▁bed	-1512
▁18	-1513
site	-1514
▁Pl	-1515
▁excell	-1516
▁resolution	-1517
▁restaur	-1518
▁decision	-1519
icient	-1520
▁bro	-1521
▁page	-1522
ances	-1523
▁though	-1524
▁tax	-1525
▁something	-1526
imate	-1527
▁Go	-1528
▁region	-1529
▁food	-1530
ected	-1531
▁US	-1532
▁directive	-1533
▁several	-1534
▁pat	-1535
ah	-1536
▁general	-1537
▁personal	-1538
▁material	-1539
▁No	-1540
ption	-1541
▁contact	-1542
▁langu	-1543
▁z	-1544
▁single	-1545
▁top	-1546
pri	-1547
▁introdu	-1548
▁German	-1549
▁million	-1550
ody	-1551
oney	-1552
▁detail	-1553
by	-1554
▁break	-1555
▁town	-1556
▁itself	-1557
▁opin	-1558
ipp	-1559
▁among	-1560
▁struct	-1561
omp	-1562
▁press	-1563
ework	-1564
ogn	-1565
▁following	-1566
ories	-1567
▁going	-1568
rand	-1569
▁strong	-1570
ification	-1571
atic	-1572
▁let	-1573
arn	-1574
ricult	-1575
▁making	-1576
▁management	-1577
▁continue	-1578
ery	-1579
▁job	-1580
▁Be	-1581
▁mus	-1582
▁Fin	-1583
lection	-1584
▁Sh	-1585
side	-1586
way	-1587
▁Ind	-1588
▁initi	-1589
▁forward	-1590
▁rules	-1591
]]	-1592
▁ann	-1593
▁mult	-1594
▁kind	-1595
eric	-1596
▁dou	-1597
▁et	-1598
▁Madam	-1599
▁mot	-1600
▁towards	-1601
▁welcome	-1602
▁particip	-1603
outh	-1604
▁eng	-1605
of	-1606
ither	-1607
▁mention	-1608
▁lab	-1609
ried	-1610
▁family	-1611
▁serious	-1612
▁range	-1613
asing	-1614
▁version	-1615
▁software	-1616
▁gr	-1617
▁ris	-1618
li	-1619
▁expl	-1620
▁away	-1621
▁home	-1622
▁apart	-1623
▁least	-1624
▁customers	-1625
▁communic	-1626
▁relations	-1627
▁global	-1628
ending	-1629
▁review	-1630
▁excellent	-1631
▁negoti	-1632
▁understand	-1633
▁favour	-1634
▁progress	-1635
▁&	-1636
ash	-1637
ilit	-1638
▁feel	-1639
▁location	-1640
rict	-1641
airs	-1642
▁Pol	-1643
▁things	-1644
▁Treaty	-1645
▁ess	-1646
▁once	-1647
▁often	-1648
lished	-1649
ably	-1650
though	-1651
▁peace	-1652
▁express	-1653
▁tot	-1654
▁adm	-1655
▁Members	-1656
▁staff	-1657
▁Tur	-1658
▁Bar	-1659
▁aid	-1660
▁Ro	-1661
▁enc	-1662
idency	-1663
ror	-1664
▁Germany	-1665
▁until	-1666
▁recogn	-1667
▁days	-1668
ategy	-1669
▁line	-1670
load	-1671
▁install	-1672
▁ve	-1673
▁Mon	-1674
▁activities	-1675
iful	-1676
ization	-1677
▁behalf	-1678
▁opportunity	-1679
▁Mar	-1680
▁benef	-1681
erg	-1682
ator	-1683
reme	-1684
▁approach	-1685
▁profess	-1686
▁sw	-1687
▁hard	-1688
che	-1689
lin	-1690
▁function	-1691
▁bring	-1692
▁institutions	-1693
▁begin	-1694
▁[[	-1695
▁achieve	-1696
▁bal	-1697
▁quite	-1698
▁dr	-1699
fast	-1700
▁bar	-1701
atives	-1702
▁ladies	-1703
▁char	-1704
istic	-1705
itor	-1706
▁0	-1707
▁price	-1708
▁State	-1709
sequ	-1710
▁request	-1711
▁partners	-1712
▁money	-1713
▁expect	-1714
▁amendments	-1715
iol	-1716
▁provided	-1717
ER	-1718
▁light	-1719
▁keep	-1720
▁fully	-1721
▁increase	-1722
▁walk	-1723
for	-1724
▁proposals	-1725
▁post	-1726
▁turn	-1727
▁Ital	-1728
▁little	-1729
reedom	-1730
▁reform	-1731
▁try	-1732
iver	-1733
▁sl	-1734
aces	-1735
be	-1736
ived	-1737
▁Americ	-1738
▁include	-1739
aps	-1740
ides	-1741
▁treat	-1742
▁Gu	-1743
▁resources	-1744
most	-1745
pare	-1746
fect	-1747
lex	-1748
▁framework	-1749
ze	-1750
mber	-1751
osp	-1752
▁phot	-1753
▁mean	-1754
▁rather	-1755
▁port	-1756
▁establish	-1757
▁having	-1758
▁safety	-1759
isis	-1760
▁instru	-1761
▁tradition	-1762
▁technology	-1763
▁adopted	-1764
▁tre	-1765
▁dev	-1766
▁suff	-1767
▁four	-1768
ters	-1769
▁along	-1770
▁recomm	-1771
▁private	-1772
▁speak	-1773
▁above	-1774
ocus	-1775
▁2009	-1776
ront	-1777
▁solution	-1778
▁heart	-1779
▁yet	-1780
▁signific	-1781
▁New	-1782
▁stat	-1783
▁beautiful	-1784
ames	-1785
fully	-1786
▁opinion	-1787
▁crisis	-1788
ex	-1789
▁event	-1790
reng	-1791
▁content	-1792
▁legislation	-1793
▁taking	-1794
▁opp	-1795
▁essential	-1796
▁sea	-1797
sw	-1798
▁application	-1799
▁class	-1800
ici	-1801
ule	-1802
200	-1803
▁men	-1804
▁agricult	-1805
na	-1806
▁charact	-1807
rad	-1808
man	-1809
imum	-1810
▁inc	-1811
▁big	-1812
▁war	-1813
▁After	-1814
▁website	-1815
▁week	-1816
▁extreme	-1817
▁tool	-1818
orn	-1819
▁value	-1820
hod	-1821
▁minutes	-1822
▁times	-1823
▁abs	-1824
▁context	-1825
▁regul	-1826
▁makes	-1827
orld	-1828
ites	-1829
▁creat	-1830
▁Or	-1831
▁concerned	-1832
▁entire	-1833
▁projects	-1834
▁points	-1835
stit	-1836
▁left	-1837
▁test	-1838
ained	-1839
iting	-1840
ilt	-1841
rated	-1842
▁streng	-1843
▁educ	-1844
▁government	-1845
ems	-1846
▁provides	-1847
sp	-1848
▁gl	-1849
▁hig	-1850
▁costs	-1851
▁results	-1852
20	-1853
▁might	-1854
▁histor	-1855
uge	-1856
▁Fr	-1857
▁Cl	-1858
racy	-1859
oot	-1860
ca	-1861
idence	-1862
lick	-1863
▁discuss	-1864
mes	-1865
ret	-1866
▁called	-1867
▁park	-1868
▁appropri	-1869
▁flo	-1870
ode	-1871
▁easy	-1872
▁responsibility	-1873
▁others	-1874
▁attention	-1875
▁sure	-1876
▁freedom	-1877
▁importance	-1878
word	-1879
▁Af	-1880
▁past	-1881
ratic	-1882
amental	-1883
▁due	-1884
eed	-1885
▁Eng	-1886
epend	-1887
▁Sch	-1888
icial	-1889
▁questions	-1890
mer	-1891
▁team	-1892
▁dest	-1893
▁autom	-1894
▁building	-1895
ledge	-1896
ussion	-1897
ufact	-1898
▁viol	-1899
▁focus	-1900
▁holid	-1901
▁bath	-1902
▁lot	-1903
ows	-1904
▁/	-1905
▁head	-1906
▁typ	-1907
apt	-1908
▁simply	-1909
▁environmental	-1910
▁known	-1911
▁conv	-1912
AT	-1913
▁Sc	-1914
▁Reg	-1915
▁never	-1916
ivil	-1917
▁farm	-1918
▁principle	-1919
▁groups	-1920
▁perfect	-1921
edi	-1922
▁enter	-1923
bon	-1924
irc	-1925
▁30	-1926
▁chall	-1927
▁ident	-1928
▁young	-1929
▁effective	-1930
▁wide	-1931
▁check	-1932
▁method	-1933
▁standards	-1934
▁innov	-1935
▁prevent	-1936
▁achie	-1937
▁mount	-1938
▁host	-1939
▁anal	-1940
▁talk	-1941
▁perm	-1942
▁i	-1943
ceed	-1944
▁strategy	-1945
▁training	-1946
lig	-1947
▁road	-1948
▁mach	-1949
▁Res	-1950
▁words	-1951
arly	-1952
▁EUR	-1953
▁Pal	-1954
▁er	-1955
▁amount	-1956
rist	-1957
▁Des	-1958
▁natural	-1959
▁tem	-1960
▁tar	-1961
▁continu	-1962
▁required	-1963
▁appl	-1964
▁manufact	-1965
▁society	-1966
▁greater	-1967
▁clearly	-1968
▁authorities	-1969
▁|	-1970
▁network	-1971
▁fail	-1972
rial	-1973
▁One	-1974
▁technical	-1975
pose	-1976
▁Internet	-1977
▁answ	-1978
une	-1979
ured	-1980
▁aspect	-1981
ograph	-1982
▁meeting	-1983
▁pages	-1984
ats	-1985
▁via	-1986
ior	-1987
▁works	-1988
▁Part	-1989
ring	-1990
▁Med	-1991
▁policies	-1992
▁sch	-1993
▁aware	-1994
aster	-1995
hib	-1996
ided	-1997
arity	-1998
ruction	-1999
▁Rom	-2000
bour	-2001
ncy	-2002
unities	-2003
▁11	-2004
▁user	-2005
▁sal	-2006
▁govern	-2007
▁according	-2008
cise	-2009
▁X	-2010
reen	-2011
▁Aust	-2012
▁reach	-2013
▁quick	-2014
▁link	-2015
ological	-2016
▁World	-2017
▁won	-2018
▁regist	-2019
rect	-2020
▁assist	-2021
▁protect	-2022
▁internal	-2023
▁responsible	-2024
▁solutions	-2025
▁Can	-2026
▁directly	-2027
▁significant	-2028
iversity	-2029
▁proposed	-2030
▁requirements	-2031
ients	-2032
▁fish	-2033
▁dial	-2034
▁gra	-2035
▁distrib	-2036
den	-2037
▁Te	-2038
▁guests	-2039
rim	-2040
▁positive	-2041
▁discussion	-2042
▁pa	-2043
▁administ	-2044
▁relax	-2045
▁growth	-2046
▁nature	-2047
ES	-2048
ators	-2049
▁arch	-2050
▁pot	-2051
▁return	-2052
▁currently	-2053
▁apply	-2054
▁voted	-2055
▁log	-2056
▁involved	-2057
▁cultural	-2058
▁employment	-2059
▁desc	-2060
▁regions	-2061
▁implementation	-2062
▁refer	-2063
▁super	-2064
▁My	-2065
▁months	-2066
▁character	-2067
▁house	-2068
▁En	-2069
ensive	-2070
▁increasing	-2071
▁win	-2072
▁Please	-2073
▁standard	-2074
▁Man	-2075
▁14	-2076
▁25	-2077
iter	-2078
▁mom	-2079
▁promot	-2080
▁events	-2081
▁fight	-2082
aim	-2083
▁sugg	-2084
▁side	-2085
tern	-2086
▁share	-2087
ports	-2088
▁sty	-2089
▁vill	-2090
▁online	-2091
▁lat	-2092
ression	-2093
▁guarantee	-2094
ler	-2095
▁remain	-2096
▁record	-2097
ien	-2098
ogue	-2099
▁night	-2100
▁please	-2101
▁La	-2102
▁cred	-2103
▁upon	-2104
▁competition	-2105
▁facilities	-2106
▁extremely	-2107
▁select	-2108
▁lo	-2109
▁larg	-2110
bo	-2111
go	-2112
▁longer	-2113
▁music	-2114
The	-2115
▁fundamental	-2116
ached	-2117
▁subs	-2118
▁independ	-2119
ead	-2120
aste	-2121
▁pub	-2122
▁interests	-2123
▁economy	-2124
oss	-2125
arian	-2126
▁dam	-2127
ored	-2128
▁Su	-2129
rop	-2130
▁total	-2131
▁From	-2132
▁stre	-2133
▁don	-2134
erous	-2135
IN	-2136
▁central	-2137
▁parties	-2138
▁Air	-2139
▁Serv	-2140
▁demand	-2141
▁document	-2142
▁bord	-2143
▁regulation	-2144
▁sust	-2145
▁16	-2146
▁enough	-2147
af	-2148
▁history	-2149
anced	-2150
duct	-2151
▁happen	-2152
▁mov	-2153
▁views	-2154
▁themselves	-2155
▁comput	-2156
▁Presidency	-2157
ops	-2158
ton	-2159
▁language	-2160
▁risk	-2161
▁submit	-2162
ommod	-2163
▁contract	-2164
▁anim	-2165
lu	-2166
▁recent	-2167
ming	-2168
▁etc	-2169
▁Qu	-2170
▁unique	-2171
▁mob	-2172
▁changes	-2173
▁vol	-2174
▁breakfast	-2175
▁First	-2176
▁efforts	-2177
▁harm	-2178
▁negotiations	-2179
▁civil	-2180
▁cases	-2181
▁live	-2182
▁Direct	-2183
br	-2184
▁circ	-2185
▁developed	-2186
▁situated	-2187
aged	-2188
▁Minist	-2189
▁Port	-2190
▁euro	-2191
rip	-2192
▁century	-2193
▁force	-2194
▁draw	-2195
▁previous	-2196
▁soon	-2197
ired	-2198
▁comes	-2199
isher	-2200
▁recommend	-2201
ibility	-2202
▁Tra	-2203
ean	-2204
atory	-2205
ony	-2206
▁surround	-2207
▁cong	-2208
▁der	-2209
▁beach	-2210
▁final	-2211
▁17	-2212
key	-2213
▁tas	-2214
▁2010	-2215
▁caus	-2216
let	-2217
▁needed	-2218
▁mess	-2219
▁either	-2220
▁indic	-2221
▁24	-2222
▁gen	-2223
▁subst	-2224
▁camp	-2225
AN	-2226
▁May	-2227
▁pool	-2228
then	-2229
▁Bel	-2230
▁colle	-2231
▁target	-2232
▁wind	-2233
aced	-2234
▁sound	-2235
atis	-2236
▁everything	-2237
▁Ber	-2238
▁ago	-2239
ipped	-2240
▁2008	-2241
▁procedure	-2242
▁additional	-2243
▁ban	-2244
acy	-2245
▁reserv	-2246
abled	-2247
▁International	-2248
▁receive	-2249
▁constit	-2250
rench	-2251
▁broad	-2252
▁pict	-2253
▁created	-2254
ires	-2255
▁included	-2256
▁democracy	-2257
▁maintain	-2258
▁emph	-2259
▁attract	-2260
▁accommod	-2261
▁suggest	-2262
▁clean	-2263
▁appropriate	-2264
▁capital	-2265
unt	-2266
▁hold	-2267
DE	-2268
▁13	-2269
▁exam	-2270
▁ground	-2271
ino	-2272
▁low	-2273
ches	-2274
▁later	-2275
ulate	-2276
▁enl	-2277
▁immedi	-2278
▁actually	-2279
▁restaurant	-2280
▁transpare	-2281
▁station	-2282
ctions	-2283
▁Rep	-2284
▁mar	-2285
▁file	-2286
ef	-2287
ON	-2288
▁consult	-2289
ged	-2290
▁knowledge	-2291
▁concept	-2292
▁send	-2293
▁jo	-2294
▁oblig	-2295
utional	-2296
▁type	-2297
▁fair	-2298
▁living	-2299
▁education	-2300
pping	-2301
▁sustain	-2302
▁Do	-2303
empt	-2304
▁travel	-2305
▁East	-2306
▁strengthen	-2307
▁customer	-2308
▁communication	-2309
ipment	-2310
ser	-2311
▁funds	-2312
▁held	-2313
▁encoura	-2314
▁50	-2315
▁Par	-2316
▁‘	-2317
▁comfortable	-2318
▁Soc	-2319
▁true	-2320
ms	-2321
▁features	-2322
▁cat	-2323
▁seen	-2324
▁developing	-2325
eria	-2326
▁idea	-2327
▁moment	-2328
▁regional	-2329
▁Afric	-2330
▁assoc	-2331
isc	-2332
ernal	-2333
ource	-2334
▁island	-2335
▁land	-2336
▁arr	-2337
ti	-2338
▁ideal	-2339
▁famous	-2340
amb	-2341
▁professional	-2342
▁designed	-2343
▁dom	-2344
▁thus	-2345
▁cal	-2346
▁draft	-2347
▁decl	-2348
▁thing	-2349
inks	-2350
▁mind	-2351
▁Comp	-2352
▁colleag	-2353
elf	-2354
▁By	-2355
▁(1	-2356
▁2007	-2357
▁Cour	-2358
▁programmes	-2359
▁Sy	-2360
▁throughout	-2361
▁democratic	-2362
oid	-2363
▁emphas	-2364
ots	-2365
ffice	-2366
▁takes	-2367
▁download	-2368
roll	-2369
▁climate	-2370
▁looking	-2371
▁users	-2372
▁majority	-2373
▁foreign	-2374
▁hon	-2375
haps	-2376
ison	-2377
▁outside	-2378
▁exclus	-2379
▁Tr	-2380
▁100	-2381
▁transl	-2382
▁West	-2383
▁date	-2384
ables	-2385
▁French	-2386
▁adopt	-2387
▁hours	-2388
▁joint	-2389
▁school	-2390
▁Lis	-2391
▁almost	-2392
▁guest	-2393
▁mentioned	-2394
▁certainly	-2395
▁workers	-2396
▁Room	-2397
▁Aff	-2398
▁displ	-2399
▁impact	-2400
▁space	-2401
▁collect	-2402
ai	-2403
▁Br	-2404
▁correct	-2405
▁connection	-2406
▁parts	-2407
onst	-2408
▁concerning	-2409
ception	-2410
▁existing	-2411
▁Cont	-2412
▁doing	-2413
▁Co	-2414
▁lack	-2415
▁cut	-2416
ster	-2417
opy	-2418
▁vide	-2419
▁ce	-2420
▁five	-2421
▁states	-2422
▁writing	-2423
▁Government	-2424
▁mag	-2425
▁Fund	-2426
IT	-2427
▁monitor	-2428
▁concerns	-2429
▁mor	-2430
".	-2431
bit	-2432
▁terror	-2433
aring	-2434
AR	-2435
▁committee	-2436
▁More	-2437
▁extra	-2438
▁coord	-2439
▁completely	-2440
▁Brit	-2441
useum	-2442
▁prices	-2443
50	-2444
change	-2445
▁traditional	-2446
▁related	-2447
▁across	-2448
atically	-2449
▁cross	-2450
▁consequ	-2451
▁mass	-2452
▁Pr	-2453
▁km	-2454
oking	-2455
▁took	-2456
▁although	-2457
▁Let	-2458
▁rad	-2459
▁determ	-2460
▁holiday	-2461
▁official	-2462
▁Austri	-2463
▁agreements	-2464
▁markets	-2465
fortun	-2466
▁complex	-2467
▁flex	-2468
iable	-2469
▁decisions	-2470
▁reasons	-2471
▁assess	-2472
ussia	-2473
eb	-2474
▁early	-2475
▁built	-2476
▁potential	-2477
▁objectives	-2478
▁allows	-2479
▁conclus	-2480
▁practice	-2481
chan	-2482
▁Bo	-2483
▁original	-2484
▁card	-2485
▁:	-2486
▁France	-2487
▁includes	-2488
▁Bl	-2489
▁upd	-2490
cel	-2491
ha	-2492
▁ever	-2493
vert	-2494
▁game	-2495
more	-2496
ley	-2497
▁Jan	-2498
ones	-2499
nces	-2500
ature	-2501
30	-2502
▁applications	-2503
▁Lisbon	-2504
▁regarding	-2505
▁leading	-2506
ercial	-2507
▁demonst	-2508
idd	-2509
▁body	-2510
▁sent	-2511
▁separ	-2512
▁satis	-2513
▁model	-2514
▁equipment	-2515
▁tell	-2516
▁keyword	-2517
iab	-2518
▁received	-2519
▁solid	-2520
rast	-2521
▁nothing	-2522
▁basic	-2523
EC	-2524
▁confirm	-2525
▁Since	-2526
▁Turkey	-2527
▁Court	-2528
cure	-2529
rag	-2530
▁advant	-2531
lear	-2532
▁culture	-2533
▁package	-2534
ians	-2535
▁objective	-2536
▁Ph	-2537
▁fre	-2538
▁agricultural	-2539
▁Affairs	-2540
▁TV	-2541
▁Artic	-2542
aches	-2543
▁front	-2544
▁files	-2545
anish	-2546
mp	-2547
▁established	-2548
oph	-2549
lt	-2550
▁reports	-2551
▁Just	-2552
▁Col	-2553
uted	-2554
▁ste	-2555
▁Here	-2556
▁community	-2557
itable	-2558
ott	-2559
rate	-2560
▁becom	-2561
▁choice	-2562
ival	-2563
▁values	-2564
▁aud	-2565
▁member	-2566
▁contains	-2567
▁search	-2568
▁English	-2569
▁congrat	-2570
▁Amend	-2571
▁image	-2572
▁media	-2573
▁purch	-2574
▁performance	-2575
▁rate	-2576
▁wr	-2577
ends	-2578
▁pleas	-2579
▁Russia	-2580
EN	-2581
new	-2582
▁initiative	-2583
raft	-2584
▁defin	-2585
▁jobs	-2586
▁transfer	-2587
▁quickly	-2588
▁rail	-2589
▁claim	-2590
OR	-2591
▁population	-2592
▁achieved	-2593
▁conflic	-2594
yn	-2595
serv	-2596
IS	-2597
▁wat	-2598
▁computer	-2599
olute	-2600
▁ten	-2601
▁print	-2602
gu	-2603
aging	-2604
▁prep	-2605
▁interv	-2606
▁wa	-2607
▁milit	-2608
vious	-2609
▁investment	-2610
▁di	-2611
enda	-2612
yl	-2613
urb	-2614
▁capac	-2615
▁internet	-2616
▁UN	-2617
▁below	-2618
,000	-2619
inary	-2620
hic	-2621
▁treatment	-2622
▁goods	-2623
▁doub	-2624
ike	-2625
▁dialogue	-2626
vention	-2627
▁sens	-2628
.0	-2629
face	-2630
▁half	-2631
ude	-2632
just	-2633
su	-2634
-0	-2635
▁presented	-2636
▁jud	-2637
ills	-2638
▁simple	-2639
▁benefit	-2640
▁carry	-2641
olf	-2642
▁experi	-2643
sh	-2644
part	-2645
▁sun	-2646
▁firm	-2647
know	-2648
▁mechan	-2649
▁dire	-2650
cri	-2651
▁qual	-2652
▁Finally	-2653
▁amendment	-2654
▁urg	-2655
▁equipped	-2656
▁series	-2657
▁cover	-2658
ees	-2659
▁carried	-2660
▁China	-2661
▁analys	-2662
▁gard	-2663
val	-2664
▁Christ	-2665
▁indeed	-2666
▁reviews	-2667
▁2000	-2668
▁cru	-2669
▁cam	-2670
",	-2671
▁June	-2672
mosp	-2673
▁Now	-2674
▁comprom	-2675
▁strateg	-2676
iveness	-2677
▁engine	-2678
wide	-2679
▁beginning	-2680
▁Further	-2681
▁fel	-2682
iles	-2683
▁Therefore	-2684
▁sho	-2685
▁repl	-2686
▁efficient	-2687
▁consumers	-2688
▁active	-2689
ched	-2690
light	-2691
era	-2692
▁absolute	-2693
amic	-2694
▁threat	-2695
▁enlarge	-2696
▁principles	-2697
▁stop	-2698
▁famil	-2699
▁huge	-2700
▁answer	-2701
▁fall	-2702
▁stage	-2703
chen	-2704
▁party	-2705
itect	-2706
▁successful	-2707
pite	-2708
▁self	-2709
▁origin	-2710
▁atmosp	-2711
▁dig	-2712
reg	-2713
▁Berlin	-2714
▁agreed	-2715
▁furn	-2716
▁highly	-2717
OM	-2718
▁traff	-2719
▁aspects	-2720
fortunately	-2721
▁Article	-2722
equ	-2723
▁everyone	-2724
resh	-2725
app	-2726
▁il	-2727
▁floor	-2728
▁South	-2729
▁industrial	-2730
aw	-2731
▁choose	-2732
▁integration	-2733
▁cohe	-2734
▁friendly	-2735
ening	-2736
▁thanks	-2737
▁click	-2738
▁popular	-2739
▁center	-2740
▁influ	-2741
urch	-2742
▁sense	-2743
▁age	-2744
▁vehic	-2745
▁tele	-2746
aving	-2747
iddle	-2748
cent	-2749
▁note	-2750
▁obtain	-2751
▁warm	-2752
beral	-2753
▁attempt	-2754
▁enable	-2755
term	-2756
▁2006	-2757
▁face	-2758
▁matters	-2759
▁commitment	-2760
▁shown	-2761
▁attack	-2762
▁commercial	-2763
▁shows	-2764
▁relev	-2765
▁asked	-2766
ma	-2767
ania	-2768
▁Pe	-2769
ana	-2770
▁vict	-2771
▁materials	-2772
▁max	-2773
▁office	-2774
icro	-2775
▁levels	-2776
race	-2777
itz	-2778
▁Gree	-2779
▁speed	-2780
▁promote	-2781
▁direction	-2782
▁Fran	-2783
ground	-2784
ges	-2785
▁six	-2786
▁added	-2787
▁possibility	-2788
ee	-2789
▁recently	-2790
▁stress	-2791
▁rout	-2792
▁consist	-2793
▁Social	-2794
▁scient	-2795
▁exhib	-2796
▁increased	-2797
lements	-2798
▁latest	-2799
ilar	-2800
uary	-2801
eral	-2802
▁supply	-2803
ij	-2804
▁submitted	-2805
▁contain	-2806
▁double	-2807
▁seems	-2808
▁considered	-2809
▁Second	-2810
-1	-2811
rehen	-2812
▁foot	-2813
▁whose	-2814
▁table	-2815
igration	-2816
unch	-2817
ona	-2818
▁subsid	-2819
▁opportunities	-2820
▁setting	-2821
▁den	-2822
2.	-2823
▁198	-2824
▁arriv	-2825
▁pain	-2826
rec	-2827
▁seek	-2828
▁prepared	-2829
▁artic	-2830
orks	-2831
▁Some	-2832
▁Web	-2833
▁reached	-2834
▁Ju	-2835
▁wonder	-2836
▁safe	-2837
▁hotels	-2838
wise	-2839
▁accommodation	-2840
▁)	-2841
▁providing	-2842
▁decided	-2843
irt	-2844
▁Val	-2845
ously	-2846
▁clos	-2847
▁news	-2848
rought	-2849
AS	-2850
▁perhaps	-2851
pro	-2852
▁Dem	-2853
orrow	-2854
▁nice	-2855
▁details	-2856
▁creation	-2857
▁love	-2858
▁avoid	-2859
▁study	-2860
▁enlargement	-2861
▁gives	-2862
▁atmosphere	-2863
▁challeng	-2864
▁dang	-2865
▁effects	-2866
oh	-2867
▁reject	-2868
▁precise	-2869
▁hy	-2870
illed	-2871
▁external	-2872
iterran	-2873
▁came	-2874
▁ut	-2875
mail	-2876
▁sustainable	-2877
cember	-2878
▁pan	-2879
▁lay	-2880
sibilities	-2881
encies	-2882
wh	-2883
▁easily	-2884
▁oppos	-2885
▁display	-2886
▁summer	-2887
▁learn	-2888
▁behind	-2889
▁priority	-2890
▁regular	-2891
▁condition	-2892
▁actions	-2893
▁bathroom	-2894
▁fit	-2895
▁military	-2896
▁grant	-2897
▁prim	-2898
▁Convention	-2899
ategories	-2900
hest	-2901
▁reflect	-2902
▁Ser	-2903
istics	-2904
sian	-2905
▁manufacture	-2906
ple	-2907
▁altern	-2908
▁Acc	-2909
▁sites	-2910
▁closed	-2911
▁Spain	-2912
▁EC	-2913
ptember	-2914
ober	-2915
iterranean	-2916
▁funding	-2917
▁ord	-2918
arter	-2919
▁charg	-2920
▁ill	-2921
▁response	-2922
▁Wind	-2923
alu	-2924
▁organis	-2925
▁architect	-2926
antly	-2927
▁fisher	-2928
ira	-2929
▁pleased	-2930
▁places	-2931
arily	-2932
▁prepar	-2933
mark	-2934
▁December	-2935
▁capacity	-2936
▁1.	-2937
▁Not	-2938
▁death	-2939
AL	-2940
▁consumer	-2941
▁regulations	-2942
▁forms	-2943
▁property	-2944
▁video	-2945
ologies	-2946
burg	-2947
issions	-2948
inated	-2949
▁pressure	-2950
▁coming	-2951
▁conclud	-2952
▁style	-2953
▁ship	-2954
uclear	-2955
▁describ	-2956
▁supported	-2957
▁red	-2958
1.	-2959
gen	-2960
▁American	-2961
▁Oct	-2962
▁oil	-2963
▁purpose	-2964
lim	-2965
▁leave	-2966
▁conduct	-2967
▁Republic	-2968
ume	-2969
▁assistance	-2970
iated	-2971
▁Net	-2972
▁connect	-2973
▁lic	-2974
▁former	-2975
▁regards	-2976
▁relevant	-2977
icy	-2978
▁Fl	-2979
ta	-2980
▁norm	-2981
▁fig	-2982
IC	-2983
ployment	-2984
▁charge	-2985
▁September	-2986
▁item	-2987
▁appear	-2988
▁movement	-2989
▁higher	-2990
▁size	-2991
▁Book	-2992
▁ge	-2993
iture	-2994
▁adapt	-2995
▁variety	-2996
▁reduce	-2997
▁exchange	-2998
▁deg	-2999
▁fishing	-3000
▁Italy	-3001
▁deli	-3002
dom	-3003
ift	-3004
▁Central	-3005
cret	-3006
prise	-3007
▁construction	-3008
▁March	-3009
▁neigh	-3010
ane	-3011
▁procedures	-3012
ronic	-3013
▁interesting	-3014
▁guid	-3015
▁January	-3016
▁coll	-3017
cle	-3018
▁cause	-3019
arent	-3020
lands	-3021
▁spir	-3022
▁limited	-3023
▁repe	-3024
▁independent	-3025
▁acqu	-3026
▁creating	-3027
▁relation	-3028
rap	-3029
iciency	-3030
oor	-3031
▁brought	-3032
▁produced	-3033
▁message	-3034
▁territ	-3035
▁train	-3036
▁conference	-3037
▁buy	-3038
▁provisions	-3039
sc	-3040
rael	-3041
▁trip	-3042
▁Park	-3043
▁balance	-3044
ush	-3045
▁measure	-3046
▁friends	-3047
▁contribution	-3048
▁scre	-3049
▁board	-3050
▁Per	-3051
▁Italian	-3052
where	-3053
▁Develop	-3054
gar	-3055
▁labour	-3056
erve	-3057
▁Trans	-3058
▁similar	-3059
▁ski	-3060
▁pow	-3061
▁medium	-3062
▁Ab	-3063
org	-3064
▁October	-3065
▁compromise	-3066
ife	-3067
▁Of	-3068
uff	-3069
▁instead	-3070
▁governments	-3071
eneral	-3072
▁instruments	-3073
▁dut	-3074
▁activity	-3075
▁2005	-3076
aily	-3077
▁fa	-3078
▁emb	-3079
▁II	-3080
▁exec	-3081
aries	-3082
▁depart	-3083
imately	-3084
▁criteria	-3085
▁thous	-3086
2,	-3087
'.	-3088
sive	-3089
▁coast	-3090
▁ourselves	-3091
▁restaurants	-3092
▁Tod	-3093
ties	-3094
▁instrument	-3095
▁copy	-3096
▁started	-3097
▁task	-3098
▁documents	-3099
▁quiet	-3100
▁round	-3101
▁steps	-3102
ses	-3103
▁statement	-3104
▁apartment	-3105
▁partner	-3106
▁sett	-3107
▁exact	-3108
▁San	-3109
rs	-3110
▁tom	-3111
▁option	-3112
▁written	-3113
ging	-3114
ream	-3115
▁comprehen	-3116
▁compon	-3117
▁mountain	-3118
▁mem	-3119
ese	-3120
river	-3121
▁relationship	-3122
▁largest	-3123
▁obvious	-3124
▁40	-3125
ini	-3126
▁flow	-3127
ump	-3128
▁Service	-3129
arth	-3130
porary	-3131
coming	-3132
▁Israel	-3133
▁remains	-3134
▁Pa	-3135
▁airport	-3136
▁swim	-3137
▁bank	-3138
ras	-3139
▁else	-3140
▁allowed	-3141
▁damage	-3142
sels	-3143
▁wood	-3144
▁rent	-3145
cks	-3146
▁Car	-3147
ont	-3148
▁base	-3149
▁became	-3150
▁giving	-3151
▁pen	-3152
▁Spanish	-3153
▁wine	-3154
ding	-3155
orpor	-3156
▁produce	-3157
ada	-3158
▁types	-3159
▁National	-3160
▁except	-3161
▁nuclear	-3162
enced	-3163
▁green	-3164
▁rule	-3165
ief	-3166
▁jour	-3167
▁During	-3168
▁Rights	-3169
▁blo	-3170
▁limit	-3171
ened	-3172
put	-3173
▁source	-3174
zz	-3175
▁section	-3176
▁parliament	-3177
OS	-3178
▁cou	-3179
▁21	-3180
▁finally	-3181
vere	-3182
▁status	-3183
vis	-3184
▁code	-3185
▁optim	-3186
▁Nove	-3187
▁ways	-3188
ka	-3189
▁transparency	-3190
▁numerous	-3191
▁hous	-3192
▁Every	-3193
▁elements	-3194
▁village	-3195
▁film	-3196
▁employees	-3197
▁Furthermore	-3198
▁kit	-3199
etary	-3200
▁Ass	-3201
▁immediately	-3202
▁integrated	-3203
▁structure	-3204
ager	-3205
itude	-3206
▁2004	-3207
▁July	-3208
▁applied	-3209
berg	-3210
▁reading	-3211
rid	-3212
▁Mark	-3213
▁Africa	-3214
▁payment	-3215
▁distribution	-3216
antic	-3217
▁distance	-3218
ession	-3219
▁legislative	-3220
pid	-3221
▁fast	-3222
▁highest	-3223
ixed	-3224
▁useful	-3225
▁operation	-3226
▁historical	-3227
ishes	-3228
yond	-3229
quare	-3230
▁Today	-3231
▁Minister	-3232
vell	-3233
▁evalu	-3234
▁worth	-3235
▁minor	-3236
▁mechanism	-3237
▁processes	-3238
ental	-3239
ocated	-3240
▁bat	-3241
▁British	-3242
▁23	-3243
▁stability	-3244
▁emerg	-3245
▁deep	-3246
▁persons	-3247
EL	-3248
▁prob	-3249
▁saying	-3250
▁Bank	-3251
ano	-3252
ivity	-3253
▁occur	-3254
▁solidarity	-3255
▁apartments	-3256
▁colleagues	-3257
▁El	-3258
▁die	-3259
▁harmon	-3260
▁credit	-3261
▁rates	-3262
▁Sal	-3263
▁occas	-3264
▁Aut	-3265
▁nor	-3266
▁Che	-3267
▁daily	-3268
▁affect	-3269
▁digital	-3270
▁organisations	-3271
▁equal	-3272
▁congratulate	-3273
▁illeg	-3274
▁Directive	-3275
ape	-3276
▁tools	-3277
Office	-3278
▁path	-3279
▁drive	-3280
▁Your	-3281
uel	-3282
▁undert	-3283
AC	-3284
▁offering	-3285
▁Democ	-3286
▁analysis	-3287
▁Mediterranean	-3288
▁conver	-3289
▁Windows	-3290
▁000	-3291
alled	-3292
▁suppl	-3293
cer	-3294
▁sou	-3295
▁billion	-3296
/200	-3297
alls	-3298
▁tomorrow	-3299
dam	-3300
▁relating	-3301
ull	-3302
▁November	-3303
▁practical	-3304
▁Swed	-3305
rary	-3306
eks	-3307
▁agenda	-3308
astic	-3309
▁conven	-3310
conomic	-3311
▁crucial	-3312
gram	-3313
▁dise	-3314
▁lux	-3315
▁email	-3316
gs	-3317
pril	-3318
▁pros	-3319
▁violence	-3320
▁Amendment	-3321
oon	-3322
▁forest	-3323
▁North	-3324
▁happy	-3325
▁construct	-3326
▁Portug	-3327
▁loss	-3328
rastruct	-3329
▁victim	-3330
▁minimum	-3331
▁accordance	-3332
▁goes	-3333
▁dat	-3334
▁offered	-3335
▁reference	-3336
▁reality	-3337
▁leaders	-3338
hol	-3339
▁mobile	-3340
iate	-3341
▁Although	-3342
▁monitoring	-3343
▁vo	-3344
▁implemented	-3345
▁links	-3346
▁Ge	-3347
hold	-3348
▁brand	-3349
▁sufficient	-3350
▁season	-3351
uis	-3352
▁paid	-3353
▁clients	-3354
▁bit	-3355
oll	-3356
ray	-3357
▁operating	-3358
▁cand	-3359
▁partnership	-3360
▁challenges	-3361
ky	-3362
▁War	-3363
▁maximum	-3364
▁Im	-3365
▁April	-3366
AP	-3367
▁King	-3368
▁waste	-3369
▁She	-3370
ica	-3371
▁Development	-3372
▁Many	-3373
ples	-3374
▁rat	-3375
▁starting	-3376
▁weeks	-3377
▁Com	-3378
DS	-3379
▁ideas	-3380
▁published	-3381
▁consequences	-3382
▁dim	-3383
▁benefits	-3384
urance	-3385
bian	-3386
▁2.	-3387
▁impos	-3388
▁vac	-3389
▁historic	-3390
▁advantage	-3391
▁sales	-3392
▁cast	-3393
▁server	-3394
▁lines	-3395
▁machine	-3396
▁comprehensive	-3397
▁doubt	-3398
▁circum	-3399
ech	-3400
ki	-3401
▁Paris	-3402
▁efficiency	-3403
▁bur	-3404
▁renew	-3405
enge	-3406
theless	-3407
▁enh	-3408
▁beyond	-3409
▁America	-3410
TM	-3411
enn	-3412
▁gas	-3413
▁parking	-3414
lines	-3415
1,	-3416
▁relig	-3417
▁secure	-3418
▁elections	-3419
▁spirit	-3420
pective	-3421
olution	-3422
▁App	-3423
itors	-3424
▁Me	-3425
▁got	-3426
▁ey	-3427
▁bi	-3428
St	-3429
abor	-3430
rative	-3431
▁depend	-3432
▁languages	-3433
▁advert	-3434
respon	-3435
▁plant	-3436
▁infrastruct	-3437
aign	-3438
ifically	-3439
▁reduction	-3440
▁methods	-3441
▁Party	-3442
▁voting	-3443
▁remind	-3444
works	-3445
▁morning	-3446
▁late	-3447
illa	-3448
▁pictures	-3449
ester	-3450
▁interested	-3451
▁sports	-3452
rant	-3453
▁pover	-3454
comm	-3455
▁frequ	-3456
▁thought	-3457
▁%	-3458
▁Thank	-3459
iability	-3460
▁meaning	-3461
3,	-3462
augh	-3463
▁poverty	-3464
elling	-3465
ares	-3466
ocol	-3467
ourable	-3468
▁driv	-3469
▁options	-3470
▁react	-3471
▁Mal	-3472
▁ir	-3473
▁fulf	-3474
▁players	-3475
▁ready	-3476
''	-3477
▁interp	-3478
▁innovative	-3479
▁ones	-3480
▁remov	-3481
▁Ne	-3482
ney	-3483
▁farmers	-3484
▁cert	-3485
▁sport	-3486
▁lands	-3487
phone	-3488
▁extent	-3489
▁swimming	-3490
▁amb	-3491
▁shopping	-3492
va	-3493
▁led	-3494
▁caused	-3495
based	-3496
▁requires	-3497
▁fine	-3498
head	-3499
▁visitors	-3500
▁pie	-3501
▁hor	-3502
apan	-3503
▁ded	-3504
▁Secondly	-3505
3.	-3506
standing	-3507
▁conflict	-3508
▁critic	-3509
ques	-3510
▁bedroom	-3511
ulated	-3512
▁release	-3513
umb	-3514
▁Pre	-3515
▁sectors	-3516
▁sometimes	-3517
▁Inst	-3518
house	-3519
▁Ant	-3520
▁''	-3521
▁absolutely	-3522
atform	-3523
▁tou	-3524
▁garden	-3525
▁technologies	-3526
iction	-3527
▁selection	-3528
▁anything	-3529
ari	-3530
▁namely	-3531
uine	-3532
semb	-3533
▁kitchen	-3534
▁Austria	-3535
▁worldwide	-3536
▁tru	-3537
vent	-3538
▁lives	-3539
▁accepted	-3540
▁197	-3541
una	-3542
▁initial	-3543
▁rele	-3544
cape	-3545
see	-3546
itarian	-3547
▁concent	-3548
▁arrange	-3549
eter	-3550
▁unem	-3551
tt	-3552
▁crim	-3553
▁valid	-3554
ür	-3555
▁exer	-3556
▁que	-3557
▁chance	-3558
▁recon	-3559
▁games	-3560
▁rich	-3561
▁businesses	-3562
▁expert	-3563
▁encourage	-3564
▁ult	-3565
▁images	-3566
▁City	-3567
▁€	-3568
hern	-3569
▁arm	-3570
▁cy	-3571
▁Fed	-3572
inate	-3573
▁sche	-3574
▁Aug	-3575
▁raised	-3576
▁fields	-3577
▁terrorism	-3578
▁wanted	-3579
ava	-3580
▁street	-3581
▁Conference	-3582
▁mis	-3583
▁scientific	-3584
▁processing	-3585
▁Tour	-3586
▁Ent	-3587
▁representatives	-3588
▁highlight	-3589
EP	-3590
▁liberal	-3591
▁Rus	-3592
reland	-3593
▁seem	-3594
earch	-3595
▁involve	-3596
▁campaign	-3597
▁yourself	-3598
TO	-3599
▁investig	-3600
▁lower	-3601
▁genuine	-3602
▁forces	-3603
▁eleg	-3604
▁proceed	-3605
▁anti	-3606
ilater	-3607
▁Bal	-3608
▁Ireland	-3609
▁decor	-3610
rain	-3611
▁expressed	-3612
prises	-3613
▁apprec	-3614
▁initiatives	-3615
anks	-3616
▁observ	-3617
▁borders	-3618
la	-3619
▁motor	-3620
▁restrict	-3621
▁accession	-3622
force	-3623
▁demands	-3624
▁intended	-3625
right	-3626
▁tick	-3627
▁probably	-3628
▁join	-3629
▁Em	-3630
ades	-3631
▁trying	-3632
▁Min	-3633
itation	-3634
▁heard	-3635
.00	-3636
▁passeng	-3637
hers	-3638
▁powers	-3639
▁cohesion	-3640
▁bad	-3641
US	-3642
reement	-3643
▁talking	-3644
▁menu	-3645
body	-3646
formation	-3647
▁Public	-3648
poses	-3649
▁exc	-3650
mbH	-3651
▁club	-3652
▁Japan	-3653
▁illegal	-3654
▁Ed	-3655
▁AG	-3656
▁award	-3657
▁track	-3658
▁System	-3659
ender	-3660
ger	-3661
dra	-3662
▁south	-3663
elines	-3664
▁fire	-3665
▁traffic	-3666
▁evening	-3667
▁sort	-3668
▁Are	-3669
▁datab	-3670
▁tourist	-3671
▁circumst	-3672
▁candid	-3673
▁fresh	-3674
orage	-3675
▁resort	-3676
▁poor	-3677
▁calls	-3678
▁innovation	-3679
▁Cons	-3680
▁helpful	-3681
▁overall	-3682
▁walking	-3683
ider	-3684
▁alternative	-3685
▁argu	-3686
ole	-3687
▁Bre	-3688
▁earl	-3689
▁approved	-3690
agraph	-3691
▁challenge	-3692
▁GmbH	-3693
▁TH	-3694
▁heav	-3695
▁Even	-3696
raq	-3697
▁comments	-3698
▁Centre	-3699
▁Sant	-3700
▁player	-3701
▁Constit	-3702
▁worked	-3703
▁fellow	-3704
▁conclusion	-3705
▁Bu	-3706
▁changed	-3707
att	-3708
▁terrace	-3709
▁High	-3710
▁placed	-3711
iance	-3712
▁suitable	-3713
▁dru	-3714
▁Bus	-3715
asc	-3716
ED	-3717
aves	-3718
▁prem	-3719
▁sil	-3720
▁Prot	-3721
▁adjust	-3722
▁plans	-3723
ondon	-3724
▁feature	-3725
▁automatically	-3726
▁delivery	-3727
craft	-3728
▁provision	-3729
▁planning	-3730
▁growing	-3731
▁affected	-3732
ara	-3733
99	-3734
▁simpl	-3735
▁committed	-3736
amed	-3737
▁vital	-3738
rief	-3739
▁div	-3740
▁border	-3741
▁eth	-3742
▁rapid	-3743
▁While	-3744
▁influence	-3745
▁Op	-3746
lying	-3747
▁mainly	-3748
▁tabled	-3749
▁opening	-3750
▁discrim	-3751
▁deliver	-3752
▁collection	-3753
▁client	-3754
▁trust	-3755
▁respond	-3756
▁lost	-3757
▁priorities	-3758
ocks	-3759
▁approx	-3760
▁config	-3761
▁curre	-3762
net	-3763
istan	-3764
Euro	-3765
▁60	-3766
▁fru	-3767
▁supports	-3768
▁27	-3769
▁cities	-3770
▁feed	-3771
▁spect	-3772
▁decide	-3773
▁University	-3774
▁tal	-3775
▁specifically	-3776
▁sex	-3777
▁improved	-3778
▁despite	-3779
▁Techn	-3780
▁families	-3781
▁sem	-3782
▁cove	-3783
illing	-3784
▁annual	-3785
▁circumstances	-3786
▁running	-3787
iff	-3788
▁dyn	-3789
▁counter	-3790
aint	-3791
▁Its	-3792
▁strategic	-3793
RO	-3794
▁extensive	-3795
ifying	-3796
▁weak	-3797
▁whom	-3798
▁electronic	-3799
▁phone	-3800
▁*	-3801
▁ensuring	-3802
▁separate	-3803
erland	-3804
▁justice	-3805
▁London	-3806
▁Only	-3807
▁contribute	-3808
▁scope	-3809
▁Sum	-3810
60	-3811
▁Li	-3812
anned	-3813
▁Apart	-3814
uts	-3815
kt	-3816
▁substant	-3817
▁Her	-3818
ording	-3819
▁Fore	-3820
▁goal	-3821
▁controll	-3822
▁box	-3823
▁referred	-3824
▁compl	-3825
urt	-3826
▁tit	-3827
▁God	-3828
▁August	-3829
▁phys	-3830
▁manner	-3831
▁occup	-3832
AM	-3833
▁detailed	-3834
▁belong	-3835
▁charm	-3836
estic	-3837
▁Other	-3838
▁anc	-3839
▁purposes	-3840
▁cele	-3841
▁says	-3842
▁installation	-3843
▁201	-3844
▁22	-3845
▁wrong	-3846
▁motion	-3847
ued	-3848
atur	-3849
acious	-3850
▁Mus	-3851
▁introduced	-3852
▁photo	-3853
▁PC	-3854
▁dimension	-3855
urs	-3856
▁cell	-3857
▁export	-3858
▁Western	-3859
▁agriculture	-3860
▁appoint	-3861
undred	-3862
ilateral	-3863
▁platform	-3864
:00	-3865
zech	-3866
star	-3867
▁participation	-3868
rest	-3869
ferences	-3870
▁hear	-3871
▁People	-3872
▁reduced	-3873
ET	-3874
▁crime	-3875
▁victims	-3876
▁budgetary	-3877
▁Dis	-3878
▁satisf	-3879
▁animals	-3880
▁Slo	-3881
▁Each	-3882
met	-3883
▁tim	-3884
▁hot	-3885
hab	-3886
▁ability	-3887
bourg	-3888
▁functions	-3889
ebru	-3890
▁sitting	-3891
▁stated	-3892
▁played	-3893
▁comment	-3894
▁Also	-3895
▁deleg	-3896
▁students	-3897
▁discussed	-3898
used	-3899
▁Cal	-3900
▁Mor	-3901
▁virt	-3902
▁dedic	-3903
categories	-3904
▁Cro	-3905
▁museum	-3906
▁protected	-3907
▁forget	-3908
▁IS	-3909
verage	-3910
▁univers	-3911
cers	-3912
▁chann	-3913
▁Hung	-3914
▁CD	-3915
▁General	-3916
▁regret	-3917
▁alone	-3918
▁prefer	-3919
▁Agreement	-3920
no	-3921
hood	-3922
▁black	-3923
▁camera	-3924
▁structural	-3925
▁medic	-3926
▁exactly	-3927
▁miss	-3928
.,	-3929
▁hom	-3930
▁white	-3931
cast	-3932
ching	-3933
▁guidelines	-3934
▁discussions	-3935
▁Palest	-3936
▁mer	-3937
▁served	-3938
▁competitive	-3939
▁east	-3940
entions	-3941
▁remember	-3942
▁precisely	-3943
odies	-3944
▁wonderful	-3945
▁represents	-3946
pper	-3947
▁laws	-3948
▁Ma	-3949
▁covered	-3950
▁assessment	-3951
ned	-3952
▁administrative	-3953
rel	-3954
ault	-3955
▁developments	-3956
▁effectively	-3957
▁Sol	-3958
▁UK	-3959
▁selected	-3960
▁sources	-3961
▁listed	-3962
izing	-3963
▁Czech	-3964
▁Program	-3965
ebruary	-3966
ounced	-3967
uses	-3968
▁Belg	-3969
ressive	-3970
ev	-3971
▁Barcel	-3972
sy	-3973
▁metres	-3974
▁infrastructure	-3975
iding	-3976
▁introduction	-3977
▁rural	-3978
▁IT	-3979
orthern	-3980
▁confidence	-3981
enty	-3982
rats	-3983
▁aimed	-3984
▁Red	-3985
▁Nations	-3986
▁perman	-3987
▁usually	-3988
itzerland	-3989
▁Any	-3990
▁Dep	-3991
▁correspon	-3992
▁entry	-3993
▁lies	-3994
board	-3995
ought	-3996
hr	-3997
▁facilit	-3998
▁Ver	-3999
▁dead	-4000
▁getting	-4001
order	-4002
roy	-4003
▁corpor	-4004
imb	-4005
▁Dr	-4006
▁otherwise	-4007
▁Tw	-4008
▁Security	-4009
cont	-4010
▁closely	-4011
▁Iraq	-4012
▁brow	-4013
set	-4014
▁began	-4015
▁serve	-4016
▁buildings	-4017
▁Then	-4018
▁cos	-4019
▁Free	-4020
▁sav	-4021
▁block	-4022
uck	-4023
▁emissions	-4024
▁February	-4025
▁hundred	-4026
▁enterprises	-4027
▁managed	-4028
9,	-4029
▁buff	-4030
called	-4031
oo	-4032
▁Ir	-4033
▁quot	-4034
▁networks	-4035
▁star	-4036
road	-4037
Europe	-4038
▁Sim	-4039
▁larger	-4040
▁fisheries	-4041
▁disp	-4042
▁san	-4043
▁tourism	-4044
oke	-4045
idents	-4046
▁According	-4047
▁Cas	-4048
▁mere	-4049
▁Policy	-4050
▁Play	-4051
▁multip	-4052
▁north	-4053
▁linked	-4054
nder	-4055
▁police	-4056
▁remark	-4057
ffee	-4058
▁Russian	-4059
▁actual	-4060
▁inside	-4061
▁improving	-4062
▁paper	-4063
▁telephone	-4064
▁winter	-4065
▁thousands	-4066
▁supporting	-4067
raz	-4068
▁wants	-4069
▁sold	-4070
▁becoming	-4071
▁exclusive	-4072
rich	-4073
▁mut	-4074
uration	-4075
▁earlier	-4076
▁mand	-4077
▁immigration	-4078
min	-4079
▁Sea	-4080
▁explo	-4081
ox	-4082
ils	-4083
▁uses	-4084
ste	-4085
▁poll	-4086
▁opened	-4087
atell	-4088
▁increasingly	-4089
▁components	-4090
5,	-4091
▁trend	-4092
▁medical	-4093
▁marketing	-4094
▁mid	-4095
mar	-4096
▁brief	-4097
ength	-4098
▁considerable	-4099
▁entit	-4100
▁Barcelona	-4101
▁rein	-4102
ores	-4103
▁founded	-4104
itiveness	-4105
▁Green	-4106
▁fear	-4107
mbol	-4108
ulations	-4109
crete	-4110
▁His	-4111
▁reforms	-4112
▁Click	-4113
▁relate	-4114
▁accomp	-4115
▁Cy	-4116
▁cod	-4117
ovo	-4118
IL	-4119
▁Human	-4120
▁properly	-4121
▁powerful	-4122
▁items	-4123
5.	-4124
like	-4125
▁combat	-4126
▁organisation	-4127
inux	-4128
▁operations	-4129
▁duty	-4130
▁purchase	-4131
egu	-4132
▁color	-4133
▁critical	-4134
▁paragraph	-4135
▁animal	-4136
▁+	-4137
▁80	-4138
▁Lat	-4139
▁coordination	-4140
▁speech	-4141
comp	-4142
▁spend	-4143
▁electric	-4144
▁Switzerland	-4145
▁Add	-4146
time	-4147
▁Sub	-4148
▁degree	-4149
▁incorpor	-4150
8,	-4151
ns	-4152
▁Ob	-4153
thern	-4154
▁Joh	-4155
▁compens	-4156
▁strict	-4157
pped	-4158
▁discover	-4159
▁map	-4160
▁pleasant	-4161
▁followed	-4162
▁lear	-4163
▁Act	-4164
▁delay	-4165
▁dispos	-4166
▁element	-4167
▁travell	-4168
▁spacious	-4169
icians	-4170
▁Rooms	-4171
▁typical	-4172
▁Last	-4173
▁temper	-4174
▁presence	-4175
▁load	-4176
▁Rest	-4177
amber	-4178
▁difficulties	-4179
▁Moreover	-4180
▁unemployment	-4181
▁Brus	-4182
▁west	-4183
▁Swiss	-4184
omb	-4185
▁tack	-4186
▁Cast	-4187
▁reception	-4188
▁machines	-4189
ME	-4190
▁currency	-4191
ript	-4192
▁dealing	-4193
▁Art	-4194
▁institutional	-4195
levision	-4196
▁applies	-4197
estival	-4198
▁consideration	-4199
ball	-4200
▁vehicles	-4201
ecause	-4202
▁refuge	-4203
▁modified	-4204
back	-4205
▁experts	-4206
ingu	-4207
▁entirely	-4208
▁plants	-4209
▁format	-4210
▁understanding	-4211
▁!	-4212
▁Why	-4213
▁́	-4214
▁$	-4215
spe	-4216
▁defence	-4217
▁playing	-4218
▁criminal	-4219
SE	-4220
ula	-4221
sterdam	-4222
▁=	-4223
ón	-4224
▁du	-4225
uisine	-4226
▁hands	-4227
▁Brussels	-4228
mical	-4229
inese	-4230
▁picture	-4231
▁mail	-4232
▁speaking	-4233
▁meetings	-4234
erson	-4235
▁unac	-4236
▁spread	-4237
inding	-4238
idential	-4239
eth	-4240
ios	-4241
RE	-4242
iling	-4243
▁administration	-4244
hel	-4245
Ch	-4246
▁beds	-4247
▁gave	-4248
▁compar	-4249
ureau	-4250
▁district	-4251
▁Airport	-4252
esterday	-4253
▁graph	-4254
▁presidency	-4255
▁IN	-4256
ishing	-4257
▁generally	-4258
▁sole	-4259
▁programs	-4260
fe	-4261
▁pension	-4262
nes	-4263
▁Amsterdam	-4264
▁symbol	-4265
ya	-4266
sec	-4267
▁Uk	-4268
▁substantial	-4269
',	-4270
▁competitiveness	-4271
▁myself	-4272
▁aims	-4273
▁flexibility	-4274
▁command	-4275
▁shops	-4276
▁expected	-4277
utive	-4278
9.	-4279
▁adequ	-4280
▁regime	-4281
ato	-4282
▁save	-4283
ocation	-4284
inter	-4285
▁Economic	-4286
▁bodies	-4287
oring	-4288
▁went	-4289
▁risks	-4290
▁pursu	-4291
OL	-4292
/9	-4293
sized	-4294
▁minist	-4295
▁clar	-4296
▁advance	-4297
iers	-4298
vey	-4299
VD	-4300
nal	-4301
6,	-4302
▁susp	-4303
▁database	-4304
▁Mer	-4305
PE	-4306
▁flexible	-4307
▁gain	-4308
ids	-4309
▁AC	-4310
▁hosp	-4311
▁authority	-4312
▁calc	-4313
▁mill	-4314
izes	-4315
▁informed	-4316
▁summit	-4317
▁subsidi	-4318
uth	-4319
▁rise	-4320
▁Firstly	-4321
nel	-4322
ama	-4323
▁fixed	-4324
iar	-4325
rown	-4326
urd	-4327
▁cuisine	-4328
ico	-4329
▁categ	-4330
▁Most	-4331
idge	-4332
40	-4333
▁hour	-4334
▁neighbour	-4335
▁Because	-4336
▁percent	-4337
▁numbers	-4338
▁peaceful	-4339
▁los	-4340
▁Never	-4341
▁practices	-4342
▁normal	-4343
▁expression	-4344
osen	-4345
▁stra	-4346
▁translation	-4347
▁becomes	-4348
▁defined	-4349
▁Poland	-4350
▁establishment	-4351
▁facing	-4352
▁adoption	-4353
▁promoting	-4354
▁ancient	-4355
▁Iran	-4356
▁Budget	-4357
▁signed	-4358
▁instance	-4359
▁Turk	-4360
▁Str	-4361
▁Debian	-4362
▁exhibition	-4363
▁penal	-4364
▁Once	-4365
▁implementing	-4366
bu	-4367
▁destroy	-4368
▁concrete	-4369
▁x	-4370
▁connected	-4371
ylum	-4372
cription	-4373
view	-4374
▁Museum	-4375
▁welcom	-4376
▁har	-4377
▁Greece	-4378
▁safegu	-4379
▁convenient	-4380
▁beaches	-4381
▁slow	-4382
▁suc	-4383
▁statements	-4384
atively	-4385
▁ur	-4386
▁easier	-4387
▁Services	-4388
▁bear	-4389
ube	-4390
▁unaccept	-4391
▁thinking	-4392
rants	-4393
▁houses	-4394
▁parliamentary	-4395
▁USA	-4396
▁propose	-4397
sembly	-4398
▁voice	-4399
▁courses	-4400
▁Kos	-4401
▁humanitarian	-4402
▁Grand	-4403
▁enorm	-4404
▁Unfortunately	-4405
quis	-4406
▁carefully	-4407
ero	-4408
▁experienced	-4409
▁door	-4410
IP	-4411
▁contem	-4412
▁song	-4413
▁Environment	-4414
▁lou	-4415
known	-4416
▁shower	-4417
▁estate	-4418
▁satisfact	-4419
▁expand	-4420
▁Bul	-4421
▁500	-4422
▁acknow	-4423
▁cooper	-4424
▁Micro	-4425
▁structures	-4426
▁resist	-4427
making	-4428
▁permit	-4429
▁seriously	-4430
iant	-4431
▁Priv	-4432
▁weap	-4433
▁ec	-4434
▁Cor	-4435
▁delight	-4436
▁producers	-4437
▁Bas	-4438
▁Sm	-4439
▁himself	-4440
ny	-4441
▁length	-4442
▁condem	-4443
▁positions	-4444
▁accur	-4445
agen	-4446
▁article	-4447
▁guarantees	-4448
▁succeed	-4449
4.	-4450
▁stock	-4451
▁possibilities	-4452
OT	-4453
▁screen	-4454
▁wishes	-4455
▁Guest	-4456
adem	-4457
▁fra	-4458
▁param	-4459
▁drink	-4460
▁associated	-4461
▁Vien	-4462
▁court	-4463
ips	-4464
▁Chinese	-4465
gest	-4466
rab	-4467
▁collabor	-4468
za	-4469
▁names	-4470
▁financing	-4471
▁mist	-4472
▁prec	-4473
▁told	-4474
▁calling	-4475
▁availability	-4476
▁architecture	-4477
▁Justice	-4478
▁unacceptable	-4479
▁discrimination	-4480
▁sand	-4481
overed	-4482
PL	-4483
orial	-4484
▁studies	-4485
▁Assoc	-4486
cript	-4487
▁combination	-4488
▁recognition	-4489
▁elegant	-4490
ams	-4491
aching	-4492
▁Frank	-4493
ias	-4494
▁Ac	-4495
▁improvement	-4496
▁unfortunately	-4497
▁Cat	-4498
▁background	-4499
▁Due	-4500
▁York	-4501
▁sell	-4502
▁gradu	-4503
▁introduce	-4504
▁described	-4505
▁withdra	-4506
▁models	-4507
▁willing	-4508
inating	-4509
▁anyone	-4510
ilst	-4511
▁Board	-4512
tenance	-4513
▁kil	-4514
▁tasks	-4515
▁cards	-4516
▁imag	-4517
▁glass	-4518
▁enables	-4519
▁differences	-4520
▁released	-4521
▁Kingdom	-4522
▁agencies	-4523
▁taste	-4524
▁territory	-4525
▁Booking	-4526
▁happened	-4527
▁participate	-4528
▁sle	-4529
▁attractive	-4530
▁devices	-4531
▁legit	-4532
▁entertain	-4533
itional	-4534
▁Middle	-4535
▁completed	-4536
▁au	-4537
▁charged	-4538
▁entitled	-4539
▁196	-4540
▁Mart	-4541
▁truly	-4542
▁elim	-4543
▁belie	-4544
▁Pat	-4545
▁television	-4546
▁Organ	-4547
▁arrival	-4548
▁asylum	-4549
▁coffee	-4550
4,	-4551
▁Research	-4552
alle	-4553
▁delic	-4554
overy	-4555
▁difference	-4556
▁packages	-4557
▁1,	-4558
ls	-4559
▁28	-4560
reet	-4561
▁manage	-4562
▁beauty	-4563
▁Roman	-4564
▁figures	-4565
▁announced	-4566
▁Aud	-4567
▁din	-4568
▁Est	-4569
▁radio	-4570
▁Market	-4571
▁average	-4572
▁booking	-4573
▁surrounding	-4574
▁reasonable	-4575
▁nearby	-4576
IM	-4577
▁Irish	-4578
▁holidays	-4579
▁registered	-4580
▁Inter	-4581
free	-4582
rivers	-4583
▁transact	-4584
▁middle	-4585
▁adult	-4586
▁dedicated	-4587
rade	-4588
▁Us	-4589
▁meters	-4590
▁Instit	-4591
▁Democrats	-4592
▁button	-4593
▁strongly	-4594
▁Star	-4595
▁Palestin	-4596
avi	-4597
▁Regulation	-4598
▁Vis	-4599
▁quant	-4600
▁river	-4601
▁convin	-4602
▁cars	-4603
▁desire	-4604
▁immediate	-4605
▁300	-4606
▁cas	-4607
▁spent	-4608
▁relaxing	-4609
▁Over	-4610
▁dangerous	-4611
▁sen	-4612
▁allowing	-4613
▁shared	-4614
▁3.	-4615
▁installed	-4616
▁transparent	-4617
▁appears	-4618
”,	-4619
▁compos	-4620
gn	-4621
▁Health	-4622
▁spl	-4623
▁reducing	-4624
▁impossible	-4625
quality	-4626
▁advertising	-4627
▁votes	-4628
▁sale	-4629
ashion	-4630
ione	-4631
▁Tre	-4632
▁eight	-4633
ography	-4634
European	-4635
▁totally	-4636
oly	-4637
▁Leg	-4638
▁owners	-4639
▁surface	-4640
ille	-4641
oker	-4642
▁railway	-4643
▁Business	-4644
▁greatest	-4645
▁fruit	-4646
bert	-4647
▁volunt	-4648
▁forth	-4649
▁conclusions	-4650
2)	-4651
▁parent	-4652
▁exercise	-4653
▁unto	-4654
▁Stud	-4655
fin	-4656
oto	-4657
6.	-4658
▁insp	-4659
▁combined	-4660
▁pure	-4661
▁trading	-4662
▁stri	-4663
▁declar	-4664
icking	-4665
▁notice	-4666
itch	-4667
▁ww	-4668
▁ahead	-4669
eff	-4670
▁born	-4671
In	-4672
▁storage	-4673
▁negative	-4674
▁reservation	-4675
lom	-4676
▁attractions	-4677
▁square	-4678
▁device	-4679
▁www	-4680
▁reliable	-4681
rates	-4682
▁profession	-4683
▁Great	-4684
▁explain	-4685
▁appeal	-4686
▁membership	-4687
▁pal	-4688
▁mountains	-4689
▁Nor	-4690
igned	-4691
can	-4692
▁ign	-4693
▁perspective	-4694
▁skills	-4695
▁unless	-4696
▁honourable	-4697
▁satell	-4698
▁failure	-4699
ilos	-4700
”.	-4701
▁fle	-4702
▁mission	-4703
▁establishing	-4704
▁session	-4705
▁Saf	-4706
anging	-4707
urban	-4708
ipe	-4709
▁Prof	-4710
▁closer	-4711
▁advanced	-4712
7,	-4713
▁continued	-4714
▁church	-4715
▁expend	-4716
▁granted	-4717
▁Lux	-4718
year	-4719
▁Turkish	-4720
▁convinced	-4721
▁Fol	-4722
{{	-4723
▁Mod	-4724
▁outd	-4725
▁concert	-4726
▁urgent	-4727
▁continues	-4728
▁WTO	-4729
itage	-4730
soft	-4731
▁Nether	-4732
sm	-4733
▁Gard	-4734
aurant	-4735
ellig	-4736
▁extended	-4737
anim	-4738
▁ant	-4739
▁maintenance	-4740
▁artists	-4741
▁window	-4742
▁stable	-4743
table	-4744
▁replace	-4745
rm	-4746
▁exclud	-4747
▁institution	-4748
▁banks	-4749
▁shop	-4750
▁Met	-4751
▁laid	-4752
ounce	-4753
▁organiz	-4754
▁learning	-4755
▁Cost	-4756
ald	-4757
iel	-4758
▁stands	-4759
▁memory	-4760
▁von	-4761
▁passed	-4762
▁Nevertheless	-4763
ken	-4764
nother	-4765
▁Croat	-4766
▁drawn	-4767
▁raise	-4768
raine	-4769
▁Vienna	-4770
▁organised	-4771
▁capt	-4772
▁colleague	-4773
▁interface	-4774
▁evidence	-4775
charge	-4776
▁signal	-4777
▁roll	-4778
▁renov	-4779
▁perfectly	-4780
▁chair	-4781
▁enormous	-4782
▁rightly	-4783
▁permanent	-4784
▁ambit	-4785
AD	-4786
▁chosen	-4787
mon	-4788
▁promotion	-4789
usion	-4790
▁generation	-4791
▁Another	-4792
▁earth	-4793
▁Open	-4794
▁unit	-4795
vernmental	-4796
▁colour	-4797
▁Mag	-4798
unction	-4799
sites	-4800
▁advice	-4801
▁Netherlands	-4802
▁yesterday	-4803
▁Well	-4804
vest	-4805
▁kept	-4806
going	-4807
▁Host	-4808
bum	-4809
▁90	-4810
▁hop	-4811
▁golf	-4812
sequently	-4813
▁contents	-4814
▁sensitive	-4815
▁extension	-4816
80	-4817
FR	-4818
▁weight	-4819
▁Management	-4820
▁constantly	-4821
}}	-4822
ION	-4823
mission	-4824
▁vehicle	-4825
▁meant	-4826
▁outstanding	-4827
▁aircraft	-4828
off	-4829
iliation	-4830
▁luxury	-4831
▁70	-4832
active	-4833
▁pet	-4834
▁obligations	-4835
▁claims	-4836
▁Foreign	-4837
▁ambitious	-4838
▁controls	-4839
▁fant	-4840
▁Kosovo	-4841
▁definition	-4842
▁commitments	-4843
▁Found	-4844
▁achieving	-4845
▁obviously	-4846
▁bound	-4847
▁agency	-4848
▁Will	-4849
▁Ext	-4850
atever	-4851
▁AN	-4852
iques	-4853
▁update	-4854
▁insurance	-4855
▁moving	-4856
▁opposition	-4857
enh	-4858
▁stru	-4859
▁leader	-4860
▁Information	-4861
▁Portugal	-4862
▁libr	-4863
▁Ang	-4864
▁compat	-4865
▁Non	-4866
nergy	-4867
urning	-4868
▁recommendations	-4869
▁Mac	-4870
▁unable	-4871
▁situations	-4872
8.	-4873
oz	-4874
▁chemical	-4875
▁Constitution	-4876
▁contrary	-4877
▁excess	-4878
ena	-4879
▁Asia	-4880
condition	-4881
▁compared	-4882
▁surrounded	-4883
UR	-4884
▁biggest	-4885
▁THE	-4886
▁touch	-4887
▁Third	-4888
▁guide	-4889
urally	-4890
▁saw	-4891
▁Club	-4892
▁asking	-4893
12	-4894
apers	-4895
ifications	-4896
▁sides	-4897
▁dream	-4898
▁expenditure	-4899
▁bott	-4900
▁consumption	-4901
▁Austrian	-4902
▁divid	-4903
▁Rot	-4904
▁prison	-4905
ensus	-4906
▁Trade	-4907
▁Del	-4908
irth	-4909
▁store	-4910
oe	-4911
▁equality	-4912
▁photos	-4913
▁MEP	-4914
▁title	-4915
▁accessible	-4916
ancing	-4917
▁disposal	-4918
gage	-4919
▁individuals	-4920
▁consists	-4921
▁flight	-4922
iti	-4923
▁strength	-4924
▁glad	-4925
▁candidate	-4926
▁obst	-4927
▁successfully	-4928
utch	-4929
▁category	-4930
▁contained	-4931
▁landscape	-4932
▁tow	-4933
▁forced	-4934
▁occasion	-4935
▁secret	-4936
▁compli	-4937
▁rock	-4938
▁buffet	-4939
▁Association	-4940
▁approximately	-4941
rupt	-4942
▁prevention	-4943
▁route	-4944
▁payments	-4945
▁micro	-4946
▁union	-4947
▁lake	-4948
▁diver	-4949
igrants	-4950
▁intention	-4951
estion	-4952
inations	-4953
▁Europeans	-4954
▁extend	-4955
▁Rules	-4956
▁factors	-4957
onia	-4958
▁Where	-4959
▁African	-4960
sch	-4961
lantic	-4962
▁balanced	-4963
▁income	-4964
▁Ven	-4965
▁Rome	-4966
▁mil	-4967
▁Greek	-4968
▁core	-4969
nge	-4970
▁laun	-4971
▁story	-4972
▁continuing	-4973
▁acts	-4974
▁unf	-4975
▁"...	-4976
▁launch	-4977
▁Alp	-4978
erprise	-4979
▁species	-4980
▁pointed	-4981
ooth	-4982
▁tried	-4983
▁registration	-4984
▁Linux	-4985
bar	-4986
▁fraud	-4987
▁proport	-4988
▁preserv	-4989
▁criticism	-4990
▁religious	-4991
▁politics	-4992
▁guaranteed	-4993
▁Ty	-4994
▁Custom	-4995
▁furnished	-4996
bre	-4997
▁distin	-4998
▁sn	-4999
akfast	-5000
▁race	-5001
..."	-5002
rance	-5003
▁corporate	-5004
▁scale	-5005
▁Java	-5006
▁neither	-5007
▁conclude	-5008
▁waiting	-5009
▁instruct	-5010
▁pleasure	-5011
▁Har	-5012
▁catal	-5013
▁spaces	-5014
with	-5015
▁Cong	-5016
▁planned	-5017
aken	-5018
ett	-5019
▁physical	-5020
▁reve	-5021
orough	-5022
▁magn	-5023
▁participants	-5024
▁Summit	-5025
▁cancell	-5026
▁disease	-5027
▁likely	-5028
▁Located	-5029
▁Ter	-5030
▁Agency	-5031
▁Indust	-5032
▁Eastern	-5033
▁Enjoy	-5034
▁someone	-5035
▁seven	-5036
▁organization	-5037
7.	-5038
▁safeguard	-5039
▁inclus	-5040
ps	-5041
umn	-5042
▁DVD	-5043
▁limits	-5044
SP	-5045
▁Restaurant	-5046
alt	-5047
▁putting	-5048
▁multi	-5049
▁grounds	-5050
▁Wel	-5051
▁balcon	-5052
▁operate	-5053
▁discussing	-5054
DF	-5055
▁minute	-5056
▁dip	-5057
▁spa	-5058
▁targets	-5059
ola	-5060
▁patent	-5061
▁contemporary	-5062
▁ou	-5063
▁Office	-5064
isure	-5065
▁veget	-5066
▁Center	-5067
▁liability	-5068
▁association	-5069
▁Super	-5070
uk	-5071
▁satellite	-5072
▁letter	-5073
▁bringing	-5074
▁acceptable	-5075
anc	-5076
▁snow	-5077
▁Lake	-5078
▁domestic	-5079
yle	-5080
▁strengthening	-5081
▁vision	-5082
11	-5083
▁leads	-5084
▁outcome	-5085
▁bars	-5086
▁password	-5087
ague	-5088
▁brings	-5089
▁capable	-5090
▁depos	-5091
▁changing	-5092
▁band	-5093
rum	-5094
▁dynamic	-5095
▁examples	-5096
▁Ukraine	-5097
pol	-5098
▁26	-5099
▁slight	-5100
▁goals	-5101
▁Thus	-5102
▁Off	-5103
▁India	-5104
▁requested	-5105
▁steel	-5106
press	-5107
▁sets	-5108
▁valu	-5109
▁cheap	-5110
ulating	-5111
▁overlo	-5112
▁evaluation	-5113
obby	-5114
▁elected	-5115
aza	-5116
▁pill	-5117
▁versions	-5118
▁inhab	-5119
▁interpret	-5120
▁communities	-5121
▁—	-5122
▁science	-5123
▁intervention	-5124
IA	-5125
▁Term	-5126
▁amongst	-5127
▁resulting	-5128
eters	-5129
▁representative	-5130
itness	-5131
oyal	-5132
▁kilomet	-5133
▁gold	-5134
iring	-5135
▁write	-5136
king	-5137
▁Cle	-5138
▁Thanks	-5139
book	-5140
▁dealt	-5141
▁Prime	-5142
▁Mil	-5143
place	-5144
▁impression	-5145
▁forum	-5146
▁remove	-5147
oman	-5148
▁orders	-5149
esides	-5150
▁skin	-5151
▁convention	-5152
▁Sweden	-5153
▁album	-5154
▁Minutes	-5155
ria	-5156
▁Gal	-5157
ireless	-5158
▁phase	-5159
▁philos	-5160
▁Romania	-5161
▁adequate	-5162
▁addressed	-5163
arc	-5164
iations	-5165
▁upg	-5166
▁causes	-5167
▁smaller	-5168
▁consultation	-5169
és	-5170
▁urban	-5171
ancy	-5172
uting	-5173
▁Indeed	-5174
▁Mun	-5175
▁defend	-5176
▁unanim	-5177
▁ves	-5178
▁Such	-5179
▁factor	-5180
▁withdraw	-5181
▁independence	-5182
▁testing	-5183
ris	-5184
▁Those	-5185
ivered	-5186
▁fashion	-5187
▁fort	-5188
▁multiple	-5189
▁previously	-5190
▁waters	-5191
aser	-5192
▁kinds	-5193
ogle	-5194
border	-5195
▁failed	-5196
▁merely	-5197
▁son	-5198
▁named	-5199
mitted	-5200
▁fif	-5201
▁urge	-5202
▁unc	-5203
ipping	-5204
ING	-5205
▁primarily	-5206
anges	-5207
▁manufacturers	-5208
ographic	-5209
ym	-5210
▁manufacturing	-5211
EM	-5212
▁expos	-5213
ros	-5214
▁qualified	-5215
▁seeking	-5216
25	-5217
edia	-5218
roud	-5219
▁driving	-5220
▁mother	-5221
amm	-5222
70	-5223
how	-5224
▁).	-5225
▁Rel	-5226
▁monetary	-5227
▁vul	-5228
▁reply	-5229
▁prepare	-5230
▁van	-5231
rep	-5232
▁zone	-5233
rem	-5234
hus	-5235
▁2003	-5236
ID	-5237
▁explan	-5238
▁identity	-5239
▁Both	-5240
sk	-5241
allery	-5242
▁diversity	-5243
▁afford	-5244
ctor	-5245
▁Chamber	-5246
▁delivered	-5247
▁Bud	-5248
sibly	-5249
nic	-5250
▁recognise	-5251
iner	-5252
▁ton	-5253
▁southern	-5254
▁cool	-5255
▁Company	-5256
▁Breakfast	-5257
▁competence	-5258
rust	-5259
▁mutual	-5260
▁Software	-5261
▁patients	-5262
furt	-5263
▁Microsoft	-5264
▁Hel	-5265
▁speakers	-5266
▁Head	-5267
▁plus	-5268
▁compliance	-5269
iny	-5270
ags	-5271
▁register	-5272
acing	-5273
▁audio	-5274
asters	-5275
▁blue	-5276
▁Home	-5277
▁piece	-5278
het	-5279
▁Ste	-5280
▁cook	-5281
▁dry	-5282
riendly	-5283
▁requests	-5284
▁onto	-5285
▁straight	-5286
▁primary	-5287
▁corner	-5288
▁Get	-5289
▁refere	-5290
▁Federal	-5291
▁presentation	-5292
▁stone	-5293
onom	-5294
abil	-5295
▁books	-5296
▁improvements	-5297
ellect	-5298
▁determined	-5299
aper	-5300
▁websites	-5301
▁schools	-5302
mas	-5303
▁thereby	-5304
▁consolid	-5305
▁mix	-5306
▁dishes	-5307
▁mechanisms	-5308
▁obligation	-5309
ora	-5310
▁Mc	-5311
▁Sa	-5312
▁Christian	-5313
▁hum	-5314
▁weapons	-5315
arus	-5316
▁Lord	-5317
▁nation	-5318
▁analy	-5319
LA	-5320
▁31	-5321
▁feeling	-5322
▁industries	-5323
▁substances	-5324
▁emphasise	-5325
▁pas	-5326
▁surv	-5327
▁comply	-5328
▁attitude	-5329
▁flat	-5330
▁exception	-5331
▁Cur	-5332
iced	-5333
▁liter	-5334
▁watch	-5335
▁existence	-5336
▁Under	-5337
▁rob	-5338
▁consensus	-5339
▁binding	-5340
▁finance	-5341
▁charming	-5342
▁experiences	-5343
ova	-5344
▁father	-5345
▁applicable	-5346
▁runs	-5347
ius	-5348
▁scen	-5349
▁opposite	-5350
▁truth	-5351
▁destination	-5352
crib	-5353
▁expertise	-5354
iking	-5355
▁Dutch	-5356
▁Follow	-5357
▁operators	-5358
▁--	-5359
▁Mont	-5360
▁Very	-5361
aming	-5362
▁celebr	-5363
nis	-5364
▁plug	-5365
lete	-5366
]],	-5367
ja	-5368
▁Ha	-5369
▁earn	-5370
PS	-5371
oles	-5372
▁privacy	-5373
ht	-5374
▁consistent	-5375
▁units	-5376
▁centres	-5377
▁recommended	-5378
rating	-5379
▁Before	-5380
/0	-5381
ette	-5382
onym	-5383
▁browser	-5384
▁leisure	-5385
quir	-5386
▁delegation	-5387
▁rejected	-5388
▁prospect	-5389
▁29	-5390
▁Sit	-5391
▁spot	-5392
▁Er	-5393
▁compensation	-5394
mann	-5395
▁whilst	-5396
▁Programme	-5397
▁shape	-5398
▁firstly	-5399
▁respective	-5400
ds	-5401
▁Take	-5402
▁pun	-5403
▁obser	-5404
▁technological	-5405
▁objects	-5406
23	-5407
▁represented	-5408
fol	-5409
ella	-5410
▁Cult	-5411
▁surpr	-5412
▁trees	-5413
▁vulner	-5414
cap	-5415
▁recognised	-5416
abilities	-5417
▁Prov	-5418
▁moved	-5419
oples	-5420
▁mode	-5421
▁spok	-5422
▁assum	-5423
▁exceed	-5424
▁definite	-5425
▁furniture	-5426
▁sight	-5427
▁marked	-5428
▁pil	-5429
▁supplement	-5430
ked	-5431
▁Spe	-5432
▁birth	-5433
▁fuel	-5434
▁wall	-5435
▁ep	-5436
ST	-5437
uries	-5438
▁Afgh	-5439
▁Note	-5440
▁emphasis	-5441
▁nearly	-5442
▁treated	-5443
enture	-5444
▁personally	-5445
fare	-5446
▁accounts	-5447
▁Gold	-5448
▁heavy	-5449
abling	-5450
▁articles	-5451
Os	-5452
▁knows	-5453
▁proud	-5454
▁constant	-5455
▁shut	-5456
▁repeated	-5457
▁alt	-5458
riers	-5459
ban	-5460
▁ye	-5461
▁fab	-5462
▁talks	-5463
▁covers	-5464
iano	-5465
▁entered	-5466
▁Don	-5467
▁cart	-5468
▁streets	-5469
▁refugees	-5470
▁Villa	-5471
avig	-5472
▁Dan	-5473
erman	-5474
▁older	-5475
▁approval	-5476
▁Sil	-5477
▁launched	-5478
enses	-5479
▁diplom	-5480
▁Tor	-5481
ado	-5482
▁hostels	-5483
▁bedrooms	-5484
▁35	-5485
▁appreciate	-5486
orse	-5487
▁Use	-5488
▁stations	-5489
▁advantages	-5490
rier	-5491
▁wait	-5492
▁CO	-5493
▁fed	-5494
ails	-5495
ded	-5496
▁blood	-5497
▁exclusively	-5498
▁helping	-5499
▁profit	-5500
▁intellig	-5501
anged	-5502
▁noise	-5503
▁attacks	-5504
▁texts	-5505
▁passengers	-5506
son	-5507
▁reprodu	-5508
▁hall	-5509
ght	-5510
▁swe	-5511
ourage	-5512
▁exists	-5513
▁thorough	-5514
▁directives	-5515
▁;	-5516
▁journey	-5517
▁involving	-5518
▁Card	-5519
▁insist	-5520
CO	-5521
▁naturally	-5522
▁Av	-5523
▁Munich	-5524
▁wild	-5525
▁helps	-5526
appoint	-5527
ais	-5528
▁error	-5529
▁Paper	-5530
▁combating	-5531
▁resolve	-5532
▁2009.	-5533
▁repeat	-5534
▁latter	-5535
azz	-5536
▁nations	-5537
▁Wi	-5538
licit	-5539
▁tend	-5540
▁Two	-5541
▁significantly	-5542
ancial	-5543
▁governance	-5544
▁Afghan	-5545
IV	-5546
▁Despite	-5547
▁Cub	-5548
▁engineering	-5549
lav	-5550
▁SME	-5551
▁valuable	-5552
▁temperature	-5553
▁Energy	-5554
▁Pri	-5555
▁tours	-5556
▁wealth	-5557
▁rig	-5558
▁tests	-5559
▁Up	-5560
▁Special	-5561
▁entertainment	-5562
▁obtained	-5563
▁discharge	-5564
▁„	-5565
▁Pan	-5566
▁Proced	-5567
▁Ministers	-5568
▁uns	-5569
▁Plan	-5570
▁superv	-5571
▁default	-5572
▁confirmed	-5573
ales	-5574
▁orient	-5575
▁keeping	-5576
operation	-5577
▁turned	-5578
▁Oper	-5579
▁peoples	-5580
▁script	-5581
ellectual	-5582
▁Control	-5583
15	-5584
▁bureau	-5585
rian	-5586
▁renewable	-5587
▁Best	-5588
▁neighb	-5589
▁mobility	-5590
▁offices	-5591
ör	-5592
▁PH	-5593
▁da	-5594
▁Safety	-5595
bed	-5596
▁expensive	-5597
▁Black	-5598
▁4.	-5599
▁investments	-5600
▁teac	-5601
▁rom	-5602
5-0	-5603
▁Camp	-5604
rees	-5605
itime	-5606
▁arrangements	-5607
▁sovere	-5608
▁journal	-5609
▁liberalisation	-5610
▁fill	-5611
▁drugs	-5612
rew	-5613
....	-5614
▁breat	-5615
▁Private	-5616
▁eye	-5617
▁rapporteurs	-5618
▁Cap	-5619
▁panor	-5620
▁Swedish	-5621
▁Design	-5622
▁outdoor	-5623
▁exceptional	-5624
▁expectations	-5625
▁finding	-5626
▁sanctions	-5627
zen	-5628
▁happens	-5629
oom	-5630
▁felt	-5631
▁residence	-5632
▁Bulgar	-5633
ocal	-5634
▁Charter	-5635
arliaments	-5636
▁involvement	-5637
ttp	-5638
sman	-5639
▁burden	-5640
▁recovery	-5641
what	-5642
rations	-5643
▁constructive	-5644
SC	-5645
▁whatever	-5646
bl	-5647
▁arms	-5648
▁Strategy	-5649
▁discovered	-5650
▁serves	-5651
1)	-5652
▁Google	-5653
▁hit	-5654
▁enhance	-5655
▁publish	-5656
▁Mount	-5657
▁dram	-5658
▁preparation	-5659
point	-5660
▁spring	-5661
vak	-5662
▁affairs	-5663
ruption	-5664
▁fantastic	-5665
▁Palestinian	-5666
▁Belarus	-5667
▁Welcome	-5668
▁Day	-5669
▁opposed	-5670
orf	-5671
▁Lab	-5672
▁Luxem	-5673
cher	-5674
verse	-5675
▁dinner	-5676
▁creative	-5677
▁suffering	-5678
▁Good	-5679
▁rare	-5680
▁194	-5681
▁protecting	-5682
▁handling	-5683
bus	-5684
//	-5685
▁boat	-5686
▁Latin	-5687
▁Bet	-5688
▁soft	-5689
▁sleep	-5690
mat	-5691
rig	-5692
▁0.	-5693
▁abst	-5694
▁Croatia	-5695
▁opinions	-5696
hop	-5697
gment	-5698
▁Real	-5699
▁requirement	-5700
▁license	-5701
▁disaster	-5702
▁resolutions	-5703
▁EA	-5704
▁removed	-5705
▁election	-5706
▁Foundation	-5707
▁automatic	-5708
▁cold	-5709
▁Whe	-5710
▁recommendation	-5711
▁weather	-5712
▁nar	-5713
▁sec	-5714
ita	-5715
IF	-5716
▁privile	-5717
▁Institute	-5718
aria	-5719
erce	-5720
▁compr	-5721
▁communications	-5722
ountry	-5723
atre	-5724
date	-5725
ying	-5726
▁figure	-5727
▁contributions	-5728
▁diseases	-5729
▁impressive	-5730
▁awareness	-5731
▁aft	-5732
▁stim	-5733
▁danger	-5734
▁inhabit	-5735
▁Hol	-5736
▁MEPs	-5737
▁characteristics	-5738
QL	-5739
rors	-5740
▁solve	-5741
▁complic	-5742
▁White	-5743
▁Bur	-5744
▁chain	-5745
▁Ladies	-5746
ander	-5747
▁Procedure	-5748
▁mit	-5749
▁bra	-5750
▁explore	-5751
▁spectac	-5752
▁happening	-5753
▁pick	-5754
▁obstac	-5755
▁determine	-5756
hent	-5757
▁intend	-5758
▁Isl	-5759
▁philosoph	-5760
▁output	-5761
▁abol	-5762
▁Frankfurt	-5763
▁OF	-5764
cles	-5765
▁Cop	-5766
▁Arab	-5767
▁grand	-5768
▁fem	-5769
▁faced	-5770
▁amounts	-5771
▁Bulgaria	-5772
▁Old	-5773
ittees	-5774
ateful	-5775
▁Rad	-5776
▁dia	-5777
▁Den	-5778
▁Yet	-5779
▁Ke	-5780
▁surroundings	-5781
razil	-5782
▁volume	-5783
▁Dub	-5784
▁minim	-5785
▁bran	-5786
▁mandate	-5787
▁hospit	-5788
osc	-5789
▁Gl	-5790
▁hair	-5791
iest	-5792
uled	-5793
ented	-5794
://	-5795
▁Work	-5796
ko	-5797
▁debates	-5798
▁Nice	-5799
▁eyes	-5800
▁mini	-5801
13	-5802
appe	-5803
▁Costa	-5804
▁reserve	-5805
anda	-5806
▁lose	-5807
▁Sund	-5808
▁operational	-5809
ailing	-5810
▁copyright	-5811
▁Fam	-5812
▁Alliance	-5813
▁contracts	-5814
▁illust	-5815
▁John	-5816
▁strategies	-5817
lymp	-5818
▁messages	-5819
▁remaining	-5820
▁equally	-5821
▁150	-5822
▁195	-5823
▁fee	-5824
▁dining	-5825
▁Bay	-5826
▁fasc	-5827
▁Frid	-5828
aught	-5829
▁Sing	-5830
▁aftern	-5831
▁meat	-5832
▁prohib	-5833
▁Hotels	-5834
▁parliaments	-5835
▁restrictions	-5836
iled	-5837
ieties	-5838
▁2010.	-5839
struction	-5840
▁couple	-5841
▁customs	-5842
ether	-5843
▁familiar	-5844
ethe	-5845
▁AL	-5846
▁temporary	-5847
▁drawing	-5848
idden	-5849
▁healthy	-5850
▁facilitate	-5851
▁IP	-5852
ael	-5853
▁referend	-5854
▁River	-5855
▁properties	-5856
▁displayed	-5857
inem	-5858
▁Luxembourg	-5859
▁hardware	-5860
▁remote	-5861
▁transform	-5862
▁creates	-5863
MS	-5864
▁ticket	-5865
▁leaving	-5866
▁Agricult	-5867
▁2002	-5868
▁5.	-5869
▁tro	-5870
▁topic	-5871
▁heat	-5872
▁issued	-5873
▁walls	-5874
▁announce	-5875
▁proportion	-5876
▁newly	-5877
▁cry	-5878
▁treaty	-5879
▁Sky	-5880
▁enthus	-5881
▁performed	-5882
▁vacation	-5883
▁dict	-5884
▁artist	-5885
IR	-5886
cohol	-5887
▁trib	-5888
▁renovated	-5889
▁maintained	-5890
sych	-5891
▁visa	-5892
▁stake	-5893
▁extraord	-5894
▁spending	-5895
▁vast	-5896
▁sauna	-5897
▁attend	-5898
▁balcony	-5899
▁gir	-5900
▁returned	-5901
zer	-5902
▁identify	-5903
▁phen	-5904
▁Deuts	-5905
▁charges	-5906
fers	-5907
▁battle	-5908
▁Balk	-5909
▁Lib	-5910
▁cable	-5911
▁decis	-5912
▁regularly	-5913
je	-5914
wing	-5915
▁master	-5916
▁2001	-5917
▁fulfil	-5918
▁grateful	-5919
▁4-	-5920
▁Data	-5921
▁bureauc	-5922
▁disappoint	-5923
24	-5924
▁bon	-5925
ala	-5926
▁cab	-5927
uese	-5928
▁acquis	-5929
rase	-5930
▁Read	-5931
▁trou	-5932
ppl	-5933
unicip	-5934
▁listen	-5935
▁looks	-5936
Fi	-5937
▁gets	-5938
▁career	-5939
▁metal	-5940
▁delighted	-5941
ba	-5942
iam	-5943
▁settings	-5944
prus	-5945
19	-5946
▁Law	-5947
TA	-5948
▁Cam	-5949
▁Rec	-5950
▁Ben	-5951
▁sexual	-5952
▁follows	-5953
▁intellectual	-5954
obile	-5955
▁estim	-5956
enary	-5957
▁wines	-5958
▁economies	-5959
class	-5960
▁Product	-5961
▁Through	-5962
▁relatively	-5963
▁transportation	-5964
▁updated	-5965
▁shad	-5966
▁Olymp	-5967
icon	-5968
▁islands	-5969
stood	-5970
▁towns	-5971
▁classic	-5972
ache	-5973
▁util	-5974
▁Struct	-5975
▁pred	-5976
▁therm	-5977
▁wid	-5978
▁formal	-5979
▁doesn	-5980
▁Cyprus	-5981
▁frag	-5982
▁Georg	-5983
itt	-5984
umer	-5985
iform	-5986
urious	-5987
lla	-5988
holders	-5989
▁behavi	-5990
▁ought	-5991
▁connections	-5992
▁Vol	-5993
▁owner	-5994
▁define	-5995
aled	-5996
▁faith	-5997
▁magaz	-5998
▁witness	-5999
▁debt	-6000
▁),	-6001
tr	-6002
▁valley	-6003
▁noted	-6004
%.	-6005
▁reven	-6006
▁Polish	-6007
▁conducted	-6008
hand	-6009
▁answers	-6010
▁heritage	-6011
▁youth	-6012
▁recip	-6013
▁castle	-6014
SS	-6015
anqu	-6016
▁consc	-6017
▁deals	-6018
▁invite	-6019
oured	-6020
▁label	-6021
▁gender	-6022
▁arrest	-6023
▁Lu	-6024
uated	-6025
▁Saint	-6026
▁Pet	-6027
iment	-6028
▁relaxation	-6029
sions	-6030
▁apparent	-6031
▁collective	-6032
▁fighting	-6033
▁decorated	-6034
▁helped	-6035
▁contrast	-6036
ifies	-6037
▁parents	-6038
▁phenomen	-6039
▁discount	-6040
▁somewhat	-6041
ENT	-6042
ressed	-6043
▁Bon	-6044
▁pret	-6045
▁Jew	-6046
▁tob	-6047
▁techniques	-6048
▁millions	-6049
anied	-6050
▁Kore	-6051
▁protocol	-6052
▁je	-6053
▁dates	-6054
▁inhabitants	-6055
▁proof	-6056
▁tourists	-6057
▁Brazil	-6058
▁»	-6059
▁IC	-6060
▁Check	-6061
▁seat	-6062
▁contacts	-6063
▁complement	-6064
▁Financial	-6065
▁frequently	-6066
aling	-6067
▁depends	-6068
▁Street	-6069
▁Schen	-6070
▁stored	-6071
▁library	-6072
log	-6073
ployed	-6074
▁Portuguese	-6075
PT	-6076
▁vir	-6077
▁flights	-6078
eries	-6079
related	-6080
icht	-6081
▁seeing	-6082
▁joined	-6083
▁prove	-6084
▁magnific	-6085
▁afternoon	-6086
cling	-6087
▁enforce	-6088
DP	-6089
▁Roma	-6090
▁driver	-6091
▁Gre	-6092
▁demanding	-6093
▁statistics	-6094
▁northern	-6095
▁Square	-6096
▁Station	-6097
▁involves	-6098
▁dark	-6099
▁arrive	-6100
▁Transport	-6101
▁indicated	-6102
▁Church	-6103
▁interior	-6104
▁ang	-6105
▁Slovak	-6106
▁corresponding	-6107
▁?	-6108
▁entrance	-6109
▁conflicts	-6110
kes	-6111
▁SMEs	-6112
▁lobby	-6113
▁taxes	-6114
▁presents	-6115
▁locations	-6116
▁See	-6117
rical	-6118
▁conserv	-6119
▁exciting	-6120
▁declaration	-6121
▁à	-6122
▁gone	-6123
othing	-6124
▁stylish	-6125
▁2,	-6126
▁Fer	-6127
▁abroad	-6128
▁prosper	-6129
▁emergency	-6130
atures	-6131
▁Amendments	-6132
▁Fram	-6133
▁Palace	-6134
▁Out	-6135
▁courage	-6136
oub	-6137
▁Prag	-6138
Ph	-6139
▁provider	-6140
▁prop	-6141
uls	-6142
rote	-6143
wood	-6144
▁Bos	-6145
liers	-6146
▁holding	-6147
di	-6148
▁amaz	-6149
▁pollution	-6150
▁depending	-6151
▁increases	-6152
▁tail	-6153
▁collaboration	-6154
▁Global	-6155
▁accom	-6156
▁isol	-6157
▁starts	-6158
▁string	-6159
▁department	-6160
▁drivers	-6161
▁Spa	-6162
andon	-6163
▁reported	-6164
▁Bro	-6165
▁2009,	-6166
▁producing	-6167
▁Their	-6168
▁awa	-6169
▁universal	-6170
▁categories	-6171
▁1999	-6172
▁Hall	-6173
▁careful	-6174
emark	-6175
▁strugg	-6176
▁Funds	-6177
▁organized	-6178
acco	-6179
▁visible	-6180
▁lovely	-6181
▁Fre	-6182
▁organizations	-6183
▁Lou	-6184
▁Year	-6185
▁Question	-6186
▁committees	-6187
▁Mex	-6188
vo	-6189
▁continent	-6190
▁oral	-6191
▁decades	-6192
ión	-6193
stra	-6194
▁documentation	-6195
▁pattern	-6196
▁monu	-6197
▁minority	-6198
▁Ky	-6199
▁cop	-6200
▁passenger	-6201
▁spoken	-6202
▁Dav	-6203
▁drop	-6204
▁hostel	-6205
):	-6206
▁Whether	-6207
▁2020	-6208
▁migration	-6209
▁Austral	-6210
▁channels	-6211
▁Time	-6212
my	-6213
▁behaviour	-6214
▁Enterprise	-6215
▁gardens	-6216
▁visiting	-6217
▁Protection	-6218
▁visited	-6219
ogether	-6220
▁finished	-6221
▁input	-6222
▁Schengen	-6223
▁trafficking	-6224
box	-6225
90	-6226
arters	-6227
▁hundreds	-6228
hentic	-6229
▁fitness	-6230
▁Mat	-6231
down	-6232
igen	-6233
▁occasions	-6234
▁suites	-6235
▁accident	-6236
duc	-6237
▁Director	-6238
CH	-6239
▁printing	-6240
▁cosy	-6241
opol	-6242
▁Mich	-6243
▁electricity	-6244
▁showing	-6245
▁demonstrate	-6246
gl	-6247
▁theme	-6248
▁speaker	-6249
▁regulatory	-6250
▁Pack	-6251
▁labor	-6252
▁Dom	-6253
▁awarded	-6254
▁subsidiarity	-6255
▁Serb	-6256
enhagen	-6257
▁divided	-6258
▁Baltic	-6259
yer	-6260
▁configuration	-6261
ilding	-6262
▁raw	-6263
▁stars	-6264
▁Friday	-6265
▁bottom	-6266
▁mm	-6267
▁bright	-6268
▁Report	-6269
/2	-6270
▁heating	-6271
▁largely	-6272
NG	-6273
▁Stand	-6274
▁manufacturer	-6275
oted	-6276
▁competent	-6277
▁Vice	-6278
▁Fe	-6279
▁Nos	-6280
▁toler	-6281
▁advis	-6282
▁Monetary	-6283
,"	-6284
▁tickets	-6285
▁leadership	-6286
band	-6287
▁Like	-6288
▁suite	-6289
▁windows	-6290
▁gar	-6291
▁films	-6292
▁desired	-6293
▁maintaining	-6294
▁faster	-6295
▁underm	-6296
▁Prague	-6297
▁recorded	-6298
▁commission	-6299
▁Pact	-6300
▁expan	-6301
▁routes	-6302
▁compatible	-6303
och	-6304
▁sugar	-6305
▁king	-6306
▁poss	-6307
▁navig	-6308
▁concluded	-6309
uzz	-6310
▁ultimately	-6311
vant	-6312
▁Canada	-6313
▁citizen	-6314
▁accompanied	-6315
▁effectiveness	-6316
▁marg	-6317
▁match	-6318
▁infring	-6319
pa	-6320
▁distingu	-6321
▁Structural	-6322
hotel	-6323
▁parad	-6324
▁referendum	-6325
▁Description	-6326
▁restric	-6327
▁tri	-6328
▁benefic	-6329
▁tackle	-6330
▁abandon	-6331
▁facility	-6332
akers	-6333
▁trial	-6334
-2	-6335
▁adopting	-6336
▁respected	-6337
orge	-6338
▁gram	-6339
▁containing	-6340
rapy	-6341
▁contrad	-6342
▁smooth	-6343
▁correctly	-6344
▁spectacular	-6345
▁GN	-6346
▁signs	-6347
▁minorities	-6348
▁globalisation	-6349
▁proved	-6350
▁endorse	-6351
▁agg	-6352
▁ing	-6353
▁lounge	-6354
▁solar	-6355
▁2008.	-6356
▁rub	-6357
▁understood	-6358
▁demonstrated	-6359
ura	-6360
▁foundation	-6361
▁plenary	-6362
▁visual	-6363
▁Instead	-6364
umin	-6365
▁Es	-6366
▁Barro	-6367
RA	-6368
▁imper	-6369
▁disappe	-6370
▁profile	-6371
▁controlled	-6372
▁pieces	-6373
▁certific	-6374
▁worry	-6375
▁quarter	-6376
ae	-6377
▁forg	-6378
▁Post	-6379
▁blog	-6380
▁Town	-6381
▁satisfied	-6382
]].	-6383
unning	-6384
▁Thirdly	-6385
rd	-6386
inn	-6387
visory	-6388
▁School	-6389
▁judicial	-6390
▁alcohol	-6391
▁addresses	-6392
med	-6393
aker	-6394
▁sending	-6395
stig	-6396
▁subsidies	-6397
hy	-6398
▁Wik	-6399
▁proposes	-6400
▁impl	-6401
▁Following	-6402
▁suppliers	-6403
▁complain	-6404
▁politicians	-6405
▁magnificent	-6406
▁sac	-6407
eting	-6408
po	-6409
▁incent	-6410
▁«	-6411
▁boast	-6412
▁scheme	-6413
▁transactions	-6414
LE	-6415
gypt	-6416
▁newsp	-6417
▁cutting	-6418
▁definitely	-6419
uit	-6420
▁ol	-6421
water	-6422
▁settlement	-6423
inen	-6424
▁Power	-6425
▁ball	-6426
▁ISO	-6427
▁sad	-6428
▁1990	-6429
▁reserves	-6430
▁Thurs	-6431
▁plenty	-6432
▁45	-6433
▁personnel	-6434
▁ice	-6435
unk	-6436
rence	-6437
inent	-6438
▁rental	-6439
▁functioning	-6440
▁professionals	-6441
IB	-6442
▁400	-6443
▁für	-6444
▁explicit	-6445
▁voc	-6446
▁ethnic	-6447
▁Action	-6448
▁focused	-6449
iscal	-6450
apter	-6451
roc	-6452
▁Belgium	-6453
▁Britain	-6454
▁educational	-6455
We	-6456
▁assume	-6457
▁uniform	-6458
▁facts	-6459
▁ensures	-6460
▁replaced	-6461
tical	-6462
▁Person	-6463
▁planet	-6464
▁zu	-6465
▁iron	-6466
▁providers	-6467
▁IM	-6468
▁milk	-6469
▁renow	-6470
▁consent	-6471
▁Form	-6472
▁Madrid	-6473
▁welfare	-6474
▁restruct	-6475
▁preparing	-6476
▁Copenhagen	-6477
▁les	-6478
uality	-6479
▁ongoing	-6480
zy	-6481
ister	-6482
▁Secret	-6483
▁unfor	-6484
▁taxation	-6485
▁resistance	-6486
otic	-6487
▁Four	-6488
▁cycle	-6489
▁artistic	-6490
amburg	-6491
▁widely	-6492
▁immigrants	-6493
▁Within	-6494
▁Afghanistan	-6495
▁Stras	-6496
▁inclusion	-6497
▁prompt	-6498
▁duties	-6499
▁infl	-6500
asy	-6501
teen	-6502
oul	-6503
▁overcome	-6504
▁appointed	-6505
▁supposed	-6506
▁nevertheless	-6507
pre	-6508
▁cash	-6509
▁Hungary	-6510
Th	-6511
ctive	-6512
▁dign	-6513
▁proposing	-6514
▁shares	-6515
▁substance	-6516
▁intens	-6517
▁weekend	-6518
▁SP	-6519
▁assure	-6520
▁http	-6521
▁severe	-6522
▁distributed	-6523
▁Inn	-6524
▁updates	-6525
mm	-6526
▁considering	-6527
4-0	-6528
▁tast	-6529
▁deposit	-6530
DA	-6531
▁encount	-6532
▁miles	-6533
night	-6534
▁formed	-6535
ham	-6536
rac	-6537
▁cere	-6538
▁identified	-6539
▁nights	-6540
▁warrant	-6541
ahn	-6542
▁24-	-6543
▁nom	-6544
letter	-6545
▁maritime	-6546
rog	-6547
▁defic	-6548
▁usual	-6549
▁eastern	-6550
▁applying	-6551
▁luxurious	-6552
▁3-	-6553
▁concepts	-6554
▁conditioning	-6555
▁NAT	-6556
▁adults	-6557
▁bilateral	-6558
minute	-6559
care	-6560
▁VAT	-6561
ement	-6562
▁domain	-6563
▁ast	-6564
▁Dec	-6565
▁packaging	-6566
▁Treat	-6567
▁everyday	-6568
▁lots	-6569
▁plays	-6570
▁Egypt	-6571
▁(3	-6572
▁mostly	-6573
▁NG	-6574
▁Champ	-6575
▁actively	-6576
▁ships	-6577
▁imposed	-6578
▁worse	-6579
▁centuries	-6580
▁resolved	-6581
▁Tourism	-6582
atz	-6583
▁af	-6584
▁thousand	-6585
life	-6586
▁courts	-6587
▁authentic	-6588
▁crew	-6589
▁TO	-6590
▁musical	-6591
▁division	-6592
▁subjects	-6593
enz	-6594
▁suggestions	-6595
▁possibly	-6596
▁broadcast	-6597
▁alarm	-6598
▁tobacco	-6599
▁extraordinary	-6600
aund	-6601
oral	-6602
▁solely	-6603
▁encouraging	-6604
▁carrying	-6605
inf	-6606
stic	-6607
▁roads	-6608
▁Thursday	-6609
▁insert	-6610
▁Technology	-6611
▁virtual	-6612
▁expansion	-6613
▁Media	-6614
▁slightly	-6615
▁glo	-6616
▁Paul	-6617
▁suit	-6618
▁favor	-6619
▁woman	-6620
▁shipping	-6621
▁surf	-6622
▁Legal	-6623
▁unforget	-6624
▁EADS	-6625
▁functional	-6626
▁Set	-6627
▁officials	-6628
▁Island	-6629
▁Yes	-6630
▁interpre	-6631
▁Framework	-6632
etheless	-6633
aud	-6634
▁Santa	-6635
▁Rule	-6636
▁Site	-6637
▁flood	-6638
▁Hamburg	-6639
stein	-6640
ador	-6641
▁crimes	-6642
▁condemn	-6643
▁tun	-6644
▁voluntary	-6645
▁eat	-6646
▁countryside	-6647
▁died	-6648
▁sched	-6649
▁inj	-6650
▁purs	-6651
▁Satur	-6652
▁Phil	-6653
▁vary	-6654
▁tight	-6655
▁defect	-6656
ido	-6657
▁Nord	-6658
▁Hungarian	-6659
▁transition	-6660
▁destruction	-6661
CD	-6662
▁motiv	-6663
▁Besides	-6664
▁Among	-6665
▁jur	-6666
▁Desk	-6667
▁Northern	-6668
▁decisive	-6669
▁Def	-6670
▁commun	-6671
▁declared	-6672
▁Agriculture	-6673
▁exit	-6674
▁massive	-6675
▁traditions	-6676
▁supplier	-6677
▁Guests	-6678
▁satisfaction	-6679
col	-6680
tra	-6681
▁Main	-6682
▁manager	-6683
▁interpretation	-6684
!!	-6685
▁credibility	-6686
ida	-6687
▁fourth	-6688
▁colours	-6689
▁component	-6690
▁topics	-6691
▁mal	-6692
▁Arch	-6693
▁ACP	-6694
▁descri	-6695
▁western	-6696
▁drinks	-6697
▁partial	-6698
▁Japanese	-6699
IG	-6700
atch	-6701
▁honest	-6702
16	-6703
Appl	-6704
▁Exper	-6705
fit	-6706
▁offic	-6707
▁Fil	-6708
▁villages	-6709
▁Inc	-6710
▁suffer	-6711
▁reservations	-6712
▁arrived	-6713
▁Stock	-6714
▁lists	-6715
▁32	-6716
lights	-6717
Applause	-6718
arp	-6719
uggage	-6720
▁Child	-6721
▁Trek	-6722
▁description	-6723
cean	-6724
▁finish	-6725
II	-6726
▁PHP	-6727
▁Sk	-6728
orry	-6729
▁specified	-6730
ographical	-6731
▁diverse	-6732
▁MP	-6733
▁disabled	-6734
▁refers	-6735
▁horse	-6736
ww	-6737
▁Sunday	-6738
▁semin	-6739
▁appeared	-6740
▁discip	-6741
▁Beach	-6742
▁Profess	-6743
▁vers	-6744
▁partly	-6745
▁Page	-6746
▁fran	-6747
▁lunch	-6748
▁overview	-6749
▁Perhaps	-6750
tion	-6751
gent	-6752
▁module	-6753
▁harmonisation	-6754
▁exch	-6755
tings	-6756
▁drug	-6757
▁Gene	-6758
▁teams	-6759
▁invited	-6760
ationally	-6761
18	-6762
▁Ann	-6763
▁philosophy	-6764
▁Sur	-6765
hedral	-6766
iences	-6767
▁Assembly	-6768
▁delicious	-6769
aft	-6770
▁Ze	-6771
▁constitution	-6772
▁2007.	-6773
▁diss	-6774
▁emot	-6775
▁examine	-6776
▁permitted	-6777
▁flu	-6778
▁greatly	-6779
pet	-6780
▁receiving	-6781
▁acknowledge	-6782
▁ped	-6783
▁departure	-6784
▁•	-6785
▁lie	-6786
▁Conc	-6787
▁EM	-6788
▁Festival	-6789
▁spoke	-6790
produ	-6791
heim	-6792
hips	-6793
▁director	-6794
);	-6795
▁Bad	-6796
▁ports	-6797
▁trademark	-6798
’.	-6799
▁psych	-6800
▁Auditors	-6801
▁obliged	-6802
▁constitutional	-6803
▁skiing	-6804
▁Liber	-6805
▁representation	-6806
AG	-6807
▁proven	-6808
▁difficulty	-6809
▁unforgettable	-6810
▁ist	-6811
▁poly	-6812
▁Monday	-6813
▁farming	-6814
▁confirmation	-6815
▁roof	-6816
inger	-6817
▁abuse	-6818
▁Women	-6819
igu	-6820
agers	-6821
ago	-6822
▁revision	-6823
▁periods	-6824
www	-6825
▁manual	-6826
▁narrow	-6827
▁forests	-6828
acilities	-6829
▁renowned	-6830
▁od	-6831
▁Mot	-6832
▁interact	-6833
▁comparison	-6834
▁Flore	-6835
▁rapidly	-6836
▁terrorist	-6837
under	-6838
▁enabling	-6839
▁fat	-6840
▁directory	-6841
▁generated	-6842
▁Pak	-6843
▁amen	-6844
14	-6845
▁decre	-6846
5%	-6847
ixt	-6848
onymous	-6849
nex	-6850
▁cooperate	-6851
pay	-6852
▁Elect	-6853
▁scene	-6854
▁specialist	-6855
▁doors	-6856
aughter	-6857
▁stronger	-6858
▁por	-6859
▁channel	-6860
▁characters	-6861
▁England	-6862
▁autonom	-6863
▁ID	-6864
win	-6865
▁Author	-6866
▁freedoms	-6867
▁disk	-6868
▁decent	-6869
▁enjoyed	-6870
oubted	-6871
▁constitute	-6872
▁00	-6873
▁Die	-6874
aby	-6875
tery	-6876
▁edge	-6877
▁bridge	-6878
▁CH	-6879
▁NATO	-6880
▁Strasbourg	-6881
▁legitimate	-6882
▁argument	-6883
▁Having	-6884
▁supplies	-6885
▁proceedings	-6886
▁upper	-6887
▁instructions	-6888
lined	-6889
▁regarded	-6890
UT	-6891
▁excur	-6892
▁handle	-6893
▁acting	-6894
▁una	-6895
▁Without	-6896
▁continuous	-6897
▁revolution	-6898
▁university	-6899
resident	-6900
▁realise	-6901
lications	-6902
▁Golf	-6903
▁Class	-6904
▁festival	-6905
▁publication	-6906
▁liber	-6907
▁Royal	-6908
▁gained	-6909
advant	-6910
▁legally	-6911
▁fiscal	-6912
▁carbon	-6913
pel	-6914
▁tennis	-6915
▁wrote	-6916
▁suggested	-6917
▁193	-6918
▁Mult	-6919
▁Vill	-6920
▁Barroso	-6921
▁distort	-6922
▁Chair	-6923
▁Equ	-6924
▁mac	-6925
▁Front	-6926
▁trips	-6927
▁welcomes	-6928
▁boost	-6929
▁destroyed	-6930
▁ma	-6931
▁cul	-6932
▁genet	-6933
▁municip	-6934
▁Earth	-6935
▁Educ	-6936
▁Fire	-6937
▁welcomed	-6938
▁Situated	-6939
▁2008,	-6940
▁significance	-6941
▁rot	-6942
▁sto	-6943
repren	-6944
mbud	-6945
▁parameters	-6946
▁Food	-6947
hof	-6948
▁Tip	-6949
▁Finland	-6950
▁realistic	-6951
▁forthcoming	-6952
▁retain	-6953
▁Ap	-6954
repreneur	-6955
▁allocated	-6956
▁Socialist	-6957
▁Alex	-6958
▁preced	-6959
▁vessels	-6960
ronom	-6961
oration	-6962
▁appearance	-6963
▁Conf	-6964
▁unw	-6965
▁Salz	-6966
▁ECU	-6967
▁rid	-6968
Script	-6969
▁Given	-6970
gence	-6971
communic	-6972
▁attempts	-6973
▁programming	-6974
allel	-6975
▁impose	-6976
▁disadvant	-6977
ista	-6978
ulous	-6979
▁bill	-6980
▁wellness	-6981
▁cleaning	-6982
▁summ	-6983
▁belief	-6984
irk	-6985
level	-6986
▁everybody	-6987
▁introducing	-6988
-20	-6989
▁lessons	-6990
▁vulnerable	-6991
▁#	-6992
orient	-6993
▁fans	-6994
▁portfol	-6995
anz	-6996
▁{{	-6997
▁indirect	-6998
▁beings	-6999
▁modules	-7000
▁justified	-7001
osis	-7002
▁Down	-7003
▁retail	-7004
▁arguments	-7005
▁lift	-7006
▁champ	-7007
ystem	-7008
▁gallery	-7009
▁remarks	-7010
▁negotiating	-7011
▁firmly	-7012
▁hospitality	-7013
▁id	-7014
▁leaves	-7015
ultane	-7016
▁fer	-7017
▁poore	-7018
▁patient	-7019
▁absence	-7020
▁supervision	-7021
▁shap	-7022
▁functionality	-7023
iro	-7024
▁photograph	-7025
▁1998	-7026
▁sounds	-7027
artment	-7028
icing	-7029
▁(2	-7030
oubtedly	-7031
▁football	-7032
▁boot	-7033
ibet	-7034
▁clubs	-7035
▁fleet	-7036
▁reput	-7037
▁tables	-7038
▁inspect	-7039
ernel	-7040
▁romantic	-7041
▁collected	-7042
smoking	-7043
▁uncertain	-7044
▁Commissioners	-7045
sem	-7046
▁Jac	-7047
▁reaction	-7048
▁pursue	-7049
▁bag	-7050
▁museums	-7051
oper	-7052
page	-7053
▁originally	-7054
▁welcoming	-7055
club	-7056
▁tea	-7057
▁advoc	-7058
▁labelling	-7059
▁Exec	-7060
▁sections	-7061
▁GM	-7062
▁equival	-7063
▁passion	-7064
haus	-7065
ía	-7066
▁pra	-7067
▁Who	-7068
▁Federation	-7069
▁Inf	-7070
avour	-7071
▁Hy	-7072
▁hearing	-7073
▁ST	-7074
▁Dist	-7075
▁army	-7076
isp	-7077
▁exclusion	-7078
▁compact	-7079
▁Pu	-7080
while	-7081
▁directed	-7082
▁Gran	-7083
▁ende	-7084
▁enabled	-7085
▁dependent	-7086
▁tree	-7087
▁Sloven	-7088
▁songs	-7089
hetic	-7090
enth	-7091
ili	-7092
made	-7093
west	-7094
▁sus	-7095
▁fabric	-7096
▁pharm	-7097
▁standing	-7098
km	-7099
▁Michael	-7100
▁enterprise	-7101
do	-7102
▁preventing	-7103
ktop	-7104
▁antic	-7105
▁errors	-7106
▁mir	-7107
▁movie	-7108
opes	-7109
▁attrib	-7110
▁amazing	-7111
▁OR	-7112
▁excessive	-7113
▁transmission	-7114
scale	-7115
▁Rem	-7116
▁dialog	-7117
▁liqu	-7118
▁deserv	-7119
▁Regional	-7120
▁investigation	-7121
▁combine	-7122
▁missing	-7123
▁covering	-7124
▁horiz	-7125
▁checks	-7126
▁wireless	-7127
▁hes	-7128
▁adapted	-7129
▁penalty	-7130
▁fees	-7131
▁Invest	-7132
▁USB	-7133
▁fix	-7134
▁thumb	-7135
▁corruption	-7136
▁theory	-7137
▁honour	-7138
▁switch	-7139
▁obstacles	-7140
▁complicated	-7141
oli	-7142
▁timet	-7143
▁considerably	-7144
▁Moroc	-7145
▁euros	-7146
▁exploitation	-7147
▁Wall	-7148
▁caf	-7149
▁indicate	-7150
▁codec	-7151
▁twenty	-7152
EO	-7153
pass	-7154
▁gather	-7155
▁splend	-7156
▁suffered	-7157
governmental	-7158
:0	-7159
▁PPE	-7160
▁rank	-7161
▁explained	-7162
▁dism	-7163
▁resource	-7164
▁travelling	-7165
NL	-7166
mbudsman	-7167
ulf	-7168
17	-7169
isch	-7170
inder	-7171
▁index	-7172
▁para	-7173
▁Organisation	-7174
uer	-7175
▁bird	-7176
▁judge	-7177
▁accurate	-7178
▁Music	-7179
▁paying	-7180
▁Ev	-7181
▁Hist	-7182
▁2007,	-7183
▁celeb	-7184
▁acknowled	-7185
ima	-7186
▁juris	-7187
▁surely	-7188
▁Pass	-7189
sequent	-7190
▁Resort	-7191
▁desk	-7192
▁Online	-7193
▁disasters	-7194
oslav	-7195
-3	-7196
▁studio	-7197
▁eventually	-7198
▁inn	-7199
▁Does	-7200
▁Mill	-7201
▁Unt	-7202
▁Venice	-7203
▁Saturday	-7204
▁amenities	-7205
▁Tar	-7206
▁ingred	-7207
play	-7208
▁clause	-7209
▁president	-7210
▁violations	-7211
▁contributed	-7212
▁religion	-7213
▁transferred	-7214
▁6.	-7215
▁Via	-7216
▁dos	-7217
▁dies	-7218
▁lov	-7219
▁enhanced	-7220
▁consulting	-7221
front	-7222
▁dignity	-7223
▁fishermen	-7224
elt	-7225
iov	-7226
▁Dol	-7227
encing	-7228
▁videos	-7229
▁organic	-7230
▁Code	-7231
▁Partners	-7232
▁hyd	-7233
friendly	-7234
▁las	-7235
▁Van	-7236
chant	-7237
▁conce	-7238
▁notes	-7239
economic	-7240
▁colon	-7241
quiry	-7242
▁reliability	-7243
▁Peter	-7244
▁internationally	-7245
▁rul	-7246
▁sharing	-7247
▁excluded	-7248
▁craft	-7249
▁saved	-7250
▁era	-7251
▁interview	-7252
▁sustainability	-7253
rie	-7254
▁incred	-7255
▁classes	-7256
▁Express	-7257
▁Geneva	-7258
▁bike	-7259
500	-7260
▁ven	-7261
▁(200	-7262
▁Should	-7263
ani	-7264
▁prox	-7265
▁ride	-7266
▁filter	-7267
▁killed	-7268
:30	-7269
▁hol	-7270
▁homes	-7271
▁Fort	-7272
ieval	-7273
otive	-7274
▁sincere	-7275
▁Access	-7276
▁supplied	-7277
▁neighbouring	-7278
▁Project	-7279
print	-7280
▁damages	-7281
▁concentrate	-7282
▁stocks	-7283
ideo	-7284
▁liked	-7285
ograp	-7286
▁Atlantic	-7287
▁acceptance	-7288
▁Casino	-7289
▁filled	-7290
▁sought	-7291
▁satisfy	-7292
▁wider	-7293
▁barriers	-7294
▁Valley	-7295
▁stages	-7296
▁undoubtedly	-7297
▁toile	-7298
▁Agenda	-7299
▁tested	-7300
▁Balkans	-7301
jo	-7302
ading	-7303
▁plastic	-7304
▁Wed	-7305
▁Cho	-7306
-00	-7307
▁Stat	-7308
▁Islands	-7309
▁designs	-7310
▁Start	-7311
▁looked	-7312
▁edition	-7313
▁didn	-7314
iversary	-7315
▁PDF	-7316
▁Sun	-7317
President	-7318
itar	-7319
▁Sou	-7320
▁simultane	-7321
▁Stability	-7322
▁picturesque	-7323
▁Christmas	-7324
fa	-7325
▁3,	-7326
▁none	-7327
▁Israeli	-7328
▁cock	-7329
▁imports	-7330
▁entrepreneur	-7331
▁Charl	-7332
▁ru	-7333
▁briefly	-7334
▁listings	-7335
being	-7336
▁elsewhere	-7337
▁undertaken	-7338
▁reconc	-7339
▁Pakistan	-7340
▁CAP	-7341
cover	-7342
▁panoramic	-7343
▁appropriations	-7344
▁thermal	-7345
▁freely	-7346
▁AND	-7347
▁academ	-7348
hn	-7349
ho	-7350
eds	-7351
▁syn	-7352
▁2006,	-7353
ophistic	-7354
▁remained	-7355
▁approve	-7356
▁processed	-7357
▁investors	-7358
▁Fisher	-7359
▁massage	-7360
▁doll	-7361
▁climb	-7362
▁Castle	-7363
▁hiking	-7364
▁firms	-7365
▁cells	-7366
▁reaching	-7367
Pl	-7368
pir	-7369
ownt	-7370
UN	-7371
ua	-7372
ugoslav	-7373
▁female	-7374
▁View	-7375
▁floors	-7376
▁Mexico	-7377
▁frame	-7378
▁novel	-7379
▁showed	-7380
▁deliber	-7381
▁restored	-7382
▁Support	-7383
▁regardless	-7384
▁Si	-7385
▁imagine	-7386
▁stabil	-7387
▁computers	-7388
▁presenting	-7389
▁Martin	-7390
des	-7391
▁AR	-7392
minist	-7393
▁bul	-7394
▁Culture	-7395
flow	-7396
usal	-7397
▁Tem	-7398
▁united	-7399
itan	-7400
▁savings	-7401
lder	-7402
▁reflected	-7403
▁Kar	-7404
▁parallel	-7405
▁Corpor	-7406
▁turning	-7407
▁minister	-7408
▁stret	-7409
▁hardly	-7410
run	-7411
▁Bern	-7412
▁believes	-7413
▁Tibet	-7414
stitutional	-7415
iger	-7416
▁fan	-7417
▁federal	-7418
▁User	-7419
▁spons	-7420
▁surve	-7421
▁Consumer	-7422
oviet	-7423
▁shadow	-7424
COM	-7425
▁vine	-7426
▁varied	-7427
▁olive	-7428
▁movements	-7429
▁Imp	-7430
▁Sud	-7431
▁Next	-7432
▁synt	-7433
▁subsequent	-7434
▁arbit	-7435
SL	-7436
▁Represent	-7437
▁Consequently	-7438
▁Ros	-7439
▁tracks	-7440
lets	-7441
▁repair	-7442
▁Budgets	-7443
▁layer	-7444
▁sights	-7445
▁coal	-7446
▁nine	-7447
▁arise	-7448
▁Common	-7449
▁democrat	-7450
▁treatments	-7451
▁Education	-7452
▁individually	-7453
▁reconstruction	-7454
appro	-7455
▁assembly	-7456
▁formats	-7457
necess	-7458
adequ	-7459
▁managing	-7460
▁referring	-7461
▁vent	-7462
▁cultures	-7463
SQL	-7464
▁Serbia	-7465
▁assets	-7466
▁tranqu	-7467
▁coordinated	-7468
iler	-7469
▁Ombudsman	-7470
▁prosperity	-7471
cons	-7472
▁>	-7473
▁arising	-7474
aks	-7475
real	-7476
▁calm	-7477
8)	-7478
▁bomb	-7479
▁recognized	-7480
▁mobil	-7481
using	-7482
▁relates	-7483
▁strengthened	-7484
▁sup	-7485
▁exerc	-7486
quisite	-7487
irty	-7488
▁Cond	-7489
▁selling	-7490
▁Tun	-7491
▁hill	-7492
▁whereas	-7493
▁Lastly	-7494
▁intends	-7495
▁Executive	-7496
▁generations	-7497
bs	-7498
▁adds	-7499
stream	-7500
▁Yugoslav	-7501
nia	-7502
▁generate	-7503
▁politically	-7504
▁Civil	-7505
▁pretty	-7506
▁anywhere	-7507
▁universities	-7508
▁sym	-7509
▁1997	-7510
▁gre	-7511
▁breed	-7512
▁Belgian	-7513
It	-7514
▁Gent	-7515
endar	-7516
▁housing	-7517
▁Po	-7518
▁ren	-7519
▁province	-7520
▁Bol	-7521
▁2006.	-7522
td	-7523
▁alleg	-7524
▁Cre	-7525
▁vig	-7526
cluding	-7527
▁prestig	-7528
▁sophistic	-7529
ela	-7530
▁sam	-7531
▁Family	-7532
omas	-7533
▁Systems	-7534
▁anticip	-7535
▁ministers	-7536
▁Pay	-7537
rovers	-7538
▁lived	-7539
▁kilometres	-7540
▁diagn	-7541
▁liable	-7542
▁overlooking	-7543
▁bio	-7544
▁unfair	-7545
▁rac	-7546
▁recording	-7547
▁("	-7548
▁crop	-7549
▁stuff	-7550
▁ordered	-7551
nty	-7552
aly	-7553
ket	-7554
▁factory	-7555
▁determination	-7556
ben	-7557
inet	-7558
▁NGOs	-7559
umping	-7560
▁highlights	-7561
64	-7562
▁7.	-7563
▁superior	-7564
▁geographical	-7565
▁printed	-7566
▁sequ	-7567
▁usage	-7568
▁Congress	-7569
▁Mic	-7570
▁100%	-7571
▁till	-7572
▁portfolio	-7573
▁execution	-7574
ellow	-7575
▁moral	-7576
▁ordinary	-7577
▁teaching	-7578
▁incorporated	-7579
▁Award	-7580
▁layout	-7581
▁Customer	-7582
▁assign	-7583
▁jurisd	-7584
uv	-7585
essions	-7586
▁EN	-7587
alling	-7588
▁reserved	-7589
▁RE	-7590
▁unnecess	-7591
▁Australia	-7592
▁Gra	-7593
▁inadequ	-7594
▁editor	-7595
▁reb	-7596
▁Holid	-7597
▁differ	-7598
▁height	-7599
▁metro	-7600
uels	-7601
▁III	-7602
matically	-7603
▁efficiently	-7604
▁hills	-7605
▁meets	-7606
▁strictly	-7607
hi	-7608
eras	-7609
▁vib	-7610
▁2010,	-7611
▁Rotary	-7612
▁Was	-7613
▁entering	-7614
lication	-7615
▁engines	-7616
▁combines	-7617
▁sensible	-7618
orous	-7619
▁Lith	-7620
▁restructuring	-7621
▁ecological	-7622
edly	-7623
▁stunning	-7624
▁spell	-7625
▁wheel	-7626
▁constitu	-7627
▁underground	-7628
45	-7629
▁airports	-7630
▁aer	-7631
▁Industry	-7632
onic	-7633
▁protest	-7634
▁Pic	-7635
▁Treaties	-7636
▁specialists	-7637
▁mouse	-7638
wan	-7639
▁trends	-7640
▁highlighted	-7641
▁oldest	-7642
ulsory	-7643
▁normally	-7644
▁Soviet	-7645
▁begins	-7646
▁magazine	-7647
▁(19	-7648
▁operator	-7649
▁Sen	-7650
▁catch	-7651
▁aviation	-7652
▁disag	-7653
▁targeted	-7654
▁anniversary	-7655
▁tab	-7656
▁societies	-7657
▁Denmark	-7658
▁reputation	-7659
▁fairly	-7660
▁das	-7661
gi	-7662
▁Jes	-7663
▁panel	-7664
▁lasting	-7665
▁urgently	-7666
▁considers	-7667
▁Trad	-7668
▁Protocol	-7669
▁bathrooms	-7670
ignty	-7671
22	-7672
▁5-	-7673
▁JavaScript	-7674
▁phenomenon	-7675
▁Notes	-7676
ship	-7677
▁Gr	-7678
▁confidential	-7679
hors	-7680
▁radical	-7681
▁servers	-7682
▁student	-7683
▁adventure	-7684
-200	-7685
▁Would	-7686
▁fax	-7687
haust	-7688
▁interm	-7689
▁meal	-7690
▁Poker	-7691
ford	-7692
cession	-7693
▁Luc	-7694
▁depth	-7695
▁secondly	-7696
▁Ref	-7697
▁hyp	-7698
▁opens	-7699
orne	-7700
▁Emp	-7701
▁deter	-7702
▁holds	-7703
▁associations	-7704
▁Team	-7705
▁acquired	-7706
effect	-7707
▁utmost	-7708
▁clarify	-7709
▁Secretary	-7710
▁recre	-7711
▁colors	-7712
gic	-7713
▁empt	-7714
▁produces	-7715
▁enem	-7716
▁feet	-7717
▁contextual	-7718
ez	-7719
TP	-7720
▁EP	-7721
▁Academ	-7722
▁pilot	-7723
▁traged	-7724
hops	-7725
inity	-7726
▁Look	-7727
country	-7728
▁affects	-7729
▁heading	-7730
▁kn	-7731
▁spite	-7732
Star	-7733
▁pul	-7734
plore	-7735
▁root	-7736
▁Ham	-7737
▁coherent	-7738
▁environmentally	-7739
▁restore	-7740
▁engaged	-7741
▁accidents	-7742
General	-7743
▁Tim	-7744
▁cultiv	-7745
TV	-7746
pes	-7747
▁Count	-7748
▁records	-7749
izz	-7750
▁BM	-7751
▁Phot	-7752
▁reiter	-7753
▁controvers	-7754
HO	-7755
▁Gen	-7756
alities	-7757
cht	-7758
oria	-7759
▁auf	-7760
▁recy	-7761
▁seas	-7762
▁graphics	-7763
▁necessarily	-7764
▁Jose	-7765
▁quote	-7766
ão	-7767
olic	-7768
▁Korea	-7769
▁kernel	-7770
disc	-7771
▁Max	-7772
osing	-7773
▁36	-7774
▁sphere	-7775
▁producer	-7776
▁Dublin	-7777
▁attached	-7778
▁Using	-7779
▁equivalent	-7780
▁sovereignty	-7781
▁intensive	-7782
riage	-7783
▁participating	-7784
otten	-7785
utt	-7786
▁guard	-7787
levator	-7788
()	-7789
▁Ret	-7790
▁pillar	-7791
▁superb	-7792
▁thumbn	-7793
pell	-7794
▁cancer	-7795
▁wooden	-7796
")	-7797
las	-7798
phrase	-7799
▁Ba	-7800
▁bes	-7801
▁gap	-7802
▁Interg	-7803
▁engage	-7804
▁exports	-7805
▁Alb	-7806
▁quotas	-7807
institutional	-7808
▁é	-7809
itate	-7810
▁dance	-7811
▁agents	-7812
▁shoot	-7813
isk	-7814
▁Exchange	-7815
▁vit	-7816
▁meals	-7817
▁convey	-7818
uster	-7819
▁stream	-7820
▁succeeded	-7821
stal	-7822
▁Autom	-7823
▁complim	-7824
▁dog	-7825
▁Lithu	-7826
irable	-7827
▁seats	-7828
▁brother	-7829
▁budgets	-7830
▁Tom	-7831
▁Natur	-7832
▁restricted	-7833
AB	-7834
▁harmful	-7835
▁Fundamental	-7836
hem	-7837
▁reflects	-7838
eping	-7839
▁fault	-7840
▁casino	-7841
▁detect	-7842
▁airlines	-7843
▁seconds	-7844
▁tension	-7845
▁executive	-7846
Find	-7847
ario	-7848
▁Nap	-7849
▁Have	-7850
▁2005,	-7851
▁vic	-7852
utors	-7853
▁Danish	-7854
▁territorial	-7855
▁Water	-7856
▁Maria	-7857
▁250	-7858
▁ben	-7859
▁row	-7860
▁incom	-7861
▁specialized	-7862
▁Jo	-7863
▁learned	-7864
CC	-7865
▁Du	-7866
▁boy	-7867
▁News	-7868
▁Indian	-7869
▁resulted	-7870
▁consequence	-7871
75	-7872
▁twice	-7873
▁conferences	-7874
▁Sam	-7875
▁Terms	-7876
▁hence	-7877
▁hunt	-7878
str	-7879
▁Subject	-7880
hered	-7881
▁beer	-7882
▁worst	-7883
▁shuttle	-7884
▁upgrade	-7885
▁Cooperation	-7886
▁Lam	-7887
▁essentially	-7888
▁Bra	-7889
▁clin	-7890
▁Constitutional	-7891
▁aus	-7892
▁profits	-7893
▁Deutsche	-7894
▁teachers	-7895
▁permission	-7896
▁sky	-7897
▁soil	-7898
▁refund	-7899
▁observed	-7900
▁Forum	-7901
▁Prodi	-7902
▁blocks	-7903
▁ends	-7904
▁tort	-7905
▁Dig	-7906
▁surprised	-7907
▁puts	-7908
▁alongside	-7909
▁Based	-7910
▁Gener	-7911
▁deeply	-7912
▁na	-7913
▁villa	-7914
▁Garden	-7915
▁communicate	-7916
▁adding	-7917
▁prize	-7918
overnmental	-7919
▁absor	-7920
▁sud	-7921
▁purely	-7922
▁medicine	-7923
▁unus	-7924
obe	-7925
rible	-7926
▁Catal	-7927
ön	-7928
▁marks	-7929
▁Ltd	-7930
▁habit	-7931
▁prisoners	-7932
istical	-7933
▁licens	-7934
ito	-7935
▁Network	-7936
▁electron	-7937
well	-7938
▁throw	-7939
▁seeks	-7940
▁indoor	-7941
▁Download	-7942
adt	-7943
▁assigned	-7944
▁reporting	-7945
▁meaningfully	-7946
▁passing	-7947
▁medieval	-7948
▁gradually	-7949
▁sophisticated	-7950
▁Fisheries	-7951
EU	-7952
▁Jer	-7953
itical	-7954
▁legitim	-7955
▁ju	-7956
▁fest	-7957
▁amended	-7958
▁developers	-7959
AV	-7960
rous	-7961
▁fly	-7962
▁bonus	-7963
▁achievement	-7964
▁operates	-7965
▁convergence	-7966
cul	-7967
▁everywhere	-7968
ristian	-7969
▁edited	-7970
da	-7971
war	-7972
▁shortly	-7973
▁telecommunic	-7974
▁extending	-7975
▁Manager	-7976
▁serving	-7977
▁encouraged	-7978
7)	-7979
▁2000,	-7980
▁Nik	-7981
▁Finn	-7982
▁downt	-7983
▁stick	-7984
▁50%	-7985
▁Sie	-7986
inals	-7987
▁hat	-7988
Sm	-7989
▁hidden	-7990
▁mistake	-7991
▁neighbours	-7992
▁integrate	-7993
▁Cr	-7994
ourse	-7995
▁scan	-7996
▁grammatically	-7997
▁AP	-7998
celer	-7999
▁explanation	-8000
▁contextually	-8001
▁Gar	-8002
▁blind	-8003
▁occurred	-8004
▁evident	-8005
▁multilateral	-8006
acht	-8007
▁losses	-8008
bur	-8009
▁cuts	-8010
▁organise	-8011
án	-8012
edy	-8013
proof	-8014
▁1996	-8015
▁divers	-8016
▁reinfor	-8017
▁Employment	-8018
utor	-8019
▁premium	-8020
erts	-8021
▁Vers	-8022
▁exem	-8023
▁native	-8024
utr	-8025
organ	-8026
▁splendid	-8027
▁Att	-8028
▁thick	-8029
▁promised	-8030
▁inev	-8031
▁warning	-8032
▁preserve	-8033
▁emp	-8034
▁Sever	-8035
▁unlike	-8036
▁Box	-8037
ingly	-8038
▁satisfactory	-8039
▁Bed	-8040
text	-8041
iones	-8042
▁warn	-8043
35	-8044
ulpt	-8045
▁stores	-8046
▁violation	-8047
▁guided	-8048
▁ingredients	-8049
osit	-8050
utical	-8051
▁chapter	-8052
▁accompany	-8053
▁prime	-8054
▁yes	-8055
▁48	-8056
▁enthusia	-8057
▁push	-8058
▁audience	-8059
ati	-8060
▁inspired	-8061
▁subscrib	-8062
▁190	-8063
▁whereby	-8064
eller	-8065
▁taxpay	-8066
▁Franc	-8067
▁dispute	-8068
inery	-8069
ipt	-8070
▁productivity	-8071
tes	-8072
▁envis	-8073
▁Select	-8074
▁composition	-8075
▁Communic	-8076
sen	-8077
▁Server	-8078
▁studied	-8079
▁Wednes	-8080
▁schemes	-8081
DR	-8082
▁negotiation	-8083
▁sufficiently	-8084
itative	-8085
▁enjoys	-8086
▁causing	-8087
UM	-8088
▁800	-8089
▁ended	-8090
▁promise	-8091
BS	-8092
’,	-8093
conn	-8094
▁Meeting	-8095
acc	-8096
pread	-8097
▁Land	-8098
aga	-8099
apest	-8100
▁Log	-8101
▁exhaust	-8102
▁codecision	-8103
▁survey	-8104
▁compulsory	-8105
▁Cup	-8106
▁constitutes	-8107
▁Lo	-8108
▁capabilities	-8109
▁conciliation	-8110
▁medicines	-8111
▁fal	-8112
▁epis	-8113
▁ratification	-8114
eches	-8115
▁favourable	-8116
▁scheduled	-8117
▁shock	-8118
▁threats	-8119
▁Children	-8120
claim	-8121
▁Games	-8122
▁NI	-8123
endo	-8124
▁Que	-8125
▁prospects	-8126
▁Florence	-8127
▁Internal	-8128
creen	-8129
▁flag	-8130
▁Mass	-8131
▁taxi	-8132
▁banking	-8133
▁references	-8134
oty	-8135
▁Quality	-8136
onds	-8137
▁wed	-8138
▁boats	-8139
▁wides	-8140
▁urgency	-8141
▁navigation	-8142
▁120	-8143
▁surprise	-8144
▁Skype	-8145
▁technique	-8146
asse	-8147
▁observe	-8148
▁moreover	-8149
▁timetable	-8150
ibly	-8151
▁Hostels	-8152
--	-8153
▁rend	-8154
▁manif	-8155
▁relationships	-8156
▁saving	-8157
▁appointment	-8158
▁une	-8159
▁Travel	-8160
▁describe	-8161
▁classical	-8162
erne	-8163
long	-8164
▁Div	-8165
▁thumbnail	-8166
uter	-8167
▁hect	-8168
▁soul	-8169
▁Life	-8170
▁debating	-8171
▁completion	-8172
▁fascinating	-8173
arged	-8174
▁cinem	-8175
▁incident	-8176
▁translated	-8177
▁Tus	-8178
▁squ	-8179
▁grown	-8180
▁Muslim	-8181
▁enjoying	-8182
ye	-8183
▁20%	-8184
▁Lim	-8185
▁2004.	-8186
▁initially	-8187
▁employed	-8188
▁Mel	-8189
▁bug	-8190
▁struggle	-8191
zza	-8192
▁Again	-8193
ropical	-8194
TS	-8195
aceutical	-8196
▁electrical	-8197
ih	-8198
oriented	-8199
▁theatre	-8200
▁Georgia	-8201
▁guaranteeing	-8202
▁diam	-8203
▁Ast	-8204
▁campaigns	-8205
6)	-8206
▁accompl	-8207
▁CF	-8208
ishment	-8209
▁legend	-8210
▁virtually	-8211
▁intelligent	-8212
acks	-8213
▁Det	-8214
▁gover	-8215
▁boasts	-8216
▁freight	-8217
▁neighbourhood	-8218
cho	-8219
odes	-8220
▁Colle	-8221
▁falls	-8222
▁Jean	-8223
raint	-8224
ificial	-8225
▁bearing	-8226
building	-8227
▁revenue	-8228
▁scientists	-8229
▁stip	-8230
▁Slovakia	-8231
reshold	-8232
▁attach	-8233
ker	-8234
▁stories	-8235
▁candidates	-8236
▁Vict	-8237
▁portal	-8238
▁deserves	-8239
▁cancellation	-8240
Ar	-8241
olo	-8242
sts	-8243
▁headqu	-8244
▁expense	-8245
▁inspe	-8246
▁sizes	-8247
▁mel	-8248
▁choices	-8249
▁PRO	-8250
▁dé	-8251
▁2004,	-8252
▁upgrad	-8253
▁Make	-8254
▁chat	-8255
▁Las	-8256
▁pipe	-8257
▁owned	-8258
▁sudden	-8259
▁enforcement	-8260
▁2005.	-8261
▁Greens	-8262
which	-8263
▁Find	-8264
ennium	-8265
▁governing	-8266
▁concentration	-8267
▁GDP	-8268
▁Wednesday	-8269
▁eliminate	-8270
▁joining	-8271
▁bought	-8272
oud	-8273
CS	-8274
▁checked	-8275
ols	-8276
▁empty	-8277
▁rational	-8278
▁approaches	-8279
dep	-8280
▁merg	-8281
▁Rich	-8282
▁chairman	-8283
▁newsletter	-8284
▁4,	-8285
▁PR	-8286
ounds	-8287
▁maybe	-8288
▁coastal	-8289
▁mo	-8290
▁domin	-8291
▁Zur	-8292
viously	-8293
ige	-8294
style	-8295
▁sorry	-8296
▁slopes	-8297
▁Academy	-8298
▁amending	-8299
▁genuinely	-8300
▁rely	-8301
▁pools	-8302
ika	-8303
imedia	-8304
idity	-8305
ouses	-8306
▁considerations	-8307
▁600	-8308
▁Alps	-8309
soever	-8310
▁instantly	-8311
▁characteristic	-8312
▁wear	-8313
aundry	-8314
ultural	-8315
100	-8316
jud	-8317
▁gro	-8318
▁travellers	-8319
▁doct	-8320
▁ease	-8321
▁vocational	-8322
ée	-8323
▁pus	-8324
▁hopes	-8325
▁David	-8326
▁Plaza	-8327
▁marine	-8328
▁Heads	-8329
▁speeches	-8330
▁Nat	-8331
rooms	-8332
▁External	-8333
▁({{	-8334
▁expenses	-8335
arer	-8336
cific	-8337
▁Pers	-8338
▁folder	-8339
gies	-8340
▁gross	-8341
▁subsequently	-8342
▁Los	-8343
▁inse	-8344
▁authors	-8345
erto	-8346
lich	-8347
▁Word	-8348
▁Engine	-8349
▁lively	-8350
▁Salzburg	-8351
Al	-8352
▁foundations	-8353
richt	-8354
▁Current	-8355
▁respects	-8356
▁deficit	-8357
▁preferred	-8358
}})	-8359
▁armed	-8360
▁Holiday	-8361
▁conventional	-8362
Pro	-8363
▁invo	-8364
▁foremost	-8365
EW	-8366
oni	-8367
▁insuff	-8368
▁prosec	-8369
▁SD	-8370
▁operated	-8371
▁moments	-8372
▁clicking	-8373
49	-8374
VI	-8375
▁busy	-8376
▁unnecessary	-8377
uy	-8378
oses	-8379
▁convert	-8380
▁researc	-8381
▁excursions	-8382
▁Ren	-8383
▁cater	-8384
▁reinforce	-8385
▁addressing	-8386
▁implications	-8387
▁settle	-8388
▁featuring	-8389
▁ein	-8390
▁residential	-8391
▁widespread	-8392
enery	-8393
▁arranged	-8394
▁MS	-8395
▁Far	-8396
▁Together	-8397
▁conscious	-8398
ville	-8399
ferent	-8400
iration	-8401
▁listening	-8402
▁accessories	-8403
▁examination	-8404
hard	-8405
▁USD	-8406
▁letters	-8407
▁Left	-8408
▁rain	-8409
▁Islamic	-8410
▁percentage	-8411
▁threshold	-8412
▁textile	-8413
▁Ministry	-8414
▁extract	-8415
▁MySQL	-8416
▁autumn	-8417
▁destinations	-8418
▁Men	-8419
▁jointly	-8420
umes	-8421
▁sample	-8422
▁sheet	-8423
▁Authority	-8424
▁expressly	-8425
▁info	-8426
▁chart	-8427
▁10.	-8428
adays	-8429
▁pump	-8430
▁alter	-8431
▁Apartments	-8432
rick	-8433
▁Tai	-8434
▁Section	-8435
▁Cuba	-8436
▁experim	-8437
▁measurement	-8438
▁overlook	-8439
▁estimated	-8440
▁purchased	-8441
▁swit	-8442
▁Airbus	-8443
▁jurisdiction	-8444
def	-8445
rity	-8446
▁mixed	-8447
▁certified	-8448
emb	-8449
dule	-8450
▁pour	-8451
TER	-8452
raid	-8453
▁intentions	-8454
▁accordingly	-8455
86	-8456
SA	-8457
▁Somet	-8458
▁inspection	-8459
▁certification	-8460
▁Three	-8461
▁rising	-8462
▁staying	-8463
▁calendar	-8464
bel	-8465
▁Road	-8466
▁sunny	-8467
▁secondary	-8468
▁representing	-8469
▁symp	-8470
▁aside	-8471
arians	-8472
▁Flash	-8473
MA	-8474
▁Pos	-8475
▁biod	-8476
▁lect	-8477
▁admit	-8478
▁troops	-8479
▁clarity	-8480
▁diving	-8481
▁tragic	-8482
▁Process	-8483
▁complaints	-8484
▁Bi	-8485
adic	-8486
▁steam	-8487
▁dup	-8488
▁luck	-8489
▁plate	-8490
formance	-8491
▁diplomatic	-8492
struct	-8493
▁broken	-8494
▁doctor	-8495
▁whatsoever	-8496
PC	-8497
▁bread	-8498
▁Player	-8499
▁raising	-8500
▁ultimate	-8501
▁optimal	-8502
▁continuously	-8503
▁aqu	-8504
▁Carl	-8505
urf	-8506
▁grat	-8507
CE	-8508
eper	-8509
▁Bat	-8510
▁Rail	-8511
▁Morocco	-8512
▁inadequate	-8513
uing	-8514
▁heads	-8515
▁branch	-8516
▁Standard	-8517
▁motorway	-8518
conditioning	-8519
▁winning	-8520
han	-8521
▁5,	-8522
ikes	-8523
▁mig	-8524
▁split	-8525
▁modify	-8526
▁upload	-8527
iera	-8528
▁haz	-8529
▁Small	-8530
▁informal	-8531
▁specially	-8532
mod	-8533
annes	-8534
rowth	-8535
▁accounting	-8536
car	-8537
▁GNU	-8538
▁smart	-8539
▁Finnish	-8540
32	-8541
stan	-8542
▁wife	-8543
including	-8544
pie	-8545
▁emerging	-8546
▁Mand	-8547
▁sculpt	-8548
▁revised	-8549
OW	-8550
via	-8551
▁Prem	-8552
3)	-8553
fl	-8554
▁examined	-8555
ungs	-8556
▁Pac	-8557
▁incomp	-8558
oms	-8559
▁composed	-8560
▁flows	-8561
ilation	-8562
▁Bosnia	-8563
▁2.0	-8564
▁Commun	-8565
▁believed	-8566
▁Mo	-8567
ando	-8568
▁Master	-8569
▁gift	-8570
GB	-8571
▁1980	-8572
▁fifth	-8573
▁booked	-8574
▁delays	-8575
UL	-8576
othes	-8577
▁girls	-8578
▁Single	-8579
▁rubber	-8580
▁toilet	-8581
▁spectrum	-8582
▁convenience	-8583
▁granting	-8584
▁beef	-8585
▁actors	-8586
▁landscap	-8587
▁promises	-8588
▁exhibitions	-8589
▁cm	-8590
leted	-8591
▁Several	-8592
▁Kong	-8593
▁Monte	-8594
▁devoted	-8595
▁photograp	-8596
▁Rh	-8597
▁riding	-8598
Christian	-8599
▁deadline	-8600
▁remarkable	-8601
▁Kyoto	-8602
▁installations	-8603
TR	-8604
arest	-8605
▁lakes	-8606
▁OS	-8607
▁paths	-8608
▁terrible	-8609
▁principal	-8610
ician	-8611
▁conj	-8612
▁overw	-8613
▁sharp	-8614
▁manufactured	-8615
cal	-8616
▁fo	-8617
▁Staff	-8618
▁afraid	-8619
▁invent	-8620
▁acceler	-8621
▁painting	-8622
▁transaction	-8623
▁basically	-8624
▁Clean	-8625
2010	-8626
▁blow	-8627
▁repeatedly	-8628
▁viney	-8629
▁gear	-8630
▁desktop	-8631
asp	-8632
rator	-8633
▁icon	-8634
▁mine	-8635
▁transitional	-8636
▁Rob	-8637
▁Top	-8638
▁Mosc	-8639
asting	-8640
▁buses	-8641
▁sailing	-8642
erb	-8643
rut	-8644
▁openness	-8645
▁Live	-8646
▁accuracy	-8647
▁bicy	-8648
▁parks	-8649
▁advise	-8650
▁belongs	-8651
:2	-8652
▁Scot	-8653
lock	-8654
▁Dou	-8655
rators	-8656
▁removal	-8657
▁journalists	-8658
▁Gentoo	-8659
▁affecting	-8660
rally	-8661
▁Mess	-8662
urches	-8663
▁ideally	-8664
▁Space	-8665
▁Administ	-8666
▁baby	-8667
ulates	-8668
▁recall	-8669
▁compliment	-8670
add	-8671
▁fewer	-8672
curement	-8673
▁Storage	-8674
▁insufficient	-8675
▁Adri	-8676
**	-8677
▁Var	-8678
▁disturb	-8679
inational	-8680
▁Opt	-8681
▁bout	-8682
▁publ	-8683
▁Asian	-8684
▁elder	-8685
▁frequency	-8686
aus	-8687
▁Fair	-8688
▁inner	-8689
▁GU	-8690
olved	-8691
▁Jul	-8692
law	-8693
▁10%	-8694
▁expanded	-8695
▁wal	-8696
▁2003,	-8697
BC	-8698
▁resc	-8699
▁possess	-8700
▁suspect	-8701
itizens	-8702
▁catalogue	-8703
▁observation	-8704
▁fost	-8705
▁monuments	-8706
beit	-8707
▁Win	-8708
nament	-8709
▁bot	-8710
▁defe	-8711
▁keys	-8712
▁correspond	-8713
holm	-8714
▁Test	-8715
ritten	-8716
▁Marina	-8717
▁cancel	-8718
▁refused	-8719
▁Suite	-8720
▁stressed	-8721
▁preparations	-8722
▁Representative	-8723
▁ring	-8724
▁begun	-8725
▁postal	-8726
▁promoted	-8727
▁dimensions	-8728
ropol	-8729
ologne	-8730
▁quantity	-8731
irts	-8732
▁array	-8733
ictions	-8734
▁proxim	-8735
aten	-8736
▁Late	-8737
▁tragedy	-8738
▁managers	-8739
▁trig	-8740
auer	-8741
SV	-8742
gart	-8743
▁Sport	-8744
▁cameras	-8745
▁focuses	-8746
zone	-8747
▁tang	-8748
▁persu	-8749
▁cancelled	-8750
▁Department	-8751
▁artificial	-8752
▁automotive	-8753
▁Hans	-8754
ga	-8755
emed	-8756
speed	-8757
▁Area	-8758
▁plain	-8759
▁forgotten	-8760
▁{	-8761
field	-8762
▁noon	-8763
▁sake	-8764
▁poker	-8765
▁Modern	-8766
▁compete	-8767
▁prestigious	-8768
▁doubts	-8769
▁poorest	-8770
amin	-8771
▁mur	-8772
▁Tele	-8773
▁brands	-8774
ogen	-8775
▁Video	-8776
▁Contact	-8777
uj	-8778
▁logo	-8779
▁exposed	-8780
▁macro	-8781
▁33	-8782
▁finds	-8783
▁escape	-8784
▁pharmaceutical	-8785
conf	-8786
orses	-8787
▁nobody	-8788
▁Ca	-8789
▁inequ	-8790
▁arrangement	-8791
▁Jewish	-8792
▁Maced	-8793
▁mouth	-8794
▁reass	-8795
irs	-8796
▁8.	-8797
▁Moz	-8798
▁Tro	-8799
▁Hong	-8800
▁persist	-8801
EG	-8802
▁mechanical	-8803
▁certificate	-8804
▁Sign	-8805
▁Budapest	-8806
▁Personal	-8807
▁identification	-8808
9)	-8809
▁visits	-8810
itionally	-8811
▁healthcare	-8812
▁adj	-8813
▁Studio	-8814
▁concerts	-8815
▁scand	-8816
▁declare	-8817
▁duration	-8818
ROM	-8819
▁reward	-8820
▁conversion	-8821
▁HD	-8822
▁Angel	-8823
session	-8824
▁Otherwise	-8825
▁sacr	-8826
ilarly	-8827
illance	-8828
▁machinery	-8829
▁ownership	-8830
▁Robert	-8831
ación	-8832
▁elig	-8833
4)	-8834
▁logical	-8835
▁thanking	-8836
TC	-8837
▁suited	-8838
▁economically	-8839
▁Bav	-8840
▁transit	-8841
EA	-8842
▁Imm	-8843
anguage	-8844
▁simultaneously	-8845
pm	-8846
▁1000	-8847
▁Joint	-8848
▁bigger	-8849
▁variable	-8850
▁residents	-8851
▁distinction	-8852
▁Back	-8853
▁Chairman	-8854
hre	-8855
▁Pia	-8856
nesses	-8857
▁cookies	-8858
riving	-8859
▁Liberal	-8860
▁lod	-8861
▁Nov	-8862
▁Tam	-8863
▁refuse	-8864
▁strike	-8865
▁publishing	-8866
▁constructed	-8867
tel	-8868
iana	-8869
▁Hostelsclub	-8870
Smoking	-8871
cker	-8872
▁bay	-8873
▁Step	-8874
▁arts	-8875
resses	-8876
▁sandy	-8877
wer	-8878
▁encry	-8879
▁Society	-8880
▁intense	-8881
▁Location	-8882
▁vacc	-8883
▁Rural	-8884
▁schedule	-8885
85	-8886
▁COM	-8887
▁recru	-8888
▁trains	-8889
from	-8890
▁integrity	-8891
▁hung	-8892
▁debated	-8893
elve	-8894
▁oppose	-8895
▁dro	-8896
rison	-8897
▁gast	-8898
▁kill	-8899
▁sweet	-8900
oric	-8901
▁relaxed	-8902
▁necessity	-8903
▁underlying	-8904
▁supplementary	-8905
▁п	-8906
▁Il	-8907
▁Mü	-8908
▁chief	-8909
▁false	-8910
▁pensions	-8911
▁transfers	-8912
▁Viet	-8913
▁regulated	-8914
▁architectural	-8915
bi	-8916
athy	-8917
hour	-8918
raction	-8919
▁deserve	-8920
▁willingness	-8921
▁Blue	-8922
▁importantly	-8923
EF	-8924
▁ax	-8925
state	-8926
▁Full	-8927
pectives	-8928
ady	-8929
▁suspended	-8930
ATION	-8931
▁Europol	-8932
▁mas	-8933
▁logic	-8934
▁favourite	-8935
▁Ide	-8936
▁Milan	-8937
▁Opera	-8938
ès	-8939
▁AM	-8940
izer	-8941
udes	-8942
▁Dal	-8943
▁Zurich	-8944
▁interactive	-8945
▁photographs	-8946
TML	-8947
▁ceiling	-8948
▁whenever	-8949
▁undertake	-8950
▁preserved	-8951
▁End	-8952
▁posts	-8953
▁segment	-8954
▁therapy	-8955
▁releases	-8956
▁nationals	-8957
▁Sony	-8958
▁lets	-8959
▁Brand	-8960
▁Place	-8961
▁Cologne	-8962
▁900	-8963
▁precious	-8964
▁1995	-8965
otechn	-8966
▁alumin	-8967
▁dramatic	-8968
▁Light	-8969
▁gym	-8970
▁wave	-8971
osa	-8972
▁beneficial	-8973
tains	-8974
▁Show	-8975
▁recognize	-8976
▁SO	-8977
astricht	-8978
born	-8979
▁2-	-8980
▁breach	-8981
▁logistics	-8982
▁persec	-8983
▁tower	-8984
▁tariff	-8985
▁dictators	-8986
▁CON	-8987
regular	-8988
▁ECB	-8989
▁Regard	-8990
▁conform	-8991
▁ratified	-8992
▁gate	-8993
▁hesitate	-8994
▁37	-8995
▁delete	-8996
▁territories	-8997
▁Naz	-8998
▁trace	-8999
▁grass	-9000
▁explicitly	-9001
▁publications	-9002
▁stops	-9003
▁attended	-9004
▁Partic	-9005
position	-9006
▁hydro	-9007
▁ethical	-9008
▁Conditions	-9009
▁achievements	-9010
ungen	-9011
ML	-9012
▁192	-9013
▁templ	-9014
opard	-9015
▁lingu	-9016
▁turns	-9017
▁catalog	-9018
▁unusual	-9019
▁notified	-9020
▁Tunis	-9021
▁stopped	-9022
▁comprises	-9023
▁surprising	-9024
▁dynam	-9025
▁Argent	-9026
▁tonnes	-9027
▁officially	-9028
▁oppon	-9029
▁Maastricht	-9030
▁affordable	-9031
▁Lear	-9032
▁relative	-9033
▁reflection	-9034
▁clock	-9035
▁spare	-9036
▁victory	-9037
▁acquisition	-9038
▁conservation	-9039
95	-9040
▁occupation	-9041
▁certainty	-9042
ml	-9043
▁harbour	-9044
▁applicant	-9045
othe	-9046
▁BSE	-9047
▁Bureau	-9048
seeing	-9049
▁perpet	-9050
▁forecast	-9051
▁competences	-9052
▁Press	-9053
▁Thomas	-9054
▁stayed	-9055
▁trained	-9056
▁farms	-9057
▁drives	-9058
▁environ	-9059
▁multinational	-9060
▁Near	-9061
national	-9062
▁Partnership	-9063
list	-9064
▁Produ	-9065
atlantic	-9066
arsh	-9067
icks	-9068
▁Ash	-9069
,”	-9070
▁ham	-9071
limited	-9072
rection	-9073
▁Nob	-9074
▁advertise	-9075
jan	-9076
heart	-9077
▁indicators	-9078
▁EX	-9079
pack	-9080
ssen	-9081
▁Youth	-9082
▁cockt	-9083
▁Moscow	-9084
▁renewed	-9085
▁Univers	-9086
▁frequent	-9087
▁Lic	-9088
▁moder	-9089
oft	-9090
stone	-9091
▁downloaded	-9092
▁researchers	-9093
agon	-9094
▁Jack	-9095
▁specify	-9096
▁creature	-9097
orrect	-9098
▁shift	-9099
▁Indones	-9100
▁Olympic	-9101
▁alternatives	-9102
▁signals	-9103
▁twin	-9104
▁Gi	-9105
uous	-9106
pring	-9107
▁Website	-9108
▁unanimously	-9109
▁Mold	-9110
▁employers	-9111
▁James	-9112
▁literature	-9113
▁qualifications	-9114
▁FOR	-9115
▁replacement	-9116
▁Sar	-9117
encia	-9118
▁newspaper	-9119
▁shel	-9120
▁organize	-9121
▁YO	-9122
▁treas	-9123
▁signing	-9124
▁displays	-9125
▁pressing	-9126
▁joy	-9127
▁airline	-9128
▁si	-9129
▁arg	-9130
▁faces	-9131
▁rough	-9132
▁2000.	-9133
▁Object	-9134
▁Search	-9135
itiative	-9136
▁Deposit	-9137
▁churches	-9138
▁Sudan	-9139
zes	-9140
▁knew	-9141
▁Canon	-9142
▁assert	-9143
▁pursuant	-9144
▁chemicals	-9145
▁prevented	-9146
▁negotiated	-9147
uf	-9148
uct	-9149
▁feedback	-9150
▁Berg	-9151
▁Digital	-9152
▁privileged	-9153
▁stead	-9154
▁driven	-9155
▁Vir	-9156
▁clothing	-9157
kl	-9158
she	-9159
▁dur	-9160
▁Point	-9161
▁Az	-9162
▁Riv	-9163
▁leather	-9164
▁citizenship	-9165
▁conventions	-9166
▁Ol	-9167
▁Copy	-9168
▁focusing	-9169
▁mandatory	-9170
▁Mach	-9171
▁List	-9172
▁coordinate	-9173
▁unity	-9174
▁Charles	-9175
▁precision	-9176
uzzi	-9177
▁Malta	-9178
/1	-9179
▁Presidents	-9180
▁orientation	-9181
▁exempt	-9182
ads	-9183
look	-9184
hl	-9185
▁AD	-9186
▁Vietn	-9187
▁Growth	-9188
▁losing	-9189
▁Facilities	-9190
▁contractual	-9191
▁incur	-9192
▁roots	-9193
▁tur	-9194
▁Adobe	-9195
▁surveillance	-9196
▁75	-9197
umed	-9198
asis	-9199
▁Ice	-9200
uation	-9201
▁patents	-9202
liminary	-9203
▁Socialists	-9204
▁flying	-9205
▁archive	-9206
▁decline	-9207
▁Lithuania	-9208
▁proximity	-9209
EX	-9210
▁phones	-9211
▁Conserv	-9212
▁measuring	-9213
▁UR	-9214
itter	-9215
▁Slovenia	-9216
▁Southern	-9217
▁wherever	-9218
aya	-9219
▁Les	-9220
gments	-9221
▁Andre	-9222
▁copies	-9223
▁indicates	-9224
▁Prize	-9225
▁chose	-9226
▁productive	-9227
65	-9228
▁trouble	-9229
▁inflation	-9230
ardo	-9231
▁buying	-9232
▁redund	-9233
▁premises	-9234
▁Ve	-9235
▁warmly	-9236
▁visitor	-9237
▁horizont	-9238
▁movies	-9239
▁sessions	-9240
inz	-9241
ords	-9242
▁Capt	-9243
▁occurs	-9244
▁placing	-9245
▁procurement	-9246
AI	-9247
▁Tues	-9248
▁Wolf	-9249
▁demonstrates	-9250
ère	-9251
utral	-9252
▁Sl	-9253
▁Ins	-9254
▁thr	-9255
▁evaluate	-9256
▁crises	-9257
▁imported	-9258
leet	-9259
market	-9260
▁teach	-9261
▁ranging	-9262
▁revealed	-9263
▁worrying	-9264
▁Sad	-9265
ipher	-9266
▁manip	-9267
elled	-9268
ller	-9269
▁cer	-9270
▁assurance	-9271
asion	-9272
▁winner	-9273
▁pace	-9274
▁receipt	-9275
▁11.	-9276
▁partition	-9277
▁Freedom	-9278
▁Leon	-9279
▁fails	-9280
33	-9281
▁Quark	-9282
▁greenhouse	-9283
▁specialities	-9284
estyle	-9285
▁Made	-9286
▁irre	-9287
▁timely	-9288
▁centers	-9289
apse	-9290
▁dual	-9291
▁mort	-9292
▁cooking	-9293
▁council	-9294
▁smoking	-9295
[[	-9296
▁closing	-9297
▁specifications	-9298
akings	-9299
▁converted	-9300
%,	-9301
▁preca	-9302
ilingual	-9303
▁workshops	-9304
case	-9305
▁crow	-9306
▁unknown	-9307
▁Contin	-9308
▁allocation	-9309
wa	-9310
▁elderly	-9311
▁answered	-9312
▁profound	-9313
▁incentives	-9314
▁purchasing	-9315
▁innovations	-9316
▁perspectives	-9317
▁iP	-9318
▁Cross	-9319
▁mental	-9320
▁relief	-9321
▁silver	-9322
▁Pen	-9323
▁drinking	-9324
▁negotiate	-9325
▁Investment	-9326
▁bureaucracy	-9327
▁contributing	-9328
uz	-9329
▁Tick	-9330
▁agrees	-9331
▁manifest	-9332
▁yield	-9333
▁soldiers	-9334
ESS	-9335
▁deterior	-9336
▁systematic	-9337
▁fitted	-9338
▁legitimacy	-9339
▁Defence	-9340
▁hospital	-9341
.)	-9342
stuff	-9343
aux	-9344
▁refurb	-9345
ups	-9346
▁trail	-9347
▁column	-9348
▁lighting	-9349
▁Excell	-9350
▁ignore	-9351
▁Explore	-9352
aval	-9353
ocket	-9354
itra	-9355
▁detrim	-9356
▁sentence	-9357
▁irregular	-9358
▁Choose	-9359
▁Series	-9360
▁Americans	-9361
▁headquarters	-9362
TH	-9363
matic	-9364
▁Karl	-9365
▁Major	-9366
▁seemed	-9367
▁intervene	-9368
Sh	-9369
▁lovers	-9370
▁justify	-9371
▁Son	-9372
▁moves	-9373
▁Consult	-9374
▁broader	-9375
gin	-9376
ounded	-9377
ocolate	-9378
▁Mobile	-9379
▁recover	-9380
▁designer	-9381
▁College	-9382
▁judgment	-9383
▁performances	-9384
▁NOT	-9385
▁inject	-9386
▁formation	-9387
▁academic	-9388
▁initiated	-9389
▁consistently	-9390
▁strange	-9391
▁DE	-9392
▁keen	-9393
▁arbitrary	-9394
▁cha	-9395
▁substit	-9396
▁favorite	-9397
ente	-9398
▁egg	-9399
htaking	-9400
▁paradise	-9401
▁suggestion	-9402
▁Ib	-9403
exist	-9404
▁Kirk	-9405
▁haird	-9406
chestra	-9407
▁disappear	-9408
▁creativity	-9409
68	-9410
OC	-9411
aked	-9412
iche	-9413
▁Citizens	-9414
▁emphasised	-9415
NS	-9416
oning	-9417
▁Hen	-9418
▁Visit	-9419
▁Compet	-9420
▁handled	-9421
▁integral	-9422
▁Tal	-9423
▁enchant	-9424
▁Experience	-9425
ст	-9426
Int	-9427
chron	-9428
▁stays	-9429
▁stroll	-9430
Ex	-9431
▁Iron	-9432
▁burn	-9433
▁workshop	-9434
▁Stockholm	-9435
▁platforms	-9436
▁IG	-9437
▁jew	-9438
▁accommodate	-9439
vy	-9440
▁patterns	-9441
orca	-9442
▁dating	-9443
▁biodiversity	-9444
IX	-9445
ás	-9446
▁Cathedral	-9447
▁experiencing	-9448
▁IV	-9449
▁generous	-9450
▁Vo	-9451
ifts	-9452
plan	-9453
▁flash	-9454
▁zones	-9455
▁pedest	-9456
iki	-9457
unes	-9458
▁semi	-9459
▁consequently	-9460
▁undertakings	-9461
▁laser	-9462
ionship	-9463
amps	-9464
▁terra	-9465
▁Taiwan	-9466
lem	-9467
▁heated	-9468
▁Yugoslavia	-9469
gor	-9470
▁taxpayers	-9471
ci	-9472
▁Scotland	-9473
ey	-9474
akh	-9475
▁alike	-9476
▁Additionally	-9477
▁describes	-9478
▁Nic	-9479
▁Innov	-9480
▁mistakes	-9481
▁scenery	-9482
▁enlarged	-9483
▁tropical	-9484
Parliament	-9485
card	-9486
▁score	-9487
ila	-9488
▁bench	-9489
rome	-9490
▁Mem	-9491
▁slo	-9492
▁entries	-9493
Cl	-9494
agn	-9495
mend	-9496
▁34	-9497
▁degrees	-9498
▁scrut	-9499
commerce	-9500
▁suggests	-9501
▁confident	-9502
▁Hostel	-9503
enger	-9504
▁Which	-9505
ät	-9506
▁graphic	-9507
▁realize	-9508
▁financed	-9509
▁threatened	-9510
▁respectively	-9511
▁Parliamentary	-9512
iox	-9513
▁virus	-9514
▁George	-9515
▁minimal	-9516
▁Empire	-9517
▁notably	-9518
▁terminal	-9519
▁Budd	-9520
▁photography	-9521
▁preliminary	-9522
specific	-9523
▁BMW	-9524
▁ambition	-9525
▁develops	-9526
▁imposing	-9527
▁breathtaking	-9528
▁Order	-9529
▁Budgetary	-9530
aration	-9531
▁Elevator	-9532
Hour	-9533
▁winds	-9534
Sp	-9535
▁==	-9536
Room	-9537
▁harmony	-9538
Un	-9539
vi	-9540
▁magic	-9541
▁Puerto	-9542
▁licence	-9543
▁tribute	-9544
▁edit	-9545
▁Install	-9546
▁Pacific	-9547
▁falling	-9548
abwe	-9549
▁Mall	-9550
astery	-9551
▁38	-9552
▁keeps	-9553
▁cheese	-9554
▁Zimb	-9555
▁tips	-9556
▁Washing	-9557
▁populations	-9558
▁1970	-9559
▁tough	-9560
-4	-9561
▁Decl	-9562
▁Solid	-9563
▁Instru	-9564
▁Wars	-9565
▁claimed	-9566
▁findings	-9567
▁diet	-9568
▁solved	-9569
▁talked	-9570
▁silence	-9571
▁declarations	-9572
▁finest	-9573
▁9.	-9574
▁USS	-9575
▁receives	-9576
isco	-9577
▁Sound	-9578
▁drafting	-9579
▁directions	-9580
imm	-9581
marquis	-9582
▁practically	-9583
▁um	-9584
oven	-9585
▁Mur	-9586
▁thoroughly	-9587
▁pm	-9588
▁spr	-9589
▁downtown	-9590
▁signature	-9591
▁temperatures	-9592
▁assured	-9593
▁mirror	-9594
▁defining	-9595
▁incorrect	-9596
▁murder	-9597
▁Tuesday	-9598
▁treaties	-9599
▁adjustment	-9600
▁expressing	-9601
▁pine	-9602
▁Luggage	-9603
▁contest	-9604
▁withdrawal	-9605
▁ox	-9606
bach	-9607
▁salt	-9608
▁Obviously	-9609
▁apparently	-9610
Phone	-9611
▁Heating	-9612
▁Jun	-9613
▁Leban	-9614
▁caught	-9615
▁electoral	-9616
▁paintings	-9617
iser	-9618
▁Until	-9619
▁posted	-9620
▁advent	-9621
▁swift	-9622
▁papers	-9623
curities	-9624
BM	-9625
▁incredible	-9626
eless	-9627
▁pays	-9628
▁rect	-9629
ancies	-9630
▁essence	-9631
▁Zimbabwe	-9632
▁regrettable	-9633
▁Rev	-9634
▁fert	-9635
▁commod	-9636
▁ware	-9637
▁civilian	-9638
▁parameter	-9639
▁belonging	-9640
Con	-9641
cat	-9642
▁sporting	-9643
nen	-9644
▁2002,	-9645
rium	-9646
▁pursued	-9647
▁automation	-9648
ioned	-9649
▁resid	-9650
▁funded	-9651
▁rivers	-9652
▁tub	-9653
▁sail	-9654
▁shot	-9655
▁Along	-9656
▁worthy	-9657
▁performing	-9658
ski	-9659
▁avo	-9660
▁Apple	-9661
▁disputes	-9662
bat	-9663
ridge	-9664
▁fell	-9665
▁teacher	-9666
▁Alexander	-9667
▁sq	-9668
icted	-9669
▁poet	-9670
▁embed	-9671
xic	-9672
▁180	-9673
▁disappointed	-9674
▁rating	-9675
▁slowly	-9676
▁meantime	-9677
adium	-9678
develop	-9679
▁executed	-9680
▁exposure	-9681
inos	-9682
▁Adriatic	-9683
Comm	-9684
▁Science	-9685
▁occupied	-9686
▁pod	-9687
▁crystal	-9688
▁convince	-9689
▁progressive	-9690
▁ultra	-9691
cas	-9692
eness	-9693
▁acquire	-9694
▁prohibited	-9695
ophob	-9696
▁maps	-9697
▁settled	-9698
orable	-9699
▁deaths	-9700
▁appreciated	-9701
▁Os	-9702
iverse	-9703
▁discre	-9704
▁Lie	-9705
▁lowest	-9706
▁Edition	-9707
ois	-9708
▁tram	-9709
▁Nep	-9710
▁crops	-9711
▁screens	-9712
▁choosing	-9713
netic	-9714
stall	-9715
▁partnerships	-9716
▁downloading	-9717
CP	-9718
▁cra	-9719
▁pray	-9720
▁neglig	-9721
▁cot	-9722
▁contam	-9723
uest	-9724
▁Burma	-9725
▁controversial	-9726
▁exchanges	-9727
itored	-9728
▁birds	-9729
▁characterised	-9730
▁cosmet	-9731
▁desert	-9732
▁guitar	-9733
▁coverage	-9734
34	-9735
▁asset	-9736
▁Macedonia	-9737
iqu	-9738
▁girl	-9739
▁FA	-9740
▁12.	-9741
▁Num	-9742
▁desirable	-9743
abe	-9744
▁Right	-9745
▁Account	-9746
▁behav	-9747
▁fulfilled	-9748
▁battery	-9749
▁heavily	-9750
conditioned	-9751
▁Discover	-9752
▁household	-9753
trans	-9754
▁festiv	-9755
▁tor	-9756
▁Certain	-9757
▁inquiry	-9758
▁confusion	-9759
▁unemployed	-9760
▁Easy	-9761
▁credible	-9762
39	-9763
iforn	-9764
▁maxim	-9765
▁uncertainty	-9766
▁6,	-9767
▁SAP	-9768
▁theore	-9769
▁coordin	-9770
▁wording	-9771
▁celebrate	-9772
▁Prom	-9773
▁zero	-9774
▁Apartment	-9775
Am	-9776
mony	-9777
▁typically	-9778
▁Game	-9779
▁exert	-9780
▁statistical	-9781
▁murd	-9782
▁surg	-9783
▁socio	-9784
▁explains	-9785
▁regulate	-9786
▁biological	-9787
▁Kal	-9788
▁Hence	-9789
▁environments	-9790
▁simplify	-9791
▁multimedia	-9792
но	-9793
▁perce	-9794
▁disagree	-9795
▁emission	-9796
▁Govern	-9797
▁eradic	-9798
▁emerged	-9799
opter	-9800
▁evolution	-9801
▁conjunction	-9802
▁fib	-9803
▁sees	-9804
▁themes	-9805
▁700	-9806
▁Bang	-9807
▁ruling	-9808
▁stance	-9809
▁admitted	-9810
▁incorporate	-9811
▁thin	-9812
▁prere	-9813
▁returns	-9814
▁overwhel	-9815
▁subsidiary	-9816
LO	-9817
ryer	-9818
▁Dar	-9819
▁flowers	-9820
▁monitored	-9821
▁2003.	-9822
▁extrem	-9823
▁accepts	-9824
▁privat	-9825
▁intermedi	-9826
▁Eff	-9827
▁convers	-9828
▁controlling	-9829
NA	-9830
▁isn	-9831
▁wise	-9832
▁agent	-9833
▁Albania	-9834
▁interaction	-9835
rix	-9836
elle	-9837
▁tip	-9838
▁seminars	-9839
▁separately	-9840
oco	-9841
▁cease	-9842
▁piano	-9843
fortunate	-9844
▁spiritual	-9845
▁infringement	-9846
▁Kl	-9847
idad	-9848
▁1994	-9849
▁sensor	-9850
▁stem	-9851
▁thoughts	-9852
▁Pap	-9853
▁1999,	-9854
effective	-9855
▁Washington	-9856
Ent	-9857
▁pact	-9858
▁feas	-9859
iously	-9860
▁outset	-9861
Med	-9862
stadt	-9863
comings	-9864
▁decade	-9865
ju	-9866
van	-9867
yes	-9868
ressing	-9869
▁chairs	-9870
▁circuit	-9871
▁formula	-9872
stable	-9873
▁garage	-9874
▁robust	-9875
▁volunte	-9876
▁Islam	-9877
▁optical	-9878
▁Ra	-9879
▁Everything	-9880
anger	-9881
▁comparable	-9882
▁structured	-9883
▁tank	-9884
▁codes	-9885
67	-9886
▁wage	-9887
▁Dolom	-9888
▁tempor	-9889
▁defects	-9890
▁в	-9891
▁Labour	-9892
▁reiterate	-9893
▁acknowledged	-9894
▁humanity	-9895
▁endeavour	-9896
▁departments	-9897
▁42	-9898
▁vegetables	-9899
▁accum	-9900
▁trails	-9901
▁branches	-9902
:5	-9903
▁Sav	-9904
▁Ult	-9905
▁Orig	-9906
на	-9907
▁Der	-9908
▁Fried	-9909
▁Scott	-9910
▁derog	-9911
▁nonetheless	-9912
▁translations	-9913
▁Ur	-9914
▁McC	-9915
▁reper	-9916
▁tailored	-9917
▁landscapes	-9918
▁shortcomings	-9919
▁tells	-9920
▁guidance	-9921
▁transmit	-9922
▁Industrial	-9923
▁centrally	-9924
▁(5	-9925
oler	-9926
▁styles	-9927
▁avoided	-9928
▁AS	-9929
▁Ram	-9930
▁Anton	-9931
zig	-9932
▁HTML	-9933
▁ratio	-9934
mn	-9935
▁liquid	-9936
uber	-9937
▁modes	-9938
▁spots	-9939
station	-9940
De	-9941
▁jun	-9942
▁penalties	-9943
▁unfortunate	-9944
▁Adv	-9945
▁Tyrol	-9946
▁shame	-9947
▁drafted	-9948
är	-9949
▁tut	-9950
▁horizontal	-9951
▁officer	-9952
▁ri	-9953
ulture	-9954
▁substantially	-9955
iza	-9956
idel	-9957
▁Put	-9958
▁Kurd	-9959
▁solo	-9960
▁bureaucratic	-9961
▁ele	-9962
▁dust	-9963
▁della	-9964
▁ER	-9965
▁alloc	-9966
▁senior	-9967
▁Content	-9968
▁founding	-9969
▁engineers	-9970
▁invitation	-9971
▁simplification	-9972
üs	-9973
▁iPhone	-9974
▁torture	-9975
▁underline	-9976
mentation	-9977
▁Training	-9978
▁automated	-9979
▁undertaking	-9980
▁loans	-9981
▁delicate	-9982
▁Disc	-9983
▁Silver	-9984
▁scandal	-9985
erge	-9986
Rooms	-9987
liness	-9988
▁gal	-9989
▁thread	-9990
▁jeopard	-9991
▁sovereign	-9992
▁celebrated	-9993
▁consistency	-9994
step	-9995
▁Tel	-9996
ricts	-9997
▁racism	-9998
▁Shop	-9999
▁kids	-10000
▁abund	-10001
▁pione	-10002
▁hazard	-10003
▁editing	-10004
▁condemned	-10005
▁raises	-10006
▁viable	-10007
isms	-10008
orate	-10009
▁Creat	-10010
▁hero	-10011
▁mixt	-10012
lessly	-10013
▁broch	-10014
▁grants	-10015
▁Alt	-10016
▁Hand	-10017
▁violent	-10018
▁GB	-10019
thly	-10020
▁hel	-10021
▁foods	-10022
▁potentially	-10023
LAF	-10024
world	-10025
▁isolated	-10026
▁assemb	-10027
▁derived	-10028
▁CR	-10029
▁Ho	-10030
▁Beaut	-10031
▁login	-10032
▁capture	-10033
▁continually	-10034
▁male	-10035
▁gall	-10036
▁hier	-10037
▁damaged	-10038
▁respecting	-10039
insula	-10040
▁explos	-10041
▁finances	-10042
elect	-10043
▁Reform	-10044
▁Naturally	-10045
▁indication	-10046
▁Professional	-10047
▁guides	-10048
▁64	-10049
▁Wal	-10050
▁aest	-10051
▁Everyone	-10052
▁Technical	-10053
▁expanding	-10054
▁rejection	-10055
▁characterized	-10056
aug	-10057
▁pig	-10058
▁History	-10059
▁complexity	-10060
ami	-10061
uttgart	-10062
▁ensured	-10063
oard	-10064
▁2001,	-10065
▁quota	-10066
▁Anonymous	-10067
▁exceptions	-10068
ori	-10069
▁deleted	-10070
▁participated	-10071
kind	-10072
▁width	-10073
▁culinary	-10074
ayer	-10075
▁lacking	-10076
▁listened	-10077
▁conveniently	-10078
rot	-10079
▁MB	-10080
pool	-10081
▁Norway	-10082
▁checking	-10083
▁governed	-10084
faces	-10085
itting	-10086
▁Allow	-10087
cos	-10088
vol	-10089
▁camps	-10090
▁challenging	-10091
upp	-10092
uum	-10093
hist	-10094
▁Stra	-10095
▁compare	-10096
27	-10097
alia	-10098
▁frank	-10099
▁walks	-10100
▁toward	-10101
alys	-10102
enez	-10103
cretion	-10104
issance	-10105
▁Currently	-10106
▁searching	-10107
▁circulation	-10108
after	-10109
▁Friendly	-10110
▁trademarks	-10111
ply	-10112
ican	-10113
▁League	-10114
▁vicinity	-10115
▁specialised	-10116
▁recycling	-10117
▁Nonetheless	-10118
▁Peace	-10119
▁exploring	-10120
yers	-10121
isen	-10122
▁Eur	-10123
▁wars	-10124
ancell	-10125
▁commend	-10126
▁fought	-10127
▁Democratic	-10128
afe	-10129
▁Gaza	-10130
▁hoped	-10131
ifiable	-10132
▁55	-10133
fleet	-10134
▁Golden	-10135
▁resorts	-10136
▁watching	-10137
▁transformation	-10138
stuffs	-10139
▁chocolate	-10140
▁Declaration	-10141
▁Know	-10142
▁wake	-10143
burgh	-10144
▁finger	-10145
▁optimum	-10146
▁Kr	-10147
oque	-10148
▁Exhib	-10149
▁consisting	-10150
▁quantities	-10151
-9	-10152
▁boxes	-10153
▁unions	-10154
.”	-10155
ESCO	-10156
▁bid	-10157
▁neglect	-10158
chi	-10159
▁Wil	-10160
▁perf	-10161
▁tape	-10162
▁brows	-10163
igenous	-10164
▁gat	-10165
▁measured	-10166
▁accepting	-10167
▁furthermore	-10168
iasm	-10169
ifornia	-10170
weg	-10171
▁combining	-10172
tre	-10173
▁Big	-10174
▁autonomy	-10175
▁Bug	-10176
author	-10177
▁warranty	-10178
hne	-10179
▁clim	-10180
▁Carib	-10181
▁feels	-10182
▁prejud	-10183
host	-10184
▁Film	-10185
▁Nordic	-10186
▁taught	-10187
▁Blo	-10188
▁upcoming	-10189
▁investigate	-10190
▁intelligence	-10191
EEC	-10192
etus	-10193
▁ignored	-10194
▁crossing	-10195
▁authorisation	-10196
days	-10197
outs	-10198
▁Hard	-10199
bles	-10200
▁hire	-10201
iev	-10202
▁lights	-10203
▁transatlantic	-10204
▁congratulations	-10205
▁65	-10206
▁refined	-10207
▁analyses	-10208
▁LateRooms	-10209
sid	-10210
▁EL	-10211
▁Cath	-10212
▁viewed	-10213
▁Clearly	-10214
▁returning	-10215
▁calculated	-10216
▁Ger	-10217
▁Radio	-10218
▁propri	-10219
▁abolition	-10220
▁fro	-10221
▁tremend	-10222
▁missions	-10223
▁MA	-10224
▁presentations	-10225
▁gest	-10226
▁sofa	-10227
▁bow	-10228
▁Coast	-10229
▁Danube	-10230
▁confront	-10231
▁railways	-10232
pin	-10233
▁7,	-10234
▁PL	-10235
esse	-10236
ische	-10237
▁cargo	-10238
▁notion	-10239
▁Walk	-10240
▁prominent	-10241
ín	-10242
▁nicht	-10243
▁plural	-10244
pha	-10245
pted	-10246
▁setup	-10247
▁preferences	-10248
Is	-10249
▁ric	-10250
▁Come	-10251
▁Conn	-10252
▁fifteen	-10253
▁demographic	-10254
▁motions	-10255
▁realized	-10256
leys	-10257
▁Ban	-10258
▁homepage	-10259
▁monument	-10260
▁minib	-10261
▁tackling	-10262
▁tolerance	-10263
▁brain	-10264
▁adverse	-10265
▁reduces	-10266
▁undermine	-10267
▁fires	-10268
▁sensit	-10269
party	-10270
▁coinc	-10271
▁golden	-10272
▁clothes	-10273
▁Stuttgart	-10274
▁defending	-10275
▁diox	-10276
▁Integ	-10277
▁yellow	-10278
▁linguistic	-10279
▁Kh	-10280
▁booth	-10281
▁Client	-10282
▁publisher	-10283
Be	-10284
▁prote	-10285
▁Alpine	-10286
▁devast	-10287
▁handic	-10288
▁Ms	-10289
bean	-10290
/2000	-10291
eneration	-10292
▁fundament	-10293
▁experiment	-10294
:4	-10295
aire	-10296
atin	-10297
▁god	-10298
▁Arts	-10299
itudes	-10300
unately	-10301
▁Natural	-10302
▁distinct	-10303
▁Long	-10304
▁optional	-10305
▁pix	-10306
atile	-10307
▁brut	-10308
▁schol	-10309
▁retire	-10310
▁identical	-10311
▁connecting	-10312
▁notification	-10313
acent	-10314
▁Region	-10315
▁twelve	-10316
argo	-10317
▁weekly	-10318
▁obtaining	-10319
yal	-10320
ocratic	-10321
▁gastronom	-10322
▁authorised	-10323
sor	-10324
▁1.5	-10325
▁Aqu	-10326
▁annex	-10327
▁Ly	-10328
ede	-10329
iva	-10330
▁unequ	-10331
▁filling	-10332
36	-10333
cia	-10334
▁Holy	-10335
▁arom	-10336
▁boards	-10337
▁passes	-10338
▁descript	-10339
ruck	-10340
tage	-10341
ailable	-10342
arked	-10343
▁elev	-10344
▁hosts	-10345
▁ly	-10346
ders	-10347
▁tap	-10348
▁blame	-10349
▁Mi	-10350
▁irres	-10351
▁imprison	-10352
▁districts	-10353
▁Palestinians	-10354
cut	-10355
▁dish	-10356
▁denied	-10357
▁interim	-10358
▁abandoned	-10359
▁demonstration	-10360
▁Norm	-10361
▁episode	-10362
isa	-10363
▁Six	-10364
depth	-10365
▁separated	-10366
Ad	-10367
cor	-10368
▁clearer	-10369
▁discretion	-10370
▁terrorists	-10371
37	-10372
PM	-10373
heast	-10374
▁Michel	-10375
ello	-10376
mense	-10377
ustain	-10378
▁Above	-10379
▁Andal	-10380
▁Roc	-10381
ldorf	-10382
hesion	-10383
▁charter	-10384
ße	-10385
▁mic	-10386
iably	-10387
ocent	-10388
venth	-10389
▁roles	-10390
▁daughter	-10391
▁Sometimes	-10392
▁permanently	-10393
aton	-10394
▁hide	-10395
This	-10396
▁ocean	-10397
▁Ta	-10398
▁Mas	-10399
▁bases	-10400
▁carrier	-10401
nik	-10402
iber	-10403
isual	-10404
▁Docu	-10405
▁rear	-10406
▁unlimited	-10407
▁restoration	-10408
▁Alg	-10409
▁banned	-10410
▁publicly	-10411
▁investigations	-10412
▁Ec	-10413
▁UNESCO	-10414
▁strive	-10415
▁ambience	-10416
▁striking	-10417
ugen	-10418
▁loved	-10419
▁Joseph	-10420
▁catast	-10421
▁telling	-10422
▁adaptation	-10423
▁enthusiasm	-10424
▁Tower	-10425
▁tangible	-10426
▁forb	-10427
▁vend	-10428
AF	-10429
▁Bush	-10430
▁loud	-10431
▁mining	-10432
▁encounter	-10433
▁suspension	-10434
ijing	-10435
rolled	-10436
▁vessel	-10437
ré	-10438
ubl	-10439
▁Dres	-10440
▁noticed	-10441
▁independently	-10442
▁Playa	-10443
▁labels	-10444
▁Cert	-10445
▁Gulf	-10446
▁District	-10447
▁musicians	-10448
▁observations	-10449
ни	-10450
but	-10451
▁Has	-10452
▁Gall	-10453
dem	-10454
▁Mov	-10455
▁cinema	-10456
▁furnish	-10457
▁profiles	-10458
▁requiring	-10459
▁contributes	-10460
ui	-10461
▁fate	-10462
▁strip	-10463
▁sightseeing	-10464
platz	-10465
▁Scient	-10466
appropri	-10467
▁propag	-10468
▁mailing	-10469
▁Bab	-10470
▁Tit	-10471
othic	-10472
▁Ocean	-10473
▁immense	-10474
▁officers	-10475
▁AB	-10476
▁AI	-10477
▁Cab	-10478
▁vineyards	-10479
▁reductions	-10480
iann	-10481
▁myth	-10482
▁venue	-10483
▁commonly	-10484
▁Rio	-10485
▁incl	-10486
▁Print	-10487
ependent	-10488
amo	-10489
▁TR	-10490
ailand	-10491
▁adjusted	-10492
▁databases	-10493
▁Communication	-10494
held	-10495
▁ear	-10496
▁excellence	-10497
▁clarification	-10498
▁distinguished	-10499
▁01	-10500
▁tiss	-10501
ahr	-10502
eta	-10503
mus	-10504
▁peak	-10505
▁brill	-10506
▁permits	-10507
▁reverse	-10508
▁bare	-10509
▁knowing	-10510
▁behavior	-10511
▁designers	-10512
OP	-10513
var	-10514
redit	-10515
▁stood	-10516
▁incentive	-10517
▁newspapers	-10518
▁Anti	-10519
▁neutral	-10520
▁Louis	-10521
▁Eth	-10522
▁eine	-10523
▁exploit	-10524
▁ram	-10525
annel	-10526
German	-10527
▁About	-10528
▁audit	-10529
▁comforts	-10530
DI	-10531
isons	-10532
▁cycling	-10533
▁gathered	-10534
▁consulted	-10535
▁unanimous	-10536
brid	-10537
enade	-10538
▁Crim	-10539
▁2002.	-10540
▁flags	-10541
▁discovery	-10542
▁dossi	-10543
▁sheets	-10544
pine	-10545
weight	-10546
▁sincerely	-10547
▁transmitted	-10548
:1	-10549
feld	-10550
▁Could	-10551
▁cabin	-10552
▁employee	-10553
▁influenced	-10554
▁wer	-10555
▁circle	-10556
▁rand	-10557
▁Jesus	-10558
▁Suites	-10559
38	-10560
▁equip	-10561
▁assessments	-10562
▁org	-10563
▁stakeholders	-10564
pg	-10565
▁Da	-10566
▁doctors	-10567
marks	-10568
▁lens	-10569
mentioned	-10570
▁cig	-10571
space	-10572
tering	-10573
▁Double	-10574
etch	-10575
▁Captain	-10576
▁cheaper	-10577
▁Supervisory	-10578
▁collections	-10579
iere	-10580
ilia	-10581
▁conqu	-10582
▁awards	-10583
imension	-10584
▁monthly	-10585
▁Fif	-10586
▁pregn	-10587
▁Library	-10588
▁constraint	-10589
plus	-10590
sten	-10591
▁Mountain	-10592
▁30%	-10593
▁absurd	-10594
▁(4	-10595
▁PSE	-10596
teries	-10597
▁shell	-10598
▁theat	-10599
▁afterwards	-10600
▁Rental	-10601
▁infrastructures	-10602
▁transformed	-10603
iten	-10604
▁actor	-10605
▁migrants	-10606
▁promotes	-10607
▁competitors	-10608
▁Working	-10609
-5	-10610
▁SL	-10611
▁Vel	-10612
▁rebu	-10613
▁fallen	-10614
ologically	-10615
ACH	-10616
▁Ski	-10617
makers	-10618
▁Warcraft	-10619
▁realised	-10620
▁Regarding	-10621
oda	-10622
▁CHF	-10623
▁Bour	-10624
▁synchron	-10625
bally	-10626
rival	-10627
▁preventive	-10628
▁concentrated	-10629
▁plane	-10630
▁Beijing	-10631
▁besides	-10632
▁laboratory	-10633
▁subscription	-10634
kel	-10635
person	-10636
▁capacities	-10637
▁Plus	-10638
▁shareholders	-10639
New	-10640
▁evil	-10641
seldorf	-10642
▁camping	-10643
ANT	-10644
lan	-10645
mist	-10646
▁hus	-10647
▁enfor	-10648
▁catering	-10649
▁discipline	-10650
ра	-10651
▁reun	-10652
keeping	-10653
▁Econom	-10654
▁California	-10655
▁supervisory	-10656
▁anx	-10657
▁nur	-10658
▁Close	-10659
▁minds	-10660
▁villas	-10661
▁Professor	-10662
▁ave	-10663
▁dive	-10664
▁refres	-10665
▁hectares	-10666
▁removing	-10667
rav	-10668
▁fears	-10669
▁Spring	-10670
▁indisp	-10671
▁responses	-10672
ele	-10673
yan	-10674
ierra	-10675
▁1960	-10676
▁stringent	-10677
▁deemed	-10678
▁married	-10679
▁Heritage	-10680
▁announcement	-10681
mo	-10682
open	-10683
▁oder	-10684
▁Appro	-10685
26	-10686
▁Rock	-10687
▁weapon	-10688
▁Country	-10689
▁summary	-10690
▁Mul	-10691
▁tone	-10692
▁loyal	-10693
▁forums	-10694
UP	-10695
hyth	-10696
▁EMU	-10697
▁venture	-10698
▁demanded	-10699
▁pursuing	-10700
▁Excellent	-10701
▁lifestyle	-10702
▁Jos	-10703
▁Nero	-10704
▁extends	-10705
▁capability	-10706
lers	-10707
▁butt	-10708
▁chef	-10709
▁partially	-10710
ilm	-10711
▁Tri	-10712
▁reproduction	-10713
▁Py	-10714
peror	-10715
▁elabor	-10716
▁inspiration	-10717
▁Bor	-10718
▁auch	-10719
screen	-10720
▁Later	-10721
▁modest	-10722
cultural	-10723
▁Gallery	-10724
▁assumed	-10725
▁imbal	-10726
aded	-10727
aland	-10728
▁mould	-10729
▁panels	-10730
▁subscribe	-10731
▁SC	-10732
imal	-10733
▁seaside	-10734
▁Hels	-10735
▁95	-10736
▁speaks	-10737
▁finishing	-10738
EE	-10739
anas	-10740
bing	-10741
▁Sem	-10742
▁Vista	-10743
deb	-10744
▁44	-10745
▁PS	-10746
▁flav	-10747
cussion	-10748
▁benefici	-10749
▁eligible	-10750
group	-10751
atories	-10752
▁seminar	-10753
▁kilometers	-10754
▁horses	-10755
Le	-10756
▁reaches	-10757
▁Thailand	-10758
▁arrested	-10759
▁cope	-10760
▁1999.	-10761
▁Nature	-10762
▁collapse	-10763
▁Residence	-10764
▁badly	-10765
▁endors	-10766
▁safely	-10767
▁survive	-10768
▁Products	-10769
bec	-10770
▁cens	-10771
▁pull	-10772
▁Schul	-10773
▁featured	-10774
28	-10775
wall	-10776
iovisual	-10777
▁survival	-10778
otechnology	-10779
▁(0	-10780
▁skill	-10781
▁ending	-10782
▁earthqu	-10783
▁tournament	-10784
etz	-10785
▁bears	-10786
▁sympt	-10787
ensable	-10788
▁laying	-10789
▁accused	-10790
▁Caribbean	-10791
aret	-10792
oked	-10793
▁Ken	-10794
▁jump	-10795
▁gaming	-10796
▁climbing	-10797
▁AV	-10798
▁acted	-10799
imp	-10800
ugg	-10801
▁Love	-10802
▁colonial	-10803
▁embedded	-10804
▁unstable	-10805
FI	-10806
UB	-10807
▁XP	-10808
▁ath	-10809
power	-10810
▁Sand	-10811
▁alive	-10812
▁missed	-10813
▁palace	-10814
▁dumping	-10815
▁qualities	-10816
▁designated	-10817
▁differently	-10818
▁Tax	-10819
▁Bridge	-10820
▁Palestine	-10821
▁translate	-10822
▁controller	-10823
▁Aren	-10824
efficient	-10825
▁genetically	-10826
▁unp	-10827
▁deny	-10828
estone	-10829
▁fuels	-10830
regulation	-10831
▁Similarly	-10832
▁imperial	-10833
▁complimentary	-10834
▁Text	-10835
▁Moldova	-10836
▁utility	-10837
▁Communist	-10838
▁unex	-10839
▁backing	-10840
▁genetic	-10841
▁с	-10842
olly	-10843
▁Fax	-10844
▁criter	-10845
▁eating	-10846
▁Vietnam	-10847
▁instant	-10848
▁Line	-10849
herent	-10850
▁wedding	-10851
▁refurbished	-10852
tech	-10853
estab	-10854
▁grad	-10855
anners	-10856
▁shoes	-10857
▁feelings	-10858
▁coherence	-10859
▁Estonia	-10860
▁suddenly	-10861
▁isolation	-10862
▁SW	-10863
fall	-10864
▁ages	-10865
▁random	-10866
▁elegance	-10867
ailed	-10868
▁horn	-10869
icious	-10870
▁Piazza	-10871
▁Partner	-10872
▁compatibility	-10873
▁het	-10874
▁tact	-10875
▁Newsp	-10876
▁Venez	-10877
▁steep	-10878
▁loading	-10879
▁countless	-10880
▁boundaries	-10881
zeg	-10882
▁Aven	-10883
▁Allah	-10884
▁await	-10885
▁impetus	-10886
▁luggage	-10887
istance	-10888
▁invites	-10889
▁mineral	-10890
▁aluminium	-10891
▁2011	-10892
▁brid	-10893
ischer	-10894
▁emerge	-10895
▁plugin	-10896
▁Amb	-10897
▁Jud	-10898
▁scar	-10899
▁Chile	-10900
▁scenes	-10901
▁uphold	-10902
▁indigenous	-10903
clos	-10904
pled	-10905
uten	-10906
iates	-10907
▁helic	-10908
▁lag	-10909
▁Tok	-10910
▁insight	-10911
PEG	-10912
▁Sams	-10913
▁AT	-10914
apore	-10915
▁winners	-10916
▁dil	-10917
▁sick	-10918
equipped	-10919
▁outlined	-10920
-8	-10921
▁printer	-10922
▁decentral	-10923
▁inclusive	-10924
▁Und	-10925
▁pled	-10926
▁enemy	-10927
▁Transl	-10928
▁pedestrian	-10929
▁explanations	-10930
cz	-10931
EST	-10932
▁Cru	-10933
▁Dam	-10934
▁Annual	-10935
▁Galile	-10936
▁counterfe	-10937
▁legendary	-10938
▁libraries	-10939
▁radiation	-10940
'',	-10941
det	-10942
▁Blu	-10943
▁admire	-10944
▁fruits	-10945
▁Iranian	-10946
▁conviction	-10947
▁installing	-10948
▁limitations	-10949
uxe	-10950
▁filters	-10951
▁younger	-10952
▁Millennium	-10953
▁URL	-10954
▁pin	-10955
▁pron	-10956
▁Chief	-10957
▁dismant	-10958
emic	-10959
rans	-10960
▁handed	-10961
▁consolidation	-10962
▁menus	-10963
▁drag	-10964
▁paint	-10965
▁lesson	-10966
▁cooling	-10967
▁Wellness	-10968
▁arriving	-10969
esch	-10970
inki	-10971
post	-10972
▁Foot	-10973
▁dangers	-10974
▁misunder	-10975
iances	-10976
▁hypoc	-10977
quiries	-10978
▁delayed	-10979
▁grave	-10980
▁struck	-10981
▁intoler	-10982
IK	-10983
fox	-10984
▁interfaces	-10985
OD	-10986
usalem	-10987
▁Arc	-10988
▁pit	-10989
▁nutr	-10990
astics	-10991
▁aspir	-10992
▁justification	-10993
▁Hot	-10994
▁dans	-10995
linary	-10996
▁indispensable	-10997
OK	-10998
arium	-10999
▁Venet	-11000
▁License	-11001
▁separation	-11002
food	-11003
teneg	-11004
▁mild	-11005
regard	-11006
▁endless	-11007
▁failing	-11008
▁washing	-11009
▁hopefully	-11010
▁racing	-11011
▁Language	-11012
▁activated	-11013
aco	-11014
fire	-11015
pling	-11016
▁secured	-11017
▁symbolic	-11018
▁ambitions	-11019
▁10,	-11020
▁weld	-11021
▁storm	-11022
▁behold	-11023
▁ranges	-11024
▁Dresden	-11025
RC	-11026
ART	-11027
VIS	-11028
▁Han	-11029
▁dreams	-11030
▁abstained	-11031
lean	-11032
▁1992	-11033
▁delivers	-11034
▁**	-11035
human	-11036
66	-11037
▁Casa	-11038
▁Photos	-11039
▁closure	-11040
Pal	-11041
▁secre	-11042
▁predict	-11043
▁topical	-11044
▁GPS	-11045
▁definitive	-11046
zo	-11047
ucc	-11048
ctic	-11049
ischen	-11050
▁auction	-11051
▁configure	-11052
▁authorized	-11053
airy	-11054
▁Bath	-11055
▁Nikon	-11056
▁Gay	-11057
▁argue	-11058
▁earned	-11059
▁Between	-11060
▁resumed	-11061
▁subjected	-11062
▁cup	-11063
▁Forest	-11064
▁Update	-11065
▁wishing	-11066
▁somewhere	-11067
▁serial	-11068
▁exquisite	-11069
▁simplified	-11070
▁distributors	-11071
tar	-11072
▁dei	-11073
▁royal	-11074
▁ü	-11075
.000	-11076
▁locally	-11077
▁socially	-11078
hal	-11079
oys	-11080
enburg	-11081
ermost	-11082
orders	-11083
▁opera	-11084
inburgh	-11085
ARE	-11086
contin	-11087
▁Athen	-11088
▁pride	-11089
▁entity	-11090
▁Š	-11091
ibi	-11092
ppy	-11093
▁wast	-11094
▁Jerusalem	-11095
▁attempted	-11096
▁observers	-11097
▁Meg	-11098
eland	-11099
▁Simply	-11100
ifferent	-11101
▁Statute	-11102
▁reviewed	-11103
REE	-11104
discrim	-11105
▁thereof	-11106
▁Wireless	-11107
▁detection	-11108
▁harmonised	-11109
sole	-11110
such	-11111
▁universe	-11112
▁Christians	-11113
rov	-11114
▁Guide	-11115
▁humans	-11116
▁Riviera	-11117
▁Village	-11118
▁Ak	-11119
ados	-11120
▁hal	-11121
▁thirty	-11122
▁forming	-11123
iferation	-11124
▁decoration	-11125
].	-11126
▁IGC	-11127
cking	-11128
▁dogs	-11129
▁Helsinki	-11130
Enterprise	-11131
▁criterion	-11132
▁selecting	-11133
▁systematically	-11134
▁ES	-11135
▁Lag	-11136
▁Richard	-11137
▁overwhelming	-11138
aining	-11139
ambling	-11140
▁existed	-11141
▁delivering	-11142
▁calculation	-11143
▁enjoyable	-11144
▁motivated	-11145
.'	-11146
74	-11147
ijk	-11148
erie	-11149
▁lock	-11150
ernity	-11151
▁terraces	-11152
UC	-11153
fam	-11154
inth	-11155
▁Help	-11156
▁Lind	-11157
▁dispar	-11158
▁confron	-11159
▁frust	-11160
▁Corporate	-11161
▁Mountains	-11162
▁BA	-11163
▁wages	-11164
▁peripher	-11165
▁rigorous	-11166
78	-11167
▁Iraqi	-11168
▁haven	-11169
▁praise	-11170
rine	-11171
▁CEO	-11172
▁Eco	-11173
▁ferry	-11174
▁Winter	-11175
▁bicycle	-11176
▁chamber	-11177
▁stating	-11178
▁·	-11179
▁wet	-11180
▁Bell	-11181
▁procedural	-11182
▁continuation	-11183
cany	-11184
iors	-11185
▁Try	-11186
▁shore	-11187
▁invested	-11188
▁Edinburgh	-11189
▁continental	-11190
▁Mean	-11191
▁patch	-11192
öm	-11193
Che	-11194
▁vice	-11195
▁Motor	-11196
service	-11197
▁Tunisia	-11198
▁advocate	-11199
▁prevents	-11200
▁VIP	-11201
▁sich	-11202
▁bless	-11203
▁envisaged	-11204
ко	-11205
uty	-11206
tyard	-11207
▁blank	-11208
▁Regist	-11209
▁Pict	-11210
GA	-11211
▁07	-11212
▁(10	-11213
▁accomod	-11214
▁reconciliation	-11215
▁avoiding	-11216
▁interrupt	-11217
▁congratulating	-11218
aman	-11219
▁Sac	-11220
▁liv	-11221
▁hole	-11222
cluded	-11223
▁borne	-11224
▁carries	-11225
▁Petitions	-11226
▁complaint	-11227
▁distribute	-11228
▁plot	-11229
▁damaging	-11230
▁limitation	-11231
yo	-11232
▁CP	-11233
elong	-11234
▁Alban	-11235
▁affil	-11236
▁flour	-11237
▁Samsung	-11238
▁electronics	-11239
rage	-11240
rasse	-11241
houses	-11242
▁blocked	-11243
▁solving	-11244
▁maintains	-11245
▁sustained	-11246
yll	-11247
pone	-11248
▁Relations	-11249
lor	-11250
▁margin	-11251
▁SS	-11252
aden	-11253
▁Being	-11254
habilit	-11255
▁Chechn	-11256
▁Privacy	-11257
bul	-11258
▁rose	-11259
▁tiny	-11260
▁statute	-11261
▁Monteneg	-11262
▁critique	-11263
▁Auto	-11264
ainless	-11265
▁albeit	-11266
▁stones	-11267
▁beautifully	-11268
29	-11269
iables	-11270
▁marginal	-11271
Mediterranean	-11272
▁beat	-11273
▁prag	-11274
garian	-11275
▁Capital	-11276
unta	-11277
▁SQL	-11278
emens	-11279
▁attent	-11280
▁validity	-11281
▁Ö	-11282
rup	-11283
▁Got	-11284
▁Farm	-11285
▁bands	-11286
ophobia	-11287
▁ageing	-11288
▁dominated	-11289
▁customized	-11290
.0.	-11291
▁Leip	-11292
▁Spir	-11293
▁Indonesia	-11294
▁hairdryer	-11295
dis	-11296
▁KDE	-11297
itably	-11298
▁attraction	-11299
▁Di	-11300
▁maj	-11301
▁newest	-11302
▁ceremony	-11303
▁admission	-11304
▁technically	-11305
31	-11306
ilty	-11307
▁Pop	-11308
▁grew	-11309
▁greet	-11310
▁lawyers	-11311
▁viewing	-11312
▁Chechnya	-11313
▁exclude	-11314
▁hazardous	-11315
HU	-11316
teg	-11317
▁Kon	-11318
reserv	-11319
▁Porto	-11320
▁Syria	-11321
ritical	-11322
▁140	-11323
opoly	-11324
utory	-11325
▁asks	-11326
▁Basel	-11327
▁Change	-11328
▁carriers	-11329
▁precaution	-11330
▁tremendous	-11331
you	-11332
pere	-11333
▁Young	-11334
link	-11335
▁cla	-11336
▁woods	-11337
▁desper	-11338
▁Lebanon	-11339
▁Criminal	-11340
▁dominant	-11341
▁pi	-11342
▁Jon	-11343
▁unpre	-11344
▁Whilst	-11345
▁Romanian	-11346
▁keyboard	-11347
▁investing	-11348
ück	-11349
▁talent	-11350
▁audiovisual	-11351
▁personality	-11352
▁restrictive	-11353
▁Organization	-11354
▁enshr	-11355
▁Comfort	-11356
▁Explorer	-11357
▁indirectly	-11358
La	-11359
▁IF	-11360
sell	-11361
▁Stay	-11362
▁exped	-11363
▁rhyth	-11364
▁equity	-11365
▁SA	-11366
▁(199	-11367
▁refrig	-11368
▁Bill	-11369
▁analyse	-11370
▁acid	-11371
▁auto	-11372
system	-11373
quet	-11374
ournal	-11375
▁coins	-11376
▁towels	-11377
71	-11378
▁SE	-11379
agne	-11380
onian	-11381
▁writer	-11382
▁unanimity	-11383
▁transported	-11384
cts	-11385
top	-11386
▁Maur	-11387
▁highway	-11388
▁safeguarding	-11389
adian	-11390
▁Chic	-11391
▁Enter	-11392
▁hearts	-11393
▁Written	-11394
▁Especially	-11395
ni	-11396
▁8,	-11397
▁Nav	-11398
▁matches	-11399
▁regimes	-11400
▁workforce	-11401
exp	-11402
user	-11403
▁Roth	-11404
▁iPod	-11405
▁Short	-11406
▁waves	-11407
▁vacuum	-11408
▁examining	-11409
▁39	-11410
▁Call	-11411
▁visas	-11412
▁aboard	-11413
▁reveal	-11414
▁mixture	-11415
▁Argentina	-11416
Press	-11417
▁harvest	-11418
▁symbols	-11419
▁tonight	-11420
▁abilities	-11421
▁estimates	-11422
ECT	-11423
▁Pas	-11424
As	-11425
▁и	-11426
bor	-11427
only	-11428
▁bust	-11429
▁tranquil	-11430
▁Mann	-11431
▁Proper	-11432
▁postpone	-11433
▁interpreted	-11434
▁certificates	-11435
▁LCD	-11436
▁arises	-11437
▁Newspapers	-11438
ittle	-11439
▁invoice	-11440
cedented	-11441
▁hosting	-11442
▁nearest	-11443
▁skilled	-11444
▁Disabled	-11445
▁marriage	-11446
inces	-11447
phones	-11448
reaching	-11449
▁preservation	-11450
▁accommodations	-11451
rape	-11452
eline	-11453
ially	-11454
ensity	-11455
▁Ukrain	-11456
▁Theatre	-11457
").	-11458
▁Domin	-11459
▁samples	-11460
orde	-11461
apped	-11462
▁bags	-11463
leading	-11464
looking	-11465
▁exceptionally	-11466
OV	-11467
oga	-11468
▁Ru	-11469
okia	-11470
▁80%	-11471
▁gases	-11472
▁rescue	-11473
▁Cultural	-11474
▁entities	-11475
▁Annex	-11476
▁adequately	-11477
▁autonomous	-11478
▁unprecedented	-11479
lia	-11480
▁kg	-11481
▁evol	-11482
▁Image	-11483
▁Rhine	-11484
▁angle	-11485
▁plates	-11486
Im	-11487
▁(8	-11488
▁Fron	-11489
▁jack	-11490
▁fare	-11491
▁Works	-11492
▁layers	-11493
zing	-11494
through	-11495
atisfact	-11496
-19	-11497
▁turb	-11498
ulator	-11499
▁Bö	-11500
▁asc	-11501
▁concludes	-11502
21	-11503
far	-11504
▁Upon	-11505
▁Altern	-11506
▁stimulate	-11507
▁Sche	-11508
▁dollars	-11509
▁criminals	-11510
▁galleries	-11511
▁furnishings	-11512
én	-11513
rass	-11514
▁hyper	-11515
clusive	-11516
▁Leipzig	-11517
▁routine	-11518
▁attempting	-11519
BA	-11520
▁130	-11521
▁Rod	-11522
▁Euros	-11523
Se	-11524
park	-11525
▁Kle	-11526
angle	-11527
▁cotton	-11528
▁convinc	-11529
▁origins	-11530
▁decrease	-11531
▁reciproc	-11532
▁workplace	-11533
▁consultations	-11534
==	-11535
▁energies	-11536
atible	-11537
▁honor	-11538
▁Latvia	-11539
▁medicinal	-11540
▁multilingual	-11541
ali	-11542
▁veter	-11543
▁postpon	-11544
▁vertical	-11545
▁securities	-11546
▁delegations	-11547
▁appreciation	-11548
▁©	-11549
▁Comb	-11550
▁basket	-11551
▁wished	-11552
▁contradict	-11553
An	-11554
Gu	-11555
ovina	-11556
closed	-11557
▁recruit	-11558
▁breeding	-11559
▁compromises	-11560
▁sensitivity	-11561
ро	-11562
raf	-11563
▁query	-11564
▁healing	-11565
▁lapt	-11566
osystem	-11567
▁Bulgarian	-11568
▁cathedral	-11569
▁consolidated	-11570
▁irrespective	-11571
arat	-11572
▁189	-11573
▁Dry	-11574
▁1993	-11575
▁echo	-11576
mented	-11577
▁Round	-11578
▁carte	-11579
▁excuse	-11580
▁herself	-11581
▁presidential	-11582
name	-11583
about	-11584
▁deadlines	-11585
▁AK	-11586
▁MED	-11587
▁1950	-11588
▁2001.	-11589
▁buyer	-11590
▁classification	-11591
▁BC	-11592
▁mes	-11593
▁1998,	-11594
▁Relax	-11595
▁Sierra	-11596
▁offset	-11597
▁verify	-11598
/4	-11599
hemat	-11600
▁Army	-11601
▁avec	-11602
▁drum	-11603
olding	-11604
▁Reserv	-11605
▁Mallorca	-11606
▁determining	-11607
este	-11608
ariat	-11609
▁Mary	-11610
asonic	-11611
▁mainstream	-11612
▁Metro	-11613
▁Palma	-11614
▁reinforced	-11615
AND	-11616
gio	-11617
uma	-11618
▁Das	-11619
▁glac	-11620
▁toxic	-11621
▁cattle	-11622
▁scrutiny	-11623
▁preference	-11624
▁accompanying	-11625
:00.	-11626
▁Rap	-11627
acies	-11628
▁bell	-11629
▁beside	-11630
▁implies	-11631
▁integrating	-11632
SK	-11633
rane	-11634
semble	-11635
▁festivals	-11636
▁constraints	-11637
▁hang	-11638
▁Galileo	-11639
▁shooting	-11640
Re	-11641
otal	-11642
acity	-11643
draul	-11644
▁abort	-11645
▁globally	-11646
hm	-11647
imo	-11648
▁Nig	-11649
orian	-11650
▁predom	-11651
Wh	-11652
▁Key	-11653
▁Pur	-11654
▁deck	-11655
▁gour	-11656
affirm	-11657
▁aiming	-11658
▁gradual	-11659
▁dictatorship	-11660
▁Night	-11661
▁encomp	-11662
▁unilateral	-11663
▁theoretical	-11664
▁pillars	-11665
▁surfaces	-11666
▁disregard	-11667
▁Corporation	-11668
▁fundamentally	-11669
▁accountability	-11670
For	-11671
sub	-11672
▁Hit	-11673
▁overse	-11674
▁readers	-11675
▁paragraphs	-11676
eded	-11677
▁ours	-11678
▁breast	-11679
▁interference	-11680
ifice	-11681
▁infect	-11682
▁Depending	-11683
▁encompass	-11684
owed	-11685
▁kid	-11686
▁tag	-11687
inite	-11688
▁Hill	-11689
▁modernisation	-11690
▁Circ	-11691
oyager	-11692
▁overnight	-11693
▁Wood	-11694
itravel	-11695
▁voices	-11696
aven	-11697
▁Bah	-11698
▁Emb	-11699
▁Lang	-11700
▁Nokia	-11701
▁Summer	-11702
▁Tuscany	-11703
▁advised	-11704
▁founder	-11705
▁Cohesion	-11706
appropriate	-11707
▁classified	-11708
CA	-11709
▁endeav	-11710
▁unjust	-11711
▁Firefox	-11712
▁alliance	-11713
▁Solidarity	-11714
▁comfortably	-11715
▁intu	-11716
▁advances	-11717
ota	-11718
▁Jews	-11719
▁globe	-11720
▁stamp	-11721
▁reader	-11722
▁immunity	-11723
▁inviting	-11724
5-00	-11725
east	-11726
chaft	-11727
▁Move	-11728
▁gran	-11729
gorith	-11730
▁resolving	-11731
ifa	-11732
▁Bund	-11733
▁Marg	-11734
▁tries	-11735
▁retirement	-11736
owski	-11737
issible	-11738
▁werden	-11739
▁wanting	-11740
▁nowadays	-11741
▁protective	-11742
▁WC	-11743
asty	-11744
▁Dra	-11745
▁archae	-11746
▁voters	-11747
▁promising	-11748
▁CS	-11749
stat	-11750
▁cow	-11751
▁intimate	-11752
▁Exhibition	-11753
▁2.5	-11754
▁tube	-11755
naments	-11756
▁Decision	-11757
▁formally	-11758
▁pointing	-11759
rics	-11760
▁350	-11761
▁ads	-11762
▁adjustments	-11763
▁distinguish	-11764
sters	-11765
▁loaded	-11766
ét	-11767
▁160	-11768
▁linking	-11769
▁refugee	-11770
▁Hon	-11771
▁alpine	-11772
▁breaking	-11773
▁Wikitravel	-11774
▁Engineering	-11775
▁110	-11776
otion	-11777
▁Camb	-11778
▁divide	-11779
▁Siemens	-11780
▁accessed	-11781
performance	-11782
▁als	-11783
▁grey	-11784
▁ruins	-11785
▁abuses	-11786
▁donors	-11787
▁hunger	-11788
▁modification	-11789
cs	-11790
-10	-11791
▁jazz	-11792
▁baths	-11793
▁openly	-11794
▁Climate	-11795
▁pretext	-11796
▁repression	-11797
drop	-11798
▁mood	-11799
▁tel	-11800
▁breaks	-11801
▁counts	-11802
▁Finance	-11803
▁reactions	-11804
eren	-11805
▁sheep	-11806
▁smallest	-11807
▁definitions	-11808
5)	-11809
tz	-11810
ERS	-11811
▁XML	-11812
▁Doha	-11813
▁holes	-11814
▁reimb	-11815
▁silent	-11816
▁Airlines	-11817
If	-11818
▁9,	-11819
▁OK	-11820
▁sympathy	-11821
▁nightlife	-11822
▁Age	-11823
▁Tool	-11824
▁hunting	-11825
▁surgery	-11826
▁confirms	-11827
▁securing	-11828
▁rehabilit	-11829
debate	-11830
▁chances	-11831
▁introduces	-11832
▁disabilities	-11833
itives	-11834
▁clauses	-11835
▁modifications	-11836
idas	-11837
eling	-11838
ongue	-11839
iannual	-11840
▁studying	-11841
Linux	-11842
▁disg	-11843
▁completing	-11844
▁een	-11845
▁seam	-11846
▁Local	-11847
▁inland	-11848
bes	-11849
▁DA	-11850
mbre	-11851
▁xen	-11852
erning	-11853
▁variables	-11854
▁Kn	-11855
astrous	-11856
▁exotic	-11857
isy	-11858
▁Want	-11859
▁sums	-11860
▁Libya	-11861
▁dairy	-11862
▁proves	-11863
▁developer	-11864
You	-11865
mir	-11866
▁mad	-11867
oding	-11868
▁belt	-11869
▁analog	-11870
▁dissem	-11871
▁judges	-11872
All	-11873
▁Dev	-11874
elson	-11875
▁pestic	-11876
▁forestry	-11877
▁Objective	-11878
On	-11879
/98	-11880
ées	-11881
▁Fel	-11882
archy	-11883
▁Much	-11884
▁giant	-11885
▁couples	-11886
code	-11887
posed	-11888
▁thinks	-11889
▁Valencia	-11890
▁broadcasting	-11891
300	-11892
▁cu	-11893
▁Sup	-11894
heres	-11895
techn	-11896
▁retrie	-11897
▁container	-11898
sey	-11899
▁Sat	-11900
ocopy	-11901
▁Armen	-11902
▁Stein	-11903
▁Unlike	-11904
▁affirm	-11905
ribution	-11906
▁baggage	-11907
inea	-11908
irus	-11909
▁CAN	-11910
▁porn	-11911
▁toll	-11912
▁husband	-11913
▁188	-11914
▁Exp	-11915
▁cream	-11916
▁detention	-11917
▁Ul	-11918
suite	-11919
▁pose	-11920
▁prede	-11921
▁improves	-11922
▁textiles	-11923
▁disastrous	-11924
winning	-11925
▁modular	-11926
▁deciding	-11927
▁Coll	-11928
ii	-11929
rite	-11930
▁bond	-11931
▁smoke	-11932
century	-11933
▁monopol	-11934
▁recognises	-11935
OB	-11936
ité	-11937
▁SM	-11938
▁snacks	-11939
▁Terrace	-11940
▁activate	-11941
▁advisory	-11942
▁sleeping	-11943
▁spo	-11944
▁Pier	-11945
▁Congo	-11946
▁Quest	-11947
▁coach	-11948
▁sends	-11949
▁assessed	-11950
▁panorama	-11951
▁Administration	-11952
▁12,	-11953
▁Bru	-11954
▁Hus	-11955
▁flaw	-11956
▁Rather	-11957
▁adjacent	-11958
ALE	-11959
▁Kra	-11960
ungal	-11961
▁Ford	-11962
▁buttons	-11963
▁Catholic	-11964
▁commands	-11965
▁distinctive	-11966
▁remedy	-11967
cano	-11968
isdom	-11969
ilitary	-11970
▁distant	-11971
▁execute	-11972
▁coastline	-11973
▁predecess	-11974
▁Montenegro	-11975
▁entrepreneurs	-11976
▁confidentiality	-11977
▁ON	-11978
▁Mah	-11979
▁cir	-11980
▁Dolomites	-11981
▁08	-11982
▁Scand	-11983
▁summar	-11984
▁downloads	-11985
Out	-11986
▁exempl	-11987
▁Francisco	-11988
▁outermost	-11989
enter	-11990
▁40%	-11991
▁Kre	-11992
▁sed	-11993
▁coat	-11994
▁backed	-11995
69	-11996
▁cliff	-11997
bet	-11998
acio	-11999
▁innocent	-12000
▁reaffirm	-12001
▁Gro	-12002
itals	-12003
▁embry	-12004
▁Anyone	-12005
▁tunnel	-12006
▁intent	-12007
▁Railway	-12008
▁William	-12009
▁rolling	-12010
▁Lud	-12011
▁honey	-12012
▁imperative	-12013
rer	-12014
▁Aus	-12015
▁RSS	-12016
▁Zealand	-12017
▁licensed	-12018
▁moderate	-12019
▁Friedrich	-12020
▁reasonably	-12021
OF	-12022
▁dependence	-12023
oma	-12024
▁Canary	-12025
▁identifying	-12026
▁Spl	-12027
▁pup	-12028
▁inher	-12029
▁tasty	-12030
▁bathing	-12031
ji	-12032
isations	-12033
▁complementary	-12034
He	-12035
'''	-12036
▁Id	-12037
▁ran	-12038
▁oriented	-12039
▁Kat	-12040
▁altitude	-12041
))	-12042
▁prerequisite	-12043
fur	-12044
▁eco	-12045
▁Times	-12046
▁portra	-12047
▁worker	-12048
▁protects	-12049
▁graphical	-12050
▁processor	-12051
▁Additional	-12052
▁indications	-12053
ieu	-12054
jpg	-12055
▁clinical	-12056
▁refreshing	-12057
obil	-12058
▁ties	-12059
orious	-12060
▁incon	-12061
▁Daniel	-12062
▁antique	-12063
▁Innovation	-12064
uns	-12065
▁marble	-12066
▁Singapore	-12067
▁Fab	-12068
▁Prog	-12069
▁fulfill	-12070
▁painted	-12071
▁endorsed	-12072
▁Meanwhile	-12073
▁nit	-12074
▁ster	-12075
NC	-12076
was	-12077
▁Pin	-12078
▁anyway	-12079
▁guilty	-12080
zegovina	-12081
▁Andalus	-12082
▁inevitably	-12083
ested	-12084
▁foster	-12085
600	-12086
▁LED	-12087
▁Burg	-12088
▁OLAF	-12089
▁Unless	-12090
▁Iceland	-12091
▁refusal	-12092
ORT	-12093
▁om	-12094
▁killing	-12095
▁evenings	-12096
onda	-12097
▁Sales	-12098
▁Solana	-12099
▁barrier	-12100
▁memories	-12101
▁emotional	-12102
Or	-12103
iden	-12104
ardin	-12105
PR	-12106
oen	-12107
▁chip	-12108
▁Picard	-12109
▁rarely	-12110
▁Johannes	-12111
▁profitable	-12112
▁revol	-12113
▁Marketing	-12114
▁cycl	-12115
licity	-12116
▁gains	-12117
▁oasis	-12118
▁Looking	-12119
▁Sah	-12120
▁amid	-12121
▁prostit	-12122
▁courtyard	-12123
▁economical	-12124
XI	-12125
▁portion	-12126
▁volumes	-12127
eing	-12128
▁Ess	-12129
▁sind	-12130
▁Users	-12131
▁corrid	-12132
▁worlds	-12133
▁Croatian	-12134
▁playground	-12135
Mail	-12136
▁contra	-12137
▁sequence	-12138
Facilities	-12139
▁interventions	-12140
aka	-12141
anna	-12142
wind	-12143
arios	-12144
▁termin	-12145
▁strikes	-12146
▁DC	-12147
illy	-12148
▁loan	-12149
▁fastest	-12150
▁neighbor	-12151
▁passport	-12152
▁HP	-12153
▁Did	-12154
▁Algeria	-12155
▁renewal	-12156
otype	-12157
▁wire	-12158
▁Smith	-12159
▁crown	-12160
atom	-12161
▁Lod	-12162
▁desp	-12163
▁retained	-12164
▁consolidate	-12165
anta	-12166
▁wond	-12167
▁Fisch	-12168
▁sorts	-12169
▁commerce	-12170
▁engagement	-12171
▁wholeheart	-12172
aze	-12173
▁Mos	-12174
giene	-12175
▁Schl	-12176
version	-12177
▁seekers	-12178
▁shorter	-12179
▁CL	-12180
▁CDs	-12181
ilton	-12182
oting	-12183
▁Medical	-12184
▁ordering	-12185
etime	-12186
orthy	-12187
▁thou	-12188
▁races	-12189
▁ruled	-12190
▁bottle	-12191
▁holder	-12192
▁witnessed	-12193
esty	-12194
▁25%	-12195
▁sat	-12196
▁zoom	-12197
▁scenario	-12198
▁evaluated	-12199
▁exploited	-12200
▁convincing	-12201
Hotel	-12202
▁wasn	-12203
▁deriv	-12204
assador	-12205
▁phrase	-12206
▁tracking	-12207
▁statutory	-12208
▁punishment	-12209
▁(1)	-12210
▁hub	-12211
▁rum	-12212
▁biof	-12213
▁ratify	-12214
▁Starfleet	-12215
USS	-12216
▁Ox	-12217
oded	-12218
▁Hor	-12219
▁cott	-12220
▁organs	-12221
▁petition	-12222
▁emphasize	-12223
▁vegetable	-12224
▁Cot	-12225
▁noble	-12226
▁Ashton	-12227
▁Division	-12228
▁fabulous	-12229
▁predomin	-12230
▁incidents	-12231
▁Azer	-12232
▁lifts	-12233
▁Ticket	-12234
▁gambling	-12235
▁Solutions	-12236
▁retention	-12237
▁encountered	-12238
icer	-12239
▁Colomb	-12240
▁breath	-12241
▁dollar	-12242
▁tailor	-12243
▁vibrant	-12244
▁Pot	-12245
ström	-12246
holder	-12247
▁mounted	-12248
▁obstacle	-12249
▁Pad	-12250
ncies	-12251
▁rust	-12252
▁apolog	-12253
unctional	-12254
▁batteries	-12255
▁municipality	-12256
▁YOU	-12257
▁incons	-12258
▁congress	-12259
ustainable	-12260
ema	-12261
esc	-12262
roph	-12263
xual	-12264
▁Cel	-12265
▁bold	-12266
▁Marco	-12267
▁Building	-12268
▁opponents	-12269
▁inspections	-12270
2/	-12271
▁85	-12272
▁Ok	-12273
▁birthday	-12274
▁correction	-12275
dens	-12276
▁Sir	-12277
ishop	-12278
▁Queen	-12279
▁literally	-12280
▁Ped	-12281
▁organising	-12282
▁visibility	-12283
▁demonstrations	-12284
▁68	-12285
ribe	-12286
örse	-12287
▁vou	-12288
▁conducting	-12289
▁inappropriate	-12290
▁£	-12291
▁Fra	-12292
▁Baron	-12293
▁Contract	-12294
▁monopoly	-12295
▁sacrific	-12296
fi	-12297
awa	-12298
▁Bou	-12299
▁Kla	-12300
▁Neither	-12301
▁brilliant	-12302
▁AIDS	-12303
▁spam	-12304
▁vigil	-12305
▁revenues	-12306
IO	-12307
III	-12308
auf	-12309
anka	-12310
▁Cook	-12311
▁seed	-12312
Qu	-12313
▁Ku	-12314
▁ov	-12315
▁Week	-12316
▁anch	-12317
▁merch	-12318
▁directors	-12319
▁enhancing	-12320
▁safeguards	-12321
oca	-12322
▁Gott	-12323
▁bugs	-12324
▁safer	-12325
▁titles	-12326
▁minibar	-12327
PA	-12328
▁Tourist	-12329
▁zur	-12330
▁alert	-12331
▁wholes	-12332
▁civilians	-12333
▁magazines	-12334
▁persecution	-12335
Net	-12336
Phot	-12337
apel	-12338
▁''[[	-12339
▁Excel	-12340
▁Nothing	-12341
▁infringe	-12342
asm	-12343
▁ANY	-12344
▁Wild	-12345
▁Large	-12346
48	-12347
ña	-12348
aron	-12349
▁Patten	-12350
▁warming	-12351
▁measurements	-12352
mph	-12353
▁Hu	-12354
ende	-12355
idal	-12356
▁Ric	-12357
erican	-12358
▁tempt	-12359
▁ecosystem	-12360
▁foodstuffs	-12361
▁competitions	-12362
itis	-12363
▁Flo	-12364
▁fits	-12365
▁Warsaw	-12366
▁scripts	-12367
▁Recently	-12368
▁este	-12369
▁Learn	-12370
▁Schulz	-12371
▁depriv	-12372
▁sponsors	-12373
▁institute	-12374
rey	-12375
▁Ay	-12376
▁EF	-12377
oeuv	-12378
▁Bes	-12379
iguous	-12380
▁Athens	-12381
▁Sports	-12382
▁algorith	-12383
▁perception	-12384
▁establishments	-12385
html	-12386
unst	-12387
▁Borg	-12388
▁entrust	-12389
▁Articles	-12390
▁privileges	-12391
▁Ga	-12392
▁ho	-12393
iker	-12394
▁Rub	-12395
▁thy	-12396
inking	-12397
▁divisions	-12398
▁stainless	-12399
arel	-12400
▁floods	-12401
▁Laundry	-12402
▁scholars	-12403
▁inevitable	-12404
▁ideological	-12405
cribed	-12406
▁1997,	-12407
▁aston	-12408
▁motorcy	-12409
▁Liberals	-12410
▁Sic	-12411
icked	-12412
bridge	-12413
▁Arena	-12414
▁german	-12415
▁solarium	-12416
77	-12417
▁43	-12418
▁bou	-12419
▁Gate	-12420
▁unre	-12421
LT	-12422
то	-12423
erer	-12424
▁Sel	-12425
▁Wat	-12426
▁Const	-12427
▁Father	-12428
▁deeper	-12429
▁cord	-12430
artial	-12431
▁negligence	-12432
▁Environmental	-12433
GP	-12434
writ	-12435
▁Alm	-12436
▁Need	-12437
üsseldorf	-12438
▁ta	-12439
gang	-12440
▁Mid	-12441
▁rocks	-12442
▁stric	-12443
▁coating	-12444
▁manually	-12445
inav	-12446
▁Spirit	-12447
▁disadvantage	-12448
▁dossier	-12449
▁compiled	-12450
▁assessing	-12451
rus	-12452
utz	-12453
immer	-12454
▁cave	-12455
▁epid	-12456
▁Photo	-12457
▁utter	-12458
▁Against	-12459
▁feeding	-12460
▁listing	-12461
▁tendency	-12462
Te	-12463
▁weigh	-12464
▁Monitor	-12465
▁marking	-12466
▁pricing	-12467
plete	-12468
▁irrespon	-12469
▁temporarily	-12470
▁irregularities	-12471
ITY	-12472
▁11,	-12473
racies	-12474
▁metals	-12475
▁preparatory	-12476
▁accessibility	-12477
sta	-12478
▁Tex	-12479
rapeut	-12480
▁continuity	-12481
▁encourages	-12482
bro	-12483
OTEL	-12484
ifier	-12485
▁toys	-12486
▁Computer	-12487
Hz	-12488
cury	-12489
piece	-12490
▁illness	-12491
gra	-12492
ourge	-12493
▁quoted	-12494
mid	-12495
▁Ni	-12496
▁Bonn	-12497
▁spreading	-12498
file	-12499
vote	-12500
▁Import	-12501
▁Deutsch	-12502
▁dioxide	-12503
▁gaining	-12504
▁withdrawn	-12505
een	-12506
▁Thai	-12507
▁grid	-12508
▁ment	-12509
defined	-12510
▁varying	-12511
▁pipeline	-12512
▁traditionally	-12513
acher	-12514
▁Broad	-12515
▁Cleaning	-12516
▁lifelong	-12517
▁limiting	-12518
▁unexpect	-12519
▁optimized	-12520
▁conscience	-12521
▁positively	-12522
:3	-12523
QU	-12524
▁Kling	-12525
▁dealers	-12526
▁Technologies	-12527
▁coordinating	-12528
otics	-12529
▁folk	-12530
▁outline	-12531
▁initiate	-12532
▁preserving	-12533
▁è	-12534
unc	-12535
aris	-12536
fram	-12537
▁HIV	-12538
▁posed	-12539
▁recreation	-12540
FOR	-12541
izar	-12542
▁Hosp	-12543
profit	-12544
▁banana	-12545
▁injury	-12546
▁stresses	-12547
▁responding	-12548
▁DJ	-12549
▁Fa	-12550
▁RA	-12551
▁Deep	-12552
atorium	-12553
▁Credit	-12554
▁exemption	-12555
▁counterpart	-12556
▁psychological	-12557
elli	-12558
▁grip	-12559
▁mines	-12560
▁wholly	-12561
ocopying	-12562
▁boutique	-12563
hot	-12564
▁Au	-12565
▁Prim	-12566
rowing	-12567
▁Confed	-12568
▁landing	-12569
▁inherent	-12570
▁Ukrainian	-12571
▁attending	-12572
▁Dor	-12573
pelled	-12574
▁credits	-12575
▁quarters	-12576
▁fulfilling	-12577
Des	-12578
jet	-12579
/2001	-12580
▁Incre	-12581
▁Tampere	-12582
▁unified	-12583
▁worried	-12584
▁Canadian	-12585
▁configured	-12586
dr	-12587
/199	-12588
uela	-12589
▁IBM	-12590
▁hur	-12591
▁wisdom	-12592
▁municipal	-12593
Sch	-12594
sement	-12595
ça	-12596
aine	-12597
▁Fern	-12598
▁earm	-12599
▁hosted	-12600
▁collecting	-12601
▁ic	-12602
▁Ten	-12603
▁interconn	-12604
▁productions	-12605
▁transnational	-12606
mers	-12607
▁Som	-12608
▁Force	-12609
▁halls	-12610
▁remed	-12611
abs	-12612
▁Kaz	-12613
▁Event	-12614
▁Hague	-12615
▁defeat	-12616
▁packed	-12617
▁kingdom	-12618
▁annually	-12619
▁deployment	-12620
kov	-12621
▁SDL	-12622
eenth	-12623
▁Ramb	-12624
▁batt	-12625
▁devote	-12626
▁singer	-12627
▁defines	-12628
▁queries	-12629
▁deficits	-12630
▁Instruments	-12631
▁descriptions	-12632
▁46	-12633
Card	-12634
▁sul	-12635
orously	-12636
▁studios	-12637
▁complied	-12638
▁earthquake	-12639
ре	-12640
▁BE	-12641
▁stretch	-12642
▁attacked	-12643
▁detected	-12644
▁cultivation	-12645
▁precautionary	-12646
lov	-12647
grim	-12648
▁Spec	-12649
▁wheels	-12650
▁gathering	-12651
▁launching	-12652
▁49	-12653
▁Kor	-12654
closure	-12655
stanbul	-12656
▁Nigeria	-12657
▁instruction	-12658
▁о	-12659
bits	-12660
▁10-	-12661
▁tons	-12662
▁Below	-12663
enaissance	-12664
▁possession	-12665
▁disadvantaged	-12666
OG	-12667
pot	-12668
seen	-12669
▁Cad	-12670
chair	-12671
▁penet	-12672
▁backup	-12673
▁vegetation	-12674
▁democratically	-12675
▁CE	-12676
ping	-12677
▁Past	-12678
▁Garda	-12679
▁updating	-12680
SM	-12681
chers	-12682
▁ALDE	-12683
cussions	-12684
▁turnover	-12685
My	-12686
Rule	-12687
▁Adjust	-12688
lon	-12689
range	-12690
estock	-12691
▁template	-12692
▁unauthor	-12693
▁networking	-12694
will	-12695
ilder	-12696
▁1991	-12697
▁Virt	-12698
▁Quite	-12699
▁Version	-12700
financing	-12701
▁instances	-12702
▁Düsseldorf	-12703
="	-12704
igo	-12705
▁".	-12706
▁Verhe	-12707
▁viruses	-12708
▁Official	-12709
▁monastery	-12710
▁automobile	-12711
▁contradiction	-12712
▁ber	-12713
imming	-12714
▁Battle	-12715
▁speeds	-12716
▁laundry	-12717
▁reminded	-12718
▁celebration	-12719
atial	-12720
ál	-12721
sky	-12722
▁54	-12723
olec	-12724
▁closest	-12725
▁refriger	-12726
▁multitude	-12727
▁corresponds	-12728
ipes	-12729
▁GMOs	-12730
▁bookings	-12731
wo	-12732
▁Diam	-12733
▁smell	-12734
3/	-12735
map	-12736
▁Hi	-12737
anted	-12738
▁FREE	-12739
▁hydraul	-12740
▁Chancell	-12741
▁drawings	-12742
▁inconsist	-12743
▁experiments	-12744
▁sin	-12745
▁sear	-12746
▁noisy	-12747
▁trials	-12748
▁shoulder	-12749
▁problematic	-12750
▁ok	-12751
▁Fun	-12752
▁Mare	-12753
▁Buyer	-12754
▁springs	-12755
▁captured	-12756
▁Verheugen	-12757
kin	-12758
▁shaped	-12759
▁impressed	-12760
▁@	-12761
anto	-12762
▁Ein	-12763
▁fut	-12764
▁Shan	-12765
▁tackled	-12766
▁donation	-12767
▁imagination	-12768
▁Mit	-12769
▁1996,	-12770
▁draws	-12771
▁stere	-12772
ountain	-12773
izations	-12774
▁qualification	-12775
bank	-12776
unge	-12777
▁overt	-12778
▁dealer	-12779
▁timing	-12780
▁objections	-12781
No	-12782
wear	-12783
asant	-12784
aucas	-12785
ranging	-12786
UK	-12787
udi	-12788
▁Watch	-12789
▁broadly	-12790
▁burning	-12791
▁facilitating	-12792
SCE	-12793
anes	-12794
onte	-12795
▁embargo	-12796
sl	-12797
fal	-12798
iop	-12799
▁File	-12800
▁nach	-12801
▁flora	-12802
▁hoping	-12803
▁consultants	-12804
ws	-12805
▁Corn	-12806
▁wash	-12807
▁indul	-12808
▁notify	-12809
▁settlements	-12810
▁threatening	-12811
onder	-12812
▁mast	-12813
▁Review	-12814
▁Tarifa	-12815
▁dispro	-12816
rapeutic	-12817
▁hygiene	-12818
▁varieties	-12819
▁cum	-12820
▁Fine	-12821
▁nick	-12822
▁idyll	-12823
verages	-12824
▁segments	-12825
▁deliveries	-12826
rend	-12827
▁Sab	-12828
▁Active	-12829
cessions	-12830
▁injection	-12831
NET	-12832
▁47	-12833
aran	-12834
▁Bag	-12835
Check	-12836
ocide	-12837
ulent	-12838
urable	-12839
▁Intel	-12840
▁passage	-12841
▁fortress	-12842
▁licences	-12843
▁diameter	-12844
▁currencies	-12845
▁meaningful	-12846
iga	-12847
sight	-12848
▁affair	-12849
▁deliberately	-12850
alm	-12851
icars	-12852
▁pair	-12853
▁archives	-12854
▁signatures	-12855
▁elimination	-12856
aca	-12857
ôte	-12858
▁Thy	-12859
▁Impro	-12860
▁Quick	-12861
▁Smart	-12862
▁dismiss	-12863
▁09	-12864
West	-12865
▁illum	-12866
▁manoeuv	-12867
▁incurred	-12868
▁fireplace	-12869
▁influences	-12870
▁revolutionary	-12871
▁”	-12872
inj	-12873
ôtel	-12874
bility	-12875
▁Fischler	-12876
▁economics	-12877
fish	-12878
break	-12879
▁Marc	-12880
▁barg	-12881
▁foss	-12882
▁donor	-12883
▁temple	-12884
▁broadband	-12885
▁enchanting	-12886
▁5%	-12887
▁Börse	-12888
▁Cambod	-12889
▁geared	-12890
▁trendy	-12891
▁Wikicars	-12892
▁intuitive	-12893
▁commissioned	-12894
rose	-12895
▁dimin	-12896
▁outer	-12897
▁umbre	-12898
▁Prince	-12899
▁aggressive	-12900
DC	-12901
reb	-12902
▁Esp	-12903
▁cosm	-12904
▁über	-12905
▁Brok	-12906
▁reign	-12907
▁anymore	-12908
▁Level	-12909
Germ	-12910
azzo	-12911
▁Source	-12912
neys	-12913
▁bass	-12914
▁Price	-12915
▁fridge	-12916
▁Century	-12917
▁sensors	-12918
▁distances	-12919
▁supporters	-12920
Photocopying	-12921
-,	-12922
.1	-12923
VC	-12924
▁Rou	-12925
▁eggs	-12926
▁Scandinav	-12927
▁popularity	-12928
INE	-12929
ader	-12930
▁EIB	-12931
▁Fac	-12932
▁tuna	-12933
▁lifting	-12934
▁align	-12935
▁underest	-12936
▁delightful	-12937
tex	-12938
▁GT	-12939
▁Share	-12940
▁Guinea	-12941
▁duplic	-12942
▁terrain	-12943
illes	-12944
▁Care	-12945
▁Core	-12946
▁preview	-12947
▁diagnost	-12948
▁livestock	-12949
▁replacing	-12950
▁Production	-12951
▁disappeared	-12952
1/	-12953
▁FR	-12954
▁Friend	-12955
▁cooperative	-12956
▁personalized	-12957
▁dear	-12958
▁motto	-12959
▁enrich	-12960
▁lecture	-12961
▁Colombia	-12962
▁Questions	-12963
▁incredibly	-12964
▁Č	-12965
inson	-12966
▁Lounge	-12967
speaking	-12968
▁Whatever	-12969
ouch	-12970
▁doz	-12971
▁OSCE	-12972
▁Quart	-12973
▁spark	-12974
▁gourmet	-12975
▁tutorial	-12976
▁relevance	-12977
▁rehabilitation	-12978
home	-12979
click	-12980
▁Cape	-12981
▁shif	-12982
ourcing	-12983
▁diesel	-12984
▁shapes	-12985
employed	-12986
▁categor	-12987
▁workflow	-12988
▁versatile	-12989
▁inequalities	-12990
discrimination	-12991
▁repercussions	-12992
47	-12993
falls	-12994
▁unch	-12995
▁fabrics	-12996
▁reveals	-12997
▁Kel	-12998
▁stro	-12999
apters	-13000
▁Seville	-13001
▁forbidden	-13002
▁architects	-13003
▁corporations	-13004
▁Ka	-13005
arious	-13006
controlled	-13007
▁recreational	-13008
▁verification	-13009
▁understandable	-13010
Tra	-13011
▁[[23	-13012
▁wing	-13013
▁boarding	-13014
▁promotional	-13015
▁52	-13016
opher	-13017
▁Future	-13018
▁Return	-13019
▁couldn	-13020
info	-13021
ratt	-13022
▁establ	-13023
▁aesthetic	-13024
▁Globalisation	-13025
terior	-13026
▁Neigh	-13027
▁99	-13028
▁Madeira	-13029
▁photographer	-13030
airo	-13031
▁shores	-13032
▁mathemat	-13033
▁enshrined	-13034
bot	-13035
▁Europa	-13036
▁guiding	-13037
▁colourful	-13038
▁variations	-13039
▁eliminating	-13040
▁bol	-13041
▁neo	-13042
▁patron	-13043
▁promenade	-13044
те	-13045
erk	-13046
mind	-13047
▁Mini	-13048
▁teeth	-13049
▁Saddam	-13050
▁Santer	-13051
▁Though	-13052
▁Classic	-13053
▁Renaissance	-13054
▁anticipated	-13055
sians	-13056
▁Bavaria	-13057
▁cocktail	-13058
▁feasible	-13059
▁Eri	-13060
▁decides	-13061
▁posting	-13062
TF	-13063
aro	-13064
▁(“	-13065
▁Turn	-13066
▁blend	-13067
▁attitudes	-13068
▁simulation	-13069
▁AF	-13070
▁Stef	-13071
▁fres	-13072
▁Haiti	-13073
▁Korean	-13074
▁frames	-13075
▁itiner	-13076
▁specification	-13077
HS	-13078
▁§	-13079
aid	-13080
egas	-13081
letes	-13082
▁accus	-13083
▁heaven	-13084
▁clarified	-13085
▁successes	-13086
▁brutal	-13087
▁Advanced	-13088
▁matching	-13089
▁slaughter	-13090
schaft	-13091
▁promptly	-13092
▁Directors	-13093
▁detriment	-13094
▁concessions	-13095
▁administrator	-13096
df	-13097
6-0	-13098
ersed	-13099
▁Scottish	-13100
▁seasonal	-13101
▁restriction	-13102
▁acou	-13103
▁grain	-13104
▁Journal	-13105
▁Pension	-13106
▁burdens	-13107
▁Istanbul	-13108
▁resident	-13109
bas	-13110
omo	-13111
roid	-13112
▁(2)	-13113
▁Fuj	-13114
▁Neg	-13115
▁cure	-13116
▁lush	-13117
▁Timor	-13118
▁repos	-13119
▁potato	-13120
üh	-13121
iat	-13122
sson	-13123
▁Beg	-13124
▁Canc	-13125
▁Sett	-13126
▁mira	-13127
▁attain	-13128
▁casual	-13129
▁resign	-13130
▁dropped	-13131
▁speculation	-13132
acter	-13133
▁Bart	-13134
▁tired	-13135
▁purchaser	-13136
▁documented	-13137
▁Competition	-13138
umns	-13139
ologist	-13140
portion	-13141
ropolis	-13142
▁attentive	-13143
▁Chancellor	-13144
oro	-13145
ped	-13146
iago	-13147
▁tens	-13148
▁escap	-13149
▁Orchestra	-13150
dy	-13151
abel	-13152
▁hind	-13153
azione	-13154
▁Virgin	-13155
▁pushed	-13156
▁Andreas	-13157
▁experimental	-13158
▁Sri	-13159
▁cyl	-13160
▁1989	-13161
▁myster	-13162
▁Championship	-13163
▁env	-13164
▁linen	-13165
▁painful	-13166
▁synthes	-13167
▁Universal	-13168
▁Revolution	-13169
▁criticisms	-13170
55	-13171
sq	-13172
ün	-13173
▁Od	-13174
▁enters	-13175
▁flower	-13176
▁revers	-13177
▁estimate	-13178
▁persuade	-13179
▁discounts	-13180
▁journalist	-13181
ECD	-13182
bek	-13183
▁ash	-13184
▁sau	-13185
▁Jord	-13186
▁lays	-13187
▁prol	-13188
▁seal	-13189
▁yacht	-13190
▁blocking	-13191
▁establishes	-13192
pi	-13193
away	-13194
oren	-13195
▁Dru	-13196
▁Barn	-13197
▁unsp	-13198
▁alleged	-13199
▁earliest	-13200
▁Yesterday	-13201
▁containers	-13202
400	-13203
sis	-13204
▁valleys	-13205
▁shortage	-13206
▁formulated	-13207
oa	-13208
ahl	-13209
▁bulk	-13210
▁assort	-13211
▁orange	-13212
▁writers	-13213
▁verified	-13214
harm	-13215
▁tear	-13216
boards	-13217
▁attracted	-13218
▁weaknesses	-13219
▁Ibiza	-13220
▁peaks	-13221
▁ranks	-13222
▁rigid	-13223
▁bridges	-13224
▁pursuit	-13225
▁rentals	-13226
▁accomplished	-13227
yr	-13228
ARD	-13229
▁Ill	-13230
▁unsu	-13231
▁scrat	-13232
▁sister	-13233
▁tongue	-13234
▁protein	-13235
▁wearing	-13236
▁diagnosis	-13237
▁recipient	-13238
▁biotechnology	-13239
CL	-13240
▁VI	-13241
enos	-13242
▁Cant	-13243
▁Color	-13244
iculous	-13245
▁geomet	-13246
▁Germans	-13247
▁applaud	-13248
89	-13249
elo	-13250
▁KG	-13251
bahn	-13252
sofar	-13253
▁ample	-13254
▁criticised	-13255
▁generating	-13256
cha	-13257
▁15,	-13258
▁Arm	-13259
▁animation	-13260
▁exercises	-13261
▁factories	-13262
oche	-13263
▁Ari	-13264
▁Gru	-13265
owned	-13266
ularly	-13267
▁Nobel	-13268
▁chips	-13269
▁dress	-13270
▁abolished	-13271
▁Way	-13272
▁Cash	-13273
▁lend	-13274
▁acute	-13275
▁sixth	-13276
forward	-13277
▁scenic	-13278
▁responded	-13279
▁obs	-13280
▁Lanz	-13281
▁Tokyo	-13282
▁snack	-13283
proofed	-13284
▁density	-13285
▁backdrop	-13286
▁democratisation	-13287
▁Ce	-13288
▁Herm	-13289
▁organizing	-13290
Do	-13291
▁Ot	-13292
iller	-13293
itary	-13294
▁leaf	-13295
▁harsh	-13296
▁tender	-13297
▁Certainly	-13298
▁constituency	-13299
iert	-13300
▁ampl	-13301
▁trick	-13302
▁bei	-13303
▁forever	-13304
▁retreat	-13305
▁genocide	-13306
▁overseas	-13307
▁occasionally	-13308
▁GR	-13309
▁consec	-13310
▁Kurdish	-13311
▁phenomena	-13312
▁recession	-13313
▁Pent	-13314
▁sehr	-13315
▁allev	-13316
▁emotions	-13317
▁portable	-13318
▁'''	-13319
▁Eure	-13320
▁Requ	-13321
▁Trib	-13322
▁Starting	-13323
▁170	-13324
▁LAN	-13325
▁Link	-13326
▁trek	-13327
▁Imper	-13328
▁Naples	-13329
▁suspic	-13330
▁Olympus	-13331
▁optimization	-13332
anium	-13333
▁Holland	-13334
▁stricter	-13335
▁hospitals	-13336
wig	-13337
▁41	-13338
inner	-13339
▁Meas	-13340
▁1998.	-13341
▁Hamas	-13342
▁intim	-13343
▁varies	-13344
▁seating	-13345
▁designing	-13346
▁screening	-13347
▁eliminated	-13348
▁worthwhile	-13349
▁instability	-13350
▁coin	-13351
▁Peters	-13352
▁tissue	-13353
▁magical	-13354
▁shipment	-13355
▁additives	-13356
▁appalling	-13357
uits	-13358
chell	-13359
itory	-13360
▁disarm	-13361
▁encryption	-13362
▁recordings	-13363
aki	-13364
lez	-13365
illo	-13366
rency	-13367
determ	-13368
master	-13369
▁tanks	-13370
▁chronic	-13371
▁mankind	-13372
▁altogether	-13373
▁renovation	-13374
vin	-13375
arts	-13376
▁Bow	-13377
▁Cry	-13378
▁Loc	-13379
itual	-13380
▁vague	-13381
▁copper	-13382
▁enemies	-13383
▁gratitude	-13384
▁positioned	-13385
GE	-13386
Serv	-13387
asma	-13388
icism	-13389
uerte	-13390
▁Band	-13391
▁Fact	-13392
▁gaps	-13393
▁costly	-13394
▁injured	-13395
▁composer	-13396
▁coalition	-13397
sted	-13398
▁Sure	-13399
▁neck	-13400
▁Drive	-13401
umption	-13402
▁awaiting	-13403
▁magnetic	-13404
NGL	-13405
dorf	-13406
▁IMF	-13407
▁nan	-13408
▁Mail	-13409
amente	-13410
inatory	-13411
▁privilege	-13412
▁submitting	-13413
IVE	-13414
pan	-13415
vic	-13416
▁06	-13417
▁Miss	-13418
▁pity	-13419
enberg	-13420
▁longest	-13421
▁memorable	-13422
▁strongest	-13423
▁PM	-13424
arte	-13425
▁360	-13426
▁Eric	-13427
▁Pract	-13428
▁brown	-13429
▁announc	-13430
▁harmonise	-13431
▁participant	-13432
-7	-13433
®,	-13434
▁esc	-13435
▁amate	-13436
▁arena	-13437
▁escal	-13438
▁timber	-13439
▁abstract	-13440
▁illegally	-13441
▁interfere	-13442
▁recommends	-13443
▁SH	-13444
▁Dat	-13445
▁Sul	-13446
▁scept	-13447
▁laptop	-13448
AK	-13449
UD	-13450
ILL	-13451
ghai	-13452
▁vor	-13453
▁phases	-13454
▁paradox	-13455
▁activists	-13456
▁intensity	-13457
▁perceived	-13458
▁documentary	-13459
▁civilisation	-13460
44	-13461
▁oven	-13462
istant	-13463
▁Gothic	-13464
initiative	-13465
▁Monti	-13466
▁makers	-13467
iplinary	-13468
▁issuing	-13469
omic	-13470
▁horm	-13471
▁recur	-13472
▁truck	-13473
▁connects	-13474
▁defended	-13475
▁Beautiful	-13476
▁Political	-13477
▁subsidiaries	-13478
lie	-13479
enza	-13480
▁Around	-13481
▁Balkan	-13482
▁simpler	-13483
▁licenses	-13484
▁Liberties	-13485
wed	-13486
quer	-13487
stop	-13488
▁Ell	-13489
▁broke	-13490
▁accurately	-13491
▁financially	-13492
▁Sho	-13493
▁....	-13494
▁exac	-13495
▁rhet	-13496
▁rice	-13497
anquet	-13498
▁surplus	-13499
▁Scientific	-13500
▁RF	-13501
▁WE	-13502
amer	-13503
▁191	-13504
▁dol	-13505
urity	-13506
▁suits	-13507
▁Police	-13508
▁argued	-13509
▁gladly	-13510
▁disrupt	-13511
Cont	-13512
onal	-13513
▁hoc	-13514
▁Sien	-13515
▁inval	-13516
▁degrad	-13517
▁reorgan	-13518
also	-13519
wick	-13520
▁Low	-13521
▁Cold	-13522
▁Flex	-13523
▁alien	-13524
▁inserted	-13525
▁motivation	-13526
pat	-13527
▁Mu	-13528
prot	-13529
▁Brun	-13530
▁prud	-13531
alysis	-13532
▁Santiago	-13533
▁deployed	-13534
▁EG	-13535
arov	-13536
hole	-13537
ussy	-13538
▁Face	-13539
▁Purch	-13540
▁slide	-13541
▁Serbian	-13542
▁accessing	-13543
▁benchmark	-13544
▁Poly	-13545
▁Cypri	-13546
▁Maybe	-13547
▁Wales	-13548
▁sunsh	-13549
▁Columb	-13550
▁butter	-13551
▁exacerb	-13552
▁Panasonic	-13553
▁pesticides	-13554
▁neighborhood	-13555
amics	-13556
▁Lido	-13557
▁mile	-13558
▁Prior	-13559
▁fairs	-13560
▁loose	-13561
▁liberty	-13562
▁interoper	-13563
▁translators	-13564
(2)	-13565
AST	-13566
▁90%	-13567
▁Nazi	-13568
▁juice	-13569
▁Available	-13570
▁wholeheartedly	-13571
▁Pi	-13572
illon	-13573
▁grav	-13574
▁Guard	-13575
▁tastes	-13576
▁corrected	-13577
▁dramatically	-13578
▁ré	-13579
▁Tob	-13580
friend	-13581
▁Parad	-13582
▁midst	-13583
▁Resolution	-13584
▁demonstrating	-13585
▁disproportion	-13586
▁mead	-13587
▁scarce	-13588
▁incomes	-13589
whe	-13590
▁Almost	-13591
▁exceeded	-13592
CR	-13593
▁dub	-13594
▁bikes	-13595
▁english	-13596
▁Copyright	-13597
▁compensate	-13598
omin	-13599
▁FAQ	-13600
atable	-13601
▁Multi	-13602
▁Conver	-13603
▁tensions	-13604
▁expecting	-13605
ún	-13606
Bar	-13607
coni	-13608
type	-13609
▁Pra	-13610
▁Tat	-13611
▁nut	-13612
itement	-13613
▁Caucas	-13614
▁commem	-13615
▁premature	-13616
▁capitalism	-13617
▁beneficiaries	-13618
▁",	-13619
adel	-13620
▁Sax	-13621
▁slot	-13622
▁buffer	-13623
▁prizes	-13624
▁Democracy	-13625
▁installer	-13626
avan	-13627
sein	-13628
Image	-13629
▁Barb	-13630
▁dryer	-13631
▁Harbour	-13632
▁surfing	-13633
ictionary	-13634
▁confronted	-13635
East	-13636
taining	-13637
▁reluct	-13638
▁testim	-13639
▁likewise	-13640
hill	-13641
▁13,	-13642
▁como	-13643
▁calib	-13644
▁fauna	-13645
▁thrown	-13646
▁idyllic	-13647
▁placement	-13648
▁viewpoint	-13649
▁exhibitors	-13650
▁Accordingly	-13651
▁aspirations	-13652
▁Jar	-13653
▁bone	-13654
▁remun	-13655
▁Arctic	-13656
▁harder	-13657
▁massac	-13658
ellschaft	-13659
▁bankrupt	-13660
▁emphasises	-13661
yt	-13662
sim	-13663
▁Na	-13664
gard	-13665
▁Map	-13666
icide	-13667
▁Adam	-13668
▁diff	-13669
▁allies	-13670
▁alarming	-13671
▁Sz	-13672
iating	-13673
itology	-13674
▁electro	-13675
▁prolong	-13676
▁nationality	-13677
▁transposition	-13678
▁Nu	-13679
▁zum	-13680
oping	-13681
ulsion	-13682
▁traces	-13683
▁substitute	-13684
▁enthusiasts	-13685
▁Airconditioning	-13686
ORE	-13687
▁LE	-13688
oute	-13689
▁Pool	-13690
ometer	-13691
▁robots	-13692
▁prevail	-13693
▁ecommerce	-13694
▁expresses	-13695
▁indicating	-13696
▁propaganda	-13697
▁tv	-13698
▁Gir	-13699
▁fragile	-13700
▁holders	-13701
One	-13702
uba	-13703
▁GUE	-13704
FT	-13705
Eng	-13706
developed	-13707
▁licensing	-13708
▁socialist	-13709
eu	-13710
fold	-13711
▁Caf	-13712
▁oils	-13713
▁multiannual	-13714
▁radioactive	-13715
▁DG	-13716
fund	-13717
pered	-13718
▁1995,	-13719
▁yours	-13720
chester	-13721
▁Philipp	-13722
▁biofuels	-13723
▁peninsula	-13724
▁incomplete	-13725
▁recruitment	-13726
ALL	-13727
▁demo	-13728
▁gifts	-13729
▁college	-13730
▁pushing	-13731
▁adapting	-13732
▁objection	-13733
73	-13734
ACK	-13735
▁coun	-13736
▁subt	-13737
lywood	-13738
public	-13739
▁lawyer	-13740
▁parish	-13741
▁anybody	-13742
▁mothers	-13743
▁incoming	-13744
▁appearing	-13745
▁postponed	-13746
asa	-13747
ismo	-13748
arote	-13749
▁wins	-13750
ername	-13751
▁crash	-13752
▁Antonio	-13753
▁reconstruct	-13754
design	-13755
▁faire	-13756
▁borrow	-13757
▁legacy	-13758
▁onwards	-13759
▁lifetime	-13760
▁optimize	-13761
▁EB	-13762
▁Cala	-13763
▁tall	-13764
▁powder	-13765
▁tariffs	-13766
▁Fourthly	-13767
▁catastrop	-13768
▁professionalism	-13769
MI	-13770
cedes	-13771
ector	-13772
▁crus	-13773
▁nest	-13774
hausen	-13775
▁cruel	-13776
▁chapters	-13777
▁ideology	-13778
ERV	-13779
▁Ott	-13780
▁Prix	-13781
▁aged	-13782
▁mixing	-13783
▁friendship	-13784
▁Installation	-13785
▁dell	-13786
▁Tuscan	-13787
▁Thyssen	-13788
▁Shanghai	-13789
▁generates	-13790
▁purchases	-13791
▁applicants	-13792
▁regulating	-13793
▁requesting	-13794
▁appropriately	-13795
MB	-13796
icts	-13797
▁Gib	-13798
berry	-13799
▁cozy	-13800
▁pragmatic	-13801
▁conversation	-13802
▁disappointment	-13803
TE	-13804
adi	-13805
cam	-13806
bath	-13807
▁Kit	-13808
▁cher	-13809
▁Taking	-13810
▁chains	-13811
▁Angeles	-13812
▁beginners	-13813
76	-13814
plant	-13815
▁matt	-13816
hesive	-13817
ividual	-13818
▁binary	-13819
▁deploy	-13820
▁rhythm	-13821
▁formerly	-13822
▁proprietary	-13823
wid	-13824
▁Marx	-13825
▁expects	-13826
▁distortion	-13827
▁inequality	-13828
▁contamination	-13829
ér	-13830
▁OECD	-13831
▁icons	-13832
▁unrest	-13833
▁Jacuzzi	-13834
▁Various	-13835
▁manages	-13836
▁upgraded	-13837
acon	-13838
▁Five	-13839
▁chest	-13840
▁dated	-13841
▁Studies	-13842
▁fitting	-13843
▁enforced	-13844
▁invasion	-13845
▁displaced	-13846
▁Application	-13847
▁Vil	-13848
▁bin	-13849
▁inaug	-13850
venient	-13851
stically	-13852
▁Material	-13853
▁unlikely	-13854
▁Collection	-13855
▁destroying	-13856
PG	-13857
▁Hann	-13858
▁tied	-13859
▁Apache	-13860
▁resistant	-13861
▁cro	-13862
iders	-13863
onial	-13864
▁Days	-13865
▁tent	-13866
ilings	-13867
▁horny	-13868
▁Prices	-13869
▁console	-13870
▁republic	-13871
▁encouragement	-13872
MC	-13873
▁Fon	-13874
▁erect	-13875
▁exported	-13876
▁proclaim	-13877
▁symptoms	-13878
▁methodology	-13879
ва	-13880
▁Dyn	-13881
▁Berl	-13882
▁dense	-13883
▁informations	-13884
▁protectionism	-13885
▁Cos	-13886
▁Pod	-13887
check	-13888
▁Save	-13889
▁pumps	-13890
▁stack	-13891
▁roughly	-13892
▁seasons	-13893
▁Nowadays	-13894
mal	-13895
canic	-13896
▁aven	-13897
▁grasp	-13898
attered	-13899
▁hybrid	-13900
▁marvell	-13901
▁treating	-13902
▁violated	-13903
▁concluding	-13904
▁tastefully	-13905
▁archaeological	-13906
obs	-13907
▁DS	-13908
▁mud	-13909
activ	-13910
▁hint	-13911
▁1997.	-13912
▁Albert	-13913
▁crafts	-13914
▁minors	-13915
▁confused	-13916
▁//	-13917
▁ALL	-13918
▁Mol	-13919
▁WIT	-13920
Banquet	-13921
▁Hitler	-13922
▁Palacio	-13923
▁celebrations	-13924
ospace	-13925
▁elite	-13926
▁Ethiop	-13927
▁Respon	-13928
▁learnt	-13929
▁castles	-13930
▁Lanzarote	-13931
▁tournaments	-13932
▁Ges	-13933
arten	-13934
▁shed	-13935
▁Steel	-13936
▁remit	-13937
▁awaits	-13938
▁cellar	-13939
▁suspend	-13940
▁momentum	-13941
▁competing	-13942
▁draftsman	-13943
▁conditioned	-13944
▁vulnerability	-13945
akis	-13946
anne	-13947
▁Gab	-13948
▁Flor	-13949
▁cant	-13950
strasse	-13951
▁columns	-13952
▁sentences	-13953
▁Juan	-13954
▁portray	-13955
COD	-13956
▁Ober	-13957
▁vous	-13958
▁Speed	-13959
▁Jackson	-13960
▁Parking	-13961
▁voltage	-13962
▁totalitarian	-13963
abeth	-13964
isers	-13965
▁Mars	-13966
▁meter	-13967
▁pupils	-13968
▁Limited	-13969
▁pending	-13970
▁offences	-13971
erred	-13972
owered	-13973
▁Built	-13974
▁Victoria	-13975
▁donations	-13976
▁misleading	-13977
ete	-13978
rez	-13979
door	-13980
utable	-13981
▁Blair	-13982
▁Volks	-13983
▁poorer	-13984
▁seller	-13985
DVD	-13986
▁shield	-13987
▁Particip	-13988
▁travelers	-13989
▁Fortunately	-13990
▁Sof	-13991
urfing	-13992
▁Perfect	-13993
▁thirdly	-13994
▁Democrat	-13995
▁ink	-13996
month	-13997
▁embark	-13998
▁punish	-13999
▁foresee	-14000
eno	-14001
aver	-14002
unal	-14003
▁Sor	-14004
▁qui	-14005
▁merit	-14006
▁hereby	-14007
▁2007-20	-14008
▁Premium	-14009
▁Tibetan	-14010
▁generic	-14011
▁showers	-14012
anni	-14013
chest	-14014
▁Dark	-14015
▁caut	-14016
▁rises	-14017
rehensible	-14018
▁halt	-14019
▁cafes	-14020
iciencies	-14021
▁Complete	-14022
▁pou	-14023
▁Muslims	-14024
▁stadium	-14025
▁protests	-14026
▁qualitative	-14027
gt	-14028
isse	-14029
razy	-14030
▁DIN	-14031
▁dan	-14032
izard	-14033
▁Keep	-14034
▁frozen	-14035
▁lengthy	-14036
▁literary	-14037
▁occurring	-14038
▁internally	-14039
▁iz	-14040
▁Rol	-14041
▁Sus	-14042
▁Franz	-14043
▁Upper	-14044
itherto	-14045
▁consultancy	-14046
▁intermediate	-14047
pal	-14048
ften	-14049
that	-14050
▁Aer	-14051
▁Bib	-14052
charg	-14053
▁1930	-14054
▁fleets	-14055
▁Slovenian	-14056
▁forecasts	-14057
▁comitology	-14058
isi	-14059
▁Ep	-14060
rada	-14061
▁60%	-14062
ennis	-14063
teness	-14064
▁urged	-14065
▁Basque	-14066
▁locals	-14067
▁picked	-14068
▁weakness	-14069
▁beverages	-14070
▁cocktails	-14071
▁Bot	-14072
ronze	-14073
▁likes	-14074
▁severely	-14075
osh	-14076
▁erg	-14077
liche	-14078
▁boys	-14079
▁Still	-14080
▁motors	-14081
▁sooner	-14082
▁Customs	-14083
existence	-14084
▁continents	-14085
▁therapeutic	-14086
▁deterioration	-14087
▁Ci	-14088
abul	-14089
size	-14090
▁Alc	-14091
▁Ist	-14092
▁inac	-14093
▁balconies	-14094
▁exemplary	-14095
▁mentioning	-14096
▁kitchenette	-14097
▁condemnation	-14098
▁56	-14099
▁gig	-14100
▁José	-14101
▁assumes	-14102
▁singing	-14103
▁precedent	-14104
▁disability	-14105
/97	-14106
OME	-14107
▁SMS	-14108
▁triple	-14109
▁submission	-14110
▁RI	-14111
▁yea	-14112
▁spin	-14113
▁junior	-14114
▁footing	-14115
▁touched	-14116
▁Baroness	-14117
▁charging	-14118
▁smoothly	-14119
▁realization	-14120
▁stimulating	-14121
88	-14122
▁Wine	-14123
▁dock	-14124
▁tune	-14125
▁excav	-14126
▁adhere	-14127
▁fossil	-14128
▁caution	-14129
▁counting	-14130
ли	-14131
ASE	-14132
▁jac	-14133
▁moon	-14134
▁palm	-14135
▁compress	-14136
▁enthusiastic	-14137
dig	-14138
▁88	-14139
▁Et	-14140
▁70%	-14141
jamin	-14142
▁aren	-14143
▁indu	-14144
▁Cuban	-14145
▁Cubase	-14146
▁towers	-14147
ologists	-14148
▁Hussein	-14149
▁enjoyment	-14150
▁successor	-14151
▁fashionable	-14152
▁Mé	-14153
▁9001	-14154
▁AKVIS	-14155
▁Audio	-14156
▁Temple	-14157
▁ceilings	-14158
▁somebody	-14159
▁realities	-14160
▁Amaz	-14161
▁Graz	-14162
▁eager	-14163
embered	-14164
▁hydraulic	-14165
▁prostitution	-14166
72	-14167
▁Ori	-14168
▁jam	-14169
ashes	-14170
▁incap	-14171
▁reloc	-14172
▁Avenue	-14173
▁Effect	-14174
▁passive	-14175
▁NO	-14176
racle	-14177
anship	-14178
scribe	-14179
▁trucks	-14180
wald	-14181
▁lav	-14182
attan	-14183
▁Vinc	-14184
▁drew	-14185
aciones	-14186
▁Emperor	-14187
▁entails	-14188
▁volcano	-14189
▁comprising	-14190
▁investigated	-14191
lies	-14192
▁fon	-14193
athon	-14194
▁Fuerte	-14195
▁emails	-14196
▁refresh	-14197
▁unequiv	-14198
▁Initiative	-14199
▁monopolies	-14200
го	-14201
etic	-14202
pres	-14203
ston	-14204
▁outs	-14205
▁pubs	-14206
▁molec	-14207
▁consciousness	-14208
▁72	-14209
alet	-14210
▁Rim	-14211
▁eru	-14212
▁sie	-14213
▁font	-14214
▁Aires	-14215
▁redist	-14216
▁desires	-14217
▁Caucasus	-14218
▁creatures	-14219
▁assumption	-14220
▁stipulated	-14221
ysi	-14222
path	-14223
▁Anna	-14224
▁slave	-14225
▁earnings	-14226
10.	-14227
aren	-14228
▁jury	-14229
▁debut	-14230
section	-14231
▁static	-14232
▁notable	-14233
icia	-14234
ocial	-14235
ainted	-14236
▁INTER	-14237
▁afore	-14238
▁dirty	-14239
▁grace	-14240
▁thrust	-14241
iants	-14242
▁fuck	-14243
▁Currency	-14244
▁Neighbour	-14245
SD	-14246
▁hath	-14247
erness	-14248
lining	-14249
▁copied	-14250
▁judged	-14251
▁Property	-14252
▁mutually	-14253
▁sciences	-14254
flo	-14255
ulus	-14256
▁GBP	-14257
▁pam	-14258
bella	-14259
▁moratorium	-14260
(1)	-14261
▁jewel	-14262
▁warmth	-14263
▁childhood	-14264
▁reflecting	-14265
▁Km	-14266
▁Buch	-14267
▁drama	-14268
ICE	-14269
jek	-14270
olas	-14271
▁Awards	-14272
▁eleven	-14273
▁render	-14274
▁traveling	-14275
otes	-14276
▁fur	-14277
nergies	-14278
▁county	-14279
▁grapes	-14280
contract	-14281
▁flavour	-14282
▁organisms	-14283
▁democracies	-14284
▁Table	-14285
▁Little	-14286
▁biking	-14287
▁powered	-14288
▁cosmetic	-14289
▁differing	-14290
▁servants	-14291
▁xenophobia	-14292
▁expressions	-14293
onz	-14294
idencies	-14295
outheast	-14296
▁champion	-14297
▁pressures	-14298
/2001)	-14299
verest	-14300
▁drain	-14301
▁Ironing	-14302
▁theater	-14303
▁protocols	-14304
▁realisation	-14305
aysia	-14306
▁Kinn	-14307
parable	-14308
▁absent	-14309
не	-14310
fix	-14311
non	-14312
▁Mug	-14313
▁jet	-14314
▁logos	-14315
▁barely	-14316
▁supplying	-14317
▁attributes	-14318
▁capitalist	-14319
▁understands	-14320
)).	-14321
▁450	-14322
letion	-14323
▁ceramic	-14324
▁Provence	-14325
▁massages	-14326
▁murdered	-14327
ertainment	-14328
▁anonymous	-14329
▁inventory	-14330
▁snowboard	-14331
▁harmonious	-14332
asi	-14333
▁53	-14334
track	-14335
▁Date	-14336
▁Verts	-14337
American	-14338
▁somehow	-14339
▁threaten	-14340
DEN	-14341
▁HT	-14342
▁dare	-14343
▁Blizz	-14344
▁Dream	-14345
▁abolish	-14346
▁frankly	-14347
▁Interest	-14348
▁entirety	-14349
▁Consulting	-14350
1]	-14351
▁51	-14352
▁CC	-14353
iang	-14354
▁Pub	-14355
▁Less	-14356
▁disappointing	-14357
▁irresponsible	-14358
\"	-14359
IES	-14360
▁20,	-14361
▁Fly	-14362
first	-14363
third	-14364
Germany	-14365
▁deport	-14366
▁engineer	-14367
▁weekends	-14368
▁prejudice	-14369
79	-14370
bey	-14371
ctu	-14372
vas	-14373
thod	-14374
▁lady	-14375
rorism	-14376
▁institutes	-14377
▁Manh	-14378
▁Name	-14379
▁Magic	-14380
▁mature	-14381
▁abortion	-14382
▁determines	-14383
-6	-14384
FS	-14385
▁BR	-14386
garve	-14387
igation	-14388
working	-14389
▁brochure	-14390
▁д	-14391
▁Ri	-14392
Tech	-14393
assy	-14394
▁Appl	-14395
▁fifty	-14396
▁handy	-14397
▁Kinnock	-14398
▁lectures	-14399
▁patented	-14400
▁Customers	-14401
▁redundant	-14402
▁recognising	-14403
▁straightforward	-14404
shore	-14405
▁Medic	-14406
▁insult	-14407
▁pixels	-14408
▁synthetic	-14409
▁combinations	-14410
atri	-14411
pical	-14412
iciary	-14413
▁bonds	-14414
▁disgrace	-14415
▁Throughout	-14416
▁obligatory	-14417
43	-14418
öl	-14419
aba	-14420
ask	-14421
lay	-14422
minded	-14423
growing	-14424
istically	-14425
▁administrations	-14426
cm	-14427
▁Bio	-14428
▁arisen	-14429
▁Bavarian	-14430
▁plastics	-14431
▁ze	-14432
ogene	-14433
▁veto	-14434
▁Buenos	-14435
▁bananas	-14436
▁dancing	-14437
▁Leonardo	-14438
▁devastating	-14439
ipel	-14440
▁13.	-14441
▁Fig	-14442
unches	-14443
▁opposing	-14444
▁publicity	-14445
▁marvellous	-14446
▁Supp	-14447
▁dece	-14448
▁Alpha	-14449
▁Regions	-14450
▁switching	-14451
▁volunteers	-14452
▁ASE	-14453
▁MID	-14454
▁Fall	-14455
berger	-14456
▁pocket	-14457
▁Granada	-14458
▁unclear	-14459
▁Whenever	-14460
▁deprived	-14461
▁mounting	-14462
▁reformed	-14463
▁dedication	-14464
▁explanatory	-14465
▁traceability	-14466
ль	-14467
isible	-14468
▁patio	-14469
▁multif	-14470
▁Voyager	-14471
▁excluding	-14472
▁transferring	-14473
”)	-14474
ERT	-14475
▁58	-14476
uttle	-14477
▁Ideal	-14478
▁swiftly	-14479
▁volcanic	-14480
▁infection	-14481
▁Communities	-14482
▁approaching	-14483
änd	-14484
▁на	-14485
alon	-14486
iban	-14487
▁aux	-14488
aneous	-14489
▁petrol	-14490
▁employer	-14491
▁templates	-14492
▁cooperating	-14493
▁Lot	-14494
alian	-14495
▁Schn	-14496
▁Send	-14497
▁Course	-14498
▁subway	-14499
▁writes	-14500
▁Majorca	-14501
▁reimbur	-14502
▁conceived	-14503
▁breakthrough	-14504
earing	-14505
▁1,000	-14506
thernet	-14507
▁harass	-14508
▁virtue	-14509
▁Channel	-14510
▁pilgrim	-14511
▁peripheral	-14512
.-	-14513
ка	-14514
Man	-14515
▁Sn	-14516
▁API	-14517
▁rug	-14518
▁intr	-14519
▁resume	-14520
▁secular	-14521
▁brothers	-14522
▁Architect	-14523
▁disparities	-14524
7%	-14525
Free	-14526
block	-14527
riven	-14528
thumb	-14529
levard	-14530
▁Visual	-14531
▁Reserve	-14532
▁Monitoring	-14533
▁unexpected	-14534
eken	-14535
▁Kam	-14536
▁bund	-14537
▁Bundes	-14538
▁foreigners	-14539
▁remembered	-14540
chl	-14541
best	-14542
▁REACH	-14543
▁altered	-14544
▁specialties	-14545
▁calculations	-14546
▁completeness	-14547
46	-14548
FA	-14549
▁Fal	-14550
▁Sis	-14551
▁asp	-14552
▁Rand	-14553
▁cache	-14554
▁allerg	-14555
▁ritual	-14556
▁corners	-14557
▁shaping	-14558
▁earmarked	-14559
CNS	-14560
ska	-14561
▁96	-14562
▁py	-14563
aved	-14564
city	-14565
ieth	-14566
rupp	-14567
▁muy	-14568
▁wir	-14569
mente	-14570
▁Dial	-14571
▁grade	-14572
▁slope	-14573
▁curious	-14574
▁criticise	-14575
▁extensions	-14576
▁highlighting	-14577
ATE	-14578
▁verd	-14579
▁loads	-14580
ructive	-14581
▁Darfur	-14582
▁Easter	-14583
▁browse	-14584
▁Marbella	-14585
▁advocates	-14586
▁simplifying	-14587
oors	-14588
▁ble	-14589
backs	-14590
nings	-14591
▁unav	-14592
▁Analy	-14593
▁HOTEL	-14594
▁invalid	-14595
▁mentions	-14596
▁terminals	-14597
ATA	-14598
oise	-14599
▁boom	-14600
▁pist	-14601
▁gorge	-14602
▁Province	-14603
▁commodity	-14604
▁quantitative	-14605
▁incorporating	-14606
bled	-14607
ashed	-14608
▁Klaus	-14609
install	-14610
ensively	-14611
▁Malaysia	-14612
▁sunshine	-14613
▁NH	-14614
▁gau	-14615
orical	-14616
▁poses	-14617
▁Sciences	-14618
del	-14619
▁más	-14620
ellen	-14621
▁Soft	-14622
▁fing	-14623
etooth	-14624
▁moist	-14625
▁Jordan	-14626
▁senses	-14627
▁Machine	-14628
▁astronom	-14629
▁indicator	-14630
▁positioning	-14631
▁reproductive	-14632
▁Alternatively	-14633
▁Neighbourhood	-14634
anti	-14635
▁Rog	-14636
▁alqu	-14637
▁café	-14638
▁Trust	-14639
balanced	-14640
▁corrupt	-14641
▁fruitful	-14642
▁Brazilian	-14643
Sc	-14644
ergy	-14645
▁Hat	-14646
ungle	-14647
▁Sher	-14648
▁guys	-14649
rolean	-14650
ounding	-14651
▁Eurostat	-14652
▁1920	-14653
▁Born	-14654
▁Poet	-14655
▁alle	-14656
▁rows	-14657
▁Kunst	-14658
▁injust	-14659
▁merits	-14660
▁Mercedes	-14661
▁theatres	-14662
▁privatisation	-14663
To	-14664
agu	-14665
bird	-14666
gging	-14667
ignano	-14668
▁Euroc	-14669
▁compan	-14670
▁welding	-14671
▁Companies	-14672
▁Abu	-14673
▁Hof	-14674
roots	-14675
store	-14676
▁medi	-14677
▁reads	-14678
▁Philip	-14679
▁Already	-14680
▁casting	-14681
▁Egyptian	-14682
▁infected	-14683
▁exercised	-14684
▁scenarios	-14685
igl	-14686
ivo	-14687
lette	-14688
ronics	-14689
▁marina	-14690
▁Venetian	-14691
▁emergence	-14692
▁Australian	-14693
▁accountable	-14694
ów	-14695
uite	-14696
▁RES	-14697
▁Carm	-14698
▁Type	-14699
direct	-14700
▁filed	-14701
▁quart	-14702
▁touches	-14703
▁discovering	-14704
▁SIM	-14705
/2003	-14706
▁bets	-14707
▁Tools	-14708
▁seeds	-14709
▁Editor	-14710
▁metall	-14711
▁incompatible	-14712
▁contradictory	-14713
PO	-14714
achts	-14715
▁Self	-14716
straße	-14717
▁Chern	-14718
▁march	-14719
ulative	-14720
▁recept	-14721
▁circles	-14722
▁copying	-14723
▁recital	-14724
▁editorial	-14725
▁excursion	-14726
"),	-14727
▁CV	-14728
▁Ko	-14729
▁Oslo	-14730
▁Henry	-14731
▁salaries	-14732
▁nominated	-14733
▁nutrition	-14734
▁attributed	-14735
▁interviews	-14736
▁multinationals	-14737
ifi	-14738
▁Ages	-14739
▁Magaz	-14740
henburg	-14741
▁assass	-14742
▁extrad	-14743
▁fathers	-14744
▁insofar	-14745
▁confined	-14746
▁Paragraph	-14747
▁judiciary	-14748
▁relatives	-14749
▁->	-14750
gone	-14751
▁Char	-14752
▁Qual	-14753
▁hell	-14754
▁Goals	-14755
▁chrom	-14756
▁realm	-14757
▁salary	-14758
▁exterior	-14759
▁underpin	-14760
▁Manhattan	-14761
▁interiors	-14762
▁professions	-14763
/3	-14764
Bl	-14765
▁3.5	-14766
▁vel	-14767
apsed	-14768
idation	-14769
▁restart	-14770
aundering	-14771
[...]
