<unk>	0
<pad>	0
<bos>	0
<eos>	0
▁t	-0
▁th	-1
▁a	-2
in	-3
▁w	-4
▁the	-5
re	-6
▁o	-7
▁s	-8
at	-9
er	-10
nd	-11
ou	-12
▁c	-13
is	-14
it	-15
▁b	-16
ing	-17
▁m	-18
en	-19
▁h	-20
on	-21
▁to	-22
▁p	-23
▁f	-24
an	-25
es	-26
▁d	-27
▁of	-28
ll	-29
or	-30
▁in	-31
▁I	-32
▁and	-33
▁l	-34
ed	-35
ar	-36
▁y	-37
▁that	-38
om	-39
▁g	-40
as	-41
ic	-42
▁you	-43
le	-44
ve	-45
al	-46
▁we	-47
▁n	-48
▁wh	-49
ow	-50
▁is	-51
▁A	-52
▁e	-53
us	-54
▁be	-55
ut	-56
▁it	-57
ion	-58
ot	-59
et	-60
▁T	-61
▁re	-62
▁ha	-63
ent	-64
ct	-65
▁on	-66
ld	-67
ver	-68
▁And	-69
ay	-70
id	-71
▁Th	-72
all	-73
se	-74
▁this	-75
im	-76
st	-77
▁S	-78
ig	-79
ro	-80
ere	-81
ur	-82
ly	-83
▁st	-84
ch	-85
ke	-86
ce	-87
▁for	-88
if	-89
▁was	-90
ra	-91
▁W	-92
ir	-93
▁an	-94
▁do	-95
▁are	-96
oo	-97
ith	-98
ally	-99
op	-100
th	-101
am	-102
▁have	-103
▁with	-104
▁ab	-105
▁-	-106
▁they	-107
▁k	-108
▁u	-109
▁se	-110
▁can	-111
▁B	-112
ation	-113
▁as	-114
out	-115
▁mo	-116
ht	-117
▁li	-118
▁go	-119
▁so	-120
▁what	-121
▁So	-122
ad	-123
▁wor	-124
▁com	-125
▁he	-126
very	-127
ill	-128
ould	-129
▁at	-130
▁me	-131
▁sh	-132
▁about	-133
▁ne	-134
ant	-135
▁not	-136
ter	-137
ge	-138
il	-139
▁all	-140
ul	-141
ol	-142
ust	-143
▁The	-144
▁j	-145
▁fr	-146
▁ex	-147
ers	-148
use	-149
▁som	-150
ight	-151
▁pro	-152
▁ch	-153
▁r	-154
▁or	-155
▁de	-156
▁there	-157
▁"	-158
▁my	-159
▁pe	-160
ear	-161
art	-162
um	-163
ople	-164
pp	-165
ck	-166
▁It	-167
▁con	-168
▁like	-169
ess	-170
▁one	-171
▁We	-172
ure	-173
ate	-174
ies	-175
▁people	-176
ca	-177
ive	-178
▁N	-179
▁ma	-180
▁kn	-181
est	-182
▁from	-183
ity	-184
nt	-185
ect	-186
ble	-187
ist	-188
ind	-189
qu	-190
ink	-191
▁but	-192
▁out	-193
▁our	-194
▁know	-195
▁int	-196
▁us	-197
▁al	-198
ook	-199
▁te	-200
rou	-201
▁just	-202
▁v	-203
▁H	-204
▁thing	-205
un	-206
▁M	-207
cause	-208
▁C	-209
ide	-210
and	-211
▁them	-212
▁sp	-213
▁see	-214
▁these	-215
▁very	-216
ie	-217
▁But	-218
▁if	-219
▁tr	-220
os	-221
▁think	-222
▁up	-223
ort	-224
▁who	-225
her	-226
▁get	-227
ich	-228
▁pl	-229
▁going	-230
▁by	-231
▁Y	-232
ci	-233
el	-234
▁act	-235
ain	-236
▁1	-237
one	-238
▁some	-239
▁when	-240
iv	-241
▁your	-242
▁because	-243
▁had	-244
▁year	-245
▁more	-246
og	-247
em	-248
▁sa	-249
▁tim	-250
our	-251
▁im	-252
▁which	-253
▁would	-254
▁were	-255
ine	-256
▁look	-257
▁want	-258
▁really	-259
od	-260
ast	-261
ame	-262
▁their	-263
ually	-264
▁how	-265
ment	-266
▁comp	-267
ap	-268
▁work	-269
▁su	-270
."	-271
ard	-272
▁Wh	-273
ack	-274
▁O	-275
iz	-276
ood	-277
act	-278
gh	-279
ous	-280
reat	-281
▁en	-282
▁way	-283
hing	-284
▁ta	-285
▁here	-286
▁E	-287
ose	-288
▁le	-289
ore	-290
▁world	-291
▁You	-292
are	-293
▁then	-294
▁time	-295
▁has	-296
ans	-297
ther	-298
ab	-299
▁This	-300
ong	-301
▁per	-302
ag	-303
▁qu	-304
▁don	-305
▁into	-306
▁actually	-307
▁every	-308
▁exp	-309
▁say	-310
▁P	-311
▁will	-312
▁man	-313
▁could	-314
▁ev	-315
ace	-316
ild	-317
res	-318
▁D	-319
▁fe	-320
ud	-321
itt	-322
▁things	-323
ence	-324
▁now	-325
ions	-326
age	-327
▁co	-328
▁where	-329
▁years	-330
▁ag	-331
▁L	-332
▁G	-333
▁Now	-334
▁other	-335
▁did	-336
alk	-337
▁somet	-338
00	-339
ff	-340
ach	-341
▁They	-342
iff	-343
nder	-344
▁no	-345
▁F	-346
▁any	-347
▁been	-348
ical	-349
▁In	-350
▁make	-351
▁cl	-352
▁happ	-353
▁diff	-354
ice	-355
ip	-356
▁tw	-357
▁un	-358
▁than	-359
▁said	-360
so	-361
▁need	-362
▁start	-363
red	-364
▁right	-365
irst	-366
▁part	-367
ree	-368
▁2	-369
▁something	-370
▁over	-371
own	-372
▁bu	-373
▁pr	-374
▁R	-375
ia	-376
ry	-377
▁imp	-378
ory	-379
ign	-380
ome	-381
▁back	-382
▁dis	-383
▁po	-384
ite	-385
uch	-386
▁kind	-387
pt	-388
▁got	-389
orm	-390
round	-391
olog	-392
▁two	-393
▁much	-394
▁ar	-395
ount	-396
ell	-397
▁call	-398
ittle	-399
ens	-400
ife	-401
ang	-402
▁first	-403
ib	-404
▁differe	-405
▁those	-406
▁little	-407
ass	-408
ater	-409
ound	-410
sel	-411
ue	-412
cent	-413
▁new	-414
▁also	-415
▁ro	-416
▁lot	-417
▁lo	-418
ght	-419
ple	-420
▁cont	-421
ep	-422
ces	-423
ult	-424
▁That	-425
▁spe	-426
way	-427
▁talk	-428
▁♫	-429
ves	-430
▁ac	-431
king	-432
▁most	-433
rain	-434
▁ph	-435
ber	-436
▁bet	-437
▁only	-438
ody	-439
ving	-440
▁she	-441
▁under	-442
vel	-443
▁des	-444
ated	-445
▁life	-446
▁res	-447
able	-448
co	-449
▁his	-450
ations	-451
▁sy	-452
▁ad	-453
ru	-454
▁even	-455
▁day	-456
▁J	-457
▁am	-458
▁take	-459
▁different	-460
ms	-461
ict	-462
ial	-463
rough	-464
other	-465
▁hum	-466
ick	-467
▁many	-468
ish	-469
▁good	-470
int	-471
du	-472
▁bl	-473
▁ide	-474
▁down	-475
▁There	-476
▁does	-477
▁real	-478
▁around	-479
▁through	-480
ance	-481
▁put	-482
ph	-483
pl	-484
ank	-485
ire	-486
ob	-487
▁her	-488
ase	-489
▁What	-490
pe	-491
ents	-492
▁comm	-493
▁show	-494
▁pre	-495
ark	-496
urn	-497
▁use	-498
▁U	-499
▁He	-500
cess	-501
ange	-502
▁being	-503
form	-504
▁tell	-505
ak	-506
ible	-507
ade	-508
▁off	-509
ors	-510
ress	-511
▁happen	-512
▁thou	-513
▁same	-514
▁proble	-515
chn	-516
per	-517
▁too	-518
▁try	-519
ary	-520
ath	-521
wn	-522
ject	-523
▁fact	-524
▁em	-525
▁come	-526
ether	-527
iver	-528
xt	-529
▁inc	-530
▁br	-531
ys	-532
▁sm	-533
▁fl	-534
▁doing	-535
ful	-536
stem	-537
ric	-538
ual	-539
day	-540
▁may	-541
ars	-542
▁techn	-543
▁great	-544
▁count	-545
▁big	-546
tern	-547
ool	-548
ning	-549
ically	-550
▁three	-551
ting	-552
▁gen	-553
he	-554
▁wr	-555
ne	-556
▁find	-557
▁ra	-558
ons	-559
row	-560
ile	-561
▁If	-562
ac	-563
▁pers	-564
ord	-565
ved	-566
▁well	-567
ology	-568
▁percent	-569
▁sur	-570
▁human	-571
▁bec	-572
▁system	-573
ied	-574
▁tra	-575
ower	-576
thing	-577
fore	-578
fter	-579
▁build	-580
illion	-581
▁Ch	-582
▁called	-583
▁gu	-584
▁dec	-585
te	-586
nds	-587
▁let	-588
self	-589
ub	-590
▁app	-591
▁stud	-592
▁child	-593
igh	-594
▁again	-595
body	-596
▁made	-597
▁sim	-598
ition	-599
ating	-600
▁quest	-601
ious	-602
▁Well	-603
▁exper	-604
ics	-605
▁long	-606
▁ind	-607
mer	-608
we	-609
▁inv	-610
▁own	-611
▁lear	-612
▁bel	-613
▁rem	-614
▁should	-615
oss	-616
ize	-617
ren	-618
cial	-619
▁import	-620
ian	-621
erest	-622
▁K	-623
oc	-624
les	-625
▁why	-626
▁sc	-627
▁wom	-628
▁underst	-629
av	-630
ities	-631
ft	-632
▁mean	-633
000	-634
▁ob	-635
▁cour	-636
ates	-637
▁end	-638
▁thought	-639
▁after	-640
▁turn	-641
▁idea	-642
ew	-643
ty	-644
▁didn	-645
be	-646
▁today	-647
▁car	-648
ction	-649
▁design	-650
▁hel	-651
▁change	-652
▁brain	-653
▁interest	-654
▁bas	-655
▁play	-656
▁feel	-657
▁ask	-658
▁important	-659
con	-660
▁creat	-661
▁person	-662
▁last	-663
▁Be	-664
?"	-665
▁its	-666
▁Thank	-667
▁started	-668
▁inst	-669
▁him	-670
ull	-671
,000	-672
▁rel	-673
ail	-674
▁exam	-675
▁sch	-676
old	-677
▁gl	-678
als	-679
ough	-680
▁sci	-681
▁went	-682
▁trans	-683
ise	-684
gan	-685
▁before	-686
▁course	-687
ution	-688
▁ins	-689
▁bit	-690
▁understand	-691
ese	-692
▁point	-693
▁3	-694
▁gra	-695
▁give	-696
▁produ	-697
▁problem	-698
▁might	-699
▁help	-700
▁never	-701
▁another	-702
ular	-703
▁cons	-704
ility	-705
▁ke	-706
▁better	-707
ave	-708
▁story	-709
ists	-710
ost	-711
▁St	-712
▁ele	-713
▁belie	-714
ily	-715
ven	-716
▁sort	-717
lic	-718
▁inter	-719
▁able	-720
kes	-721
ert	-722
ros	-723
▁coll	-724
▁few	-725
▁kid	-726
▁bo	-727
▁sl	-728
ix	-729
▁still	-730
und	-731
▁ago	-732
▁found	-733
▁dr	-734
▁power	-735
▁next	-736
oth	-737
▁ent	-738
▁tog	-739
▁together	-740
▁fam	-741
▁school	-742
▁came	-743
▁num	-744
▁19	-745
▁sol	-746
erg	-747
▁water	-748
▁plan	-749
ense	-750
▁pol	-751
▁place	-752
▁high	-753
▁mod	-754
ience	-755
▁comple	-756
▁mon	-757
▁cr	-758
uc	-759
ng	-760
▁str	-761
ited	-762
ward	-763
velop	-764
▁imag	-765
atch	-766
▁art	-767
▁learn	-768
ween	-769
ather	-770
▁used	-771
▁technology	-772
▁commun	-773
▁each	-774
▁Af	-775
▁10	-776
▁ter	-777
read	-778
▁la	-779
meric	-780
alth	-781
ness	-782
▁between	-783
▁question	-784
▁dat	-785
ized	-786
▁pat	-787
▁When	-788
▁rec	-789
▁20	-790
iss	-791
▁love	-792
,"	-793
ures	-794
ram	-795
▁looking	-796
▁ext	-797
▁done	-798
▁small	-799
▁ser	-800
▁develop	-801
▁example	-802
ork	-803
▁Americ	-804
▁att	-805
▁Because	-806
ways	-807
ific	-808
▁cre	-809
▁four	-810
cond	-811
▁light	-812
▁partic	-813
az	-814
▁old	-815
iness	-816
ute	-817
▁met	-818
▁min	-819
▁op	-820
arch	-821
▁word	-822
ered	-823
ets	-824
▁doesn	-825
ably	-826
▁data	-827
ced	-828
▁How	-829
cept	-830
▁med	-831
▁fin	-832
▁women	-833
▁mom	-834
▁eff	-835
▁stu	-836
▁V	-837
ings	-838
▁wanted	-839
ative	-840
▁cell	-841
▁whole	-842
▁comput	-843
▁grow	-844
▁cent	-845
▁care	-846
▁read	-847
formation	-848
cy	-849
ger	-850
ah	-851
here	-852
▁ever	-853
▁move	-854
▁beh	-855
conom	-856
▁lar	-857
▁poss	-858
▁far	-859
▁nat	-860
▁trying	-861
▁live	-862
▁million	-863
▁working	-864
ands	-865
▁hard	-866
oney	-867
selves	-868
▁ear	-869
▁reas	-870
▁Afric	-871
▁always	-872
ote	-873
▁expl	-874
ross	-875
▁giv	-876
▁children	-877
▁chang	-878
▁ed	-879
▁el	-880
▁book	-881
▁bi	-882
ational	-883
ird	-884
ope	-885
▁5	-886
▁away	-887
▁gener	-888
▁sk	-889
▁believe	-890
▁bus	-891
cer	-892
▁econom	-893
▁less	-894
ural	-895
gin	-896
▁mus	-897
▁cap	-898
▁Un	-899
▁fo	-900
ments	-901
▁pict	-902
▁rep	-903
▁supp	-904
▁country	-905
ont	-906
ism	-907
▁anim	-908
▁cor	-909
▁using	-910
ract	-911
▁sub	-912
▁means	-913
▁five	-914
▁maybe	-915
▁kids	-916
▁hand	-917
nect	-918
ruct	-919
ries	-920
▁information	-921
▁resp	-922
▁took	-923
▁run	-924
▁health	-925
▁vis	-926
▁thinking	-927
▁project	-928
ock	-929
vers	-930
▁frie	-931
▁open	-932
▁4	-933
▁money	-934
nce	-935
led	-936
atter	-937
▁space	-938
▁prob	-939
ps	-940
▁Ind	-941
▁doll	-942
hip	-943
alf	-944
▁inf	-945
▁everything	-946
▁lead	-947
iron	-948
▁As	-949
air	-950
▁teach	-951
▁create	-952
oy	-953
▁home	-954
▁organ	-955
▁One	-956
▁cou	-957
▁number	-958
aces	-959
▁process	-960
▁spec	-961
vern	-962
▁second	-963
ks	-964
▁sing	-965
▁food	-966
its	-967
▁mind	-968
gg	-969
iew	-970
▁left	-971
▁become	-972
▁quite	-973
aut	-974
ond	-975
▁enough	-976
ention	-977
rib	-978
▁interesting	-979
ergy	-980
ident	-981
▁form	-982
▁walk	-983
sw	-984
▁compan	-985
▁pub	-986
ues	-987
▁fun	-988
▁acc	-989
ivers	-990
▁best	-991
ten	-992
▁sense	-993
▁eng	-994
▁war	-995
▁head	-996
▁These	-997
▁prog	-998
ever	-999
▁fut	-1000
▁comes	-1001
ouse	-1002
ories	-1003
▁pres	-1004
▁getting	-1005
pr	-1006
▁reg	-1007
▁mark	-1008
▁conf	-1009
iting	-1010
▁answ	-1011
▁times	-1012
ital	-1013
▁probably	-1014
▁happened	-1015
▁future	-1016
lear	-1017
▁ca	-1018
ines	-1019
▁elect	-1020
▁stuff	-1021
▁set	-1022
▁govern	-1023
▁energy	-1024
▁My	-1025
▁making	-1026
▁talking	-1027
ertain	-1028
ts	-1029
▁building	-1030
ier	-1031
▁dem	-1032
▁grou	-1033
▁room	-1034
▁begin	-1035
▁contro	-1036
▁month	-1037
▁cur	-1038
ety	-1039
▁pie	-1040
▁env	-1041
▁social	-1042
▁connect	-1043
▁add	-1044
tty	-1045
▁gr	-1046
ogra	-1047
▁Here	-1048
▁moment	-1049
▁half	-1050
▁told	-1051
▁else	-1052
▁sign	-1053
▁dist	-1054
▁beaut	-1055
reen	-1056
ient	-1057
▁pop	-1058
▁without	-1059
▁She	-1060
▁dollars	-1061
▁business	-1062
lf	-1063
▁Is	-1064
▁coming	-1065
▁wee	-1066
▁glob	-1067
▁body	-1068
▁top	-1069
ately	-1070
▁side	-1071
▁keep	-1072
▁anything	-1073
ake	-1074
ner	-1075
imes	-1076
▁job	-1077
▁wo	-1078
▁phys	-1079
▁reason	-1080
▁hist	-1081
▁pretty	-1082
▁Africa	-1083
▁such	-1084
▁soci	-1085
▁allow	-1086
▁model	-1087
▁For	-1088
ior	-1089
▁environ	-1090
ices	-1091
▁opp	-1092
▁bad	-1093
▁countries	-1094
▁An	-1095
▁def	-1096
kay	-1097
▁sound	-1098
▁lives	-1099
ortun	-1100
▁young	-1101
ember	-1102
▁across	-1103
me	-1104
▁says	-1105
▁air	-1106
▁makes	-1107
▁bring	-1108
olution	-1109
▁stand	-1110
idd	-1111
▁goes	-1112
▁stop	-1113
▁200	-1114
▁All	-1115
▁saw	-1116
▁Let	-1117
▁hope	-1118
▁pass	-1119
der	-1120
ying	-1121
▁science	-1122
ince	-1123
▁ey	-1124
▁men	-1125
uring	-1126
▁particular	-1127
▁matter	-1128
▁simple	-1129
▁prot	-1130
▁val	-1131
▁cult	-1132
▁seen	-1133
io	-1134
ided	-1135
▁fig	-1136
where	-1137
▁ty	-1138
▁educ	-1139
▁eas	-1140
▁experience	-1141
ead	-1142
▁sit	-1143
▁happens	-1144
▁phot	-1145
most	-1146
▁living	-1147
man	-1148
▁asked	-1149
▁wonder	-1150
ash	-1151
angu	-1152
ime	-1153
▁picture	-1154
▁later	-1155
▁aut	-1156
▁rese	-1157
ization	-1158
▁cam	-1159
▁hour	-1160
▁having	-1161
▁scient	-1162
▁col	-1163
ality	-1164
gs	-1165
ught	-1166
▁New	-1167
llow	-1168
▁Chin	-1169
▁six	-1170
▁bre	-1171
▁ways	-1172
▁char	-1173
▁complete	-1174
ken	-1175
ograph	-1176
ott	-1177
▁problems	-1178
ective	-1179
▁mem	-1180
aps	-1181
▁music	-1182
▁share	-1183
▁family	-1184
ilt	-1185
ots	-1186
arth	-1187
▁rest	-1188
▁prof	-1189
▁environment	-1190
▁days	-1191
▁langu	-1192
▁thous	-1193
▁single	-1194
▁computer	-1195
irl	-1196
▁case	-1197
▁ref	-1198
▁No	-1199
arent	-1200
▁basically	-1201
▁Se	-1202
▁list	-1203
▁det	-1204
▁global	-1205
▁fore	-1206
▁planet	-1207
▁level	-1208
arr	-1209
▁mach	-1210
▁research	-1211
iter	-1212
▁equ	-1213
ins	-1214
ream	-1215
ike	-1216
▁saying	-1217
▁vide	-1218
▁inside	-1219
orn	-1220
▁amaz	-1221
▁certain	-1222
▁loc	-1223
▁answer	-1224
▁hear	-1225
▁guy	-1226
▁pain	-1227
▁hu	-1228
ready	-1229
▁almost	-1230
▁possible	-1231
▁both	-1232
ED	-1233
▁watch	-1234
less	-1235
▁once	-1236
ulation	-1237
▁yet	-1238
▁sure	-1239
▁test	-1240
▁while	-1241
▁mor	-1242
▁ideas	-1243
▁disco	-1244
ants	-1245
itive	-1246
▁self	-1247
▁Earth	-1248
unch	-1249
ov	-1250
▁suc	-1251
iverse	-1252
▁polit	-1253
▁age	-1254
▁wrong	-1255
▁contin	-1256
▁billion	-1257
lish	-1258
osed	-1259
allen	-1260
▁whether	-1261
ivid	-1262
▁product	-1263
ury	-1264
▁incred	-1265
▁within	-1266
▁looks	-1267
med	-1268
▁rob	-1269
▁already	-1270
▁looked	-1271
▁true	-1272
▁exact	-1273
▁public	-1274
iful	-1275
▁city	-1276
▁unt	-1277
▁dise	-1278
▁dev	-1279
▁mil	-1280
▁nothing	-1281
▁someone	-1282
▁treat	-1283
▁remember	-1284
▁control	-1285
ield	-1286
▁history	-1287
▁heard	-1288
▁amazing	-1289
▁exc	-1290
▁dire	-1291
side	-1292
▁large	-1293
▁par	-1294
work	-1295
▁heart	-1296
▁myself	-1297
utes	-1298
▁cost	-1299
▁Why	-1300
▁lab	-1301
ware	-1302
▁sw	-1303
▁kill	-1304
ivity	-1305
▁Al	-1306
oice	-1307
de	-1308
ene	-1309
▁che	-1310
aterial	-1311
▁often	-1312
▁wa	-1313
ages	-1314
land	-1315
undred	-1316
aster	-1317
▁15	-1318
ases	-1319
▁works	-1320
▁imagine	-1321
Wh	-1322
▁[	-1323
▁cond	-1324
▁words	-1325
▁figure	-1326
imate	-1327
vious	-1328
▁class	-1329
uro	-1330
▁cells	-1331
▁challen	-1332
▁TED	-1333
▁ass	-1334
▁iss	-1335
▁news	-1336
ians	-1337
ling	-1338
▁piece	-1339
▁mag	-1340
▁beautiful	-1341
▁adv	-1342
iddle	-1343
▁community	-1344
▁30	-1345
▁Intern	-1346
▁cancer	-1347
▁couple	-1348
▁full	-1349
▁hundred	-1350
▁built	-1351
▁United	-1352
▁months	-1353
▁tre	-1354
▁50	-1355
▁individ	-1356
▁language	-1357
▁aff	-1358
▁Or	-1359
▁night	-1360
aper	-1361
▁100	-1362
▁fil	-1363
uck	-1364
ering	-1365
▁market	-1366
▁face	-1367
▁follow	-1368
▁everybody	-1369
▁'	-1370
▁pay	-1371
▁girl	-1372
▁vir	-1373
▁species	-1374
▁entire	-1375
▁order	-1376
▁result	-1377
▁government	-1378
bs	-1379
get	-1380
▁group	-1381
▁incre	-1382
▁video	-1383
bers	-1384
▁net	-1385
▁material	-1386
▁front	-1387
▁line	-1388
ives	-1389
▁dra	-1390
ected	-1391
▁must	-1392
ex	-1393
▁view	-1394
cur	-1395
up	-1396
▁friends	-1397
▁universe	-1398
▁6	-1399
atic	-1400
ron	-1401
▁until	-1402
▁individual	-1403
▁wasn	-1404
▁state	-1405
eah	-1406
▁places	-1407
line	-1408
▁deep	-1409
▁completely	-1410
▁isn	-1411
▁education	-1412
outh	-1413
▁train	-1414
ush	-1415
▁ret	-1416
▁appro	-1417
ator	-1418
ustr	-1419
▁decided	-1420
ane	-1421
▁past	-1422
▁object	-1423
▁inn	-1424
▁const	-1425
▁quick	-1426
▁OK	-1427
▁nature	-1428
ired	-1429
▁Fr	-1430
▁India	-1431
to	-1432
▁abs	-1433
▁cra	-1434
▁exactly	-1435
▁deal	-1436
..	-1437
▁9	-1438
▁experim	-1439
cing	-1440
▁behav	-1441
▁stories	-1442
▁taking	-1443
▁happening	-1444
▁huge	-1445
▁itself	-1446
▁pos	-1447
▁name	-1448
▁free	-1449
br	-1450
▁tool	-1451
omes	-1452
▁land	-1453
ined	-1454
▁engine	-1455
acter	-1456
▁though	-1457
▁♪	-1458
cle	-1459
▁di	-1460
▁Internet	-1461
▁kinds	-1462
▁became	-1463
▁States	-1464
▁animals	-1465
dd	-1466
ien	-1467
ters	-1468
▁sca	-1469
▁house	-1470
▁students	-1471
ional	-1472
▁America	-1473
ats	-1474
▁terr	-1475
▁ourselves	-1476
▁gets	-1477
ructure	-1478
▁success	-1479
▁Every	-1480
▁since	-1481
▁learned	-1482
▁society	-1483
ogn	-1484
▁law	-1485
▁knew	-1486
▁woman	-1487
▁themselves	-1488
▁somebody	-1489
ision	-1490
▁complex	-1491
▁minutes	-1492
gest	-1493
▁game	-1494
▁mess	-1495
▁study	-1496
▁ones	-1497
▁close	-1498
▁z	-1499
rop	-1500
▁spend	-1501
▁At	-1502
▁av	-1503
▁along	-1504
ctor	-1505
...	-1506
▁fly	-1507
ret	-1508
ability	-1509
sy	-1510
▁fund	-1511
ocus	-1512
▁oce	-1513
▁questions	-1514
▁rather	-1515
omet	-1516
▁God	-1517
itting	-1518
end	-1519
▁meet	-1520
etic	-1521
▁company	-1522
▁wind	-1523
▁against	-1524
▁mass	-1525
icult	-1526
▁Do	-1527
▁ris	-1528
▁opportun	-1529
ental	-1530
▁guys	-1531
cl	-1532
haps	-1533
▁prov	-1534
▁created	-1535
ium	-1536
ibly	-1537
▁turns	-1538
▁parent	-1539
ee	-1540
▁Br	-1541
ones	-1542
▁hours	-1543
ames	-1544
▁clear	-1545
▁worked	-1546
ients	-1547
thers	-1548
▁Then	-1549
▁bott	-1550
▁mother	-1551
▁focus	-1552
ature	-1553
▁won	-1554
▁program	-1555
▁7	-1556
▁couldn	-1557
aw	-1558
eg	-1559
▁third	-1560
▁relations	-1561
iversity	-1562
face	-1563
▁sometimes	-1564
▁arch	-1565
▁least	-1566
▁8	-1567
▁Can	-1568
▁var	-1569
▁Some	-1570
▁meas	-1571
▁speak	-1572
▁pred	-1573
▁invest	-1574
▁aud	-1575
▁math	-1576
▁bab	-1577
▁gave	-1578
istic	-1579
▁systems	-1580
▁difficult	-1581
wards	-1582
▁hold	-1583
▁amount	-1584
▁everyone	-1585
cul	-1586
erv	-1587
▁others	-1588
▁Euro	-1589
▁liter	-1590
▁disease	-1591
app	-1592
▁American	-1593
att	-1594
▁cir	-1595
▁ill	-1596
▁thousands	-1597
ming	-1598
▁...	-1599
▁innov	-1600
▁Sh	-1601
▁happy	-1602
ented	-1603
▁oil	-1604
ider	-1605
▁Okay	-1606
▁lots	-1607
not	-1608
ples	-1609
▁early	-1610
▁ve	-1611
▁rad	-1612
▁oper	-1613
▁sens	-1614
▁learning	-1615
▁shap	-1616
▁norm	-1617
▁Eng	-1618
olved	-1619
▁field	-1620
iqu	-1621
▁cut	-1622
▁rev	-1623
▁team	-1624
▁natural	-1625
▁instead	-1626
▁interact	-1627
▁hy	-1628
ination	-1629
▁outside	-1630
aking	-1631
▁listen	-1632
▁mic	-1633
vered	-1634
▁mot	-1635
▁difference	-1636
▁miss	-1637
▁death	-1638
▁behavior	-1639
ted	-1640
▁bro	-1641
ither	-1642
ared	-1643
illions	-1644
▁Ar	-1645
▁taken	-1646
▁seven	-1647
ological	-1648
▁machine	-1649
▁pur	-1650
ential	-1651
▁black	-1652
▁record	-1653
gen	-1654
uss	-1655
▁step	-1656
The	-1657
▁Pe	-1658
▁leg	-1659
ially	-1660
▁Europe	-1661
▁network	-1662
▁area	-1663
▁fail	-1664
▁middle	-1665
iol	-1666
▁effect	-1667
▁eyes	-1668
▁dru	-1669
▁short	-1670
▁changed	-1671
▁century	-1672
▁relationship	-1673
sych	-1674
▁China	-1675
▁extra	-1676
▁green	-1677
▁da	-1678
▁pot	-1679
▁York	-1680
▁hands	-1681
▁moving	-1682
▁pattern	-1683
▁stre	-1684
▁beginning	-1685
fect	-1686
▁exist	-1687
▁recent	-1688
orth	-1689
ides	-1690
▁del	-1691
utions	-1692
▁common	-1693
era	-1694
ully	-1695
▁non	-1696
▁explain	-1697
▁wonderful	-1698
▁red	-1699
▁dep	-1700
▁dig	-1701
▁typ	-1702
astic	-1703
▁given	-1704
ale	-1705
ove	-1706
els	-1707
ey	-1708
▁leave	-1709
▁terms	-1710
olute	-1711
▁oc	-1712
▁turned	-1713
▁obvious	-1714
▁takes	-1715
▁perhaps	-1716
▁yourself	-1717
▁ant	-1718
verage	-1719
▁seeing	-1720
▁culture	-1721
ern	-1722
ased	-1723
▁sym	-1724
aring	-1725
▁easy	-1726
▁squ	-1727
▁12	-1728
▁break	-1729
▁paper	-1730
▁psych	-1731
ump	-1732
▁local	-1733
▁intell	-1734
▁support	-1735
▁population	-1736
ipp	-1737
▁es	-1738
▁low	-1739
▁needs	-1740
▁finally	-1741
▁trad	-1742
▁pract	-1743
itch	-1744
▁sex	-1745
▁tem	-1746
▁began	-1747
ery	-1748
▁18	-1749
▁incl	-1750
▁parts	-1751
▁communic	-1752
rew	-1753
▁sent	-1754
iving	-1755
itions	-1756
▁image	-1757
▁super	-1758
ude	-1759
▁Not	-1760
▁chem	-1761
▁eight	-1762
▁reach	-1763
▁behind	-1764
▁Man	-1765
▁cannot	-1766
jor	-1767
elt	-1768
▁jour	-1769
Well	-1770
▁blue	-1771
▁colle	-1772
▁Chr	-1773
▁tot	-1774
▁perform	-1775
inary	-1776
▁whatever	-1777
cious	-1778
▁jo	-1779
▁during	-1780
▁needed	-1781
▁arg	-1782
▁sun	-1783
▁lim	-1784
ply	-1785
▁On	-1786
▁longer	-1787
▁fre	-1788
itect	-1789
▁ident	-1790
▁friend	-1791
▁realized	-1792
NA	-1793
▁event	-1794
▁impro	-1795
ero	-1796
▁opt	-1797
▁expect	-1798
▁powerful	-1799
idence	-1800
year	-1801
▁wall	-1802
▁fall	-1803
▁interested	-1804
▁present	-1805
ax	-1806
ges	-1807
port	-1808
▁dream	-1809
▁extre	-1810
▁ocean	-1811
▁repres	-1812
▁major	-1813
▁saf	-1814
▁absolute	-1815
▁40	-1816
▁emot	-1817
▁pick	-1818
▁serv	-1819
▁size	-1820
▁famil	-1821
▁simply	-1822
▁perfect	-1823
oh	-1824
fully	-1825
rought	-1826
▁consum	-1827
▁buy	-1828
▁ess	-1829
▁dark	-1830
▁surpr	-1831
▁week	-1832
▁parents	-1833
ledge	-1834
▁tried	-1835
▁situ	-1836
ton	-1837
▁ple	-1838
gle	-1839
▁To	-1840
▁poor	-1841
▁access	-1842
▁companies	-1843
▁stay	-1844
▁viol	-1845
▁eat	-1846
▁grand	-1847
▁resour	-1848
ising	-1849
▁personal	-1850
ison	-1851
rodu	-1852
▁emb	-1853
▁gone	-1854
▁People	-1855
▁ground	-1856
▁architect	-1857
▁conv	-1858
▁Just	-1859
▁surv	-1860
▁scale	-1861
▁economic	-1862
▁cal	-1863
▁quickly	-1864
bo	-1865
ards	-1866
▁yes	-1867
▁media	-1868
▁press	-1869
▁key	-1870
▁felt	-1871
▁father	-1872
▁protect	-1873
ills	-1874
ony	-1875
avor	-1876
▁value	-1877
▁weeks	-1878
ged	-1879
osp	-1880
▁feed	-1881
▁robot	-1882
▁spent	-1883
▁recogn	-1884
ilar	-1885
▁vers	-1886
ibility	-1887
▁direct	-1888
ised	-1889
▁cool	-1890
▁fish	-1891
▁—	-1892
▁ge	-1893
orld	-1894
▁special	-1895
▁cities	-1896
ators	-1897
▁Right	-1898
▁enc	-1899
▁feet	-1900
▁approach	-1901
oph	-1902
▁draw	-1903
▁mult	-1904
▁shows	-1905
▁strong	-1906
▁reality	-1907
▁sitting	-1908
▁technolog	-1909
crib	-1910
hood	-1911
▁orig	-1912
▁sum	-1913
rent	-1914
▁humans	-1915
▁ability	-1916
▁photograph	-1917
▁DNA	-1918
ument	-1919
▁requ	-1920
▁fight	-1921
▁known	-1922
▁opportunity	-1923
hor	-1924
▁disc	-1925
ived	-1926
▁cle	-1927
▁obs	-1928
▁phone	-1929
ule	-1930
ouch	-1931
▁travel	-1932
sh	-1933
You	-1934
urb	-1935
▁insp	-1936
▁either	-1937
ler	-1938
izing	-1939
▁dest	-1940
▁priv	-1941
▁leaders	-1942
amp	-1943
ift	-1944
▁evolution	-1945
▁structure	-1946
▁predict	-1947
ney	-1948
▁areas	-1949
▁growth	-1950
▁slow	-1951
inal	-1952
▁civ	-1953
▁write	-1954
▁measure	-1955
▁25	-1956
dden	-1957
lect	-1958
room	-1959
▁economy	-1960
▁Tw	-1961
uses	-1962
▁May	-1963
▁lost	-1964
▁post	-1965
▁sudden	-1966
▁pull	-1967
▁changes	-1968
ains	-1969
▁democ	-1970
What	-1971
▁fast	-1972
▁wouldn	-1973
▁incredible	-1974
ann	-1975
iny	-1976
ral	-1977
▁brought	-1978
uth	-1979
▁fear	-1980
▁foot	-1981
▁based	-1982
▁animal	-1983
▁bottom	-1984
▁extreme	-1985
▁box	-1986
▁near	-1987
▁nice	-1988
▁surface	-1989
▁political	-1990
zy	-1991
vent	-1992
▁ste	-1993
▁soft	-1994
ression	-1995
▁intern	-1996
▁realize	-1997
▁attention	-1998
eed	-1999
▁cy	-2000
▁har	-2001
▁books	-2002
▁win	-2003
▁impact	-2004
ole	-2005
ales	-2006
▁profess	-2007
▁respons	-2008
of	-2009
oll	-2010
▁mole	-2011
▁redu	-2012
▁send	-2013
cially	-2014
▁challenge	-2015
▁ap	-2016
▁numbers	-2017
lt	-2018
ateg	-2019
▁born	-2020
com	-2021
▁mov	-2022
▁force	-2023
▁English	-2024
▁technologies	-2025
▁bene	-2026
▁experiment	-2027
▁crit	-2028
ustain	-2029
▁blood	-2030
▁average	-2031
▁knowledge	-2032
ows	-2033
▁die	-2034
▁circ	-2035
▁morning	-2036
▁feeling	-2037
eng	-2038
anger	-2039
▁developed	-2040
▁Z	-2041
bon	-2042
▁film	-2043
▁sour	-2044
▁wrote	-2045
▁giving	-2046
▁indust	-2047
▁forward	-2048
bor	-2049
ode	-2050
urs	-2051
entially	-2052
▁meaning	-2053
▁physical	-2054
▁Re	-2055
ging	-2056
ored	-2057
ances	-2058
▁comb	-2059
▁stra	-2060
▁mar	-2061
erm	-2062
ensive	-2063
▁theory	-2064
▁electric	-2065
▁anal	-2066
ext	-2067
▁deg	-2068
▁World	-2069
▁hor	-2070
▁instit	-2071
▁growing	-2072
▁tele	-2073
ption	-2074
▁main	-2075
lu	-2076
▁fac	-2077
▁sec	-2078
▁vill	-2079
▁patients	-2080
chie	-2081
▁map	-2082
▁miles	-2083
▁spread	-2084
▁audience	-2085
▁rock	-2086
▁seems	-2087
▁white	-2088
▁scientists	-2089
▁images	-2090
▁running	-2091
▁literally	-2092
▁repl	-2093
▁risk	-2094
▁understanding	-2095
▁depe	-2096
▁worth	-2097
▁anyone	-2098
▁starting	-2099
▁CA	-2100
▁vol	-2101
▁gives	-2102
▁thank	-2103
▁serious	-2104
por	-2105
▁compet	-2106
cr	-2107
ified	-2108
assion	-2109
▁favor	-2110
▁stage	-2111
▁ice	-2112
▁tools	-2113
▁climate	-2114
▁ast	-2115
▁hot	-2116
ploy	-2117
▁ball	-2118
▁relig	-2119
acy	-2120
▁dead	-2121
▁guess	-2122
▁tradition	-2123
omen	-2124
▁path	-2125
▁avail	-2126
▁telling	-2127
▁sil	-2128
▁visual	-2129
▁playing	-2130
▁hundreds	-2131
▁rul	-2132
ggest	-2133
▁civil	-2134
▁color	-2135
▁proper	-2136
par	-2137
▁text	-2138
▁similar	-2139
oon	-2140
▁prin	-2141
▁rele	-2142
aged	-2143
▁hosp	-2144
▁stat	-2145
▁suggest	-2146
▁sho	-2147
▁road	-2148
▁sn	-2149
ades	-2150
imens	-2151
▁neigh	-2152
iet	-2153
▁cop	-2154
▁sea	-2155
▁aren	-2156
▁center	-2157
▁discovered	-2158
▁flo	-2159
ai	-2160
head	-2161
▁touch	-2162
▁concept	-2163
▁creating	-2164
oud	-2165
ilities	-2166
▁soon	-2167
▁Our	-2168
▁sell	-2169
▁modern	-2170
▁absolutely	-2171
icy	-2172
▁lif	-2173
▁prom	-2174
iod	-2175
ites	-2176
asing	-2177
▁Yeah	-2178
▁song	-2179
▁current	-2180
▁millions	-2181
ug	-2182
amed	-2183
▁South	-2184
▁alone	-2185
▁issue	-2186
▁describ	-2187
racy	-2188
▁medic	-2189
▁micro	-2190
▁fundam	-2191
▁talked	-2192
▁sustain	-2193
iant	-2194
▁showed	-2195
▁intellig	-2196
▁movement	-2197
ped	-2198
▁est	-2199
▁collect	-2200
▁shape	-2201
▁mathem	-2202
▁normal	-2203
▁arm	-2204
▁poll	-2205
▁among	-2206
▁truth	-2207
▁includ	-2208
▁fur	-2209
▁prop	-2210
▁type	-2211
▁knows	-2212
pecially	-2213
bit	-2214
▁hon	-2215
▁seem	-2216
▁achie	-2217
▁development	-2218
▁suff	-2219
▁track	-2220
▁incredibly	-2221
▁fu	-2222
erence	-2223
▁benef	-2224
▁recently	-2225
▁available	-2226
ique	-2227
▁cars	-2228
▁produce	-2229
▁subject	-2230
▁experien	-2231
▁solution	-2232
▁arr	-2233
▁fire	-2234
▁period	-2235
▁situation	-2236
ival	-2237
like	-2238
▁neur	-2239
▁rate	-2240
▁er	-2241
ished	-2242
▁patient	-2243
Th	-2244
▁flu	-2245
▁industry	-2246
by	-2247
▁camp	-2248
▁flow	-2249
▁sold	-2250
▁asking	-2251
▁chance	-2252
▁transform	-2253
ung	-2254
▁resources	-2255
▁developing	-2256
chan	-2257
▁innovation	-2258
ik	-2259
apt	-2260
▁By	-2261
oose	-2262
pect	-2263
▁With	-2264
curity	-2265
▁voice	-2266
▁eye	-2267
▁lay	-2268
▁react	-2269
▁pictures	-2270
ences	-2271
▁convers	-2272
asc	-2273
▁solve	-2274
▁bigger	-2275
▁compassion	-2276
abor	-2277
ister	-2278
▁baby	-2279
▁tiny	-2280
▁designed	-2281
▁bird	-2282
▁becomes	-2283
▁putting	-2284
ency	-2285
▁dou	-2286
▁carbon	-2287
yond	-2288
▁haven	-2289
▁issues	-2290
▁online	-2291
▁street	-2292
▁evidence	-2293
pan	-2294
lict	-2295
▁Goo	-2296
▁nuc	-2297
▁attack	-2298
str	-2299
osph	-2300
▁ult	-2301
▁drive	-2302
▁smart	-2303
▁computers	-2304
▁especially	-2305
▁bra	-2306
▁reasons	-2307
▁changing	-2308
ify	-2309
▁Ph	-2310
▁199	-2311
▁fair	-2312
iction	-2313
▁except	-2314
▁Chinese	-2315
▁clos	-2316
▁dom	-2317
▁emp	-2318
arily	-2319
▁writing	-2320
50	-2321
▁din	-2322
▁sever	-2323
▁trust	-2324
▁forest	-2325
▁involved	-2326
▁generation	-2327
ned	-2328
▁ce	-2329
▁imm	-2330
light	-2331
▁message	-2332
▁function	-2333
▁rain	-2334
▁lea	-2335
▁general	-2336
▁De	-2337
▁beyond	-2338
▁sat	-2339
▁save	-2340
▁rules	-2341
▁groups	-2342
▁emerg	-2343
▁Am	-2344
▁died	-2345
▁lived	-2346
▁bacter	-2347
umb	-2348
▁60	-2349
▁mount	-2350
▁solar	-2351
▁sounds	-2352
▁towards	-2353
▁software	-2354
▁effective	-2355
▁aw	-2356
▁bar	-2357
▁unf	-2358
▁table	-2359
▁device	-2360
▁several	-2361
▁conscious	-2362
Oh	-2363
▁fa	-2364
▁plant	-2365
nam	-2366
▁ec	-2367
istan	-2368
▁search	-2369
▁revolution	-2370
unt	-2371
oring	-2372
ishing	-2373
▁choice	-2374
▁necess	-2375
▁Yes	-2376
▁girls	-2377
▁likely	-2378
▁mechan	-2379
vert	-2380
usion	-2381
▁defin	-2382
▁peace	-2383
▁action	-2384
pre	-2385
▁wish	-2386
▁speed	-2387
▁Google	-2388
▁Of	-2389
▁nine	-2390
▁tend	-2391
ny	-2392
ips	-2393
ously	-2394
▁Inst	-2395
▁particularly	-2396
pid	-2397
▁Where	-2398
une	-2399
▁bed	-2400
▁prim	-2401
▁moved	-2402
lo	-2403
wh	-2404
▁Oh	-2405
fort	-2406
oices	-2407
▁games	-2408
▁danger	-2409
▁medical	-2410
▁character	-2411
view	-2412
▁sle	-2413
▁basic	-2414
▁office	-2415
ief	-2416
▁neg	-2417
▁rich	-2418
ressed	-2419
▁First	-2420
▁anybody	-2421
▁obviously	-2422
▁link	-2423
▁further	-2424
▁schools	-2425
irth	-2426
used	-2427
▁log	-2428
▁potential	-2429
ires	-2430
▁Com	-2431
▁teachers	-2432
▁materials	-2433
ask	-2434
▁af	-2435
put	-2436
idge	-2437
rast	-2438
▁gal	-2439
▁hit	-2440
▁vision	-2441
▁walking	-2442
oms	-2443
come	-2444
▁safe	-2445
xy	-2446
▁onto	-2447
ground	-2448
▁block	-2449
▁starts	-2450
▁digital	-2451
▁totally	-2452
▁certainly	-2453
ran	-2454
book	-2455
pped	-2456
▁gas	-2457
▁screen	-2458
medi	-2459
▁Any	-2460
▁carry	-2461
▁occur	-2462
▁quality	-2463
how	-2464
▁div	-2465
▁syn	-2466
▁Maybe	-2467
oke	-2468
▁Im	-2469
▁rece	-2470
▁biggest	-2471
▁examples	-2472
▁scientific	-2473
oun	-2474
▁breat	-2475
▁wants	-2476
▁pa	-2477
▁adm	-2478
▁notice	-2479
▁princi	-2480
▁context	-2481
▁showing	-2482
▁extraord	-2483
▁national	-2484
▁camera	-2485
tend	-2486
itary	-2487
eth	-2488
iar	-2489
▁okay	-2490
▁aware	-2491
ma	-2492
ctors	-2493
▁farm	-2494
▁report	-2495
▁represent	-2496
▁Pr	-2497
eter	-2498
icle	-2499
▁son	-2500
antly	-2501
▁stru	-2502
ores	-2503
▁door	-2504
▁virt	-2505
▁North	-2506
▁activ	-2507
▁journey	-2508
▁everywhere	-2509
uly	-2510
▁memory	-2511
▁nobody	-2512
▁chemical	-2513
▁projects	-2514
apan	-2515
▁skin	-2516
▁effic	-2517
cient	-2518
▁student	-2519
▁creative	-2520
▁exciting	-2521
▁extremely	-2522
▁ep	-2523
▁trees	-2524
▁capital	-2525
▁complic	-2526
▁largest	-2527
▁Le	-2528
▁pu	-2529
▁Joh	-2530
▁Brit	-2531
▁After	-2532
▁birth	-2533
▁particip	-2534
▁positive	-2535
▁violence	-2536
more	-2537
▁Pro	-2538
isions	-2539
▁conflict	-2540
▁thousand	-2541
IV	-2542
ought	-2543
▁cris	-2544
▁jobs	-2545
▁cross	-2546
▁trial	-2547
▁transl	-2548
▁account	-2549
▁fix	-2550
▁capt	-2551
▁sequ	-2552
▁Japan	-2553
▁graph	-2554
▁threat	-2555
aur	-2556
▁Most	-2557
▁results	-2558
ids	-2559
▁clean	-2560
▁meant	-2561
▁depend	-2562
iger	-2563
▁HIV	-2564
▁fem	-2565
▁fant	-2566
▁stick	-2567
▁detail	-2568
▁plants	-2569
ze	-2570
ners	-2571
▁dro	-2572
▁spir	-2573
▁suddenly	-2574
▁supposed	-2575
uit	-2576
▁fill	-2577
pective	-2578
▁activity	-2579
for	-2580
onse	-2581
rest	-2582
▁earl	-2583
▁movie	-2584
▁named	-2585
▁security	-2586
▁boy	-2587
▁vac	-2588
verty	-2589
▁discover	-2590
▁favorite	-2591
urban	-2592
▁nuclear	-2593
▁village	-2594
akes	-2595
itten	-2596
▁drug	-2597
ughter	-2598
▁apart	-2599
▁galax	-2600
ossible	-2601
▁introdu	-2602
▁watching	-2603
▁eventually	-2604
▁80	-2605
▁Cal	-2606
▁led	-2607
▁grew	-2608
▁role	-2609
▁vari	-2610
▁ready	-2611
osphere	-2612
▁models	-2613
▁strateg	-2614
iding	-2615
igher	-2616
▁crazy	-2617
▁return	-2618
▁mathemat	-2619
▁neighbor	-2620
▁connected	-2621
.,	-2622
▁tar	-2623
▁mine	-2624
▁faster	-2625
▁individuals	-2626
itiz	-2627
mend	-2628
▁meth	-2629
▁lands	-2630
ruction	-2631
▁disapp	-2632
▁consider	-2633
conds	-2634
▁higher	-2635
▁African	-2636
▁hospital	-2637
rad	-2638
the	-2639
cape	-2640
▁Even	-2641
▁John	-2642
▁cause	-2643
▁separ	-2644
▁waste	-2645
▁launch	-2646
▁teacher	-2647
▁collabor	-2648
▁democracy	-2649
▁happiness	-2650
▁somewhere	-2651
▁16	-2652
erve	-2653
▁mob	-2654
▁lose	-2655
▁brains	-2656
▁terror	-2657
▁bom	-2658
ulate	-2659
▁marr	-2660
▁appear	-2661
▁finding	-2662
▁improve	-2663
▁passion	-2664
▁continue	-2665
▁response	-2666
joy	-2667
oming	-2668
▁West	-2669
▁adult	-2670
▁blind	-2671
▁cart	-2672
▁magn	-2673
▁sorts	-2674
ipt	-2675
▁Look	-2676
others	-2677
▁check	-2678
▁tells	-2679
▁indeed	-2680
▁remark	-2681
▁buildings	-2682
▁11	-2683
▁shown	-2684
▁accept	-2685
▁immedi	-2686
▁larger	-2687
▁products	-2688
ortunately	-2689
▁essentially	-2690
ina	-2691
ued	-2692
▁ann	-2693
▁bunch	-2694
▁labor	-2695
▁minds	-2696
▁source	-2697
▁allowed	-2698
▁objects	-2699
ana	-2700
▁14	-2701
▁wife	-2702
▁poverty	-2703
ech	-2704
lex	-2705
▁goal	-2706
▁phen	-2707
▁push	-2708
▁sand	-2709
▁webs	-2710
▁forms	-2711
▁impossible	-2712
▁fundamental	-2713
▁Ge	-2714
▁pack	-2715
estern	-2716
▁worse	-2717
▁minute	-2718
▁progress	-2719
inct	-2720
▁fing	-2721
▁communities	-2722
urt	-2723
cise	-2724
▁bal	-2725
▁burn	-2726
▁diag	-2727
▁fine	-2728
▁late	-2729
▁taught	-2730
▁publish	-2731
ror	-2732
▁17	-2733
▁pen	-2734
▁citiz	-2735
▁earth	-2736
▁ended	-2737
▁enjoy	-2738
▁influ	-2739
▁moral	-2740
▁concer	-2741
▁temper	-2742
▁colleag	-2743
▁Ag	-2744
rage	-2745
▁heav	-2746
▁above	-2747
▁position	-2748
▁signific	-2749
We	-2750
iers	-2751
▁sky	-2752
▁drugs	-2753
▁doctor	-2754
▁complicated	-2755
▁traditional	-2756
mb	-2757
▁War	-2758
▁mis	-2759
▁site	-2760
▁afford	-2761
▁allows	-2762
▁points	-2763
izations	-2764
anc	-2765
▁Tod	-2766
odies	-2767
▁discuss	-2768
▁families	-2769
nal	-2770
▁dam	-2771
ining	-2772
▁cook	-2773
▁Chris	-2774
▁square	-2775
▁conditions	-2776
po	-2777
ugh	-2778
▁dy	-2779
sect	-2780
atory	-2781
useum	-2782
though	-2783
▁series	-2784
▁electricity	-2785
ims	-2786
▁Who	-2787
▁bur	-2788
▁deb	-2789
▁phil	-2790
▁tree	-2791
ission	-2792
▁cases	-2793
▁older	-2794
▁distrib	-2795
▁straight	-2796
▁extraordinary	-2797
ev	-2798
let	-2799
▁Don	-2800
▁oxy	-2801
ounds	-2802
▁mist	-2803
▁choose	-2804
▁phenomen	-2805
▁training	-2806
▁perspective	-2807
▁kil	-2808
▁Like	-2809
▁sleep	-2810
▁standing	-2811
▁successful	-2812
rab	-2813
rap	-2814
nces	-2815
ster	-2816
▁fram	-2817
▁affect	-2818
▁crisis	-2819
▁excited	-2820
▁somehow	-2821
▁univers	-2822
▁medicine	-2823
men	-2824
ured	-2825
▁Car	-2826
▁East	-2827
▁bank	-2828
▁wait	-2829
▁assum	-2830
▁author	-2831
▁killed	-2832
▁pieces	-2833
▁prison	-2834
▁reading	-2835
▁decision	-2836
No	-2837
met	-2838
▁198	-2839
▁kept	-2840
inated	-2841
ration	-2842
▁usually	-2843
▁content	-2844
▁bacteria	-2845
▁increase	-2846
go	-2847
la	-2848
ube	-2849
▁cat	-2850
▁luck	-2851
▁town	-2852
▁neurons	-2853
▁international	-2854
imb	-2855
▁purp	-2856
▁upon	-2857
▁Those	-2858
▁alive	-2859
▁mention	-2860
▁critical	-2861
ring	-2862
▁fasc	-2863
▁Which	-2864
▁calcul	-2865
▁provide	-2866
▁smaller	-2867
▁treatment	-2868
ops	-2869
rel	-2870
▁TV	-2871
edom	-2872
ffic	-2873
▁trou	-2874
▁prote	-2875
▁manage	-2876
▁studies	-2877
▁organization	-2878
ays	-2879
iven	-2880
▁201	-2881
▁doc	-2882
ustrial	-2883
▁beings	-2884
▁version	-2885
▁including	-2886
▁clin	-2887
▁truly	-2888
▁urban	-2889
▁achieve	-2890
▁anywhere	-2891
▁architecture	-2892
isms	-2893
▁fra	-2894
▁finan	-2895
▁actual	-2896
▁policy	-2897
▁massive	-2898
▁military	-2899
▁patterns	-2900
▁increasing	-2901
▁cold	-2902
▁Today	-2903
▁lines	-2904
▁slight	-2905
▁seconds	-2906
▁painting	-2907
▁conversation	-2908
rect	-2909
▁ign	-2910
▁veh	-2911
▁wild	-2912
▁lower	-2913
▁throw	-2914
▁employ	-2915
▁region	-2916
▁college	-2917
▁Q	-2918
▁Ab	-2919
▁Sw	-2920
fact	-2921
▁swe	-2922
▁Somet	-2923
▁stars	-2924
▁please	-2925
▁himself	-2926
▁machines	-2927
ama	-2928
▁Act	-2929
epend	-2930
▁page	-2931
▁roll	-2932
▁anymore	-2933
▁strange	-2934
amm	-2935
dom	-2936
iced	-2937
erman	-2938
▁print	-2939
▁Christ	-2940
▁engage	-2941
▁physics	-2942
▁hop	-2943
iling	-2944
▁term	-2945
uments	-2946
▁effort	-2947
▁skills	-2948
soci	-2949
▁Bra	-2950
▁sou	-2951
▁greater	-2952
▁recognize	-2953
!"	-2954
▁eth	-2955
aging	-2956
▁magic	-2957
▁price	-2958
▁rights	-2959
▁written	-2960
▁expensive	-2961
ping	-2962
▁whe	-2963
ently	-2964
▁card	-2965
▁star	-2966
▁enorm	-2967
▁molec	-2968
▁weight	-2969
▁decisions	-2970
iti	-2971
▁13	-2972
iest	-2973
oles	-2974
▁glass	-2975
▁trick	-2976
▁biology	-2977
▁Americans	-2978
▁port	-2979
▁genes	-2980
▁specific	-2981
ulf	-2982
back	-2983
lebr	-2984
▁Isl	-2985
▁board	-2986
▁cloud	-2987
▁21	-2988
▁Sp	-2989
itation	-2990
▁famous	-2991
▁service	-2992
agine	-2993
▁code	-2994
▁legs	-2995
▁remind	-2996
▁surger	-2997
▁clearly	-2998
▁earlier	-2999
▁fantastic	-3000
time	-3001
▁Mar	-3002
▁dog	-3003
erson	-3004
▁production	-3005
▁beauty	-3006
▁robots	-3007
▁Another	-3008
▁contrib	-3009
▁throughout	-3010
▁Are	-3011
itude	-3012
▁autom	-3013
▁cover	-3014
▁laugh	-3015
▁listening	-3016
▁solutions	-3017
▁transport	-3018
acity	-3019
▁drink	-3020
▁loved	-3021
▁explore	-3022
▁waiting	-3023
▁becoming	-3024
▁practice	-3025
ky	-3026
sequ	-3027
▁alg	-3028
▁yeah	-3029
▁costs	-3030
▁walked	-3031
ologists	-3032
zz	-3033
ises	-3034
▁rid	-3035
thern	-3036
▁desp	-3037
▁weap	-3038
▁shark	-3039
▁spect	-3040
inating	-3041
▁driving	-3042
▁therefore	-3043
▁90	-3044
▁Ad	-3045
▁sal	-3046
ystem	-3047
▁hero	-3048
▁catch	-3049
▁store	-3050
▁detect	-3051
▁police	-3052
▁healthy	-3053
▁willing	-3054
▁familiar	-3055
▁Ex	-3056
ables	-3057
ained	-3058
▁shot	-3059
▁zero	-3060
▁celebr	-3061
▁unique	-3062
▁private	-3063
▁greatest	-3064
aly	-3065
rees	-3066
▁Har	-3067
▁exh	-3068
eless	-3069
▁plastic	-3070
▁Go	-3071
ceed	-3072
▁Afgh	-3073
▁prep	-3074
▁range	-3075
▁weren	-3076
fer	-3077
▁cry	-3078
▁lad	-3079
aries	-3080
▁rand	-3081
▁comfort	-3082
▁dangerous	-3083
▁direction	-3084
▁intelligence	-3085
▁environmental	-3086
cies	-3087
ashing	-3088
▁societ	-3089
▁address	-3090
eral	-3091
rams	-3092
▁sam	-3093
orrow	-3094
▁crow	-3095
▁spirit	-3096
▁website	-3097
▁invented	-3098
▁performance	-3099
▁institutions	-3100
▁i	-3101
enn	-3102
iles	-3103
uted	-3104
▁thr	-3105
istics	-3106
▁forth	-3107
atically	-3108
▁respond	-3109
bol	-3110
▁rise	-3111
imately	-3112
▁German	-3113
▁active	-3114
▁secret	-3115
▁freedom	-3116
▁various	-3117
bb	-3118
oid	-3119
resh	-3120
ried	-3121
▁fuel	-3122
▁jump	-3123
▁floor	-3124
▁income	-3125
▁random	-3126
▁teaching	-3127
ils	-3128
rom	-3129
▁Bl	-3130
▁types	-3131
▁babies	-3132
▁bodies	-3133
▁determ	-3134
▁multip	-3135
0,	-3136
mic	-3137
▁pan	-3138
▁tap	-3139
vision	-3140
▁ahead	-3141
▁encou	-3142
▁final	-3143
▁optim	-3144
▁worry	-3145
▁strugg	-3146
▁wealth	-3147
▁Imagine	-3148
▁doctors	-3149
▁services	-3150
orry	-3151
osing	-3152
▁meeting	-3153
▁University	-3154
yr	-3155
▁jud	-3156
▁occ	-3157
atives	-3158
ricult	-3159
▁demon	-3160
▁instr	-3161
▁Afghan	-3162
▁following	-3163
▁web	-3164
▁uses	-3165
▁career	-3166
▁levels	-3167
▁values	-3168
▁genetic	-3169
▁respect	-3170
▁instance	-3171
▁Cl	-3172
▁Two	-3173
▁ord	-3174
▁Mars	-3175
▁flying	-3176
▁useful	-3177
pro	-3178
▁atm	-3179
ondon	-3180
▁decide	-3181
▁insect	-3182
▁method	-3183
SA	-3184
eny	-3185
ches	-3186
itor	-3187
▁tiss	-3188
▁broad	-3189
▁gradu	-3190
▁decade	-3191
▁citizens	-3192
▁humanity	-3193
▁immediately	-3194
▁Cent	-3195
▁Cong	-3196
▁apply	-3197
▁email	-3198
▁simpl	-3199
▁London	-3200
▁mental	-3201
▁Western	-3202
airs	-3203
▁scr	-3204
attle	-3205
▁hair	-3206
▁laws	-3207
▁although	-3208
▁interview	-3209
▁remarkable	-3210
▁Mus	-3211
▁Ste	-3212
▁fit	-3213
antic	-3214
▁raise	-3215
▁trade	-3216
▁virus	-3217
▁governments	-3218
▁Dr	-3219
iate	-3220
▁sus	-3221
board	-3222
▁concl	-3223
▁integ	-3224
▁match	-3225
▁slide	-3226
▁popular	-3227
▁demonstr	-3228
▁standard	-3229
oty	-3230
▁24	-3231
▁Per	-3232
▁Sch	-3233
▁coun	-3234
▁saving	-3235
▁infrast	-3236
▁electron	-3237
▁condition	-3238
▁dram	-3239
▁park	-3240
▁Second	-3241
▁supply	-3242
▁possibly	-3243
▁oh	-3244
▁196	-3245
▁pig	-3246
prene	-3247
▁Arab	-3248
▁yell	-3249
iation	-3250
▁dynam	-3251
ologist	-3252
reprene	-3253
▁nation	-3254
▁relative	-3255
▁terrible	-3256
▁connection	-3257
uct	-3258
▁197	-3259
▁hyd	-3260
▁ran	-3261
▁forget	-3262
▁honest	-3263
▁speech	-3264
ervation	-3265
▁politics	-3266
▁engineering	-3267
▁500	-3268
▁nut	-3269
▁Your	-3270
▁cust	-3271
▁motiv	-3272
▁slightly	-3273
▁surround	-3274
▁television	-3275
yl	-3276
ball	-3277
iber	-3278
▁drop	-3279
▁summer	-3280
▁decades	-3281
▁express	-3282
▁agricult	-3283
▁understood	-3284
key	-3285
▁mal	-3286
anced	-3287
▁directly	-3288
ray	-3289
wise	-3290
ooper	-3291
▁oppos	-3292
▁cultural	-3293
▁financial	-3294
▁neighborhood	-3295
yle	-3296
▁mut	-3297
itted	-3298
▁blog	-3299
▁wood	-3300
▁associ	-3301
▁dimens	-3302
▁states	-3303
▁struct	-3304
▁switch	-3305
▁survive	-3306
▁capacity	-3307
▁societies	-3308
▁et	-3309
aign	-3310
▁Dav	-3311
iforn	-3312
▁quant	-3313
▁destro	-3314
▁forces	-3315
▁consequ	-3316
▁Californ	-3317
▁temperature	-3318
udd	-3319
▁sad	-3320
▁City	-3321
▁Many	-3322
▁base	-3323
▁paid	-3324
▁commer	-3325
▁shared	-3326
▁stress	-3327
▁purpose	-3328
▁enormous	-3329
▁ir	-3330
iring	-3331
▁rule	-3332
▁anyway	-3333
▁helped	-3334
▁physic	-3335
▁prevent	-3336
▁atmosphere	-3337
How	-3338
▁dad	-3339
ufact	-3340
▁From	-3341
▁vict	-3342
▁diseases	-3343
ID	-3344
ios	-3345
ened	-3346
▁Indian	-3347
▁mostly	-3348
▁surgery	-3349
▁tremend	-3350
▁creativity	-3351
0.	-3352
unk	-3353
cell	-3354
▁Char	-3355
▁task	-3356
▁whose	-3357
▁artist	-3358
▁closer	-3359
▁answers	-3360
▁central	-3361
▁National	-3362
▁mountain	-3363
▁published	-3364
▁California	-3365
▁challenges	-3366
ec	-3367
▁Pl	-3368
anda	-3369
cles	-3370
wood	-3371
aling	-3372
▁boys	-3373
▁hous	-3374
▁Think	-3375
▁displ	-3376
▁worst	-3377
▁oxygen	-3378
▁reflect	-3379
▁controll	-3380
▁networks	-3381
▁colleagues	-3382
▁entreprene	-3383
now	-3384
win	-3385
▁aid	-3386
inate	-3387
▁hole	-3388
▁tens	-3389
▁below	-3390
▁surve	-3391
▁philos	-3392
▁trouble	-3393
▁organizations	-3394
load	-3395
cience	-3396
▁Austr	-3397
▁funny	-3398
▁invent	-3399
▁played	-3400
▁symbol	-3401
▁effects	-3402
▁noticed	-3403
▁infrastructure	-3404
5,	-3405
ef	-3406
bert	-3407
izes	-3408
uing	-3409
▁hus	-3410
▁mid	-3411
rench	-3412
▁doub	-3413
▁mamm	-3414
▁causes	-3415
▁expand	-3416
▁original	-3417
▁profound	-3418
▁speaking	-3419
off	-3420
ancy	-3421
raid	-3422
▁300	-3423
icles	-3424
▁heat	-3425
▁smell	-3426
▁produced	-3427
ira	-3428
ked	-3429
arian	-3430
ement	-3431
▁Russ	-3432
▁conc	-3433
ashion	-3434
▁Again	-3435
▁experiments	-3436
olve	-3437
rael	-3438
vest	-3439
▁male	-3440
▁offic	-3441
▁radio	-3442
▁twice	-3443
▁afraid	-3444
▁belief	-3445
▁workers	-3446
▁pressure	-3447
▁programs	-3448
▁Ro	-3449
▁Iran	-3450
▁birds	-3451
▁dance	-3452
▁mobile	-3453
▁evolved	-3454
It	-3455
arm	-3456
▁ang	-3457
phone	-3458
▁coff	-3459
▁fort	-3460
▁loss	-3461
▁Islam	-3462
▁total	-3463
▁applic	-3464
▁corner	-3465
▁manufact	-3466
ibr	-3467
pes	-3468
raq	-3469
▁70	-3470
esis	-3471
atell	-3472
cules	-3473
▁bought	-3474
▁highly	-3475
▁histor	-3476
▁degrees	-3477
▁relationships	-3478
hy	-3479
▁iP	-3480
oting	-3481
▁hall	-3482
▁dying	-3483
▁markets	-3484
▁independ	-3485
cks	-3486
adem	-3487
band	-3488
exic	-3489
rupt	-3490
▁His	-3491
▁fat	-3492
▁mix	-3493
order	-3494
▁gold	-3495
▁stopped	-3496
▁streets	-3497
▁classroom	-3498
▁industrial	-3499
▁Afghanistan	-3500
aced	-3501
rical	-3502
▁airpl	-3503
▁legal	-3504
▁rough	-3505
ception	-3506
▁custom	-3507
▁campaign	-3508
▁communicate	-3509
▁differences	-3510
zil	-3511
empt	-3512
▁tax	-3513
orith	-3514
▁lack	-3515
▁shock	-3516
▁flight	-3517
▁Instead	-3518
▁emotional	-3519
▁collective	-3520
▁complexity	-3521
Why	-3522
ulner	-3523
▁Mich	-3524
▁wire	-3525
▁eating	-3526
▁choices	-3527
▁deliver	-3528
▁studying	-3529
▁differently	-3530
ste	-3531
cope	-3532
▁etc	-3533
▁Face	-3534
▁Iraq	-3535
▁bees	-3536
▁Mexic	-3537
▁Brazil	-3538
▁altern	-3539
▁compon	-3540
▁genome	-3541
▁reduce	-3542
▁satell	-3543
▁creates	-3544
▁journal	-3545
▁algorith	-3546
▁diversity	-3547
▁biological	-3548
▁conference	-3549
▁surprising	-3550
na	-3551
reg	-3552
ears	-3553
term	-3554
▁chim	-3555
▁lights	-3556
▁seemed	-3557
▁experiences	-3558
▁sustainable	-3559
af	-3560
edia	-3561
▁San	-3562
▁hom	-3563
▁David	-3564
▁metap	-3565
▁female	-3566
▁window	-3567
▁helping	-3568
▁bringing	-3569
▁molecules	-3570
▁significant	-3571
▁communication	-3572
ri	-3573
▁Aud	-3574
▁tum	-3575
▁tun	-3576
▁gent	-3577
▁trib	-3578
▁climb	-3579
▁10,000	-3580
▁breast	-3581
▁broken	-3582
▁devices	-3583
▁missing	-3584
▁landscape	-3585
▁consciousness	-3586
▁ut	-3587
▁Dar	-3588
▁cru	-3589
▁fro	-3590
ening	-3591
itter	-3592
water	-3593
osystem	-3594
▁attract	-3595
▁Nob	-3596
▁fold	-3597
▁hang	-3598
▁reco	-3599
▁swim	-3600
▁easily	-3601
▁spending	-3602
IDS	-3603
gth	-3604
▁ske	-3605
▁sick	-3606
rength	-3607
▁Israel	-3608
▁Middle	-3609
▁cooper	-3610
▁gotten	-3611
▁spaces	-3612
gy	-3613
icon	-3614
cript	-3615
▁seas	-3616
aining	-3617
▁Great	-3618
▁agree	-3619
▁basis	-3620
▁bread	-3621
▁fully	-3622
▁habit	-3623
▁Thanks	-3624
▁daughter	-3625
▁scientist	-3626
▁background	-3627
▁commercial	-3628
▁ur	-3629
▁Par	-3630
▁reb	-3631
▁rare	-3632
▁trip	-3633
▁vast	-3634
▁diagn	-3635
▁hearing	-3636
▁ecosystem	-3637
▁tremendous	-3638
▁opportunities	-3639
cra	-3640
edd	-3641
ees	-3642
▁En	-3643
▁ver	-3644
inist	-3645
rogen	-3646
▁beat	-3647
▁none	-3648
▁race	-3649
▁brill	-3650
▁crowd	-3651
▁passed	-3652
▁vulner	-3653
▁artists	-3654
▁members	-3655
▁strength	-3656
▁designers	-3657
▁ban	-3658
▁photo	-3659
▁visit	-3660
▁coffee	-3661
▁ancient	-3662
▁farmers	-3663
▁efficient	-3664
▁responsibility	-3665
val	-3666
hand	-3667
arter	-3668
▁feels	-3669
▁master	-3670
▁target	-3671
▁focused	-3672
▁religion	-3673
▁Gu	-3674
▁Mc	-3675
▁1,000	-3676
▁analy	-3677
▁liber	-3678
▁rapid	-3679
▁museum	-3680
▁contact	-3681
do	-3682
amb	-3683
▁Te	-3684
isco	-3685
▁cogn	-3686
▁ship	-3687
▁shift	-3688
▁desert	-3689
▁therap	-3690
aul	-3691
edic	-3692
▁Web	-3693
icking	-3694
ording	-3695
▁accom	-3696
▁enter	-3697
▁parad	-3698
▁pleas	-3699
▁yellow	-3700
▁forever	-3701
▁Facebook	-3702
reci	-3703
▁poet	-3704
▁weird	-3705
ography	-3706
▁knowing	-3707
mp	-3708
irt	-3709
▁alt	-3710
ander	-3711
▁Musl	-3712
▁harm	-3713
▁cheap	-3714
▁fairly	-3715
▁gentle	-3716
▁sexual	-3717
▁argument	-3718
▁imagination	-3719
▁More	-3720
▁join	-3721
▁mort	-3722
▁wide	-3723
▁brand	-3724
▁correct	-3725
▁Actually	-3726
▁addition	-3727
▁opposite	-3728
▁possibility	-3729
▁1.	-3730
▁inj	-3731
based	-3732
house	-3733
ratic	-3734
▁hell	-3735
▁Niger	-3736
▁aspect	-3737
▁failure	-3738
▁mission	-3739
▁moments	-3740
▁sharing	-3741
▁inspired	-3742
itely	-3743
▁Good	-3744
▁Rich	-3745
▁lucky	-3746
▁mouth	-3747
▁advant	-3748
▁identity	-3749
▁particles	-3750
▁religious	-3751
▁phenomenon	-3752
cop	-3753
mark	-3754
orge	-3755
roud	-3756
pping	-3757
▁bomb	-3758
▁host	-3759
▁consid	-3760
▁demand	-3761
▁notion	-3762
▁resist	-3763
▁accident	-3764
▁creatures	-3765
zen	-3766
▁Mr	-3767
▁Ob	-3768
▁joy	-3769
ipped	-3770
▁Over	-3771
▁seed	-3772
▁vacc	-3773
atures	-3774
dimens	-3775
▁integr	-3776
▁nearly	-3777
▁tissue	-3778
▁Austral	-3779
ification	-3780
▁benefits	-3781
▁negative	-3782
▁competition	-3783
fl	-3784
ami	-3785
▁Ha	-3786
▁See	-3787
▁ble	-3788
▁appl	-3789
▁repe	-3790
▁scan	-3791
▁shop	-3792
orders	-3793
▁dinos	-3794
▁party	-3795
▁foreign	-3796
▁restaur	-3797
▁turning	-3798
ada	-3799
▁Tr	-3800
▁wis	-3801
▁Asia	-3802
▁forg	-3803
▁gene	-3804
▁note	-3805
▁plat	-3806
▁rout	-3807
▁teen	-3808
ifying	-3809
▁magaz	-3810
▁batter	-3811
▁fashion	-3812
▁describe	-3813
reet	-3814
ulpt	-3815
▁gun	-3816
▁tom	-3817
▁core	-3818
▁stem	-3819
▁calls	-3820
▁coast	-3821
▁north	-3822
▁bright	-3823
▁charge	-3824
▁corpor	-3825
▁sculpt	-3826
▁stream	-3827
▁volunt	-3828
▁leadership	-3829
1,	-3830
tle	-3831
ront	-3832
▁400	-3833
▁nor	-3834
idden	-3835
ively	-3836
▁Will	-3837
▁iron	-3838
▁proud	-3839
▁French	-3840
▁remote	-3841
▁concent	-3842
▁despite	-3843
▁planets	-3844
▁Audience	-3845
8,	-3846
inc	-3847
vity	-3848
▁Nor	-3849
▁bud	-3850
print	-3851
▁exer	-3852
▁invis	-3853
connect	-3854
▁bridge	-3855
▁colors	-3856
▁events	-3857
▁sector	-3858
▁elements	-3859
▁partners	-3860
▁importantly	-3861
7,	-3862
gra	-3863
mon	-3864
▁fol	-3865
▁cred	-3866
▁noise	-3867
▁easier	-3868
▁meters	-3869
▁husband	-3870
▁weapons	-3871
▁European	-3872
rie	-3873
cest	-3874
▁Con	-3875
eared	-3876
stein	-3877
icians	-3878
▁maint	-3879
▁sorry	-3880
▁photos	-3881
ifically	-3882
▁emotion	-3883
▁figured	-3884
▁virtual	-3885
▁distance	-3886
dimensional	-3887
▁necessarily	-3888
9,	-3889
ica	-3890
▁CO	-3891
ford	-3892
urch	-3893
▁egg	-3894
▁ing	-3895
celer	-3896
▁puzz	-3897
▁tast	-3898
▁quote	-3899
▁tough	-3900
▁dollar	-3901
▁dreams	-3902
▁infect	-3903
▁inform	-3904
▁attempt	-3905
▁brother	-3906
▁traffic	-3907
▁brilliant	-3908
▁suffering	-3909
using	-3910
▁Take	-3911
▁cand	-3912
▁held	-3913
▁accur	-3914
▁bound	-3915
▁faith	-3916
▁giant	-3917
▁truck	-3918
▁ancest	-3919
▁double	-3920
▁raised	-3921
▁balance	-3922
ley	-3923
lin	-3924
ses	-3925
▁narr	-3926
▁helps	-3927
▁indic	-3928
▁grandm	-3929
▁kilomet	-3930
▁regular	-3931
▁related	-3932
gar	-3933
ager	-3934
vere	-3935
▁Big	-3936
▁unc	-3937
iable	-3938
▁boat	-3939
itable	-3940
▁chick	-3941
▁river	-3942
▁opened	-3943
▁appreci	-3944
▁destroy	-3945
▁leading	-3946
▁billions	-3947
▁previous	-3948
▁intellect	-3949
▁philosoph	-3950
ties	-3951
▁Bang	-3952
▁Keny	-3953
▁mill	-3954
▁shel	-3955
▁stuck	-3956
▁signal	-3957
▁transp	-3958
ographic	-3959
▁However	-3960
▁holding	-3961
▁typical	-3962
▁metaphor	-3963
▁sequence	-3964
▁Sometimes	-3965
▁necessary	-3966
▁structures	-3967
ha	-3968
mar	-3969
oop	-3970
▁Su	-3971
cked	-3972
vant	-3973
verse	-3974
inally	-3975
ulated	-3976
▁adapt	-3977
▁crash	-3978
▁brings	-3979
▁convin	-3980
▁succeed	-3981
▁entirely	-3982
▁ultimately	-3983
▁responsible	-3984
kn	-3985
equ	-3986
mit	-3987
esth	-3988
▁Sun	-3989
▁Very	-3990
▁edge	-3991
▁frequ	-3992
▁grass	-3993
▁leads	-3994
▁mouse	-3995
▁wheel	-3996
▁document	-3997
▁platform	-3998
▁childhood	-3999
ysis	-4000
▁amb	-4001
▁disp	-4002
▁moves	-4003
▁newsp	-4004
▁offer	-4005
▁subst	-4006
▁pounds	-4007
▁unlike	-4008
ulations	-4009
▁insects	-4010
▁leaving	-4011
▁require	-4012
▁shouldn	-4013
▁definition	-4014
my	-4015
son	-4016
▁1,	-4017
▁Sc	-4018
This	-4019
▁rot	-4020
idents	-4021
ipping	-4022
▁lunch	-4023
▁motor	-4024
▁paint	-4025
artment	-4026
ibilities	-4027
▁believed	-4028
▁institution	-4029
▁mathematics	-4030
▁fab	-4031
istry	-4032
▁grad	-4033
▁roof	-4034
▁weak	-4035
▁click	-4036
▁epide	-4037
▁fresh	-4038
▁walls	-4039
▁caught	-4040
▁closed	-4041
▁slowly	-4042
▁British	-4043
▁counter	-4044
▁element	-4045
▁install	-4046
▁studied	-4047
▁strategy	-4048
▁construct	-4049
▁discovery	-4050
▁influence	-4051
▁operating	-4052
▁president	-4053
▁university	-4054
rim	-4055
set	-4056
▁Fl	-4057
▁Ne	-4058
uild	-4059
uros	-4060
▁Did	-4061
▁bag	-4062
▁cla	-4063
▁ants	-4064
▁band	-4065
▁exch	-4066
▁compl	-4067
▁matters	-4068
▁trained	-4069
▁creation	-4070
▁fighting	-4071
▁constantly	-4072
▁unfortunately	-4073
ok	-4074
ads	-4075
oom	-4076
enty	-4077
hold	-4078
▁Gra	-4079
▁tit	-4080
▁und	-4081
agers	-4082
illed	-4083
▁frag	-4084
▁seat	-4085
▁embra	-4086
▁exhib	-4087
▁degree	-4088
▁microb	-4089
▁cognitive	-4090
▁investment	-4091
▁professional	-4092
2,	-4093
IT	-4094
atr	-4095
ius	-4096
cket	-4097
▁Once	-4098
▁reve	-4099
▁soil	-4100
▁spot	-4101
▁talks	-4102
lection	-4103
▁lesson	-4104
▁oceans	-4105
▁factory	-4106
▁surprise	-4107
▁civilization	-4108
iot	-4109
▁Ac	-4110
oint	-4111
pper	-4112
▁Gen	-4113
▁mos	-4114
▁tor	-4115
▁empt	-4116
▁hate	-4117
▁names	-4118
▁adults	-4119
▁deeply	-4120
▁failed	-4121
▁acceler	-4122
▁equival	-4123
▁finished	-4124
▁galaxies	-4125
▁concerned	-4126
▁organisms	-4127
▁depression	-4128
▁fascinating	-4129
uge	-4130
▁Ed	-4131
oman	-4132
oted	-4133
▁fle	-4134
▁gar	-4135
▁pun	-4136
▁ton	-4137
apers	-4138
right	-4139
▁Have	-4140
▁Life	-4141
▁horr	-4142
▁moon	-4143
terday	-4144
▁novel	-4145
▁prior	-4146
▁prototy	-4147
▁emotions	-4148
▁advantage	-4149
▁engineers	-4150
▁invisible	-4151
aff	-4152
iam	-4153
oses	-4154
▁hyp	-4155
alley	-4156
▁bone	-4157
urally	-4158
▁argue	-4159
vention	-4160
▁begins	-4161
▁phones	-4162
▁benefit	-4163
▁capable	-4164
▁interaction	-4165
▁ju	-4166
ength	-4167
▁Bill	-4168
▁tour	-4169
ctions	-4170
▁chann	-4171
mission	-4172
ruption	-4173
▁attach	-4174
▁finger	-4175
▁leader	-4176
▁letter	-4177
▁sister	-4178
▁managed	-4179
▁compared	-4180
▁Everybody	-4181
ij	-4182
▁NA	-4183
essed	-4184
icity	-4185
itute	-4186
▁opin	-4187
elling	-4188
▁Richard	-4189
▁artific	-4190
anes	-4191
apse	-4192
athy	-4193
iage	-4194
roll	-4195
▁Des	-4196
▁Red	-4197
▁era	-4198
▁mir	-4199
▁odd	-4200
▁gard	-4201
▁purs	-4202
▁whom	-4203
▁brief	-4204
▁chair	-4205
▁equip	-4206
▁south	-4207
▁Mexico	-4208
▁reward	-4209
▁Washing	-4210
▁invited	-4211
▁married	-4212
▁vehicle	-4213
▁languages	-4214
▁perfectly	-4215
▁consumption	-4216
cil	-4217
▁Me	-4218
gypt	-4219
▁den	-4220
▁mig	-4221
ulous	-4222
▁adop	-4223
▁king	-4224
ancing	-4225
▁avoid	-4226
▁equal	-4227
▁prost	-4228
▁circle	-4229
▁galaxy	-4230
▁symmet	-4231
▁wisdom	-4232
▁majority	-4233
▁described	-4234
▁otherwise	-4235
▁surprised	-4236
▁businesses	-4237
ae	-4238
aria	-4239
onom	-4240
▁150	-4241
▁pet	-4242
▁tal	-4243
▁anti	-4244
▁meat	-4245
▁nerv	-4246
▁coral	-4247
▁eleph	-4248
▁paying	-4249
▁precise	-4250
▁replace	-4251
▁wearing	-4252
▁contract	-4253
▁followed	-4254
▁Washington	-4255
▁equivalent	-4256
▁agriculture	-4257
oe	-4258
▁smo	-4259
throp	-4260
uries	-4261
▁grown	-4262
oration	-4263
▁exists	-4264
▁insight	-4265
▁mothers	-4266
▁protein	-4267
▁weather	-4268
▁everyday	-4269
▁launched	-4270
▁molecule	-4271
▁ax	-4272
care	-4273
iors	-4274
▁Her	-4275
▁cos	-4276
▁dol	-4277
▁pow	-4278
craft	-4279
known	-4280
lands	-4281
▁Each	-4282
▁Paul	-4283
▁intu	-4284
▁peak	-4285
▁Egypt	-4286
▁extend	-4287
▁unless	-4288
▁England	-4289
▁mentioned	-4290
▁Col	-4291
▁lapt	-4292
▁cycle	-4293
▁surge	-4294
▁incent	-4295
▁seriously	-4296
▁due	-4297
▁AIDS	-4298
▁Park	-4299
▁hasn	-4300
ildren	-4301
▁Three	-4302
▁heads	-4303
iration	-4304
▁Darwin	-4305
▁breath	-4306
▁dinner	-4307
▁implic	-4308
▁versus	-4309
▁compare	-4310
▁drawing	-4311
▁highest	-4312
▁feedback	-4313
▁normally	-4314
▁separate	-4315
▁economics	-4316
▁equipment	-4317
ara	-4318
ume	-4319
▁Co	-4320
rict	-4321
▁cro	-4322
▁fed	-4323
▁org	-4324
▁foss	-4325
▁wave	-4326
▁wear	-4327
▁round	-4328
▁commit	-4329
▁Twitter	-4330
▁limited	-4331
▁station	-4332
▁disaster	-4333
▁planning	-4334
▁principles	-4335
▁distribution	-4336
exp	-4337
▁Gl	-4338
ublic	-4339
ensity	-4340
forest	-4341
▁dolph	-4342
▁faces	-4343
▁pages	-4344
▁plane	-4345
entally	-4346
▁belong	-4347
▁shapes	-4348
▁Germany	-4349
▁curious	-4350
▁nervous	-4351
▁organic	-4352
▁treated	-4353
▁airplane	-4354
▁survival	-4355
▁App	-4356
▁dry	-4357
▁hun	-4358
▁agre	-4359
▁arms	-4360
▁academ	-4361
▁circum	-4362
▁fellow	-4363
▁select	-4364
▁warming	-4365
▁designer	-4366
▁received	-4367
▁hopefully	-4368
▁increasingly	-4369
If	-4370
add	-4371
pet	-4372
▁35	-4373
roph	-4374
uman	-4375
wide	-4376
▁Pal	-4377
estic	-4378
▁Does	-4379
▁bull	-4380
▁flat	-4381
▁myth	-4382
▁Franc	-4383
▁quiet	-4384
▁rural	-4385
▁synth	-4386
▁users	-4387
instein	-4388
▁toward	-4389
▁article	-4390
▁Japanese	-4391
▁statistics	-4392
▁transformation	-4393
RI	-4394
ox	-4395
car	-4396
irm	-4397
engu	-4398
asion	-4399
place	-4400
▁Pres	-4401
▁fell	-4402
▁nutr	-4403
▁veget	-4404
issions	-4405
▁astron	-4406
▁debate	-4407
▁harder	-4408
▁thinks	-4409
▁magazine	-4410
Yes	-4411
olves	-4412
ortex	-4413
▁abst	-4414
▁tick	-4415
encies	-4416
▁chain	-4417
▁sport	-4418
▁steps	-4419
▁toile	-4420
▁expert	-4421
▁fields	-4422
▁interp	-4423
▁leaves	-4424
▁stupid	-4425
▁Einstein	-4426
▁multiple	-4427
▁property	-4428
▁principle	-4429
▁technical	-4430
▁dimensions	-4431
▁generations	-4432
4,	-4433
ett	-4434
▁El	-4435
▁Rep	-4436
▁diet	-4437
▁reef	-4438
ession	-4439
▁Kenya	-4440
▁Would	-4441
▁driver	-4442
▁gather	-4443
▁ordinary	-4444
▁sentence	-4445
gl	-4446
Hey	-4447
oes	-4448
▁poo	-4449
▁spl	-4450
▁tow	-4451
▁Kore	-4452
▁puts	-4453
▁rein	-4454
▁tail	-4455
▁2,000	-4456
▁categ	-4457
▁crime	-4458
▁daily	-4459
▁lifet	-4460
▁motion	-4461
▁covered	-4462
▁letters	-4463
▁theater	-4464
▁investig	-4465
▁Australia	-4466
▁according	-4467
▁electrical	-4468
▁experienced	-4469
bel	-4470
urd	-4471
cale	-4472
ocol	-4473
▁Bas	-4474
▁Ben	-4475
anted	-4476
▁enem	-4477
▁wond	-4478
▁Their	-4479
▁Times	-4480
▁grade	-4481
▁heavy	-4482
▁homes	-4483
▁battle	-4484
▁damage	-4485
▁fourth	-4486
▁island	-4487
▁100,000	-4488
▁conduct	-4489
▁justice	-4490
▁killing	-4491
▁testing	-4492
▁volunte	-4493
▁watched	-4494
▁soldiers	-4495
▁continent	-4496
▁Everything	-4497
ns	-4498
hab	-4499
rum	-4500
▁Mo	-4501
▁Sm	-4502
aker	-4503
▁MIT	-4504
▁Res	-4505
▁row	-4506
lease	-4507
organ	-4508
▁coal	-4509
▁copy	-4510
▁pros	-4511
▁valu	-4512
▁warm	-4513
▁cloth	-4514
▁colon	-4515
▁inner	-4516
▁limit	-4517
▁hidden	-4518
▁setting	-4519
▁signals	-4520
▁associated	-4521
▁kilometers	-4522
▁intelligent	-4523
▁consequences	-4524
oot	-4525
aked	-4526
▁Dan	-4527
isher	-4528
▁King	-4529
▁date	-4530
▁folks	-4531
▁grain	-4532
▁neuro	-4533
▁polic	-4534
▁scene	-4535
▁caused	-4536
▁explan	-4537
▁filled	-4538
▁movies	-4539
▁resource	-4540
▁currently	-4541
▁essential	-4542
odes	-4543
▁pil	-4544
▁ves	-4545
▁bear	-4546
▁stim	-4547
▁Green	-4548
▁awful	-4549
▁facts	-4550
▁holes	-4551
▁infin	-4552
▁pengu	-4553
▁advert	-4554
▁losing	-4555
▁arrived	-4556
▁continu	-4557
▁identify	-4558
▁convinced	-4559
▁processes	-4560
▁yesterday	-4561
▁artificial	-4562
▁grandmother	-4563
▁researchers	-4564
▁intellectual	-4565
cast	-4566
▁cow	-4567
▁gap	-4568
▁nan	-4569
▁rat	-4570
erves	-4571
force	-4572
▁dial	-4573
▁surf	-4574
▁empty	-4575
▁liked	-4576
▁negot	-4577
▁shoes	-4578
ressive	-4579
▁neuros	-4580
▁players	-4581
▁comfortable	-4582
hyth	-4583
semb	-4584
▁gang	-4585
▁hadn	-4586
▁shut	-4587
ushing	-4588
▁manip	-4589
▁saved	-4590
▁signs	-4591
▁sites	-4592
▁spoke	-4593
▁stood	-4594
▁deeper	-4595
▁frustr	-4596
▁appropr	-4597
▁dealing	-4598
▁designing	-4599
▁satellite	-4600
▁considered	-4601
▁alternative	-4602
min	-4603
That	-4604
fish	-4605
gged	-4606
rate	-4607
▁Bar	-4608
▁agg	-4609
▁lat	-4610
iency	-4611
▁bits	-4612
▁hack	-4613
▁init	-4614
▁pray	-4615
▁soph	-4616
▁layer	-4617
▁mosqu	-4618
▁stock	-4619
▁finish	-4620
▁micros	-4621
▁voices	-4622
▁Britain	-4623
▁opening	-4624
▁worried	-4625
▁engineer	-4626
▁universal	-4627
▁importance	-4628
ald	-4629
ogen	-4630
rete	-4631
vard	-4632
▁Rem	-4633
▁Sim	-4634
▁bee	-4635
▁god	-4636
▁lie	-4637
▁Amaz	-4638
▁gall	-4639
▁tall	-4640
▁vote	-4641
ension	-4642
▁camer	-4643
▁perce	-4644
▁recon	-4645
akistan	-4646
▁muscle	-4647
▁picked	-4648
▁sharks	-4649
▁vessel	-4650
▁battery	-4651
▁cutting	-4652
▁feelings	-4653
▁wondering	-4654
▁management	-4655
2.	-4656
eal	-4657
▁Je	-4658
zing	-4659
neath	-4660
▁hide	-4661
▁libr	-4662
▁recy	-4663
▁scen	-4664
▁soul	-4665
▁teeth	-4666
▁School	-4667
▁reform	-4668
▁calling	-4669
▁experts	-4670
▁sources	-4671
▁reaction	-4672
▁struggle	-4673
▁professor	-4674
▁connections	-4675
6,	-4676
ux	-4677
cipl	-4678
▁Swed	-4679
▁blow	-4680
▁chap	-4681
▁dots	-4682
▁ends	-4683
▁videos	-4684
▁chimpan	-4685
▁display	-4686
▁variety	-4687
▁expected	-4688
bble	-4689
▁Cam	-4690
▁nar	-4691
▁pal	-4692
▁hurt	-4693
▁shif	-4694
▁Anyway	-4695
▁Canada	-4696
▁fortun	-4697
▁replic	-4698
▁review	-4699
▁capture	-4700
▁keeping	-4701
▁nations	-4702
▁Pakistan	-4703
▁cultures	-4704
▁tomorrow	-4705
▁interface	-4706
▁independent	-4707
hi	-4708
mas	-4709
uff	-4710
cend	-4711
▁pip	-4712
umber	-4713
▁2000	-4714
▁Gree	-4715
▁desk	-4716
▁intr	-4717
▁pian	-4718
▁qual	-4719
osition	-4720
▁budget	-4721
▁safety	-4722
▁illustr	-4723
▁roughly	-4724
▁advanced	-4725
▁marriage	-4726
▁requires	-4727
▁valuable	-4728
▁President	-4729
▁entertain	-4730
▁underneath	-4731
▁entrepreneurs	-4732
ago	-4733
zed	-4734
gets	-4735
mber	-4736
otic	-4737
▁Last	-4738
▁lady	-4739
▁user	-4740
itness	-4741
▁broke	-4742
▁cards	-4743
▁estab	-4744
▁flies	-4745
▁ideal	-4746
▁prove	-4747
▁waves	-4748
▁status	-4749
▁trials	-4750
▁illness	-4751
▁analysis	-4752
▁carrying	-4753
▁producing	-4754
▁properties	-4755
▁specifically	-4756
▁CE	-4757
aurs	-4758
icip	-4759
life	-4760
▁Sat	-4761
▁gay	-4762
▁tox	-4763
lying	-4764
▁auth	-4765
▁evil	-4766
▁gift	-4767
▁kick	-4768
▁lies	-4769
▁fewer	-4770
▁illeg	-4771
▁solid	-4772
▁George	-4773
▁Street	-4774
▁define	-4775
▁houses	-4776
▁Nigeria	-4777
▁cartoon	-4778
▁dynamic	-4779
▁viruses	-4780
▁chemistry	-4781
▁expression	-4782
▁vulnerable	-4783
▁effectively	-4784
▁possibilities	-4785
3,	-4786
30	-4787
rs	-4788
lom	-4789
itan	-4790
▁crim	-4791
▁exec	-4792
▁gain	-4793
▁nest	-4794
▁shall	-4795
▁sugar	-4796
▁gender	-4797
▁member	-4798
▁player	-4799
▁Harvard	-4800
▁privile	-4801
▁consumer	-4802
▁convince	-4803
▁exchange	-4804
▁location	-4805
▁existence	-4806
▁interpret	-4807
▁organized	-4808
▁sophistic	-4809
▁construction	-4810
ym	-4811
new	-4812
▁bul	-4813
▁fal	-4814
▁bran	-4815
▁flex	-4816
▁grid	-4817
▁isol	-4818
acters	-4819
▁chart	-4820
▁sight	-4821
▁smile	-4822
▁facing	-4823
▁cameras	-4824
▁consist	-4825
▁extract	-4826
▁circumst	-4827
▁exercise	-4828
▁hydrogen	-4829
▁chemicals	-4830
▁mortality	-4831
▁characters	-4832
▁transition	-4833
▁45	-4834
mers	-4835
▁lic	-4836
▁snow	-4837
anging	-4838
lement	-4839
▁rates	-4840
▁shoot	-4841
ulating	-4842
▁Center	-4843
▁forced	-4844
▁height	-4845
▁contain	-4846
▁sending	-4847
▁generate	-4848
▁messages	-4849
▁thoughts	-4850
▁whenever	-4851
▁encourage	-4852
▁corruption	-4853
▁instrument	-4854
▁relatively	-4855
▁represents	-4856
▁situations	-4857
gn	-4858
▁Gh	-4859
down	-4860
▁Wik	-4861
▁mel	-4862
▁sla	-4863
iques	-4864
▁drag	-4865
▁pure	-4866
▁tons	-4867
▁wake	-4868
▁honor	-4869
▁poetry	-4870
▁reprodu	-4871
▁emerging	-4872
▁lifetime	-4873
▁behaviors	-4874
▁carefully	-4875
▁collection	-4876
▁restaurant	-4877
▁GP	-4878
▁Ma	-4879
▁Gal	-4880
▁Int	-4881
▁Mil	-4882
▁ten	-4883
▁poem	-4884
▁spin	-4885
▁bottle	-4886
▁length	-4887
▁prefer	-4888
▁winter	-4889
▁selling	-4890
▁victims	-4891
▁clinical	-4892
▁graduate	-4893
.'	-4894
Don	-4895
ael	-4896
igm	-4897
abet	-4898
cont	-4899
sing	-4900
▁Phil	-4901
▁YouT	-4902
▁acqu	-4903
▁maps	-4904
▁resc	-4905
▁ring	-4906
▁Could	-4907
▁kitch	-4908
▁minim	-4909
▁tumor	-4910
▁fossil	-4911
▁sphere	-4912
▁malaria	-4913
▁abstract	-4914
▁prepared	-4915
▁Institute	-4916
▁employees	-4917
▁convention	-4918
DP	-4919
ta	-4920
uel	-4921
▁99	-4922
atin	-4923
▁Jew	-4924
▁Min	-4925
▁que	-4926
▁spo	-4927
▁bill	-4928
▁inev	-4929
▁lawy	-4930
▁lect	-4931
▁liqu	-4932
▁ride	-4933
▁tank	-4934
porary	-4935
▁Frank	-4936
▁added	-4937
▁horse	-4938
▁analog	-4939
▁buying	-4940
▁credit	-4941
▁Charles	-4942
▁YouTube	-4943
▁depends	-4944
▁partner	-4945
▁rapidly	-4946
abilities	-4947
▁epidemic	-4948
▁trillion	-4949
▁disappear	-4950
▁emissions	-4951
▁interests	-4952
▁definitely	-4953
▁politicians	-4954
▁mathematical	-4955
can	-4956
irty	-4957
olds	-4958
pher	-4959
▁bow	-4960
▁uns	-4961
▁arts	-4962
▁cure	-4963
▁beach	-4964
▁reven	-4965
▁serve	-4966
▁steel	-4967
itarian	-4968
▁forgot	-4969
▁remain	-4970
▁encoura	-4971
▁primary	-4972
▁Congress	-4973
▁movements	-4974
▁healthcare	-4975
▁protection	-4976
1.	-4977
fit	-4978
log	-4979
▁II	-4980
Look	-4981
▁Atl	-4982
▁Pac	-4983
▁Tom	-4984
▁Tur	-4985
▁iPh	-4986
▁occup	-4987
▁risks	-4988
▁sympt	-4989
▁hypoth	-4990
chnology	-4991
▁autonom	-4992
▁promise	-4993
▁radical	-4994
▁pleasure	-4995
▁generally	-4996
▁introduced	-4997
▁profession	-4998
▁evolutionary	-4999
60	-5000
▁'9	-5001
bors	-5002
sour	-5003
what	-5004
etics	-5005
▁NASA	-5006
▁runs	-5007
▁unit	-5008
▁goods	-5009
▁metal	-5010
▁compar	-5011
▁conver	-5012
▁desire	-5013
▁factor	-5014
▁mirror	-5015
▁release	-5016
▁Francisco	-5017
▁introduce	-5018
▁newspaper	-5019
▁practical	-5020
▁radiation	-5021
▁discussion	-5022
▁psychology	-5023
iat	-5024
rog	-5025
aled	-5026
over	-5027
▁rub	-5028
erved	-5029
▁dish	-5030
▁plus	-5031
▁thin	-5032
▁claim	-5033
▁hyper	-5034
▁sides	-5035
▁medium	-5036
▁rocket	-5037
▁Anderson	-5038
▁affected	-5039
▁official	-5040
▁recorded	-5041
▁spectrum	-5042
▁invention	-5043
▁environments	-5044
alt	-5045
ingu	-5046
▁GDP	-5047
▁rom	-5048
▁san	-5049
aters	-5050
orous	-5051
▁input	-5052
▁skill	-5053
▁Russia	-5054
▁assign	-5055
▁bubble	-5056
▁former	-5057
▁organs	-5058
▁refuge	-5059
▁applied	-5060
▁dropped	-5061
▁gravity	-5062
▁singing	-5063
▁vehicles	-5064
▁dinosaurs	-5065
▁typically	-5066
▁techniques	-5067
lly	-5068
▁Bro	-5069
▁dip	-5070
▁ens	-5071
alled	-5072
icing	-5073
usual	-5074
▁glam	-5075
▁aging	-5076
▁ought	-5077
▁details	-5078
▁engaged	-5079
▁harvest	-5080
▁mistake	-5081
▁establish	-5082
▁molecular	-5083
▁mountains	-5084
▁algorithms	-5085
▁components	-5086
▁technological	-5087
bl	-5088
spe	-5089
olly	-5090
▁mer	-5091
▁ped	-5092
itals	-5093
point	-5094
▁clip	-5095
▁shad	-5096
▁wine	-5097
▁James	-5098
▁atoms	-5099
▁estim	-5100
▁staff	-5101
▁hoping	-5102
▁pulled	-5103
▁regard	-5104
▁sample	-5105
▁season	-5106
▁spring	-5107
▁worlds	-5108
▁centers	-5109
▁factors	-5110
▁however	-5111
▁kitchen	-5112
▁lessons	-5113
▁opinion	-5114
▁neighbors	-5115
▁perception	-5116
▁combination	-5117
bur	-5118
osh	-5119
uary	-5120
▁Ber	-5121
▁Yet	-5122
eline	-5123
enced	-5124
▁Coll	-5125
▁Mont	-5126
▁cast	-5127
▁mira	-5128
▁myst	-5129
ternal	-5130
urance	-5131
▁goals	-5132
▁initi	-5133
▁notes	-5134
▁theme	-5135
▁topic	-5136
▁aftern	-5137
▁senses	-5138
▁include	-5139
▁occurred	-5140
▁worldwide	-5141
▁efficiency	-5142
▁collaboration	-5143
oly	-5144
osis	-5145
▁adj	-5146
▁rig	-5147
riend	-5148
▁Bank	-5149
▁Port	-5150
▁bare	-5151
▁biom	-5152
▁decl	-5153
▁hits	-5154
▁impl	-5155
▁reci	-5156
▁vent	-5157
olving	-5158
▁3,000	-5159
▁Since	-5160
▁Steve	-5161
▁clock	-5162
▁dedic	-5163
▁keeps	-5164
▁pitch	-5165
▁sweet	-5166
▁Amazon	-5167
▁acting	-5168
▁assist	-5169
▁blocks	-5170
▁cortex	-5171
▁driven	-5172
▁garden	-5173
▁liquid	-5174
▁accompl	-5175
▁chicken	-5176
▁courage	-5177
▁illegal	-5178
▁reached	-5179
▁mistakes	-5180
▁rational	-5181
▁relevant	-5182
▁ultimate	-5183
▁activities	-5184
▁foundation	-5185
▁sophisticated	-5186
bre	-5187
ham	-5188
ino	-5189
aren	-5190
asks	-5191
elly	-5192
uits	-5193
umps	-5194
▁Rob	-5195
▁cha	-5196
abled	-5197
itual	-5198
usive	-5199
▁cere	-5200
▁eggs	-5201
▁Other	-5202
▁prime	-5203
▁refer	-5204
▁satis	-5205
▁teles	-5206
▁ingred	-5207
▁studio	-5208
▁thanks	-5209
▁Michael	-5210
▁feature	-5211
▁figures	-5212
▁operate	-5213
▁quantum	-5214
▁unusual	-5215
▁birthday	-5216
▁features	-5217
▁memories	-5218
▁naturally	-5219
▁traveling	-5220
80	-5221
orb	-5222
▁eld	-5223
vable	-5224
arrass	-5225
▁false	-5226
▁piano	-5227
▁pregn	-5228
eration	-5229
▁burning	-5230
▁cooking	-5231
▁musical	-5232
▁astronom	-5233
▁terrorism	-5234
▁destruction	-5235
▁photographs	-5236
Do	-5237
za	-5238
esh	-5239
xim	-5240
ifth	-5241
▁Art	-5242
▁Lad	-5243
▁mak	-5244
gment	-5245
nding	-5246
▁Also	-5247
▁Four	-5248
▁load	-5249
▁sees	-5250
▁wars	-5251
▁wash	-5252
▁storm	-5253
▁Nobody	-5254
▁iPhone	-5255
▁solved	-5256
▁Pacific	-5257
▁actions	-5258
▁silence	-5259
▁afternoon	-5260
▁marketing	-5261
uls	-5262
cred	-5263
▁194	-5264
▁Dem	-5265
▁Los	-5266
▁Alex	-5267
▁Ange	-5268
▁club	-5269
▁fert	-5270
▁silk	-5271
▁trig	-5272
▁domin	-5273
▁horiz	-5274
▁Valley	-5275
▁drives	-5276
▁fisher	-5277
▁formed	-5278
▁scared	-5279
▁string	-5280
volution	-5281
▁amounts	-5282
▁records	-5283
▁suppose	-5284
▁witness	-5285
▁proteins	-5286
▁ancestors	-5287
▁embarrass	-5288
▁pollution	-5289
▁meaningful	-5290
▁personally	-5291
▁participate	-5292
▁fundamentally	-5293
▁manufacturing	-5294
In	-5295
ait	-5296
▁75	-5297
abol	-5298
akers	-5299
ended	-5300
ework	-5301
icago	-5302
scale	-5303
▁Adam	-5304
▁Mart	-5305
▁cave	-5306
▁dogs	-5307
▁joke	-5308
▁pair	-5309
▁State	-5310
▁tests	-5311
▁France	-5312
▁contem	-5313
▁survey	-5314
▁Chicago	-5315
▁Perhaps	-5316
▁Project	-5317
▁extinct	-5318
▁forests	-5319
▁nowhere	-5320
▁visible	-5321
▁confront	-5322
▁dramatic	-5323
▁awareness	-5324
▁framework	-5325
▁mechanism	-5326
▁percentage	-5327
▁processing	-5328
▁presentation	-5329
▁circumstances	-5330
▁psychological	-5331
▁transportation	-5332
alu	-5333
ula	-5334
ums	-5335
▁Qu	-5336
xide	-5337
▁Ant	-5338
▁Bab	-5339
▁Mic	-5340
▁Unf	-5341
lines	-5342
retch	-5343
▁Stan	-5344
▁diss	-5345
▁fake	-5346
▁hook	-5347
▁remo	-5348
▁coord	-5349
▁doubt	-5350
▁films	-5351
▁frame	-5352
▁resil	-5353
▁roads	-5354
▁Muslim	-5355
▁clever	-5356
▁laptop	-5357
▁perman	-5358
▁ritual	-5359
▁empower	-5360
▁outcome	-5361
▁tonight	-5362
▁apparent	-5363
▁required	-5364
▁sunlight	-5365
▁computing	-5366
▁increased	-5367
▁operation	-5368
▁literature	-5369
▁conservation	-5370
8.	-5371
uh	-5372
yn	-5373
rat	-5374
aser	-5375
oons	-5376
▁nav	-5377
oston	-5378
▁flew	-5379
▁hung	-5380
▁hunt	-5381
▁orch	-5382
▁pump	-5383
▁tape	-5384
▁vert	-5385
▁Women	-5386
▁score	-5387
▁shame	-5388
inction	-5389
▁church	-5390
▁option	-5391
▁severe	-5392
▁clothes	-5393
▁command	-5394
▁diction	-5395
▁largely	-5396
▁concrete	-5397
▁creature	-5398
▁internal	-5399
▁providing	-5400
▁conclusion	-5401
▁democratic	-5402
▁productive	-5403
▁applications	-5404
▁Unfortunately	-5405
▁sustainability	-5406
itz	-5407
vis	-5408
▁Ah	-5409
▁ru	-5410
adic	-5411
foot	-5412
▁Dep	-5413
▁asp	-5414
iture	-5415
▁lens	-5416
▁obst	-5417
▁suit	-5418
angers	-5419
estyle	-5420
illing	-5421
▁5,000	-5422
▁curve	-5423
▁taste	-5424
▁thick	-5425
▁advice	-5426
▁clouds	-5427
▁critic	-5428
▁whales	-5429
aneously	-5430
cription	-5431
▁defined	-5432
▁falling	-5433
▁therapy	-5434
▁administ	-5435
▁existing	-5436
▁infected	-5437
▁presence	-5438
▁released	-5439
▁tracking	-5440
▁collected	-5441
▁hospitals	-5442
▁physically	-5443
▁appropriate	-5444
▁inspiration	-5445
ls	-5446
ita	-5447
top	-5448
▁Fe	-5449
Okay	-5450
whel	-5451
▁Day	-5452
▁Jul	-5453
▁Mon	-5454
▁phr	-5455
▁pin	-5456
▁toy	-5457
itors	-5458
▁jail	-5459
▁loud	-5460
▁ment	-5461
▁subs	-5462
making	-5463
owered	-5464
▁Union	-5465
▁lying	-5466
▁ridic	-5467
▁upper	-5468
▁Boston	-5469
▁advent	-5470
▁flower	-5471
▁reject	-5472
▁closely	-5473
▁discipl	-5474
▁electro	-5475
▁empathy	-5476
▁fingers	-5477
▁flowers	-5478
▁quarter	-5479
▁accurate	-5480
▁villages	-5481
▁gentlemen	-5482
▁protected	-5483
▁surrounded	-5484
▁explanation	-5485
▁potentially	-5486
ss	-5487
500	-5488
que	-5489
▁Sa	-5490
keys	-5491
tech	-5492
▁Air	-5493
▁GPS	-5494
▁Law	-5495
▁mad	-5496
rated	-5497
▁Come	-5498
▁Five	-5499
▁ears	-5500
▁elev	-5501
▁furn	-5502
▁zoom	-5503
iosity	-5504
isters	-5505
▁Wikip	-5506
▁chose	-5507
▁inequ	-5508
▁split	-5509
▁boring	-5510
▁deaths	-5511
▁papers	-5512
▁circuit	-5513
▁decline	-5514
▁fishing	-5515
▁reverse	-5516
▁unknown	-5517
▁combined	-5518
▁contrast	-5519
▁horrible	-5520
▁subjects	-5521
▁wireless	-5522
▁narrative	-5523
▁economists	-5524
▁electronic	-5525
▁innovative	-5526
uce	-5527
ests	-5528
▁bes	-5529
allel	-5530
esome	-5531
▁bicy	-5532
▁diam	-5533
▁disg	-5534
▁While	-5535
▁hotel	-5536
▁multi	-5537
▁recom	-5538
▁renew	-5539
▁songs	-5540
▁trend	-5541
▁uncom	-5542
▁Robert	-5543
▁pollen	-5544
▁comment	-5545
▁intense	-5546
▁allowing	-5547
▁collapse	-5548
▁constant	-5549
▁overwhel	-5550
▁somewhat	-5551
▁stronger	-5552
▁Something	-5553
▁explained	-5554
▁functions	-5555
▁sensitive	-5556
▁underwater	-5557
Is	-5558
ih	-5559
fin	-5560
anta	-5561
cers	-5562
iggs	-5563
tail	-5564
▁Eth	-5565
▁Pol	-5566
▁van	-5567
stand	-5568
▁Only	-5569
▁gras	-5570
▁item	-5571
▁milk	-5572
▁sets	-5573
▁Latin	-5574
▁Paris	-5575
▁falls	-5576
▁humor	-5577
▁stone	-5578
▁corres	-5579
▁divide	-5580
▁monkey	-5581
inations	-5582
▁advance	-5583
▁evening	-5584
▁election	-5585
▁spiritual	-5586
▁controlled	-5587
▁laboratory	-5588
▁challenging	-5589
▁instruments	-5590
20	-5591
au	-5592
cal	-5593
ola	-5594
▁2.	-5595
▁La	-5596
berg	-5597
▁600	-5598
▁sen	-5599
night	-5600
▁bath	-5601
▁bike	-5602
▁busy	-5603
▁mere	-5604
▁nurs	-5605
▁scar	-5606
herent	-5607
stream	-5608
▁Higgs	-5609
▁antib	-5610
▁bones	-5611
▁depth	-5612
▁error	-5613
▁frank	-5614
▁logic	-5615
▁prize	-5616
▁Museum	-5617
▁stayed	-5618
▁volume	-5619
▁Science	-5620
▁channel	-5621
▁combine	-5622
▁remains	-5623
▁measured	-5624
▁provided	-5625
▁Basically	-5626
▁Christmas	-5627
▁Wikipedia	-5628
▁authority	-5629
▁exploration	-5630
5.	-5631
Os	-5632
aks	-5633
ato	-5634
nda	-5635
▁wel	-5636
clear	-5637
icide	-5638
iters	-5639
▁Talk	-5640
▁mile	-5641
▁pill	-5642
▁vibr	-5643
athers	-5644
▁admit	-5645
▁whist	-5646
▁Please	-5647
▁autism	-5648
▁button	-5649
▁deploy	-5650
▁desper	-5651
▁inject	-5652
▁profit	-5653
▁remove	-5654
▁mosquit	-5655
▁transpl	-5656
▁vaccine	-5657
▁Republic	-5658
▁instruct	-5659
▁paradigm	-5660
▁wondered	-5661
▁reference	-5662
▁technique	-5663
▁telephone	-5664
▁transformed	-5665
mm	-5666
ota	-5667
vey	-5668
▁py	-5669
hour	-5670
being	-5671
gging	-5672
▁Thom	-5673
▁clus	-5674
▁horm	-5675
▁poly	-5676
▁tack	-5677
ateful	-5678
▁breed	-5679
▁dress	-5680
▁expon	-5681
▁plate	-5682
▁rooms	-5683
▁unexp	-5684
▁encoun	-5685
▁handle	-5686
▁relate	-5687
ographer	-5688
▁options	-5689
▁regions	-5690
▁continued	-5691
▁statement	-5692
▁mathematic	-5693
ban	-5694
mal	-5695
nel	-5696
▁Em	-5697
Yeah	-5698
ille	-5699
▁Sam	-5700
▁anx	-5701
▁cock	-5702
▁gest	-5703
▁icon	-5704
▁outc	-5705
ounced	-5706
▁Found	-5707
▁memor	-5708
▁shell	-5709
ptember	-5710
▁border	-5711
▁explos	-5712
▁spider	-5713
▁suffer	-5714
onscious	-5715
▁classes	-5716
▁samples	-5717
connected	-5718
▁director	-5719
▁footprint	-5720
▁passionate	-5721
▁unexpected	-5722
▁implications	-5723
▁conversations	-5724
70	-5725
My	-5726
van	-5727
▁23	-5728
east	-5729
lymp	-5730
▁Mal	-5731
acing	-5732
▁Gulf	-5733
▁army	-5734
▁flag	-5735
▁mush	-5736
▁nose	-5737
▁pool	-5738
▁About	-5739
▁Count	-5740
▁Mount	-5741
▁Woman	-5742
▁bombs	-5743
▁knock	-5744
▁label	-5745
▁navig	-5746
▁weigh	-5747
▁Health	-5748
▁attend	-5749
▁diplom	-5750
▁enable	-5751
▁joined	-5752
▁linked	-5753
▁script	-5754
▁stands	-5755
▁attacks	-5756
▁embrace	-5757
▁equally	-5758
▁offered	-5759
▁overall	-5760
▁robotic	-5761
▁drinking	-5762
▁microbes	-5763
▁organism	-5764
▁swimming	-5765
▁September	-5766
▁arguments	-5767
▁centuries	-5768
▁appreciate	-5769
▁confidence	-5770
agn	-5771
box	-5772
cut	-5773
den	-5774
bage	-5775
nded	-5776
onym	-5777
▁Che	-5778
▁Jan	-5779
▁ack	-5780
▁dot	-5781
hythm	-5782
icted	-5783
sters	-5784
▁elim	-5785
▁root	-5786
▁Ghana	-5787
▁anger	-5788
▁angry	-5789
▁boxes	-5790
▁cents	-5791
▁datab	-5792
▁fright	-5793
▁interf	-5794
▁toilet	-5795
▁sensors	-5796
▁surgeon	-5797
▁distinct	-5798
▁penguins	-5799
▁wherever	-5800
▁corporate	-5801
ata	-5802
hol	-5803
etch	-5804
gent	-5805
iled	-5806
rors	-5807
▁250	-5808
▁hur	-5809
▁irr	-5810
▁tea	-5811
eness	-5812
▁barr	-5813
▁tube	-5814
▁Korea	-5815
▁Obama	-5816
▁Olymp	-5817
▁honey	-5818
▁style	-5819
▁agreed	-5820
▁chocol	-5821
▁narrow	-5822
▁anticip	-5823
▁careful	-5824
▁carried	-5825
▁dancing	-5826
▁frankly	-5827
▁monkeys	-5828
▁windows	-5829
▁younger	-5830
▁infinite	-5831
▁occasion	-5832
▁transfer	-5833
▁identical	-5834
▁implement	-5835
▁spreading	-5836
▁standards	-5837
▁behavioral	-5838
▁directions	-5839
▁automatically	-5840
dr	-5841
och	-5842
▁["	-5843
amin	-5844
ctic	-5845
▁Cap	-5846
▁Haw	-5847
uting	-5848
▁Gold	-5849
▁Mark	-5850
▁acts	-5851
▁biod	-5852
▁cash	-5853
▁Micro	-5854
▁cyber	-5855
▁decre	-5856
▁fixed	-5857
▁ignor	-5858
▁plans	-5859
▁assume	-5860
▁storyt	-5861
▁feeding	-5862
▁funding	-5863
▁poorest	-5864
▁violent	-5865
▁Remember	-5866
▁domestic	-5867
▁obsessed	-5868
▁overcome	-5869
▁symptoms	-5870
▁lifestyle	-5871
▁selection	-5872
▁mechanical	-5873
▁application	-5874
▁represented	-5875
ias	-5876
sum	-5877
▁Hy	-5878
▁NG	-5879
aint	-5880
erge	-5881
lock	-5882
ogue	-5883
▁Leg	-5884
▁gut	-5885
▁sem	-5886
▁tab	-5887
arant	-5888
belie	-5889
iform	-5890
itory	-5891
ounce	-5892
▁atom	-5893
▁dign	-5894
▁tent	-5895
imeter	-5896
profit	-5897
▁Congo	-5898
▁Inter	-5899
▁dense	-5900
▁enemy	-5901
▁faced	-5902
▁guide	-5903
▁recyc	-5904
▁scary	-5905
▁tight	-5906
▁title	-5907
▁Sweden	-5908
▁pocket	-5909
▁puzzle	-5910
▁tested	-5911
▁Finally	-5912
▁earthqu	-5913
▁concepts	-5914
▁download	-5915
▁elephant	-5916
▁equation	-5917
▁grateful	-5918
▁illusion	-5919
▁suggests	-5920
▁constrain	-5921
▁consumers	-5922
▁recording	-5923
▁controlling	-5924
▁cooperation	-5925
PA	-5926
wr	-5927
bal	-5928
gly	-5929
imp	-5930
iop	-5931
isl	-5932
appy	-5933
look	-5934
▁10,	-5935
▁June	-5936
▁zone	-5937
▁dozen	-5938
▁polio	-5939
▁pyram	-5940
▁smoke	-5941
▁stack	-5942
▁colony	-5943
▁extent	-5944
▁fabric	-5945
▁mainly	-5946
▁owners	-5947
▁placed	-5948
▁slides	-5949
▁struck	-5950
▁breathe	-5951
▁library	-5952
▁painful	-5953
▁proport	-5954
▁pushing	-5955
▁Everyone	-5956
▁policies	-5957
▁breathing	-5958
▁determine	-5959
▁increases	-5960
▁architects	-5961
▁exhibition	-5962
▁greenhouse	-5963
▁distributed	-5964
▁recognition	-5965
▁conventional	-5966
▁entertainment	-5967
4.	-5968
▁AB	-5969
▁Rw	-5970
aret	-5971
keep	-5972
otes	-5973
▁Med	-5974
▁vag	-5975
▁1950	-5976
▁cosm	-5977
▁golf	-5978
▁gray	-5979
▁pour	-5980
▁till	-5981
astern	-5982
▁Apple	-5983
▁crack	-5984
▁flood	-5985
▁grows	-5986
▁pharm	-5987
▁phase	-5988
▁Thomas	-5989
▁acknow	-5990
▁arrest	-5991
▁geomet	-5992
▁latest	-5993
▁limits	-5994
▁myster	-5995
▁obstac	-5996
▁prices	-5997
▁traged	-5998
etically	-5999
▁Nothing	-6000
▁causing	-6001
▁conserv	-6002
▁divided	-6003
▁metabol	-6004
▁parking	-6005
▁brothers	-6006
▁instinct	-6007
▁maintain	-6008
▁outcomes	-6009
▁component	-6010
▁disorders	-6011
▁exploring	-6012
▁household	-6013
▁presented	-6014
▁prototype	-6015
▁translate	-6016
▁resistance	-6017
▁educational	-6018
▁dramatically	-6019
sem	-6020
ups	-6021
hips	-6022
illy	-6023
ocal	-6024
rous	-6025
▁Cop	-6026
▁Sil	-6027
▁ben	-6028
▁sed	-6029
ingly	-6030
▁cord	-6031
▁loop	-6032
arency	-6033
▁Haiti	-6034
▁Nobel	-6035
▁colum	-6036
▁polar	-6037
▁tasks	-6038
▁tries	-6039
▁Before	-6040
▁astero	-6041
▁embedd	-6042
▁worker	-6043
ollywood	-6044
▁borders	-6045
▁collaps	-6046
▁concert	-6047
▁privacy	-6048
▁solving	-6049
▁engaging	-6050
▁floating	-6051
▁celebrate	-6052
▁measuring	-6053
▁Foundation	-6054
▁entrepreneur	-6055
But	-6056
tes	-6057
▁DH	-6058
▁Ke	-6059
soft	-6060
ubes	-6061
▁Get	-6062
▁Jer	-6063
▁Nat	-6064
▁fan	-6065
▁raw	-6066
cence	-6067
iance	-6068
▁Jack	-6069
▁firm	-6070
▁neut	-6071
▁ours	-6072
▁explo	-6073
▁remem	-6074
▁sales	-6075
▁yield	-6076
iveness	-6077
▁Number	-6078
▁filter	-6079
▁hunger	-6080
▁plenty	-6081
▁Angeles	-6082
▁habitat	-6083
▁license	-6084
▁vessels	-6085
▁appeared	-6086
▁mushroom	-6087
▁parallel	-6088
▁particle	-6089
▁printing	-6090
▁romantic	-6091
ologically	-6092
▁furniture	-6093
▁paintings	-6094
▁uncertain	-6095
▁Revolution	-6096
▁philosophy	-6097
▁interactive	-6098
▁interactions	-6099
ault	-6100
heim	-6101
uous	-6102
well	-6103
▁Hom	-6104
▁dio	-6105
▁ther	-6106
apping	-6107
▁House	-6108
▁accum	-6109
▁teams	-6110
unclear	-6111
▁candid	-6112
▁lovely	-6113
▁proced	-6114
▁spoken	-6115
▁classic	-6116
▁density	-6117
▁existed	-6118
▁fiction	-6119
▁lecture	-6120
▁pretend	-6121
▁receive	-6122
▁savings	-6123
▁stretch	-6124
▁achieved	-6125
▁involves	-6126
▁economies	-6127
▁insurance	-6128
▁practices	-6129
▁precisely	-6130
▁commitment	-6131
▁connecting	-6132
▁fascinated	-6133
▁performing	-6134
▁interacting	-6135
7.	-6136
azz	-6137
col	-6138
oca	-6139
ris	-6140
▁BG	-6141
▁Ug	-6142
ello	-6143
gers	-6144
lete	-6145
oned	-6146
rary	-6147
rets	-6148
udes	-6149
zees	-6150
▁Tor	-6151
aving	-6152
iders	-6153
▁Part	-6154
▁axis	-6155
▁corn	-6156
▁grab	-6157
▁prem	-6158
▁stri	-6159
▁stro	-6160
called	-6161
father	-6162
source	-6163
▁aston	-6164
▁judge	-6165
▁whale	-6166
raction	-6167
▁Island	-6168
▁hearts	-6169
▁immune	-6170
▁ladies	-6171
▁phrase	-6172
▁repair	-6173
▁scream	-6174
▁secure	-6175
▁surely	-6176
▁thrown	-6177
▁Central	-6178
▁Islamic	-6179
▁disgust	-6180
▁housing	-6181
▁opposed	-6182
▁Africans	-6183
▁laughing	-6184
▁properly	-6185
▁traveled	-6186
▁destroyed	-6187
▁sculpture	-6188
▁department	-6189
vas	-6190
exas	-6191
osen	-6192
quar	-6193
wich	-6194
▁Bob	-6195
▁Jim	-6196
▁Mad	-6197
▁gla	-6198
▁gon	-6199
▁mim	-6200
▁tip	-6201
esity	-6202
pring	-6203
▁Bush	-6204
▁bubb	-6205
▁excl	-6206
▁lets	-6207
▁pace	-6208
▁ugly	-6209
▁Democ	-6210
▁Grand	-6211
▁globe	-6212
▁likes	-6213
▁toxic	-6214
▁wings	-6215
▁Ethiop	-6216
▁agenda	-6217
▁behave	-6218
▁clinic	-6219
▁eradic	-6220
▁excell	-6221
▁legisl	-6222
▁marine	-6223
▁repeat	-6224
▁signed	-6225
▁writer	-6226
▁appears	-6227
▁awesome	-6228
▁balloon	-6229
▁ceiling	-6230
▁dioxide	-6231
▁entered	-6232
▁neither	-6233
▁raising	-6234
▁academic	-6235
▁attached	-6236
▁breaking	-6237
▁embedded	-6238
▁recovery	-6239
▁Microsoft	-6240
▁chocolate	-6241
▁recommend	-6242
▁controvers	-6243
▁rainforest	-6244
▁disappeared	-6245
▁productivity	-6246
AR	-6247
anz	-6248
rey	-6249
rade	-6250
thal	-6251
▁Boy	-6252
▁Pat	-6253
▁tag	-6254
earch	-6255
eters	-6256
inals	-6257
power	-6258
▁Budd	-6259
▁dict	-6260
▁emph	-6261
▁mold	-6262
▁Texas	-6263
▁orbit	-6264
▁persu	-6265
▁stere	-6266
▁toler	-6267
▁usual	-6268
▁walks	-6269
forward	-6270
related	-6271
through	-6272
▁conven	-6273
▁frozen	-6274
▁finance	-6275
▁guarant	-6276
▁monitor	-6277
▁orchest	-6278
▁whereas	-6279
▁disorder	-6280
▁dolphins	-6281
▁estimate	-6282
▁imagined	-6283
▁magnetic	-6284
▁meetings	-6285
▁reaching	-6286
▁shooting	-6287
▁shoulder	-6288
▁animation	-6289
▁curiosity	-6290
▁depending	-6291
▁permanent	-6292
▁reduction	-6293
▁inequality	-6294
▁recognized	-6295
▁manufacture	-6296
▁personality	-6297
▁populations	-6298
Be	-6299
ua	-6300
des	-6301
han	-6302
ida	-6303
org	-6304
pox	-6305
ras	-6306
cean	-6307
ener	-6308
▁Eve	-6309
▁Pre	-6310
▁Sov	-6311
▁bat	-6312
▁gig	-6313
▁shr	-6314
▁tri	-6315
leton	-6316
level	-6317
state	-6318
▁Cons	-6319
▁plot	-6320
phones	-6321
▁Human	-6322
▁brown	-6323
▁delic	-6324
▁flash	-6325
▁maxim	-6326
▁purch	-6327
▁shake	-6328
▁units	-6329
uration	-6330
▁heroes	-6331
▁ignore	-6332
▁legacy	-6333
▁sports	-6334
▁Muslims	-6335
▁authent	-6336
▁dignity	-6337
▁distant	-6338
▁suspect	-6339
▁captured	-6340
▁treating	-6341
▁committed	-6342
▁conflicts	-6343
▁encounter	-6344
▁expectations	-6345
St	-6346
ari	-6347
gic	-6348
nic	-6349
oir	-6350
doll	-6351
fall	-6352
tery	-6353
utch	-6354
walk	-6355
▁Dis	-6356
▁Ice	-6357
▁Lar	-6358
▁Spe	-6359
▁Ten	-6360
▁lin	-6361
▁pul	-6362
archy	-6363
under	-6364
▁beer	-6365
▁lung	-6366
▁pink	-6367
orking	-6368
usions	-6369
▁White	-6370
▁alien	-6371
▁angle	-6372
▁chest	-6373
▁liver	-6374
▁plays	-6375
▁sheep	-6376
erences	-6377
ishment	-6378
▁Really	-6379
▁adjust	-6380
▁chosen	-6381
▁crying	-6382
▁escape	-6383
▁facial	-6384
▁patent	-6385
▁portra	-6386
▁rising	-6387
▁scales	-6388
▁talent	-6389
▁weapon	-6390
▁charity	-6391
▁designs	-6392
▁spectac	-6393
▁Stanford	-6394
▁stations	-6395
▁vertical	-6396
▁backwards	-6397
▁dedicated	-6398
▁governance	-6399
▁incentives	-6400
▁microscope	-6401
▁motivation	-6402
▁advertising	-6403
ek	-6404
arp	-6405
▁Hi	-6406
▁Op	-6407
Talk	-6408
▁Del	-6409
▁Jes	-6410
▁ate	-6411
▁bon	-6412
▁cup	-6413
▁der	-6414
▁tro	-6415
agger	-6416
andem	-6417
iated	-6418
while	-6419
▁Comm	-6420
▁Sing	-6421
▁flip	-6422
▁rush	-6423
▁sacr	-6424
Americ	-6425
yright	-6426
▁abuse	-6427
▁adopt	-6428
▁aside	-6429
▁males	-6430
▁meter	-6431
▁paras	-6432
▁reput	-6433
▁seeds	-6434
▁skull	-6435
anthrop	-6436
▁20,000	-6437
▁50,000	-6438
▁Uganda	-6439
▁expans	-6440
▁neuron	-6441
▁rating	-6442
▁scenar	-6443
▁January	-6444
▁aspects	-6445
▁mammals	-6446
▁obesity	-6447
▁section	-6448
▁suicide	-6449
▁touched	-6450
▁wanting	-6451
▁aircraft	-6452
▁darkness	-6453
▁organize	-6454
▁customers	-6455
▁privilege	-6456
▁simplicity	-6457
▁strategies	-6458
▁innovations	-6459
▁communications	-6460
3.	-6461
ka	-6462
cel	-6463
▁Ox	-6464
anny	-6465
ardo	-6466
iety	-6467
▁aim	-6468
▁nit	-6469
▁obl	-6470
▁wet	-6471
angle	-6472
quare	-6473
▁Stud	-6474
▁boom	-6475
▁limb	-6476
abetes	-6477
▁aband	-6478
▁drove	-6479
▁rocks	-6480
▁tears	-6481
▁actors	-6482
▁devast	-6483
▁hardly	-6484
▁missed	-6485
▁trends	-6486
▁TEDTalk	-6487
▁amongst	-6488
▁initial	-6489
▁instant	-6490
▁letting	-6491
▁muscles	-6492
▁rebuild	-6493
▁scratch	-6494
▁northern	-6495
▁produces	-6496
▁symmetry	-6497
▁colleague	-6498
▁continues	-6499
▁intention	-6500
▁functional	-6501
▁transparent	-6502
▁transparency	-6503
6.	-6504
edy	-6505
hib	-6506
nov	-6507
war	-6508
▁22	-6509
▁27	-6510
▁Sl	-6511
pass	-6512
▁enh	-6513
▁hat	-6514
▁jun	-6515
ckets	-6516
class	-6517
oster	-6518
▁Jeff	-6519
▁boss	-6520
▁cute	-6521
▁hire	-6522
▁rely	-6523
lessly	-6524
▁Super	-6525
▁abund	-6526
▁evalu	-6527
▁finds	-6528
▁imper	-6529
▁route	-6530
▁suppl	-6531
astroph	-6532
▁Palest	-6533
▁absorb	-6534
▁assemb	-6535
▁defend	-6536
▁heaven	-6537
▁hungry	-6538
▁oldest	-6539
▁orange	-6540
▁Nations	-6541
▁airport	-6542
▁bicycle	-6543
▁cheaper	-6544
▁mystery	-6545
▁unbelie	-6546
▁hardware	-6547
▁laughter	-6548
▁minister	-6549
▁surfaces	-6550
▁emergency	-6551
▁generated	-6552
▁virtually	-6553
▁collecting	-6554
▁historical	-6555
▁International	-6556
bi	-6557
aws	-6558
iday	-6559
ideo	-6560
obal	-6561
▁Bon	-6562
▁Fin	-6563
▁Les	-6564
▁Vir	-6565
▁ath	-6566
▁beg	-6567
▁lob	-6568
▁meg	-6569
▁unp	-6570
▁wip	-6571
aming	-6572
going	-6573
iment	-6574
orter	-6575
think	-6576
▁1990	-6577
▁Girl	-6578
▁Next	-6579
▁cens	-6580
▁choo	-6581
▁dump	-6582
▁fulf	-6583
▁lock	-6584
▁pref	-6585
▁quad	-6586
▁susp	-6587
ietnam	-6588
▁Bible	-6589
▁Space	-6590
▁Voice	-6591
▁crops	-6592
▁laser	-6593
▁links	-6594
▁utter	-6595
▁vital	-6596
▁Indeed	-6597
▁attrib	-6598
▁borrow	-6599
▁intent	-6600
▁retire	-6601
▁satisf	-6602
▁concern	-6603
▁delight	-6604
▁diverse	-6605
▁efforts	-6606
▁inspire	-6607
▁methods	-6608
▁speaker	-6609
▁football	-6610
▁elsewhere	-6611
▁musicians	-6612
▁searching	-6613
▁apparently	-6614
▁boundaries	-6615
▁engagement	-6616
▁optimistic	-6617
▁resolution	-6618
▁transplant	-6619
▁chimpanzees	-6620
asy	-6621
nes	-6622
rol	-6623
▁BF	-6624
▁id	-6625
icop	-6626
irds	-6627
▁Fre	-6628
▁Sea	-6629
▁Tal	-6630
▁cab	-6631
▁fib	-6632
There	-6633
inder	-6634
▁Step	-6635
▁clim	-6636
▁dust	-6637
▁infl	-6638
▁nets	-6639
▁seek	-6640
dollar	-6641
struct	-6642
▁Black	-6643
▁Never	-6644
▁conce	-6645
▁diver	-6646
▁elder	-6647
▁fifth	-6648
▁fluid	-6649
▁genoc	-6650
▁pilot	-6651
▁reefs	-6652
▁schol	-6653
▁stops	-6654
▁traum	-6655
▁yours	-6656
century	-6657
▁emphas	-6658
▁fertil	-6659
▁genius	-6660
▁margin	-6661
▁poison	-6662
▁stable	-6663
children	-6664
▁circles	-6665
▁exposed	-6666
▁herself	-6667
▁origami	-6668
▁pointed	-6669
▁accepted	-6670
▁criminal	-6671
▁dynamics	-6672
▁equality	-6673
▁lighting	-6674
▁pregnant	-6675
▁provides	-6676
▁sandwich	-6677
▁apartment	-6678
▁accessible	-6679
▁afterwards	-6680
▁capitalism	-6681
▁catastroph	-6682
▁contribute	-6683
▁earthquake	-6684
▁universities	-6685
Let	-6686
omb	-6687
ione	-6688
▁Net	-6689
▁unh	-6690
▁Mary	-6691
▁glad	-6692
▁pile	-6693
▁seats	-6694
▁upset	-6695
illance	-6696
▁adding	-6697
▁barely	-6698
▁farmer	-6699
▁locked	-6700
▁output	-6701
▁paraly	-6702
▁rescue	-6703
▁smooth	-6704
▁Eastern	-6705
▁Vietnam	-6706
▁beliefs	-6707
▁pyramid	-6708
▁removed	-6709
▁tragedy	-6710
▁traject	-6711
▁diabetes	-6712
▁dominant	-6713
▁strangers	-6714
▁variation	-6715
▁journalist	-6716
uk	-6717
ams	-6718
bra	-6719
def	-6720
ixt	-6721
oor	-6722
ura	-6723
▁US	-6724
case	-6725
hatt	-6726
ocin	-6727
oded	-6728
osal	-6729
oust	-6730
▁Pan	-6731
▁ink	-6732
amine	-6733
▁1960	-6734
▁Arch	-6735
▁Narr	-6736
▁bias	-6737
▁east	-6738
▁lift	-6739
▁mice	-6740
▁peer	-6741
▁wing	-6742
hattan	-6743
othing	-6744
▁Child	-6745
▁blank	-6746
▁champ	-6747
▁dirty	-6748
▁fruit	-6749
▁gonna	-6750
▁manif	-6751
▁spots	-6752
▁thumb	-6753
▁tired	-6754
▁views	-6755
▁youth	-6756
▁Rwanda	-6757
▁commod	-6758
▁emerge	-6759
▁evolve	-6760
▁origin	-6761
▁powers	-6762
▁tribes	-6763
▁diagram	-6764
▁essence	-6765
▁granted	-6766
▁globally	-6767
▁includes	-6768
▁smallpox	-6769
▁textbook	-6770
▁Hollywood	-6771
▁Manhattan	-6772
▁calculate	-6773
▁depressed	-6774
▁dimension	-6775
▁intuitive	-6776
▁separated	-6777
▁uncomfort	-6778
▁affordable	-6779
▁capability	-6780
▁consequence	-6781
▁electronics	-6782
-1	-6783
9.	-6784
rid	-6785
▁na	-6786
ding	-6787
rons	-6788
west	-6789
▁Hey	-6790
▁Mac	-6791
▁Ven	-6792
▁aer	-6793
▁hol	-6794
▁wid	-6795
Where	-6796
▁1980	-6797
▁Flor	-6798
▁Gand	-6799
▁Pole	-6800
▁ages	-6801
▁hier	-6802
▁knee	-6803
▁leap	-6804
▁mate	-6805
▁soap	-6806
▁toys	-6807
arents	-6808
▁Cambr	-6809
▁Video	-6810
▁aesth	-6811
▁chief	-6812
▁drill	-6813
▁jelly	-6814
▁realm	-6815
igation	-6816
itution	-6817
▁Jewish	-6818
▁Soviet	-6819
▁pandem	-6820
▁briefly	-6821
▁chapter	-6822
▁disrupt	-6823
▁passing	-6824
▁visited	-6825
▁Atlantic	-6826
▁speakers	-6827
▁theories	-6828
▁algorithm	-6829
▁announced	-6830
▁dependent	-6831
▁ecosystems	-6832
▁integrated	-6833
▁protecting	-6834
▁terrorists	-6835
▁volunteers	-6836
▁demonstrate	-6837
▁ingredients	-6838
▁photography	-6839
▁underground	-6840
▁agricultural	-6841
▁neuroscience	-6842
▁participants	-6843
▁neighborhoods	-6844
bul	-6845
iel	-6846
obs	-6847
uba	-6848
uum	-6849
▁Jo	-6850
atts	-6851
bits	-6852
rant	-6853
▁gro	-6854
andel	-6855
eller	-6856
itate	-6857
obile	-6858
▁Dere	-6859
▁Long	-6860
▁Wall	-6861
▁adap	-6862
▁bars	-6863
▁brib	-6864
▁debt	-6865
▁earn	-6866
▁neat	-6867
▁trop	-6868
ivered	-6869
▁balls	-6870
▁banks	-6871
▁blame	-6872
▁cryst	-6873
▁glaci	-6874
▁opens	-6875
▁recru	-6876
▁wound	-6877
ughters	-6878
▁Arabic	-6879
▁adoles	-6880
▁shadow	-6881
▁tricks	-6882
▁bubbles	-6883
▁clients	-6884
▁consume	-6885
▁crucial	-6886
▁painted	-6887
▁pulling	-6888
▁symbols	-6889
▁agencies	-6890
▁external	-6891
▁returned	-6892
▁copyright	-6893
MS	-6894
So	-6895
aj	-6896
▁x	-6897
hen	-6898
▁65	-6899
▁gh	-6900
onic	-6901
oral	-6902
▁195	-6903
▁Bay	-6904
▁Six	-6905
▁Was	-6906
▁pra	-6907
▁spr	-6908
alian	-6909
enger	-6910
ested	-6911
owing	-6912
tocin	-6913
▁1970	-6914
▁beet	-6915
▁caps	-6916
▁enth	-6917
▁laid	-6918
▁rent	-6919
▁sulf	-6920
▁tied	-6921
iatric	-6922
icious	-6923
▁Peter	-6924
▁apple	-6925
▁chrom	-6926
▁digit	-6927
▁fiber	-6928
▁legit	-6929
▁march	-6930
▁sheet	-6931
▁Martin	-6932
▁Virgin	-6933
▁branch	-6934
▁invite	-6935
▁layers	-6936
▁observ	-6937
▁poster	-6938
▁silent	-6939
▁stages	-6940
▁Whether	-6941
▁consult	-6942
▁defense	-6943
▁ethical	-6944
▁hanging	-6945
▁picking	-6946
▁recover	-6947
▁Children	-6948
▁controls	-6949
▁facility	-6950
▁incident	-6951
▁isolated	-6952
▁reminded	-6953
▁repeated	-6954
▁unlikely	-6955
▁accidents	-6956
▁elections	-6957
▁inspiring	-6958
▁reputation	-6959
▁grandfather	-6960
▁probability	-6961
▁intervention	-6962
▁surveillance	-6963
▁uncomfortable	-6964
▁characteristics	-6965
BI	-6966
li	-6967
elf	-6968
▁Bu	-6969
▁Os	-6970
▁PM	-6971
fold	-6972
zero	-6973
▁10-	-6974
▁700	-6975
▁Mah	-6976
▁Mod	-6977
▁Oct	-6978
▁Ser	-6979
▁Wal	-6980
▁hey	-6981
▁hip	-6982
capes	-6983
isted	-6984
opard	-6985
ribly	-6986
tical	-6987
▁pupp	-6988
▁quit	-6989
▁rail	-6990
▁salt	-6991
iology	-6992
▁Italy	-6993
▁chaos	-6994
▁drawn	-6995
▁fuels	-6996
▁proof	-6997
▁punch	-6998
▁ultra	-6999
onymous	-7000
▁Oxford	-7001
▁Saturn	-7002
▁capita	-7003
▁landed	-7004
▁panels	-7005
▁settle	-7006
▁simult	-7007
▁stores	-7008
▁trucks	-7009
▁volcan	-7010
▁Florida	-7011
▁disturb	-7012
▁federal	-7013
▁happier	-7014
▁helicop	-7015
▁prosper	-7016
▁reduced	-7017
▁sensory	-7018
▁session	-7019
▁wheelch	-7020
▁conclude	-7021
▁contains	-7022
▁reported	-7023
▁southern	-7024
▁delivered	-7025
▁ignorance	-7026
▁physicist	-7027
▁sentences	-7028
▁dictionary	-7029
▁ridiculous	-7030
▁discoveries	-7031
▁improvement	-7032
▁spectacular	-7033
▁breakthrough	-7034
▁experimental	-7035
▁photographer	-7036
▁globalization	-7037
bru	-7038
erd	-7039
▁2,	-7040
apor	-7041
emen	-7042
fess	-7043
icks	-7044
pond	-7045
zens	-7046
▁'60	-7047
▁Bur	-7048
▁Sur	-7049
▁twe	-7050
bered	-7051
cohol	-7052
igned	-7053
otion	-7054
▁Back	-7055
▁Cont	-7056
▁Time	-7057
▁acid	-7058
▁chip	-7059
▁kiss	-7060
▁mail	-7061
▁prev	-7062
▁rice	-7063
erving	-7064
mented	-7065
▁Antar	-7066
▁Carol	-7067
▁Ocean	-7068
▁Prize	-7069
▁cliff	-7070
▁disag	-7071
▁flour	-7072
▁minor	-7073
▁naked	-7074
▁relax	-7075
▁reson	-7076
▁spark	-7077
▁strip	-7078
▁threw	-7079
viously	-7080
▁corals	-7081
▁linear	-7082
▁spinal	-7083
▁General	-7084
▁comprom	-7085
▁Ethiopia	-7086
▁Narrator	-7087
▁artistic	-7088
▁district	-7089
▁expanding	-7090
▁frequency	-7091
▁objective	-7092
▁predicted	-7093
▁primarily	-7094
▁disappoint	-7095
▁identified	-7096
▁resilience	-7097
▁suggesting	-7098
▁observation	-7099
▁collaborative	-7100
EC	-7101
tw	-7102
Can	-7103
auc	-7104
che	-7105
hes	-7106
lyn	-7107
opy	-7108
▁26	-7109
izar	-7110
part	-7111
urse	-7112
▁Ken	-7113
▁Lab	-7114
▁lon	-7115
▁sav	-7116
▁spa	-7117
ocent	-7118
riger	-7119
▁Turn	-7120
▁carr	-7121
▁mall	-7122
▁stom	-7123
▁wise	-7124
esthes	-7125
makers	-7126
ptions	-7127
▁River	-7128
▁Smith	-7129
▁Titan	-7130
▁actor	-7131
▁arrow	-7132
▁burst	-7133
▁court	-7134
▁exped	-7135
▁fract	-7136
▁pione	-7137
▁stunt	-7138
▁veter	-7139
▁extrem	-7140
▁rarely	-7141
▁robust	-7142
▁thresh	-7143
▁transm	-7144
▁vacuum	-7145
▁waters	-7146
▁Through	-7147
▁William	-7148
▁emerged	-7149
▁impacts	-7150
▁parties	-7151
▁targets	-7152
▁Research	-7153
▁Somebody	-7154
▁focusing	-7155
▁refriger	-7156
▁abilities	-7157
▁expansion	-7158
▁teenagers	-7159
▁autonomous	-7160
▁determined	-7161
▁mechanisms	-7162
▁satellites	-7163
▁underlying	-7164
▁constructed	-7165
▁predictions	-7166
Ch	-7167
▁32	-7168
▁Up	-7169
aran	-7170
ober	-7171
oran	-7172
rome	-7173
ulum	-7174
▁'70	-7175
▁120	-7176
▁Bel	-7177
▁CEO	-7178
▁Que	-7179
▁ain	-7180
▁hem	-7181
▁ric	-7182
izoph	-7183
oding	-7184
▁Give	-7185
▁Move	-7186
▁None	-7187
▁Star	-7188
▁clar	-7189
▁eleg	-7190
▁hill	-7191
▁mode	-7192
erable	-7193
heimer	-7194
market	-7195
▁Gates	-7196
▁gotta	-7197
▁nucle	-7198
▁roots	-7199
▁shrim	-7200
▁tribe	-7201
attered	-7202
▁agency	-7203
▁caring	-7204
▁degrad	-7205
▁domain	-7206
▁inches	-7207
▁injury	-7208
▁partly	-7209
▁sticks	-7210
▁October	-7211
▁Russian	-7212
▁chromos	-7213
▁imagery	-7214
▁reports	-7215
▁revenue	-7216
▁welcome	-7217
▁answered	-7218
▁attitude	-7219
▁crossing	-7220
▁database	-7221
▁dialogue	-7222
▁inherent	-7223
▁proposed	-7224
▁daughters	-7225
▁positions	-7226
▁biologists	-7227
▁inevitable	-7228
▁originally	-7229
▁translated	-7230
▁astonishing	-7231
▁philanthrop	-7232
▁biodiversity	-7233
▁photographed	-7234
▁grandchildren	-7235
"]	-7236
ET	-7237
va	-7238
And	-7239
bed	-7240
ena	-7241
err	-7242
hal	-7243
udi	-7244
▁95	-7245
▁KB	-7246
agon	-7247
atom	-7248
rich	-7249
yard	-7250
▁Det	-7251
▁Hel	-7252
▁MRI	-7253
▁ham	-7254
▁lun	-7255
▁mur	-7256
atrix	-7257
gency	-7258
itous	-7259
osure	-7260
ville	-7261
▁fool	-7262
▁sits	-7263
bruary	-7264
itudes	-7265
izarre	-7266
mingly	-7267
▁Derek	-7268
▁Jesus	-7269
▁Third	-7270
▁agent	-7271
▁cable	-7272
▁craft	-7273
▁flows	-7274
▁holds	-7275
▁sharp	-7276
▁Nature	-7277
▁Should	-7278
▁barrel	-7279
▁buried	-7280
▁compos	-7281
▁curren	-7282
▁curric	-7283
▁dozens	-7284
▁fought	-7285
▁neural	-7286
▁nurses	-7287
▁perpet	-7288
▁pursue	-7289
▁regret	-7290
▁sacred	-7291
▁served	-7292
▁skelet	-7293
▁subtle	-7294
▁theore	-7295
▁alcohol	-7296
▁convert	-7297
▁dolphin	-7298
▁shelter	-7299
▁writers	-7300
▁February	-7301
▁category	-7302
▁colonies	-7303
▁extended	-7304
▁figuring	-7305
▁flexible	-7306
▁genocide	-7307
▁keyboard	-7308
▁oxytocin	-7309
▁perceive	-7310
▁sleeping	-7311
▁Cambridge	-7312
▁completed	-7313
▁confident	-7314
▁forgotten	-7315
▁gathering	-7316
▁immediate	-7317
▁suggested	-7318
▁supported	-7319
▁Department	-7320
▁expectancy	-7321
▁explaining	-7322
▁operations	-7323
▁struggling	-7324
MA	-7325
].	-7326
aze	-7327
lar	-7328
ora	-7329
▁0.	-7330
▁ub	-7331
agos	-7332
▁Isn	-7333
▁LED	-7334
▁Sar	-7335
▁lux	-7336
▁sew	-7337
▁wra	-7338
▁Bron	-7339
▁High	-7340
▁Play	-7341
▁cert	-7342
▁cott	-7343
▁dear	-7344
▁grat	-7345
▁publ	-7346
▁whis	-7347
▁4,000	-7348
▁edges	-7349
▁joint	-7350
▁nerve	-7351
▁tempt	-7352
▁chairs	-7353
▁cheese	-7354
▁garage	-7355
▁intrig	-7356
▁needle	-7357
▁phosph	-7358
▁richer	-7359
▁tumors	-7360
interest	-7361
▁enterpr	-7362
▁liberal	-7363
▁millenn	-7364
▁washing	-7365
▁climbing	-7366
▁dinosaur	-7367
▁fabulous	-7368
▁leverage	-7369
▁manifest	-7370
▁Obviously	-7371
▁exception	-7372
▁fortunate	-7373
▁correspond	-7374
▁difficulty	-7375
▁industries	-7376
▁programming	-7377
▁translation	-7378
▁instructions	-7379
▁successfully	-7380
▁representation	-7381
11	-7382
eda	-7383
iac	-7384
sey	-7385
ason	-7386
illa	-7387
izer	-7388
yrus	-7389
▁191	-7390
▁Alz	-7391
▁Mag	-7392
▁bio	-7393
anned	-7394
elled	-7395
opher	-7396
▁Coun	-7397
▁Gore	-7398
▁Sund	-7399
▁defe	-7400
▁dive	-7401
▁leaf	-7402
▁plug	-7403
▁tone	-7404
soever	-7405
utical	-7406
▁Scott	-7407
▁begun	-7408
▁plain	-7409
▁trash	-7410
▁unpre	-7411
▁wider	-7412
ogether	-7413
unction	-7414
▁Arctic	-7415
▁Within	-7416
▁breaks	-7417
▁ensure	-7418
▁golden	-7419
▁pushed	-7420
▁rivers	-7421
▁shaped	-7422
▁shrimp	-7423
izophren	-7424
▁analyze	-7425
▁anxiety	-7426
▁bizarre	-7427
▁closing	-7428
▁deliber	-7429
▁drivers	-7430
▁graphic	-7431
▁helpful	-7432
▁involve	-7433
▁methane	-7434
▁selfish	-7435
▁smarter	-7436
▁smoking	-7437
▁soldier	-7438
▁baseball	-7439
▁cartoons	-7440
▁homework	-7441
▁restrict	-7442
▁shopping	-7443
▁skeleton	-7444
▁Alzheimer	-7445
▁Christian	-7446
▁radically	-7447
▁synthetic	-7448
▁telescope	-7449
▁permission	-7450
▁proportion	-7451
▁treatments	-7452
▁whatsoever	-7453
▁wheelchair	-7454
▁uncertainty	-7455
▁capabilities	-7456
LA	-7457
wl	-7458
kin	-7459
mod	-7460
▁3.	-7461
▁ah	-7462
▁nu	-7463
eart	-7464
iban	-7465
liam	-7466
ords	-7467
orus	-7468
road	-7469
uity	-7470
viol	-7471
▁'80	-7472
▁800	-7473
▁Put	-7474
▁boo	-7475
▁lit	-7476
copes	-7477
worth	-7478
▁Blue	-7479
▁Comp	-7480
▁alph	-7481
▁lamp	-7482
▁meal	-7483
▁mood	-7484
▁suck	-7485
▁tort	-7486
semble	-7487
▁Brown	-7488
▁audio	-7489
▁bucks	-7490
▁foods	-7491
▁mixed	-7492
▁monit	-7493
▁nurse	-7494
▁silly	-7495
▁skept	-7496
▁wired	-7497
athered	-7498
otherap	-7499
▁Things	-7500
▁addict	-7501
▁merely	-7502
▁regime	-7503
▁reveal	-7504
▁senior	-7505
fficient	-7506
▁charges	-7507
▁founded	-7508
▁hitting	-7509
▁leather	-7510
▁prepare	-7511
▁warning	-7512
aceutical	-7513
▁choosing	-7514
▁confused	-7515
▁openness	-7516
▁documents	-7517
▁elephants	-7518
▁intuition	-7519
▁attractive	-7520
▁hypothesis	-7521
▁mysterious	-7522
▁trajectory	-7523
▁interestingly	-7524
BM	-7525
DA	-7526
fe	-7527
Wow	-7528
ali	-7529
hop	-7530
sch	-7531
When	-7532
ache	-7533
born	-7534
conf	-7535
eday	-7536
enly	-7537
free	-7538
iens	-7539
kins	-7540
play	-7541
xual	-7542
▁Aug	-7543
▁Cor	-7544
▁Mom	-7545
▁Moo	-7546
aches	-7547
ading	-7548
flies	-7549
ician	-7550
inson	-7551
iogen	-7552
umble	-7553
▁cham	-7554
▁dumb	-7555
▁orph	-7556
▁sink	-7557
▁tear	-7558
▁tong	-7559
mental	-7560
▁Bronx	-7561
▁Dutch	-7562
▁bears	-7563
▁bored	-7564
▁chron	-7565
▁doors	-7566
▁drone	-7567
▁owned	-7568
▁ships	-7569
▁shore	-7570
▁spont	-7571
▁spray	-7572
▁tooth	-7573
▁weeke	-7574
parents	-7575
▁assess	-7576
▁correl	-7577
▁decent	-7578
▁ending	-7579
▁funded	-7580
▁killer	-7581
▁mining	-7582
▁scores	-7583
American	-7584
▁anthrop	-7585
▁distort	-7586
▁elderly	-7587
▁failing	-7588
▁fragile	-7589
▁promote	-7590
▁sisters	-7591
▁slavery	-7592
▁Minister	-7593
▁educated	-7594
▁homeless	-7595
▁informed	-7596
▁innocent	-7597
▁measures	-7598
▁neurolog	-7599
▁stranger	-7600
▁gradually	-7601
▁highlight	-7602
▁terrorist	-7603
▁curriculum	-7604
▁simulation	-7605
▁traditions	-7606
▁description	-7607
▁schizophren	-7608
▁surprisingly	-7609
▁unbelievable	-7610
▁architectural	-7611
▁demonstration	-7612
100	-7613
cap	-7614
rit	-7615
sec	-7616
sun	-7617
▁MT	-7618
half	-7619
kind	-7620
onds	-7621
▁Som	-7622
▁cas	-7623
▁cig	-7624
▁dop	-7625
▁sin	-7626
allow	-7627
anged	-7628
field	-7629
gence	-7630
maker	-7631
owers	-7632
stone	-7633
▁Span	-7634
▁Tell	-7635
▁bell	-7636
▁butt	-7637
▁duck	-7638
▁frog	-7639
▁pigs	-7640
▁rats	-7641
▁soup	-7642
▁tuna	-7643
atever	-7644
encing	-7645
engine	-7646
rained	-7647
▁owner	-7648
▁queen	-7649
▁schem	-7650
liament	-7651
▁Church	-7652
▁Design	-7653
▁Square	-7654
▁Turkey	-7655
▁arrive	-7656
▁enthus	-7657
▁lawyer	-7658
▁occurs	-7659
▁victim	-7660
▁elected	-7661
▁enables	-7662
▁fortune	-7663
▁immense	-7664
▁lawyers	-7665
▁magical	-7666
▁miracle	-7667
▁restore	-7668
▁statist	-7669
▁articles	-7670
▁fraction	-7671
▁optimism	-7672
▁throwing	-7673
▁conducted	-7674
▁extension	-7675
▁magnitude	-7676
▁nutrition	-7677
▁paralyzed	-7678
▁primitive	-7679
▁qualities	-7680
▁realizing	-7681
▁transcend	-7682
▁remembered	-7683
He	-7684
ya	-7685
Who	-7686
aid	-7687
abil	-7688
agen	-7689
ares	-7690
▁'90	-7691
▁20,	-7692
▁Hen	-7693
▁Out	-7694
▁Sal	-7695
▁Tes	-7696
▁Wow	-7697
▁cub	-7698
▁gee	-7699
▁lap	-7700
▁upd	-7701
ifice	-7702
otted	-7703
▁Hill	-7704
▁bask	-7705
▁brut	-7706
▁cake	-7707
▁cats	-7708
▁dung	-7709
▁nurt	-7710
▁odds	-7711
▁urge	-7712
aching	-7713
active	-7714
iences	-7715
▁outer	-7716
▁squee	-7717
▁stake	-7718
angible	-7719
working	-7720
▁30,000	-7721
▁convey	-7722
▁sensor	-7723
otherapy	-7724
▁Taliban	-7725
▁beneath	-7726
▁besides	-7727
▁bottles	-7728
▁forming	-7729
▁garbage	-7730
▁persist	-7731
▁threats	-7732
▁antibiot	-7733
▁channels	-7734
▁clothing	-7735
▁distingu	-7736
▁entering	-7737
▁invested	-7738
▁pandemic	-7739
▁tendency	-7740
▁adventure	-7741
▁expecting	-7742
▁glamorous	-7743
▁replicate	-7744
▁threshold	-7745
▁influenced	-7746
▁profoundly	-7747
▁exponential	-7748
▁contemporary	-7749
▁experiencing	-7750
▁institutional	-7751
▁participation	-7752
▁vulnerability	-7753
▁pharmaceutical	-7754
sp	-7755
Sah	-7756
enh	-7757
▁SS	-7758
erer	-7759
ifer	-7760
onia	-7761
pled	-7762
▁Cra	-7763
▁Joe	-7764
▁Lou	-7765
▁Rio	-7766
▁nom	-7767
adays	-7768
athan	-7769
chron	-7770
ogram	-7771
▁Homo	-7772
▁Leon	-7773
▁bend	-7774
▁crew	-7775
▁dile	-7776
▁gaps	-7777
▁neck	-7778
▁tsun	-7779
edding	-7780
employ	-7781
fessor	-7782
friend	-7783
▁Greek	-7784
▁March	-7785
▁Saudi	-7786
▁advoc	-7787
▁array	-7788
▁crick	-7789
▁lions	-7790
▁panel	-7791
▁proto	-7792
▁steal	-7793
▁ubiqu	-7794
inarily	-7795
▁August	-7796
▁Global	-7797
▁Mother	-7798
▁acoust	-7799
▁burned	-7800
▁drones	-7801
▁halluc	-7802
▁headed	-7803
▁shrink	-7804
▁tackle	-7805
▁Council	-7806
▁Without	-7807
▁adopted	-7808
▁analogy	-7809
▁arrange	-7810
▁chances	-7811
▁citizen	-7812
▁fastest	-7813
▁observe	-7814
▁portion	-7815
▁shocked	-7816
▁uniform	-7817
▁covering	-7818
▁detailed	-7819
▁drawings	-7820
▁included	-7821
▁remained	-7822
▁suffered	-7823
▁airplanes	-7824
▁factories	-7825
▁instantly	-7826
▁remaining	-7827
▁strategic	-7828
▁facilities	-7829
▁simultaneously	-7830
gu	-7831
aby	-7832
ctu	-7833
ini	-7834
vit	-7835
yal	-7836
zee	-7837
▁28	-7838
▁Bo	-7839
▁Ty	-7840
atar	-7841
fast	-7842
fram	-7843
olic	-7844
ship	-7845
▁Lib	-7846
▁dim	-7847
gines	-7848
oples	-7849
ostic	-7850
▁Beij	-7851
▁Camp	-7852
▁Dece	-7853
▁Jose	-7854
▁coca	-7855
▁cous	-7856
▁dies	-7857
▁iPod	-7858
▁lake	-7859
▁2000,	-7860
▁Power	-7861
▁Spain	-7862
▁altru	-7863
▁civic	-7864
▁dilem	-7865
▁indig	-7866
▁kills	-7867
▁pride	-7868
▁shout	-7869
▁spons	-7870
section	-7871
▁Howard	-7872
▁Norway	-7873
▁aggreg	-7874
▁combat	-7875
▁errors	-7876
▁formal	-7877
▁negoti	-7878
▁recept	-7879
▁unable	-7880
▁widely	-7881
orescent	-7882
▁Indians	-7883
▁contrad	-7884
▁demands	-7885
▁engines	-7886
▁peoples	-7887
▁rituals	-7888
▁rolling	-7889
▁staying	-7890
▁trigger	-7891
▁wealthy	-7892
▁December	-7893
▁dopamine	-7894
▁explains	-7895
▁friendly	-7896
▁graphics	-7897
▁preserve	-7898
▁nutrients	-7899
▁obstacles	-7900
▁substance	-7901
▁comparison	-7902
▁consistent	-7903
▁assumptions	-7904
▁authorities	-7905
▁restaurants	-7906
▁significantly	-7907
▁interpretation	-7908
CA	-7909
bar	-7910
bow	-7911
isy	-7912
▁rh	-7913
ails	-7914
imal	-7915
omin	-7916
ropy	-7917
umin	-7918
▁Den	-7919
▁Tim	-7920
▁Unt	-7921
▁awk	-7922
▁gre	-7923
▁tie	-7924
anges	-7925
antom	-7926
asses	-7927
licit	-7928
opath	-7929
usted	-7930
▁bats	-7931
▁clay	-7932
▁deli	-7933
▁dism	-7934
▁fung	-7935
▁gear	-7936
▁tech	-7937
aneous	-7938
urable	-7939
▁Delhi	-7940
▁Organ	-7941
▁blogs	-7942
▁camps	-7943
▁elite	-7944
▁loves	-7945
▁opera	-7946
▁sixth	-7947
▁suspe	-7948
▁tends	-7949
▁winds	-7950
looking	-7951
usiness	-7952
▁Mandel	-7953
▁export	-7954
▁jumped	-7955
▁preval	-7956
▁prosth	-7957
▁rubber	-7958
▁strike	-7959
▁subway	-7960
▁trains	-7961
esthesia	-7962
quarters	-7963
▁Whereas	-7964
▁awkward	-7965
▁courses	-7966
▁hunting	-7967
▁imaging	-7968
▁located	-7969
▁package	-7970
▁printed	-7971
▁profile	-7972
▁routine	-7973
▁serving	-7974
▁tissues	-7975
▁comments	-7976
▁counting	-7977
▁earliest	-7978
▁pointing	-7979
▁reducing	-7980
▁shipping	-7981
▁strongly	-7982
▁substant	-7983
▁classical	-7984
▁diagnosed	-7985
▁initially	-7986
▁mechanics	-7987
▁physician	-7988
▁approaches	-7989
▁impression	-7990
▁supporting	-7991
▁competitive	-7992
▁computation	-7993
▁demographic	-7994
▁conservative	-7995
▁professionals	-7996
▁straightforward	-7997
eyn	-7998
▁85	-7999
▁CD	-8000
▁RB	-8001
aves	-8002
cons	-8003
ipts	-8004
mony	-8005
quis	-8006
▁Sud	-8007
▁bug	-8008
▁gam	-8009
burgh	-8010
copic	-8011
human	-8012
lings	-8013
oning	-8014
puter	-8015
stage	-8016
▁Both	-8017
▁Same	-8018
▁cath	-8019
▁cong	-8020
▁fits	-8021
▁irre	-8022
▁nerd	-8023
▁triv	-8024
▁west	-8025
astics	-8026
minute	-8027
umines	-8028
▁Brook	-8029
▁Medic	-8030
▁Moore	-8031
▁Trans	-8032
▁cruel	-8033
▁devil	-8034
▁excit	-8035
▁inhab	-8036
▁items	-8037
▁marry	-8038
▁sauce	-8039
Saharan	-8040
angered	-8041
▁Scient	-8042
▁matrix	-8043
▁stroke	-8044
▁Spanish	-8045
▁affects	-8046
▁farming	-8047
▁flowing	-8048
▁footage	-8049
▁percept	-8050
▁printer	-8051
▁regener	-8052
▁spreads	-8053
▁Northern	-8054
▁Whatever	-8055
▁gathered	-8056
▁genetics	-8057
▁judgment	-8058
▁morality	-8059
▁musician	-8060
▁purposes	-8061
▁robotics	-8062
▁shifting	-8063
▁socially	-8064
▁synchron	-8065
▁gentleman	-8066
▁improving	-8067
▁incentive	-8068
▁infection	-8069
▁investing	-8070
▁investors	-8071
▁ownership	-8072
▁passenger	-8073
▁aggressive	-8074
▁chimpanzee	-8075
▁compelling	-8076
▁continuing	-8077
▁threatened	-8078
▁vegetables	-8079
▁genetically	-8080
▁corporations	-8081
ati	-8082
cro	-8083
see	-8084
aded	-8085
ague	-8086
ania	-8087
asty	-8088
away	-8089
edge	-8090
lend	-8091
ownt	-8092
umes	-8093
▁FBI	-8094
▁Far	-8095
▁Met	-8096
▁Mor	-8097
▁Moz	-8098
▁alb	-8099
▁ski	-8100
▁tut	-8101
attoo	-8102
clock	-8103
ctica	-8104
eries	-8105
irect	-8106
orage	-8107
press	-8108
venth	-8109
▁Bell	-8110
▁Josh	-8111
▁Tanz	-8112
▁Walk	-8113
▁asks	-8114
▁bind	-8115
▁file	-8116
▁gate	-8117
▁gods	-8118
▁gram	-8119
▁rape	-8120
▁shit	-8121
▁tune	-8122
▁woke	-8123
▁2009,	-8124
▁Charl	-8125
▁Eight	-8126
▁Koran	-8127
▁energ	-8128
▁farms	-8129
▁incor	-8130
▁intim	-8131
▁pause	-8132
▁shots	-8133
▁tower	-8134
▁tubes	-8135
▁valid	-8136
▁viral	-8137
▁wires	-8138
▁Newton	-8139
▁System	-8140
▁burden	-8141
▁canopy	-8142
▁client	-8143
▁dragon	-8144
▁ethnic	-8145
▁excess	-8146
▁freely	-8147
▁inevit	-8148
▁orient	-8149
▁recess	-8150
▁sketch	-8151
▁static	-8152
▁ticket	-8153
▁tongue	-8154
▁tracks	-8155
▁tunnel	-8156
▁upload	-8157
▁upside	-8158
andering	-8159
▁Islands	-8160
▁Italian	-8161
▁beating	-8162
▁deserve	-8163
▁despair	-8164
▁paradox	-8165
▁profits	-8166
▁reminds	-8167
▁someday	-8168
▁winning	-8169
▁connects	-8170
▁currency	-8171
▁delivery	-8172
▁distract	-8173
▁refugees	-8174
▁reinvent	-8175
▁scenario	-8176
▁scholars	-8177
▁terribly	-8178
▁versions	-8179
▁excellent	-8180
▁expertise	-8181
▁explosion	-8182
▁healthier	-8183
▁jellyfish	-8184
▁procedure	-8185
▁workforce	-8186
otechnology	-8187
▁Antarctica	-8188
▁additional	-8189
▁categories	-8190
▁classrooms	-8191
▁ecological	-8192
▁encouraged	-8193
▁endangered	-8194
▁excitement	-8195
▁extinction	-8196
▁frustrated	-8197
▁impressive	-8198
▁prediction	-8199
▁approaching	-8200
▁established	-8201
▁reconstruct	-8202
▁compassionate	-8203
asm	-8204
bye	-8205
cip	-8206
eps	-8207
oln	-8208
▁33	-8209
▁LG	-8210
▁ho	-8211
arsh	-8212
cost	-8213
eady	-8214
four	-8215
ghai	-8216
gram	-8217
ilty	-8218
made	-8219
uded	-8220
udge	-8221
wind	-8222
▁Hum	-8223
▁Sou	-8224
▁Tas	-8225
▁bin	-8226
▁jew	-8227
elson	-8228
ormal	-8229
rence	-8230
▁Brun	-8231
▁Cour	-8232
▁Ford	-8233
▁Hall	-8234
▁Miss	-8235
▁NGOs	-8236
▁ange	-8237
▁dawn	-8238
▁deck	-8239
▁genu	-8240
▁guns	-8241
▁hors	-8242
▁prol	-8243
ifully	-8244
incoln	-8245
tering	-8246
▁2010,	-8247
▁Henry	-8248
▁Santa	-8249
▁Yemen	-8250
▁armed	-8251
▁caves	-8252
▁eaten	-8253
▁fancy	-8254
▁membr	-8255
▁numer	-8256
▁revol	-8257
▁shirt	-8258
▁slime	-8259
▁troub	-8260
ounding	-8261
reating	-8262
uilding	-8263
▁Govern	-8264
▁athlet	-8265
▁improv	-8266
▁planes	-8267
cedented	-8268
controll	-8269
▁Johnson	-8270
▁Neander	-8271
▁compete	-8272
▁dressed	-8273
▁entropy	-8274
▁harness	-8275
▁phantom	-8276
▁storage	-8277
▁Secondly	-8278
▁accounts	-8279
▁arrested	-8280
▁branches	-8281
▁generous	-8282
▁improved	-8283
▁insights	-8284
▁interior	-8285
▁interven	-8286
▁managers	-8287
▁reliable	-8288
▁survived	-8289
▁unemploy	-8290
▁wildlife	-8291
▁broadcast	-8292
▁detection	-8293
▁miserable	-8294
▁phenomena	-8295
▁religions	-8296
▁signature	-8297
▁temporary	-8298
▁appearance	-8299
▁commission	-8300
▁continents	-8301
▁disability	-8302
▁discipline	-8303
▁landscapes	-8304
▁phosphorus	-8305
▁ubiquitous	-8306
▁grandparents	-8307
▁occasionally	-8308
▁administration	-8309
▁mathematicians	-8310
OK	-8311
],	-8312
arl	-8313
hea	-8314
lim	-8315
oma	-8316
uke	-8317
▁IM	-8318
crim	-8319
izza	-8320
list	-8321
neys	-8322
ulin	-8323
▁Bet	-8324
▁Dou	-8325
▁Dra	-8326
aning	-8327
icked	-8328
lades	-8329
pless	-8330
ushed	-8331
▁Make	-8332
▁Shan	-8333
▁Vict	-8334
▁crop	-8335
▁damn	-8336
▁heal	-8337
▁lone	-8338
▁nuts	-8339
▁pale	-8340
▁subt	-8341
icient	-8342
ndrome	-8343
▁2008,	-8344
▁Asian	-8345
▁Peace	-8346
▁Sorry	-8347
▁amate	-8348
▁anten	-8349
▁brows	-8350
▁divor	-8351
▁fault	-8352
▁fears	-8353
▁gases	-8354
▁hired	-8355
▁hydro	-8356
▁overl	-8357
▁pairs	-8358
▁ratio	-8359
▁uncle	-8360
▁agents	-8361
▁annual	-8362
▁column	-8363
▁cosmic	-8364
▁cotton	-8365
▁cycles	-8366
▁editor	-8367
▁fibers	-8368
▁gained	-8369
▁habits	-8370
▁lowest	-8371
▁makers	-8372
▁nearby	-8373
▁nights	-8374
▁propag	-8375
▁rhythm	-8376
▁silver	-8377
▁speaks	-8378
▁tattoo	-8379
▁tragic	-8380
▁traits	-8381
▁200,000	-8382
▁Redwood	-8383
▁cigaret	-8384
▁closest	-8385
▁genuine	-8386
▁glasses	-8387
▁hardest	-8388
▁mindset	-8389
▁officer	-8390
▁offices	-8391
▁ongoing	-8392
▁secrets	-8393
▁synthes	-8394
▁tsunami	-8395
▁unhappy	-8396
▁Although	-8397
▁believes	-8398
▁magnific	-8399
▁precious	-8400
▁replaced	-8401
▁smallest	-8402
▁teenager	-8403
▁Banglades	-8404
▁addiction	-8405
▁audiences	-8406
▁cooperate	-8407
▁distances	-8408
▁interrupt	-8409
▁prisoners	-8410
▁stability	-8411
▁succeeded	-8412
▁assumption	-8413
▁prevention	-8414
▁previously	-8415
▁researcher	-8416
▁yourselves	-8417
▁fortunately	-8418
▁unconscious	-8419
▁transforming	-8420
▁unprecedented	-8421
All	-8422
dig	-8423
pie	-8424
▁36	-8425
hist	-8426
ihad	-8427
▁202	-8428
▁Age	-8429
▁Aut	-8430
▁Edu	-8431
▁Its	-8432
▁Str	-8433
▁dys	-8434
▁ine	-8435
▁ooh	-8436
▁sir	-8437
▁ven	-8438
apped	-8439
icial	-8440
izers	-8441
mates	-8442
phere	-8443
produ	-8444
uctor	-8445
▁2050	-8446
▁Abra	-8447
▁July	-8448
▁Mill	-8449
▁Sudd	-8450
▁bags	-8451
▁jazz	-8452
▁palm	-8453
▁rope	-8454
▁rose	-8455
iberia	-8456
iously	-8457
▁2007,	-8458
▁Watch	-8459
▁annoy	-8460
▁badly	-8461
▁brave	-8462
▁grasp	-8463
▁incom	-8464
▁patch	-8465
▁raped	-8466
▁rehab	-8467
▁slums	-8468
▁wheat	-8469
▁worms	-8470
▁Except	-8471
▁Nelson	-8472
▁Sunday	-8473
▁builds	-8474
▁estate	-8475
▁fusion	-8476
▁hiding	-8477
▁manual	-8478
▁metric	-8479
▁native	-8480
▁stored	-8481
▁subsid	-8482
▁surviv	-8483
▁Lincoln	-8484
▁arguing	-8485
▁cocaine	-8486
▁destiny	-8487
▁drought	-8488
▁ecology	-8489
▁minimum	-8490
▁passive	-8491
▁puzzles	-8492
▁refugee	-8493
▁resolve	-8494
▁stomach	-8495
▁tension	-8496
▁Palestin	-8497
▁Shanghai	-8498
▁applying	-8499
▁catching	-8500
▁circuits	-8501
▁geometry	-8502
▁listened	-8503
▁offering	-8504
▁relation	-8505
▁stereoty	-8506
▁Alexander	-8507
▁breakfast	-8508
▁collapsed	-8509
▁economist	-8510
▁estimates	-8511
▁intensive	-8512
▁nonprofit	-8513
▁perceived	-8514
▁performed	-8515
▁reproduce	-8516
▁responses	-8517
▁sensation	-8518
▁physicists	-8519
▁achievement	-8520
▁consciously	-8521
▁encouraging	-8522
▁interviewed	-8523
▁limitations	-8524
▁predictable	-8525
▁interconnected	-8526
.'"	-8527
200	-8528
For	-8529
ava	-8530
ege	-8531
▁DV	-8532
▁SW	-8533
estr	-8534
grow	-8535
irlf	-8536
outs	-8537
▁20-	-8538
▁30-	-8539
▁Ext	-8540
▁Ire	-8541
▁Jon	-8542
▁Ray	-8543
▁Sir	-8544
▁Sky	-8545
▁Sus	-8546
▁cyl	-8547
▁gif	-8548
▁les	-8549
▁vit	-8550
inter	-8551
itzer	-8552
uther	-8553
▁Eric	-8554
▁Fore	-8555
▁Gene	-8556
▁Lake	-8557
▁Open	-8558
▁Rock	-8559
▁ampl	-8560
▁biol	-8561
▁coat	-8562
▁keys	-8563
▁summ	-8564
▁wrap	-8565
arians	-8566
ureauc	-8567
▁Arist	-8568
▁Brian	-8569
▁Hello	-8570
▁Leban	-8571
▁Stage	-8572
▁Under	-8573
▁ambig	-8574
▁cabin	-8575
▁fires	-8576
▁grabb	-8577
▁lever	-8578
▁lifes	-8579
▁nodes	-8580
▁redef	-8581
▁screw	-8582
ativity	-8583
itative	-8584
▁Econom	-8585
▁Twenty	-8586
▁Yorker	-8587
▁amazed	-8588
▁appeal	-8589
▁basket	-8590
▁bullet	-8591
▁dating	-8592
▁luxury	-8593
▁marvel	-8594
▁sheets	-8595
▁stones	-8596
▁strict	-8597
▁tempor	-8598
▁troops	-8599
▁valley	-8600
▁Beijing	-8601
▁Indones	-8602
▁Mandela	-8603
▁absence	-8604
▁colored	-8605
▁cricket	-8606
▁females	-8607
▁horizon	-8608
▁insulin	-8609
▁pockets	-8610
▁propose	-8611
▁pursuit	-8612
▁stepped	-8613
▁teenage	-8614
▁Southern	-8615
▁Suddenly	-8616
▁customer	-8617
▁failures	-8618
▁navigate	-8619
▁prostate	-8620
▁transmit	-8621
▁Professor	-8622
▁headlines	-8623
▁preparing	-8624
▁protocell	-8625
▁sacrifice	-8626
▁challenged	-8627
▁convenient	-8628
▁elementary	-8629
▁helicopter	-8630
▁acknowledge	-8631
▁discovering	-8632
▁supermarket	-8633
py	-8634
tr	-8635
ani	-8636
eds	-8637
mun	-8638
pat	-8639
▁Da	-8640
inth	-8641
leep	-8642
sell	-8643
▁15-	-8644
▁350	-8645
▁Ham	-8646
▁Rom	-8647
▁Tel	-8648
▁Way	-8649
▁aqu	-8650
▁aug	-8651
arest	-8652
eling	-8653
ifact	-8654
phony	-8655
▁Coke	-8656
▁Feyn	-8657
▁Fort	-8658
▁Hans	-8659
▁Hist	-8660
▁Sure	-8661
▁Tony	-8662
▁brid	-8663
▁hybr	-8664
▁labs	-8665
▁sail	-8666
inging	-8667
ournal	-8668
▁6,000	-8669
▁Coast	-8670
▁award	-8671
▁donor	-8672
▁downt	-8673
▁exerc	-8674
▁lungs	-8675
▁memes	-8676
▁mines	-8677
▁redes	-8678
▁safer	-8679
▁sched	-8680
▁shine	-8681
▁During	-8682
▁bother	-8683
▁execut	-8684
▁insane	-8685
▁nerves	-8686
▁proven	-8687
▁vagina	-8688
▁Abraham	-8689
▁Aristot	-8690
▁Feynman	-8691
▁bedroom	-8692
▁enemies	-8693
▁fathers	-8694
▁gesture	-8695
▁glamour	-8696
▁hormone	-8697
▁ignored	-8698
▁intrins	-8699
▁seeking	-8700
▁terrain	-8701
▁toilets	-8702
▁wedding	-8703
▁Leonardo	-8704
▁bathroom	-8705
▁decrease	-8706
▁mosquito	-8707
▁affecting	-8708
▁empowered	-8709
▁graduated	-8710
▁guarantee	-8711
▁orchestra	-8712
▁reactions	-8713
▁Industrial	-8714
▁assistance	-8715
▁continuous	-8716
▁inevitably	-8717
▁manipulate	-8718
▁newspapers	-8719
▁reflection	-8720
▁terrifying	-8721
▁constraints	-8722
▁marketplace	-8723
▁surrounding	-8724
▁concentrated	-8725
▁storytelling	-8726
▁transmission	-8727
▁extraordinarily	-8728
,'	-8729
OL	-8730
jo	-8731
sc	-8732
▁.	-8733
ete	-8734
▁42	-8735
▁55	-8736
▁JH	-8737
▁od	-8738
aeda	-8739
cycl	-8740
erey	-8741
irts	-8742
pers	-8743
▁Syr	-8744
▁hal	-8745
▁jet	-8746
▁pit	-8747
ansas	-8748
ashed	-8749
isons	-8750
omics	-8751
rance	-8752
▁Mach	-8753
▁Rick	-8754
▁Zeal	-8755
▁bold	-8756
▁chop	-8757
▁clue	-8758
▁drum	-8759
▁fate	-8760
▁glue	-8761
▁pige	-8762
▁sons	-8763
▁toes	-8764
▁turb	-8765
person	-8766
weight	-8767
▁Detro	-8768
▁Hawai	-8769
▁Until	-8770
▁chips	-8771
▁coinc	-8772
▁immun	-8773
▁meals	-8774
▁pizza	-8775
▁proph	-8776
▁shelf	-8777
▁spill	-8778
▁stays	-8779
powered	-8780
▁Anyone	-8781
▁Berlin	-8782
▁Friday	-8783
▁Victor	-8784
▁assets	-8785
▁beaten	-8786
▁config	-8787
▁crimes	-8788
▁fallen	-8789
▁loving	-8790
▁murder	-8791
▁offers	-8792
▁orphan	-8793
▁parach	-8794
▁recipe	-8795
▁scenes	-8796
▁thread	-8797
▁wheels	-8798
changing	-8799
▁Anybody	-8800
▁Silicon	-8801
▁adapted	-8802
▁cancers	-8803
▁halfway	-8804
▁highway	-8805
▁logical	-8806
▁proceed	-8807
▁request	-8808
▁scanner	-8809
criptions	-8810
▁Carolina	-8811
▁Monterey	-8812
▁artifact	-8813
▁attacked	-8814
▁intended	-8815
▁sciences	-8816
▁believing	-8817
▁blindness	-8818
▁equations	-8819
▁locations	-8820
▁volunteer	-8821
▁assignment	-8822
▁biolumines	-8823
▁expedition	-8824
▁infections	-8825
▁interviews	-8826
▁retirement	-8827
▁structural	-8828
▁antibiotics	-8829
▁beautifully	-8830
▁contributed	-8831
▁expressions	-8832
▁journalists	-8833
▁technically	-8834
▁calculations	-8835
▁demonstrated	-8836
▁historically	-8837
▁installation	-8838
▁concentration	-8839
SP	-8840
dis	-8841
osn	-8842
rof	-8843
▁2:	-8844
aped	-8845
char	-8846
erry	-8847
grad	-8848
ifty	-8849
mill	-8850
plus	-8851
take	-8852
▁Acc	-8853
▁Cur	-8854
▁Kev	-8855
▁Off	-8856
▁Roy	-8857
▁obt	-8858
▁pir	-8859
▁tin	-8860
ademy	-8861
bably	-8862
enous	-8863
inent	-8864
inery	-8865
itage	-8866
oline	-8867
peare	-8868
▁1900	-8869
▁Hong	-8870
▁Love	-8871
▁News	-8872
▁Supp	-8873
▁blah	-8874
▁calm	-8875
▁dent	-8876
▁jugg	-8877
▁melt	-8878
▁sale	-8879
▁sett	-8880
gments	-8881
vation	-8882
▁2005,	-8883
▁Being	-8884
▁Chile	-8885
▁Court	-8886
▁bills	-8887
▁comic	-8888
▁dough	-8889
▁drown	-8890
▁embod	-8891
▁embry	-8892
▁encry	-8893
▁funds	-8894
▁guard	-8895
▁immig	-8896
▁impul	-8897
▁jihad	-8898
▁knife	-8899
▁lanes	-8900
▁loads	-8901
▁loose	-8902
▁maker	-8903
▁pills	-8904
▁stair	-8905
▁steam	-8906
▁tiles	-8907
keepers	-8908
▁Columb	-8909
▁Portug	-8910
▁Tasman	-8911
▁atomic	-8912
▁binary	-8913
▁campus	-8914
▁compre	-8915
▁contam	-8916
▁covers	-8917
▁guilty	-8918
▁orders	-8919
▁proved	-8920
▁recall	-8921
▁relief	-8922
▁stimul	-8923
▁summar	-8924
▁topics	-8925
▁College	-8926
▁Develop	-8927
▁Iceland	-8928
▁Ireland	-8929
▁Zealand	-8930
▁barrier	-8931
▁enforce	-8932
▁follows	-8933
▁formula	-8934
▁healing	-8935
▁origins	-8936
▁protest	-8937
▁readers	-8938
▁trivial	-8939
▁useless	-8940
▁whistle	-8941
akespeare	-8942
▁Security	-8943
▁activist	-8944
▁advances	-8945
▁breeding	-8946
▁concerns	-8947
▁contrary	-8948
▁disabled	-8949
▁enjoying	-8950
▁explicit	-8951
▁horizont	-8952
▁peaceful	-8953
▁randomly	-8954
▁selected	-8955
▁stopping	-8956
▁striking	-8957
▁competing	-8958
▁correctly	-8959
▁residents	-8960
▁seemingly	-8961
▁territory	-8962
▁workplace	-8963
▁Bangladesh	-8964
▁Technology	-8965
▁electrodes	-8966
▁initiative	-8967
▁mainstream	-8968
▁medication	-8969
▁monitoring	-8970
▁narratives	-8971
▁reasonable	-8972
▁foundations	-8973
▁legislation	-8974
▁proposition	-8975
▁psychologist	-8976
Are	-8977
ado	-8978
gal	-8979
ima	-8980
oto	-8981
two	-8982
uty	-8983
▁AK	-8984
▁Ap	-8985
▁Us	-8986
Here	-8987
airo	-8988
expl	-8989
oric	-8990
rats	-8991
reme	-8992
utan	-8993
ynth	-8994
▁Dad	-8995
▁Mur	-8996
▁Nic	-8997
▁Ros	-8998
▁Try	-8999
▁USA	-9000
▁dil	-9001
▁shy	-9002
atson	-9003
enter	-9004
grade	-9005
gradu	-9006
ighth	-9007
reens	-9008
▁Mike	-9009
▁Nove	-9010
▁Rand	-9011
▁Zero	-9012
▁cows	-9013
▁dece	-9014
▁forb	-9015
▁inch	-9016
▁junk	-9017
▁meme	-9018
▁rect	-9019
▁tact	-9020
assemb	-9021
cyclop	-9022
ulsion	-9023
▁Force	-9024
▁McDon	-9025
▁algae	-9026
▁boats	-9027
▁deals	-9028
▁delay	-9029
▁drops	-9030
▁girlf	-9031
▁irony	-9032
▁jewel	-9033
▁minus	-9034
▁param	-9035
▁plank	-9036
▁roles	-9037
▁spell	-9038
▁taxes	-9039
▁trace	-9040
essions	-9041
ometown	-9042
perform	-9043
umented	-9044
▁butter	-9045
▁carpet	-9046
▁chains	-9047
▁curves	-9048
▁grocer	-9049
▁magnet	-9050
▁motors	-9051
▁packed	-9052
▁pencil	-9053
▁posted	-9054
▁purple	-9055
▁viewer	-9056
▁wooden	-9057
standing	-9058
▁Israeli	-9059
▁enabled	-9060
▁harmony	-9061
▁implant	-9062
▁islands	-9063
▁kingdom	-9064
▁locally	-9065
▁manager	-9066
▁mapping	-9067
▁pedestr	-9068
▁Brooklyn	-9069
▁Tanzania	-9070
▁altitude	-9071
▁asteroid	-9072
▁ceremony	-9073
▁historic	-9074
▁mobility	-9075
▁overhead	-9076
▁plastics	-9077
▁predator	-9078
▁syndrome	-9079
▁worrying	-9080
▁Indonesia	-9081
▁authentic	-9082
▁biologist	-9083
▁describes	-9084
▁dominated	-9085
▁hierarchy	-9086
▁installed	-9087
▁recycling	-9088
forestation	-9089
▁accomplish	-9090
▁approached	-9091
▁automobile	-9092
▁calculated	-9093
▁engineered	-9094
▁generating	-9095
▁indigenous	-9096
▁legitimate	-9097
▁prosperity	-9098
▁publishing	-9099
▁punishment	-9100
▁sanitation	-9101
▁telescopes	-9102
▁Shakespeare	-9103
▁magnificent	-9104
▁philosopher	-9105
▁connectivity	-9106
▁humanitarian	-9107
▁civilizations	-9108
Sh	-9109
yd	-9110
ETI	-9111
law	-9112
ugg	-9113
uts	-9114
▁ED	-9115
▁Es	-9116
ette	-9117
pril	-9118
seen	-9119
thur	-9120
▁10.	-9121
▁Amy	-9122
▁Ann	-9123
▁DVD	-9124
▁Lin	-9125
▁Tib	-9126
▁ads	-9127
▁ash	-9128
▁hub	-9129
▁oct	-9130
apore	-9131
break	-9132
cking	-9133
enses	-9134
inger	-9135
orden	-9136
sized	-9137
world	-9138
▁Benj	-9139
▁Conf	-9140
▁Half	-9141
▁Lego	-9142
▁Lord	-9143
▁Math	-9144
▁Moon	-9145
▁Snow	-9146
▁bang	-9147
▁batt	-9148
▁bite	-9149
▁dirt	-9150
▁drew	-9151
▁exha	-9152
▁hipp	-9153
▁lawn	-9154
▁mask	-9155
▁mesh	-9156
▁murd	-9157
▁pole	-9158
▁sake	-9159
rating	-9160
uction	-9161
▁April	-9162
▁Clint	-9163
▁Elect	-9164
▁Seven	-9165
▁Swiss	-9166
▁lobby	-9167
▁remix	-9168
▁rings	-9169
▁trail	-9170
▁zones	-9171
itating	-9172
▁Albert	-9173
▁Almost	-9174
▁Watson	-9175
▁approx	-9176
▁behalf	-9177
▁comedy	-9178
▁criter	-9179
▁excuse	-9180
▁immers	-9181
▁infant	-9182
▁manner	-9183
▁namely	-9184
▁render	-9185
▁safely	-9186
▁voting	-9187
▁worthy	-9188
▁bureauc	-9189
▁clinics	-9190
▁corrupt	-9191
▁dilemma	-9192
▁doubled	-9193
▁enjoyed	-9194
▁genomes	-9195
▁laptops	-9196
▁neutral	-9197
▁reactor	-9198
▁rethink	-9199
▁simpler	-9200
▁strings	-9201
▁November	-9202
▁cellular	-9203
▁complain	-9204
▁coverage	-9205
▁downtown	-9206
▁exposure	-9207
▁kindness	-9208
▁observed	-9209
▁reserves	-9210
▁skeletal	-9211
▁spinning	-9212
▁supplies	-9213
▁tropical	-9214
▁Singapore	-9215
▁diagnosis	-9216
▁estimated	-9217
▁officials	-9218
▁overnight	-9219
▁anticipate	-9220
▁compromise	-9221
▁frequently	-9222
▁physicians	-9223
▁neuroscient	-9224
▁collectively	-9225
▁independence	-9226
▁personalized	-9227
▁communicating	-9228
▁visualization	-9229
da	-9230
eu	-9231
ye	-9232
ema	-9233
izz	-9234
uan	-9235
▁Cr	-9236
▁JA	-9237
▁PC	-9238
▁RS	-9239
▁IBM	-9240
▁Rad	-9241
▁Sen	-9242
▁Tam	-9243
▁via	-9244
erent	-9245
isten	-9246
▁Carl	-9247
▁Cath	-9248
▁Rome	-9249
▁biof	-9250
▁cree	-9251
▁loan	-9252
▁mand	-9253
▁sexy	-9254
▁shoe	-9255
▁span	-9256
▁unre	-9257
▁unst	-9258
▁util	-9259
▁verb	-9260
lihood	-9261
orient	-9262
romagn	-9263
thirds	-9264
▁bench	-9265
▁conqu	-9266
▁entry	-9267
▁erect	-9268
▁fatal	-9269
▁gorge	-9270
▁inher	-9271
▁inhib	-9272
▁mayor	-9273
▁norms	-9274
▁penet	-9275
▁perip	-9276
▁40,000	-9277
▁Little	-9278
▁apolog	-9279
▁epidem	-9280
▁Similar	-9281
▁Someone	-9282
▁Switzer	-9283
▁broader	-9284
▁constit	-9285
▁corners	-9286
▁discrim	-9287
▁glacier	-9288
▁mankind	-9289
▁penguin	-9290
▁smiling	-9291
▁staring	-9292
▁accompan	-9293
▁calories	-9294
▁clusters	-9295
▁compound	-9296
▁consumed	-9297
▁diameter	-9298
▁honestly	-9299
▁nitrogen	-9300
▁nowadays	-9301
▁portrait	-9302
▁recycled	-9303
▁sidewalk	-9304
▁simplest	-9305
▁abundance	-9306
▁aesthetic	-9307
▁amazingly	-9308
▁bacterial	-9309
▁batteries	-9310
▁electrons	-9311
▁medicines	-9312
▁occurring	-9313
▁planetary	-9314
▁predators	-9315
▁receiving	-9316
▁relatives	-9317
▁suspended	-9318
▁Geographic	-9319
▁illustrate	-9320
▁likelihood	-9321
▁regardless	-9322
▁sufficient	-9323
▁Switzerland	-9324
▁desperately	-9325
▁devastating	-9326
▁electromagn	-9327
▁fluorescent	-9328
▁instruction	-9329
▁politically	-9330
▁controversial	-9331
▁psychologists	-9332
▁schizophrenia	-9333
"?	-9334
IS	-9335
bie	-9336
upp	-9337
▁Bi	-9338
▁Er	-9339
▁UC	-9340
They	-9341
aste	-9342
ieve	-9343
igma	-9344
oton	-9345
▁193	-9346
▁Ele	-9347
▁Emp	-9348
▁Had	-9349
▁ech	-9350
▁jar	-9351
▁rib	-9352
adian	-9353
ensus	-9354
impse	-9355
lfare	-9356
storm	-9357
▁SETI	-9358
▁Scot	-9359
▁Wind	-9360
▁bush	-9361
▁crap	-9362
▁deaf	-9363
▁dose	-9364
▁enzy	-9365
▁offs	-9366
▁outs	-9367
▁stad	-9368
awater	-9369
unning	-9370
▁Jones	-9371
▁Queen	-9372
▁Still	-9373
▁aspir	-9374
▁clubs	-9375
▁defic	-9376
▁grace	-9377
▁hopes	-9378
▁juice	-9379
▁peers	-9380
▁sperm	-9381
▁straw	-9382
▁vocal	-9383
ascular	-9384
isphere	-9385
ocation	-9386
theless	-9387
▁Andrew	-9388
▁Compan	-9389
▁County	-9390
▁anatom	-9391
▁chimps	-9392
▁comics	-9393
▁cultiv	-9394
▁diving	-9395
▁intact	-9396
▁masses	-9397
▁tables	-9398
▁Detroit	-9399
▁artwork	-9400
▁chamber	-9401
▁cooling	-9402
▁educate	-9403
▁enhance	-9404
▁heading	-9405
▁maximum	-9406
▁patents	-9407
▁princip	-9408
▁texture	-9409
▁Business	-9410
▁approved	-9411
▁backyard	-9412
▁disagree	-9413
▁findings	-9414
▁helpless	-9415
▁injuries	-9416
▁literacy	-9417
▁opinions	-9418
▁scanning	-9419
▁touching	-9420
▁Brazilian	-9421
▁activists	-9422
▁agreement	-9423
▁attitudes	-9424
▁criminals	-9425
▁microbial	-9426
▁motivated	-9427
▁reflected	-9428
▁regularly	-9429
▁renewable	-9430
▁therapies	-9431
▁psychopath	-9432
▁remarkably	-9433
▁composition	-9434
▁distinction	-9435
▁partnership	-9436
▁realization	-9437
▁accomplished	-9438
▁continuously	-9439
▁measurements	-9440
▁temperatures	-9441
God	-9442
ala	-9443
ape	-9444
cus	-9445
dam	-9446
ona	-9447
tra	-9448
yon	-9449
▁AI	-9450
▁AM	-9451
▁Po	-9452
ador	-9453
alog	-9454
door	-9455
enth	-9456
fare	-9457
five	-9458
iots	-9459
▁192	-9460
▁Civ	-9461
▁Jud	-9462
▁Sah	-9463
▁Tun	-9464
▁orb	-9465
▁sne	-9466
acher	-9467
ester	-9468
▁Hope	-9469
▁Jane	-9470
▁Kong	-9471
▁Soci	-9472
▁athe	-9473
▁bulb	-9474
▁bump	-9475
▁chef	-9476
▁cuts	-9477
▁ende	-9478
▁mast	-9479
▁slic	-9480
▁spat	-9481
▁vary	-9482
gevity	-9483
itated	-9484
orough	-9485
▁appla	-9486
▁belly	-9487
▁bless	-9488
▁cared	-9489
▁coach	-9490
▁decor	-9491
▁depos	-9492
▁drunk	-9493
▁illum	-9494
▁lingu	-9495
▁maneu	-9496
▁mimic	-9497
▁naive	-9498
▁parks	-9499
▁pulls	-9500
▁sends	-9501
▁twist	-9502
osexual	-9503
ressing	-9504
vestock	-9505
▁Gandhi	-9506
▁claims	-9507
▁denial	-9508
▁elabor	-9509
▁emails	-9510
▁grades	-9511
▁mentor	-9512
▁prepar	-9513
ffective	-9514
▁Clinton	-9515
▁authors	-9516
▁belongs	-9517
▁biomass	-9518
▁bridges	-9519
▁carries	-9520
▁cluster	-9521
▁deepest	-9522
▁default	-9523
▁filling	-9524
▁glimpse	-9525
▁handful	-9526
▁hopeful	-9527
▁landing	-9528
▁nearest	-9529
▁reaches	-9530
▁teaches	-9531
▁Benjamin	-9532
▁McDonald	-9533
▁Probably	-9534
▁announce	-9535
▁barriers	-9536
▁boundary	-9537
▁deployed	-9538
▁dropping	-9539
▁gorgeous	-9540
▁hometown	-9541
▁hopeless	-9542
▁incorpor	-9543
▁informal	-9544
▁promised	-9545
▁proposal	-9546
▁shocking	-9547
▁vaccines	-9548
▁Aristotle	-9549
▁candidate	-9550
▁formation	-9551
▁intensity	-9552
▁livestock	-9553
▁resistant	-9554
▁statistic	-9555
▁surgeries	-9556
▁textbooks	-9557
▁universes	-9558
▁phenomenal	-9559
▁privileged	-9560
▁suggestion	-9561
▁variations	-9562
▁frightening	-9563
▁programmers	-9564
▁theoretical	-9565
▁alternatives	-9566
▁embarrassing	-9567
▁observations	-9568
▁mathematician	-9569
▁transformative	-9570
As	-9571
BC	-9572
ga	-9573
tt	-9574
She	-9575
gie	-9576
har	-9577
mat	-9578
nat	-9579
net	-9580
obb	-9581
pos	-9582
vir	-9583
▁29	-9584
▁Ba	-9585
▁du	-9586
▁je	-9587
city	-9588
esty	-9589
etti	-9590
gend	-9591
rane	-9592
ules	-9593
wart	-9594
▁12,	-9595
▁Bol	-9596
▁Men	-9597
▁Pot	-9598
▁Ver	-9599
▁Wol	-9600
▁ego	-9601
aired	-9602
ament	-9603
aware	-9604
cover	-9605
ellow	-9606
epher	-9607
raine	-9608
▁Lear	-9609
▁Mass	-9610
▁Turk	-9611
▁blew	-9612
▁chew	-9613
▁mant	-9614
▁prec	-9615
▁quar	-9616
▁rabb	-9617
▁radi	-9618
▁subm	-9619
▁ties	-9620
arrhea	-9621
driven	-9622
iances	-9623
racies	-9624
▁2004,	-9625
▁Cyrus	-9626
▁Laden	-9627
▁Media	-9628
▁Water	-9629
▁blink	-9630
▁boots	-9631
▁brush	-9632
▁bulbs	-9633
▁camel	-9634
▁cream	-9635
▁fence	-9636
▁flock	-9637
▁gains	-9638
▁grave	-9639
▁hated	-9640
▁infer	-9641
▁mobil	-9642
▁obese	-9643
▁pulse	-9644
▁reass	-9645
▁recre	-9646
▁spare	-9647
▁sweat	-9648
▁watts	-9649
▁wrist	-9650
bsolute	-9651
▁Arabia	-9652
▁Greece	-9653
▁Pretty	-9654
▁fluctu	-9655
▁helium	-9656
▁horses	-9657
▁immort	-9658
▁lonely	-9659
▁pestic	-9660
▁riding	-9661
▁sensit	-9662
▁sovere	-9663
▁unfold	-9664
▁wishes	-9665
etheless	-9666
function	-9667
ventions	-9668
▁Stephen	-9669
▁antenna	-9670
▁banking	-9671
▁coastal	-9672
▁congest	-9673
▁crossed	-9674
▁elegant	-9675
▁hacking	-9676
▁heavily	-9677
▁hostile	-9678
▁planted	-9679
▁rewards	-9680
▁sectors	-9681
▁strands	-9682
▁trapped	-9683
▁venture	-9684
▁welfare	-9685
▁Interest	-9686
▁Nigerian	-9687
▁Olympics	-9688
▁Virginia	-9689
▁activate	-9690
▁contempl	-9691
▁criteria	-9692
▁cylinder	-9693
▁hormones	-9694
▁switched	-9695
▁transist	-9696
▁visually	-9697
▁Parkinson	-9698
▁abandoned	-9699
▁administr	-9700
▁asteroids	-9701
▁attracted	-9702
▁comparing	-9703
▁deception	-9704
▁delicious	-9705
▁favorites	-9706
▁machinery	-9707
▁realistic	-9708
▁responded	-9709
▁screaming	-9710
▁shoulders	-9711
▁terrified	-9712
▁visualize	-9713
▁destroying	-9714
▁discussing	-9715
▁documented	-9716
▁exceptions	-9717
▁microphone	-9718
▁spacecraft	-9719
▁computational	-9720
▁systematically	-9721
40	-9722
fly	-9723
hot	-9724
via	-9725
zes	-9726
▁Gr	-9727
Come	-9728
agan	-9729
alem	-9730
anas	-9731
bees	-9732
cher	-9733
eren	-9734
hear	-9735
inci	-9736
itar	-9737
long	-9738
mind	-9739
offs	-9740
unks	-9741
ylon	-9742
▁Bre	-9743
▁Hol	-9744
▁Pop	-9745
▁Tar	-9746
▁Val	-9747
▁pla	-9748
arten	-9749
asive	-9750
atoes	-9751
cribe	-9752
eping	-9753
erals	-9754
ifies	-9755
three	-9756
umbai	-9757
▁Brad	-9758
▁Ever	-9759
▁Hosp	-9760
▁Mond	-9761
▁Penn	-9762
▁Pitt	-9763
▁buff	-9764
▁herd	-9765
▁logo	-9766
▁mixt	-9767
▁pipe	-9768
▁prey	-9769
▁thus	-9770
▁wins	-9771
coming	-9772
culiar	-9773
enance	-9774
ifting	-9775
income	-9776
▁Harry	-9777
▁ambit	-9778
▁arbit	-9779
▁artic	-9780
▁bleed	-9781
▁boost	-9782
▁cheat	-9783
▁chess	-9784
▁consp	-9785
▁facil	-9786
▁freak	-9787
▁gross	-9788
▁index	-9789
▁lists	-9790
▁messy	-9791
▁picks	-9792
▁rhyth	-9793
▁stamp	-9794
▁texts	-9795
▁vivid	-9796
▁voted	-9797
faction	-9798
percent	-9799
▁Argent	-9800
▁Arthur	-9801
▁Disney	-9802
▁Joseph	-9803
▁Ladies	-9804
▁Mozart	-9805
▁Mumbai	-9806
▁Social	-9807
▁Steven	-9808
▁cattle	-9809
▁cockro	-9810
▁copies	-9811
▁donors	-9812
▁horror	-9813
▁lethal	-9814
▁nightm	-9815
▁racing	-9816
▁revers	-9817
▁rotate	-9818
▁shower	-9819
▁strain	-9820
▁trauma	-9821
▁virgin	-9822
▁winner	-9823
▁History	-9824
▁chronic	-9825
▁descend	-9826
▁earning	-9827
▁eastern	-9828
▁exploit	-9829
▁gallery	-9830
▁happily	-9831
▁kidding	-9832
▁laughed	-9833
▁periods	-9834
▁powered	-9835
▁retreat	-9836
▁scaling	-9837
▁screens	-9838
▁spiders	-9839
▁Catholic	-9840
▁accuracy	-9841
▁alphabet	-9842
▁angiogen	-9843
▁expanded	-9844
▁forecast	-9845
▁indicate	-9846
▁momentum	-9847
▁peculiar	-9848
▁prisoner	-9849
▁underest	-9850
▁websites	-9851
▁Greenland	-9852
▁eliminate	-9853
▁recession	-9854
▁sequences	-9855
▁determines	-9856
▁enterprise	-9857
▁irrational	-9858
▁prototypes	-9859
▁undergradu	-9860
▁concentrate	-9861
▁cooperative	-9862
▁discussions	-9863
▁preparation	-9864
▁specialized	-9865
▁understands	-9866
▁accelerating	-9867
▁contribution	-9868
▁overwhelming	-9869
▁philanthropy	-9870
▁interventions	-9871
ki	-9872
mo	-9873
aza	-9874
bag	-9875
ker	-9876
lor	-9877
nut	-9878
oen	-9879
▁..	-9880
▁37	-9881
▁BM	-9882
▁DP	-9883
▁Di	-9884
▁EM	-9885
▁Ky	-9886
▁Ol	-9887
▁SP	-9888
lers	-9889
olen	-9890
page	-9891
uana	-9892
ylac	-9893
▁190	-9894
▁Ast	-9895
▁Tre	-9896
▁avo	-9897
▁awe	-9898
▁ger	-9899
▁loo	-9900
▁mat	-9901
▁mud	-9902
▁sel	-9903
▁tur	-9904
▁wow	-9905
abeth	-9906
digit	-9907
ellig	-9908
ierra	-9909
iolet	-9910
viron	-9911
▁Abed	-9912
▁Army	-9913
▁Bern	-9914
▁Bosn	-9915
▁Cape	-9916
▁Hind	-9917
▁Norm	-9918
▁apps	-9919
▁impr	-9920
▁lion	-9921
▁porn	-9922
▁seal	-9923
▁sole	-9924
▁surg	-9925
▁toss	-9926
▁turt	-9927
▁voca	-9928
▁ward	-9929
▁worm	-9930
normal	-9931
umbled	-9932
unting	-9933
▁Bruno	-9934
▁Civil	-9935
▁Indus	-9936
▁Kevin	-9937
▁Stone	-9938
▁Turns	-9939
▁alarm	-9940
▁blown	-9941
▁careg	-9942
▁crude	-9943
▁ingen	-9944
▁loses	-9945
▁marks	-9946
▁mater	-9947
▁meets	-9948
▁mycel	-9949
▁penal	-9950
▁rains	-9951
▁scaff	-9952
▁sheer	-9953
▁shops	-9954
▁sizes	-9955
▁Michel	-9956
▁Rather	-9957
▁advers	-9958
▁cables	-9959
▁canvas	-9960
▁dispar	-9961
▁divers	-9962
▁evapor	-9963
▁flavor	-9964
▁frames	-9965
▁gravit	-9966
▁harbor	-9967
▁hybrid	-9968
▁iconic	-9969
▁kicked	-9970
▁lifted	-9971
▁mating	-9972
▁retail	-9973
▁shifts	-9974
▁summit	-9975
▁unlock	-9976
ergarten	-9977
ortunate	-9978
▁Iranian	-9979
▁Journal	-9980
▁Seattle	-9981
▁Society	-9982
▁acquire	-9983
▁climbed	-9984
▁enlight	-9985
▁fantasy	-9986
▁hackers	-9987
▁inhabit	-9988
▁labeled	-9989
▁logging	-9990
▁matched	-9991
▁optical	-9992
▁pouring	-9993
▁swallow	-9994
▁trading	-9995
▁western	-9996
mentation	-9997
▁adoption	-9998
▁division	-9999
▁evolving	-10000
▁inventor	-10001
▁multiply	-10002
▁pleasant	-10003
▁revealed	-10004
▁surgeons	-10005
▁ambitious	-10006
▁answering	-10007
▁convicted	-10008
▁expressed	-10009
▁fisheries	-10010
▁imagining	-10011
▁mutations	-10012
▁reasoning	-10013
▁adolescent	-10014
▁households	-10015
▁professors	-10016
▁prosthetic	-10017
▁separation	-10018
▁sequencing	-10019
▁destination	-10020
▁distinguish	-10021
▁emotionally	-10022
▁overwhelmed	-10023
▁Organization	-10024
▁approximately	-10025
▁accountability	-10026
RA	-10027
tz	-10028
vy	-10029
ila	-10030
▁Kh	-10031
▁Wi	-10032
▁tu	-10033
▁vo	-10034
aken	-10035
ials	-10036
▁Def	-10037
▁Dub	-10038
▁Has	-10039
▁Kir	-10040
▁Mos	-10041
▁Nam	-10042
▁Ron	-10043
▁Sec	-10044
▁Tra	-10045
▁Van	-10046
▁pad	-10047
▁rap	-10048
▁rip	-10049
▁unw	-10050
▁vel	-10051
▁zoo	-10052
gener	-10053
inity	-10054
iracy	-10055
keley	-10056
oenix	-10057
olera	-10058
osity	-10059
ouses	-10060
proof	-10061
restr	-10062
▁Chap	-10063
▁Educ	-10064
▁Ross	-10065
▁carc	-10066
▁carp	-10067
▁caus	-10068
▁coin	-10069
▁cube	-10070
▁dood	-10071
▁fest	-10072
▁hint	-10073
▁jack	-10074
▁neoc	-10075
▁piss	-10076
▁symp	-10077
▁tags	-10078
▁torn	-10079
Please	-10080
epherd	-10081
ijuana	-10082
istine	-10083
ometer	-10084
▁Craig	-10085
▁Louis	-10086
▁Sarah	-10087
▁Tibet	-10088
▁Tunis	-10089
▁Young	-10090
▁acids	-10091
▁album	-10092
▁align	-10093
▁couch	-10094
▁crows	-10095
▁ethic	-10096
▁float	-10097
▁grant	-10098
▁lifel	-10099
▁panic	-10100
▁probe	-10101
▁reper	-10102
▁scans	-10103
▁unint	-10104
violent	-10105
▁25,000	-10106
▁Daniel	-10107
▁Norden	-10108
▁Spring	-10109
▁argued	-10110
▁corrid	-10111
▁depart	-10112
▁format	-10113
▁kidney	-10114
▁passes	-10115
▁plates	-10116
▁preced	-10117
▁selves	-10118
▁slower	-10119
▁smells	-10120
▁themes	-10121
▁triang	-10122
▁Mexican	-10123
▁Olympic	-10124
▁envelop	-10125
▁exagger	-10126
▁grocery	-10127
▁heating	-10128
▁outrage	-10129
▁planned	-10130
▁playful	-10131
▁pleased	-10132
▁rehabil	-10133
▁streams	-10134
▁telecom	-10135
▁utterly	-10136
bsolutely	-10137
▁Berkeley	-10138
▁analyzed	-10139
▁freezing	-10140
▁gasoline	-10141
▁mutation	-10142
▁pathways	-10143
▁priority	-10144
▁publicly	-10145
▁redesign	-10146
▁rejected	-10147
▁seawater	-10148
▁sexually	-10149
▁sometime	-10150
▁thrilled	-10151
▁youngest	-10152
cyclopedia	-10153
▁acknowled	-10154
▁anonymous	-10155
▁astronomy	-10156
▁commodity	-10157
▁emergence	-10158
▁geography	-10159
▁longevity	-10160
▁negotiate	-10161
▁parachute	-10162
▁tolerance	-10163
▁witnessed	-10164
▁Christians	-10165
▁candidates	-10166
▁conceptual	-10167
▁critically	-10168
▁delivering	-10169
▁girlfriend	-10170
▁ingredient	-10171
▁organizing	-10172
▁practicing	-10173
▁coordination	-10174
▁economically	-10175
▁introduction	-10176
▁representative	-10177
Ah	-10178
bu	-10179
gr	-10180
Now	-10181
kyo	-10182
▁48	-10183
▁72	-10184
▁DR	-10185
▁ID	-10186
alia	-10187
burg	-10188
inos	-10189
osov	-10190
plic	-10191
star	-10192
▁130	-10193
▁203	-10194
▁Mid	-10195
▁nap	-10196
▁nic	-10197
▁sib	-10198
brush	-10199
matic	-10200
month	-10201
plete	-10202
▁..."	-10203
▁1930	-10204
▁Cold	-10205
▁Jews	-10206
▁Plan	-10207
▁asth	-10208
▁blur	-10209
▁calc	-10210
▁cope	-10211
▁craw	-10212
▁dare	-10213
▁indu	-10214
▁lean	-10215
▁semi	-10216
▁unle	-10217
▁wore	-10218
ection	-10219
olitan	-10220
violet	-10221
▁1,500	-10222
▁Alask	-10223
▁Trade	-10224
▁buses	-10225
▁cares	-10226
▁guerr	-10227
▁juven	-10228
▁nasty	-10229
▁resur	-10230
▁risky	-10231
▁roofs	-10232
▁slice	-10233
▁trips	-10234
▁usage	-10235
atories	-10236
enhagen	-10237
izabeth	-10238
▁60,000	-10239
▁Hawaii	-10240
▁Office	-10241
▁Wright	-10242
▁counts	-10243
▁exquis	-10244
▁grains	-10245
▁insert	-10246
▁modest	-10247
▁pigeon	-10248
▁precip	-10249
▁raises	-10250
▁stabil	-10251
▁stolen	-10252
▁temple	-10253
▁Atlanta	-10254
▁Kingdom	-10255
▁Lebanon	-10256
▁assumed	-10257
▁blowing	-10258
▁compreh	-10259
▁compute	-10260
▁condoms	-10261
▁creator	-10262
▁digging	-10263
▁endless	-10264
▁injured	-10265
▁lottery	-10266
▁rescued	-10267
▁returns	-10268
▁shaking	-10269
▁shining	-10270
▁stadium	-10271
▁whoever	-10272
▁TEDTalks	-10273
▁Whenever	-10274
▁assembly	-10275
▁calculus	-10276
▁cheating	-10277
▁detector	-10278
▁diarrhea	-10279
▁intimate	-10280
▁mentally	-10281
▁talented	-10282
▁terrific	-10283
▁variable	-10284
ographical	-10285
▁alongside	-10286
▁associate	-10287
▁collision	-10288
▁converted	-10289
▁integrate	-10290
▁parenting	-10291
▁Copenhagen	-10292
▁accelerate	-10293
▁employment	-10294
▁enormously	-10295
▁horizontal	-10296
▁metabolism	-10297
▁networking	-10298
▁priorities	-10299
▁sculptures	-10300
▁systematic	-10301
▁translator	-10302
▁collaborate	-10303
▁enforcement	-10304
▁integration	-10305
▁recognizing	-10306
▁transported	-10307
▁ultraviolet	-10308
▁unfortunate	-10309
▁angiogenesis	-10310
▁chemotherapy	-10311
▁kindergarten	-10312
▁representing	-10313
▁significance	-10314
▁authoritarian	-10315
▁deforestation	-10316
NC	-10317
▁]	-10318
Man	-10319
afe	-10320
dra	-10321
ecd	-10322
psy	-10323
▁4.	-10324
▁Bh	-10325
▁Gi	-10326
AIDS	-10327
agra	-10328
aver	-10329
beat	-10330
eyed	-10331
irms	-10332
oked	-10333
omed	-10334
pack	-10335
▁'50	-10336
▁30,	-10337
▁Fed	-10338
▁Mat	-10339
▁Nep	-10340
anium	-10341
asure	-10342
athon	-10343
elect	-10344
front	-10345
ogens	-10346
oured	-10347
ubble	-10348
▁Fund	-10349
▁Jord	-10350
▁Kids	-10351
▁Know	-10352
▁Libr	-10353
▁Prot	-10354
▁adds	-10355
▁dele	-10356
▁demo	-10357
▁epip	-10358
▁epis	-10359
▁fier	-10360
▁foie	-10361
▁glor	-10362
▁mild	-10363
▁mini	-10364
▁odor	-10365
▁pays	-10366
▁scal	-10367
▁stew	-10368
▁warr	-10369
ancers	-10370
ending	-10371
estone	-10372
iments	-10373
orters	-10374
shaped	-10375
▁Kosov	-10376
▁Tokyo	-10377
▁acres	-10378
▁anecd	-10379
▁candy	-10380
▁drain	-10381
▁escal	-10382
▁favel	-10383
▁feeds	-10384
▁frogs	-10385
▁knees	-10386
▁manus	-10387
▁obser	-10388
▁revel	-10389
▁squid	-10390
▁steep	-10391
▁woods	-10392
ilation	-10393
onsense	-10394
umbling	-10395
▁Joshua	-10396
▁Korean	-10397
▁Nether	-10398
▁Sierra	-10399
▁allies	-10400
▁copied	-10401
▁deadly	-10402
▁digest	-10403
▁eighth	-10404
▁losses	-10405
▁presum	-10406
▁regist	-10407
▁rolled	-10408
▁sooner	-10409
▁thylac	-10410
▁unfair	-10411
▁unseen	-10412
▁weighs	-10413
computer	-10414
▁150,000	-10415
▁Academy	-10416
▁Charlie	-10417
▁Everest	-10418
▁Medical	-10419
▁airline	-10420
▁cholera	-10421
▁counted	-10422
▁couples	-10423
▁damaged	-10424
▁filters	-10425
▁folding	-10426
▁fulfill	-10427
▁grabbed	-10428
▁melting	-10429
▁reserve	-10430
▁richest	-10431
▁seventh	-10432
▁shorter	-10433
▁squares	-10434
▁travels	-10435
▁visions	-10436
▁weekend	-10437
▁wrapped	-10438
ationally	-10439
▁Canadian	-10440
▁Hospital	-10441
▁acquired	-10442
▁actively	-10443
▁autistic	-10444
▁deciding	-10445
▁explored	-10446
▁gestures	-10447
▁ideology	-10448
▁membrane	-10449
▁parasite	-10450
▁remotely	-10451
▁sticking	-10452
▁supernov	-10453
▁targeted	-10454
▁vacation	-10455
▁visiting	-10456
ustainable	-10457
▁According	-10458
▁Similarly	-10459
▁achieving	-10460
▁bacterium	-10461
▁desperate	-10462
▁diplomacy	-10463
▁disasters	-10464
▁elaborate	-10465
▁embracing	-10466
▁generates	-10467
▁migration	-10468
▁millennia	-10469
▁mosquitos	-10470
▁offspring	-10471
▁platforms	-10472
▁producers	-10473
▁screening	-10474
▁vegetable	-10475
▁confronted	-10476
▁describing	-10477
▁hemisphere	-10478
▁projection	-10479
▁renewables	-10480
▁symmetries	-10481
▁Netherlands	-10482
▁Palestinian	-10483
▁documentary	-10484
▁maintenance	-10485
▁contributing	-10486
▁philosophical	-10487
TC	-10488
eem	-10489
mes	-10490
nik	-10491
orr	-10492
wan	-10493
▁Av	-10494
▁Ra	-10495
,500	-10496
aman	-10497
amps	-10498
bean	-10499
fire	-10500
held	-10501
igan	-10502
laim	-10503
nedy	-10504
orse	-10505
oves	-10506
step	-10507
ucks	-10508
unes	-10509
wing	-10510
▁Gol	-10511
▁Mas	-10512
▁Mer	-10513
▁Pen	-10514
▁Say	-10515
▁Syl	-10516
▁cin	-10517
▁cul	-10518
▁rac	-10519
▁voy	-10520
▁wre	-10521
▁yog	-10522
Would	-10523
ambod	-10524
ctive	-10525
oters	-10526
ponds	-10527
speed	-10528
urday	-10529
urger	-10530
▁Mall	-10531
▁Phot	-10532
▁Tues	-10533
▁Zimb	-10534
▁beef	-10535
▁bowl	-10536
▁cups	-10537
▁curt	-10538
▁fuck	-10539
▁hamb	-10540
▁holy	-10541
▁kidn	-10542
▁merg	-10543
▁obso	-10544
▁ster	-10545
▁vice	-10546
boards	-10547
bulary	-10548
usalem	-10549
▁2003,	-10550
▁Alice	-10551
▁Larry	-10552
▁Light	-10553
▁Sudan	-10554
▁advis	-10555
▁blast	-10556
▁dread	-10557
▁fired	-10558
▁flesh	-10559
▁pound	-10560
▁wrest	-10561
▁yeast	-10562
ictions	-10563
ologies	-10564
rection	-10565
▁12,000	-10566
▁Cambod	-10567
▁Monday	-10568
▁Secret	-10569
▁abroad	-10570
▁accent	-10571
▁aliens	-10572
▁asleep	-10573
▁boards	-10574
▁brands	-10575
▁cataly	-10576
▁empath	-10577
▁equals	-10578
▁exotic	-10579
▁firing	-10580
▁guards	-10581
▁mammal	-10582
▁mapped	-10583
▁refuse	-10584
▁warmer	-10585
▁Kennedy	-10586
▁Library	-10587
▁Stewart	-10588
▁Tuesday	-10589
▁cardiac	-10590
▁columns	-10591
▁flights	-10592
▁longest	-10593
▁priorit	-10594
▁segment	-10595
▁shifted	-10596
▁talents	-10597
▁trusted	-10598
▁Egyptian	-10599
▁Saturday	-10600
▁annivers	-10601
▁attempts	-10602
▁cocktail	-10603
▁defining	-10604
▁entities	-10605
▁envision	-10606
▁innovate	-10607
▁internet	-10608
▁lifespan	-10609
▁managing	-10610
▁maneuver	-10611
▁minority	-10612
▁mycelium	-10613
▁protocol	-10614
▁scaffold	-10615
▁Jerusalem	-10616
▁astronaut	-10617
▁celebrity	-10618
▁extensive	-10619
▁illusions	-10620
▁indicates	-10621
▁integrity	-10622
▁magazines	-10623
▁mushrooms	-10624
▁pressures	-10625
▁disturbing	-10626
▁infectious	-10627
▁intentions	-10628
▁interfaces	-10629
▁predicting	-10630
▁preventing	-10631
▁profitable	-10632
▁vocabulary	-10633
▁Fortunately	-10634
▁Republicans	-10635
▁celebration	-10636
▁considering	-10637
▁corresponds	-10638
▁embarrassed	-10639
▁frustration	-10640
▁investigate	-10641
▁investments	-10642
▁practically	-10643
▁revolutions	-10644
▁sensitivity	-10645
▁symmetrical	-10646
▁catastrophic	-10647
▁headquarters	-10648
▁hallucinations	-10649
Go	-10650
hr	-10651
no	-10652
idi	-10653
pol	-10654
▁31	-10655
▁46	-10656
▁Ok	-10657
▁oy	-10658
anna	-10659
chem	-10660
elle	-10661
iatr	-10662
idal	-10663
mass	-10664
size	-10665
teen	-10666
▁1.2	-10667
▁11,	-10668
▁12-	-10669
▁FDA	-10670
▁Jup	-10671
▁Mel	-10672
▁eru	-10673
▁jam	-10674
arded	-10675
berry	-10676
ching	-10677
eting	-10678
glect	-10679
grand	-10680
graph	-10681
piece	-10682
pound	-10683
thood	-10684
▁Book	-10685
▁Free	-10686
▁Sand	-10687
▁Show	-10688
▁beam	-10689
▁cage	-10690
▁dens	-10691
▁depr	-10692
▁disk	-10693
▁node	-10694
▁outl	-10695
▁oven	-10696
▁panc	-10697
▁rank	-10698
▁rays	-10699
▁reck	-10700
▁sque	-10701
▁unac	-10702
action	-10703
alysis	-10704
asters	-10705
escope	-10706
formed	-10707
ghetti	-10708
handed	-10709
imalay	-10710
ograms	-10711
ricane	-10712
stairs	-10713
uminum	-10714
vasive	-10715
▁2006,	-10716
▁Heart	-10717
▁Story	-10718
▁entit	-10719
▁hills	-10720
▁hoped	-10721
▁infra	-10722
▁loans	-10723
▁octop	-10724
▁paste	-10725
▁posed	-10726
▁slope	-10727
▁tanks	-10728
▁towns	-10729
imeters	-10730
issance	-10731
quality	-10732
raising	-10733
▁Alaska	-10734
▁Luther	-10735
▁Notice	-10736
▁absurd	-10737
▁angles	-10738
▁beside	-10739
▁calend	-10740
▁cathed	-10741
▁enrich	-10742
▁famine	-10743
▁foster	-10744
▁graphs	-10745
▁handed	-10746
▁insist	-10747
▁jungle	-10748
▁marker	-10749
▁metals	-10750
▁potent	-10751
▁punish	-10752
▁scheme	-10753
▁server	-10754
▁speeds	-10755
▁submit	-10756
▁tagged	-10757
▁tomato	-10758
▁viewed	-10759
▁virtue	-10760
▁viscer	-10761
▁waited	-10762
▁wasted	-10763
ependent	-10764
ountered	-10765
pectives	-10766
▁Country	-10767
▁Environ	-10768
▁Himalay	-10769
▁Jupiter	-10770
▁Montana	-10771
▁altered	-10772
▁beetles	-10773
▁charged	-10774
▁clarity	-10775
▁decides	-10776
▁desktop	-10777
▁eternal	-10778
▁farther	-10779
▁honored	-10780
▁impress	-10781
▁luckily	-10782
▁neglect	-10783
▁ordered	-10784
▁penalty	-10785
▁reforms	-10786
▁spatial	-10787
▁sulfide	-10788
▁thereby	-10789
conscious	-10790
inational	-10791
▁Together	-10792
▁assemble	-10793
▁autonomy	-10794
▁basement	-10795
▁elevator	-10796
▁entrance	-10797
▁frontier	-10798
▁habitats	-10799
▁heritage	-10800
▁motivate	-10801
▁obsolete	-10802
▁peripher	-10803
▁pipeline	-10804
▁receptor	-10805
▁revenues	-10806
▁simulate	-10807
▁surgical	-10808
▁tangible	-10809
▁triangle	-10810
ifications	-10811
▁artifacts	-10812
▁consuming	-10813
▁contained	-10814
▁dictators	-10815
▁emphasize	-10816
▁portraits	-10817
▁precision	-10818
▁principal	-10819
▁promoting	-10820
▁replacing	-10821
▁reporting	-10822
▁acceptance	-10823
▁addressing	-10824
▁chromosome	-10825
▁disappears	-10826
▁relativity	-10827
▁responding	-10828
▁correlation	-10829
▁democracies	-10830
▁encountered	-10831
▁implemented	-10832
▁microscopic	-10833
▁statistical	-10834
▁dictionaries	-10835
▁disappointed	-10836
▁improvements	-10837
▁philosophers	-10838
▁prescription	-10839
▁satisfaction	-10840
▁exponentially	-10841
?'	-10842
pa	-10843
300	-10844
Did	-10845
ano	-10846
isc	-10847
low	-10848
vol	-10849
wid	-10850
▁CP	-10851
▁MO	-10852
▁MS	-10853
▁Wo	-10854
▁eB	-10855
▁gy	-10856
Cola	-10857
abwe	-10858
asha	-10859
ccer	-10860
ccol	-10861
hors	-10862
lets	-10863
olas	-10864
pres	-10865
ptic	-10866
ucky	-10867
umbs	-10868
umen	-10869
▁15,	-10870
▁Gar	-10871
▁Inc	-10872
▁Lew	-10873
▁Luc	-10874
▁Naz	-10875
▁RNA	-10876
▁arc	-10877
▁fog	-10878
▁hut	-10879
▁lex	-10880
▁mas	-10881
▁owe	-10882
▁rod	-10883
Point	-10884
actic	-10885
ccoli	-10886
ennis	-10887
heads	-10888
illas	-10889
iumph	-10890
thals	-10891
uster	-10892
▁Band	-10893
▁Bert	-10894
▁Coca	-10895
▁Desp	-10896
▁Lead	-10897
▁Mean	-10898
▁Nick	-10899
▁Stop	-10900
▁belt	-10901
▁bond	-10902
▁bust	-10903
▁cycl	-10904
▁debr	-10905
▁enab	-10906
▁puff	-10907
▁shed	-10908
▁toll	-10909
ailand	-10910
ements	-10911
ilated	-10912
minded	-10913
ounded	-10914
rhythm	-10915
▁8,000	-10916
▁Apoll	-10917
▁Beach	-10918
▁Broad	-10919
▁Creat	-10920
▁Venus	-10921
▁acute	-10922
▁alert	-10923
▁alter	-10924
▁asset	-10925
▁clips	-10926
▁clues	-10927
▁discl	-10928
▁divid	-10929
▁drama	-10930
▁fails	-10931
▁greet	-10932
▁harsh	-10933
▁heter	-10934
▁laund	-10935
▁noisy	-10936
▁pants	-10937
▁pipes	-10938
▁rigid	-10939
▁rises	-10940
▁seals	-10941
▁slave	-10942
▁stare	-10943
▁taboo	-10944
▁yards	-10945
inished	-10946
iterate	-10947
ructive	-10948
▁Recent	-10949
▁Sylvia	-10950
▁apples	-10951
▁assure	-10952
▁beetle	-10953
▁behold	-10954
▁candle	-10955
▁casual	-10956
▁contag	-10957
▁courts	-10958
▁cracks	-10959
▁dishes	-10960
▁exceed	-10961
▁filmed	-10962
▁floors	-10963
▁folded	-10964
▁fruits	-10965
▁ironic	-10966
▁marrow	-10967
▁mature	-10968
▁occupy	-10969
▁resemb	-10970
▁serves	-10971
▁spiral	-10972
▁stairs	-10973
▁steady	-10974
▁submar	-10975
▁timing	-10976
▁traces	-10977
ifferent	-10978
▁Phoenix	-10979
▁applies	-10980
▁blessed	-10981
▁budgets	-10982
▁consent	-10983
▁counsel	-10984
▁exhibit	-10985
▁greatly	-10986
▁liberty	-10987
▁markers	-10988
▁mirrors	-10989
▁mixture	-10990
▁passage	-10991
▁praying	-10992
▁refused	-10993
▁sensing	-10994
▁shelves	-10995
▁shortly	-10996
▁squeeze	-10997
▁strikes	-10998
▁surveys	-10999
▁texting	-11000
▁tightly	-11001
▁warrior	-11002
▁Consider	-11003
▁Portugal	-11004
▁Thailand	-11005
▁Zimbabwe	-11006
▁accommod	-11007
▁chapters	-11008
▁checking	-11009
▁consists	-11010
▁democrat	-11011
▁deserves	-11012
▁friction	-11013
▁improvis	-11014
▁magician	-11015
▁regional	-11016
▁resident	-11017
▁shepherd	-11018
▁stressed	-11019
▁symbolic	-11020
▁thinkers	-11021
▁thorough	-11022
▁uniquely	-11023
▁weakness	-11024
controlled	-11025
▁Elizabeth	-11026
▁Jefferson	-11027
▁Telescope	-11028
▁Therefore	-11029
▁biosphere	-11030
▁blueprint	-11031
▁cardboard	-11032
▁countless	-11033
▁fishermen	-11034
▁involving	-11035
▁isolation	-11036
▁judgments	-11037
▁obsession	-11038
▁resilient	-11039
▁secondary	-11040
▁spaghetti	-11041
▁staircase	-11042
▁surviving	-11043
▁apartments	-11044
▁disruptive	-11045
▁frightened	-11046
▁inherently	-11047
▁inventions	-11048
▁millimeter	-11049
▁programmed	-11050
▁anniversary	-11051
▁calculation	-11052
▁disciplines	-11053
▁empowerment	-11054
▁frequencies	-11055
▁psychiatric	-11056
▁Neanderthals	-11057
▁appreciation	-11058
▁authenticity	-11059
▁collaborators	-11060
▁configuration	-11061
▁gravitational	-11062
▁multinational	-11063
▁participating	-11064
▁spontaneously	-11065
▁scientifically	-11066
▁entrepreneurial	-11067
10	-11068
ES	-11069
HA	-11070
Le	-11071
cod	-11072
eys	-11073
gon	-11074
ili	-11075
iva	-11076
omy	-11077
urf	-11078
zzy	-11079
▁44	-11080
▁AG	-11081
▁Ir	-11082
▁MA	-11083
▁Sk	-11084
acqu	-11085
aire	-11086
ican	-11087
ogan	-11088
oter	-11089
pace	-11090
▁Add	-11091
▁Ang	-11092
▁Dal	-11093
▁Old	-11094
▁Ram	-11095
▁Tem	-11096
▁Vol	-11097
▁bay	-11098
▁caf	-11099
▁gad	-11100
▁pix	-11101
ancer	-11102
ittee	-11103
ourse	-11104
roots	-11105
▁Gard	-11106
▁Hung	-11107
▁Keep	-11108
▁Less	-11109
▁Milo	-11110
▁Oper	-11111
▁Such	-11112
▁Tele	-11113
▁apes	-11114
▁appe	-11115
▁beds	-11116
▁edit	-11117
▁folk	-11118
▁font	-11119
▁glow	-11120
▁goat	-11121
▁hump	-11122
▁lips	-11123
▁lump	-11124
▁nano	-11125
▁narc	-11126
▁sang	-11127
▁tale	-11128
▁unim	-11129
▁yard	-11130
cribed	-11131
ieties	-11132
ulator	-11133
verted	-11134
▁2011,	-11135
▁Danny	-11136
▁Fried	-11137
▁Georg	-11138
▁Guard	-11139
▁Milky	-11140
▁Namib	-11141
▁Qaeda	-11142
▁Small	-11143
▁Syria	-11144
▁bribe	-11145
▁brick	-11146
▁chase	-11147
▁draws	-11148
▁freed	-11149
▁ghost	-11150
▁jumps	-11151
▁loyal	-11152
▁poems	-11153
▁recur	-11154
▁slept	-11155
▁spite	-11156
▁suits	-11157
▁surre	-11158
▁tiger	-11159
million	-11160
natural	-11161
ulative	-11162
▁Buddha	-11163
▁Having	-11164
▁Kansas	-11165
▁brutal	-11166
▁equity	-11167
▁guitar	-11168
▁hugely	-11169
▁hunter	-11170
▁lately	-11171
▁mouths	-11172
▁noises	-11173
▁pollut	-11174
▁powder	-11175
▁psycho	-11176
▁salary	-11177
▁soccer	-11178
▁underm	-11179
▁viable	-11180
▁Certain	-11181
▁Natural	-11182
▁Suppose	-11183
▁appoint	-11184
▁archive	-11185
▁buttons	-11186
▁crashes	-11187
▁dancers	-11188
▁forgive	-11189
▁generic	-11190
▁goodbye	-11191
▁honesty	-11192
▁jumping	-11193
▁matches	-11194
▁onstage	-11195
▁premise	-11196
▁pricing	-11197
▁ratings	-11198
▁silicon	-11199
▁thermal	-11200
izational	-11201
▁Columbia	-11202
▁aluminum	-11203
▁ambition	-11204
▁circular	-11205
▁displays	-11206
▁embodied	-11207
▁feminist	-11208
▁humility	-11209
▁intimacy	-11210
▁memorial	-11211
▁modeling	-11212
▁numerous	-11213
▁passions	-11214
▁purchase	-11215
▁stepping	-11216
▁Meanwhile	-11217
▁activated	-11218
▁bombsight	-11219
▁compounds	-11220
▁cybercrim	-11221
▁demograph	-11222
▁exercises	-11223
▁finishing	-11224
▁kilometer	-11225
▁lightning	-11226
▁metabolic	-11227
▁observing	-11228
▁psychiatr	-11229
▁realities	-11230
▁sexuality	-11231
▁therapist	-11232
▁Absolutely	-11233
▁PowerPoint	-11234
▁accumulate	-11235
▁beneficial	-11236
▁congestion	-11237
▁disconnect	-11238
▁empowering	-11239
▁invitation	-11240
▁journalism	-11241
▁parliament	-11242
▁pedestrian	-11243
▁politician	-11244
▁prevalence	-11245
▁reflective	-11246
▁Development	-11247
▁nonetheless	-11248
▁orientation	-11249
▁progression	-11250
▁rainforests	-11251
▁regulations	-11252
▁replacement	-11253
▁substantial	-11254
▁disabilities	-11255
▁manipulation	-11256
▁presidential	-11257
▁electromagnetic	-11258
Ex	-11259
Fi	-11260
Mom	-11261
asa	-11262
odd	-11263
oof	-11264
vin	-11265
▁'8	-11266
▁BJ	-11267
▁Id	-11268
▁WK	-11269
▁ol	-11270
addy	-11271
adel	-11272
adow	-11273
anch	-11274
anol	-11275
bing	-11276
bral	-11277
eros	-11278
food	-11279
mile	-11280
pted	-11281
rose	-11282
word	-11283
▁1.5	-11284
▁24-	-11285
▁450	-11286
▁50-	-11287
▁DAR	-11288
▁Die	-11289
▁Ear	-11290
▁Hot	-11291
▁Jay	-11292
▁Kib	-11293
▁Nin	-11294
▁Sub	-11295
▁Sum	-11296
▁Top	-11297
▁bip	-11298
▁bos	-11299
▁cum	-11300
▁gel	-11301
▁jaw	-11302
▁kit	-11303
Every	-11304
Thank	-11305
alore	-11306
appro	-11307
idesp	-11308
ilibr	-11309
ilson	-11310
rants	-11311
vance	-11312
▁2008	-11313
▁Dick	-11314
▁Nike	-11315
▁TEDx	-11316
▁Year	-11317
▁alar	-11318
▁aunt	-11319
▁bugs	-11320
▁chat	-11321
▁conj	-11322
▁eats	-11323
▁heck	-11324
▁hurd	-11325
▁pean	-11326
▁perm	-11327
▁slip	-11328
▁solo	-11329
▁thro	-11330
apagos	-11331
obiles	-11332
ocracy	-11333
odynam	-11334
ortion	-11335
ounder	-11336
redict	-11337
school	-11338
ulates	-11339
▁Color	-11340
▁choir	-11341
▁empir	-11342
▁faint	-11343
▁femin	-11344
▁fever	-11345
▁fungi	-11346
▁macro	-11347
▁ridge	-11348
▁shred	-11349
▁snake	-11350
▁twins	-11351
▁wiped	-11352
alities	-11353
conomic	-11354
holders	-11355
ocratic	-11356
ouncing	-11357
umental	-11358
▁Around	-11359
▁Canyon	-11360
▁Empire	-11361
▁Native	-11362
▁Sahara	-11363
▁Yellow	-11364
▁banned	-11365
▁checks	-11366
▁cinema	-11367
▁circul	-11368
▁cosmos	-11369
▁debris	-11370
▁empire	-11371
▁hatred	-11372
▁helmet	-11373
▁intric	-11374
▁mixing	-11375
▁nicely	-11376
▁prayer	-11377
▁stigma	-11378
▁storms	-11379
▁upward	-11380
▁washed	-11381
aggering	-11382
ilibrium	-11383
oriented	-11384
restrial	-11385
▁Alright	-11386
▁Denmark	-11387
▁Despite	-11388
▁amateur	-11389
▁bananas	-11390
▁chasing	-11391
▁dismiss	-11392
▁dreamed	-11393
▁editors	-11394
▁emerges	-11395
▁grammar	-11396
▁iceberg	-11397
▁impulse	-11398
▁joining	-11399
▁lighter	-11400
▁primate	-11401
▁relates	-11402
▁submers	-11403
▁touches	-11404
▁transit	-11405
▁triumph	-11406
▁upright	-11407
idespread	-11408
istically	-11409
ventually	-11410
▁abundant	-11411
▁altruism	-11412
▁ancestor	-11413
▁broccoli	-11414
▁chickens	-11415
▁detected	-11416
▁endeavor	-11417
▁famously	-11418
▁goodness	-11419
▁lectures	-11420
▁minerals	-11421
▁nonsense	-11422
▁obstacle	-11423
▁patience	-11424
▁petition	-11425
▁plankton	-11426
▁promises	-11427
▁reflects	-11428
▁regulate	-11429
▁Bangalore	-11430
▁Galapagos	-11431
▁Tasmanian	-11432
▁analyzing	-11433
▁attacking	-11434
▁breakdown	-11435
▁container	-11436
▁fragments	-11437
▁massively	-11438
▁preserved	-11439
▁processed	-11440
▁processor	-11441
▁respected	-11442
▁returning	-11443
▁skeptical	-11444
▁summarize	-11445
▁sustained	-11446
▁unpredict	-11447
▁voluntary	-11448
▁celebrated	-11449
▁connectome	-11450
▁dependence	-11451
▁fertilizer	-11452
▁intriguing	-11453
▁opposition	-11454
▁physiology	-11455
▁playground	-11456
▁propaganda	-11457
▁regulation	-11458
▁subjective	-11459
▁supportive	-11460
▁adolescence	-11461
▁calculating	-11462
▁chromosomes	-11463
▁documenting	-11464
▁functioning	-11465
▁perceptions	-11466
▁researching	-11467
▁explanations	-11468
▁laboratories	-11469
▁partnerships	-11470
▁perspectives	-11471
▁Interestingly	-11472
▁investigation	-11473
▁rehabilitation	-11474
-2	-11475
HC	-11476
ao	-11477
ja	-11478
One	-11479
aco	-11480
bee	-11481
cup	-11482
lad	-11483
ois	-11484
pay	-11485
run	-11486
sea	-11487
sor	-11488
vil	-11489
weg	-11490
you	-11491
zer	-11492
▁43	-11493
▁Od	-11494
▁PI	-11495
▁UN	-11496
▁Vi	-11497
▁ic	-11498
Good	-11499
amas	-11500
bian	-11501
core	-11502
heel	-11503
iasm	-11504
inch	-11505
mate	-11506
otal	-11507
rays	-11508
soon	-11509
uten	-11510
zler	-11511
▁Arm	-11512
▁Ask	-11513
▁Beh	-11514
▁Bot	-11515
▁McC	-11516
▁Ooh	-11517
▁Pet	-11518
▁Sad	-11519
▁Ted	-11520
▁ape	-11521
▁gor	-11522
▁jan	-11523
▁sty	-11524
ached	-11525
akota	-11526
bling	-11527
ffiti	-11528
fight	-11529
ivals	-11530
pling	-11531
rovir	-11532
width	-11533
▁Cuba	-11534
▁Food	-11535
▁Fred	-11536
▁Lama	-11537
▁Lind	-11538
▁Matt	-11539
▁Post	-11540
▁Slow	-11541
▁Wood	-11542
▁bore	-11543
▁crab	-11544
▁duty	-11545
▁eBay	-11546
▁extr	-11547
▁lane	-11548
▁pose	-11549
▁pron	-11550
▁tide	-11551
▁tips	-11552
▁trap	-11553
▁twin	-11554
▁ware	-11555
ankind	-11556
inding	-11557
lethal	-11558
ndered	-11559
opardy	-11560
rition	-11561
▁Large	-11562
▁Prime	-11563
▁Royal	-11564
▁Start	-11565
▁alleg	-11566
▁bonds	-11567
▁codes	-11568
▁fuzzy	-11569
▁hatch	-11570
▁incar	-11571
▁midst	-11572
▁morph	-11573
▁newly	-11574
▁paths	-11575
▁piles	-11576
▁pumps	-11577
▁repet	-11578
▁sells	-11579
▁toast	-11580
▁towel	-11581
▁tuned	-11582
▁wives	-11583
Because	-11584
develop	-11585
fulness	-11586
iscover	-11587
▁15,000	-11588
▁Cancer	-11589
▁Golden	-11590
▁Greeks	-11591
▁Humans	-11592
▁Julian	-11593
▁Kosovo	-11594
▁Norweg	-11595
▁Philip	-11596
▁admire	-11597
▁angels	-11598
▁benign	-11599
▁copper	-11600
▁cousin	-11601
▁earned	-11602
▁heroin	-11603
▁hooked	-11604
▁imagin	-11605
▁insult	-11606
▁laying	-11607
▁marked	-11608
▁mutual	-11609
▁reserv	-11610
▁scroll	-11611
▁snakes	-11612
▁tribal	-11613
▁update	-11614
▁violin	-11615
▁wished	-11616
velength	-11617
▁Defense	-11618
▁Looking	-11619
▁Teszler	-11620
▁affairs	-11621
▁ashamed	-11622
▁browser	-11623
▁checked	-11624
▁chemist	-11625
▁commons	-11626
▁copying	-11627
▁devoted	-11628
▁dispers	-11629
▁easiest	-11630
▁enthusi	-11631
▁expense	-11632
▁explode	-11633
▁frontal	-11634
▁gardens	-11635
▁leopard	-11636
▁linking	-11637
▁mammoth	-11638
▁minimal	-11639
▁museums	-11640
▁nucleus	-11641
▁octopus	-11642
▁pathway	-11643
▁reveals	-11644
▁rhythms	-11645
▁sadness	-11646
▁squared	-11647
▁viewing	-11648
▁vitamin	-11649
▁warfare	-11650
sociation	-11651
▁admitted	-11652
▁baseline	-11653
▁commonly	-11654
▁composed	-11655
▁confined	-11656
▁gigantic	-11657
▁infrared	-11658
▁juvenile	-11659
▁misunder	-11660
▁operates	-11661
▁outbreak	-11662
▁planting	-11663
▁pressing	-11664
▁siblings	-11665
▁singular	-11666
▁stealing	-11667
▁temporal	-11668
▁galleries	-11669
▁impressed	-11670
▁institute	-11671
▁nightmare	-11672
▁sequenced	-11673
▁stimulate	-11674
▁strengths	-11675
▁struggled	-11676
▁variables	-11677
▁worldview	-11678
engineering	-11679
▁Eventually	-11680
▁accurately	-11681
▁attributes	-11682
▁enthusiasm	-11683
▁generosity	-11684
▁grassroots	-11685
▁presenting	-11686
▁quantities	-11687
▁recognizes	-11688
▁repeatedly	-11689
▁smartphone	-11690
▁staggering	-11691
▁statements	-11692
▁dysfunction	-11693
▁equilibrium	-11694
▁frustrating	-11695
▁storyteller	-11696
▁transmitted	-11697
▁biologically	-11698
▁deliberately	-11699
▁disappearing	-11700
▁individually	-11701
▁refrigerator	-11702
▁reproduction	-11703
▁consideration	-11704
▁personalities	-11705
▁characteristic	-11706
.]	-11707
Ar	-11708
IA	-11709
sm	-11710
▁:	-11711
11,	-11712
ECD	-11713
Not	-11714
hed	-11715
una	-11716
▁38	-11717
▁52	-11718
▁AT	-11719
▁CC	-11720
▁Cy	-11721
▁Ec	-11722
▁Ig	-11723
▁PR	-11724
▁TB	-11725
amie	-11726
ctar	-11727
egas	-11728
enez	-11729
flow	-11730
inea	-11731
intu	-11732
ocks	-11733
orph	-11734
plet	-11735
pons	-11736
roup	-11737
them	-11738
zone	-11739
▁140	-11740
▁185	-11741
▁Ara	-11742
▁Bor	-11743
▁Bud	-11744
▁Hon	-11745
▁LHC	-11746
▁SMS	-11747
▁Ult	-11748
▁Win	-11749
▁lou	-11750
,000.	-11751
achel	-11752
aurus	-11753
berty	-11754
cture	-11755
cycle	-11756
ocity	-11757
shine	-11758
story	-11759
▁2005	-11760
▁CEOs	-11761
▁Cost	-11762
▁Data	-11763
▁Edin	-11764
▁Expl	-11765
▁Gall	-11766
▁Jill	-11767
▁Main	-11768
▁OECD	-11769
▁Pent	-11770
▁Pers	-11771
▁Peru	-11772
▁Phys	-11773
▁Real	-11774
▁Serv	-11775
▁Wait	-11776
▁cram	-11777
▁deci	-11778
▁dome	-11779
▁fame	-11780
▁inqu	-11781
▁menu	-11782
▁perf	-11783
▁seam	-11784
angelo	-11785
ertips	-11786
irling	-11787
lights	-11788
rontal	-11789
second	-11790
▁Clear	-11791
▁Dalai	-11792
▁Diego	-11793
▁Lagos	-11794
▁Leone	-11795
▁Lewis	-11796
▁Nepal	-11797
▁Roman	-11798
▁Using	-11799
▁Venez	-11800
▁adequ	-11801
▁alike	-11802
▁arena	-11803
▁arise	-11804
▁bonus	-11805
▁crank	-11806
▁cried	-11807
▁folds	-11808
▁hairs	-11809
▁limbs	-11810
▁occas	-11811
anguage	-11812
inistry	-11813
version	-11814
▁Nathan	-11815
▁Thirty	-11816
▁biases	-11817
▁bloody	-11818
▁cement	-11819
▁cookie	-11820
▁dancer	-11821
▁ethics	-11822
▁facult	-11823
▁humble	-11824
▁nectar	-11825
▁tricky	-11826
▁250,000	-11827
▁Babbage	-11828
▁Babylon	-11829
▁Natasha	-11830
▁Philipp	-11831
▁Swedish	-11832
▁basking	-11833
▁chaotic	-11834
▁confirm	-11835
▁contest	-11836
▁cracked	-11837
▁crushed	-11838
▁deficit	-11839
▁divorce	-11840
▁ethanol	-11841
▁examine	-11842
▁jewelry	-11843
▁masters	-11844
▁mastery	-11845
▁morally	-11846
▁needles	-11847
▁newborn	-11848
▁notions	-11849
▁reclaim	-11850
▁rockets	-11851
▁shadows	-11852
▁slowing	-11853
▁subsequ	-11854
▁tickets	-11855
▁Brothers	-11856
▁Michigan	-11857
▁Ministry	-11858
▁Mountain	-11859
▁Venezuel	-11860
▁acoustic	-11861
▁advertis	-11862
▁cerebral	-11863
▁diamonds	-11864
▁doubling	-11865
▁dreaming	-11866
▁equipped	-11867
▁evaluate	-11868
▁hypothes	-11869
▁miracles	-11870
▁operated	-11871
▁operator	-11872
▁primates	-11873
▁producer	-11874
▁prospect	-11875
▁sections	-11876
▁suburban	-11877
▁Argentina	-11878
▁Democrats	-11879
▁Edinburgh	-11880
▁Secretary	-11881
▁apologize	-11882
▁arbitrary	-11883
▁champions	-11884
▁consensus	-11885
▁discussed	-11886
▁displaced	-11887
▁distorted	-11888
▁geometric	-11889
▁illnesses	-11890
▁intervene	-11891
▁marijuana	-11892
▁practiced	-11893
▁projected	-11894
▁recovered	-11895
▁releasing	-11896
▁successes	-11897
▁acceptable	-11898
▁adaptation	-11899
▁anesthesia	-11900
▁convincing	-11901
▁diagnostic	-11902
▁disgusting	-11903
▁imperative	-11904
▁meditation	-11905
▁multiverse	-11906
▁prefrontal	-11907
▁procedures	-11908
▁regenerate	-11909
▁standpoint	-11910
▁wavelength	-11911
▁widespread	-11912
▁astronomers	-11913
▁complaining	-11914
▁controversy	-11915
▁countryside	-11916
▁dragonflies	-11917
▁expectation	-11918
▁questioning	-11919
▁remembering	-11920
▁stimulation	-11921
▁willingness	-11922
▁Michelangelo	-11923
▁consistently	-11924
▁intersection	-11925
▁nevertheless	-11926
▁independently	-11927
▁undergraduate	-11928
An	-11929
NG	-11930
SE	-11931
awa	-11932
but	-11933
jan	-11934
jud	-11935
lan	-11936
lla	-11937
omp	-11938
yan	-11939
▁SB	-11940
▁Wr	-11941
acre	-11942
axis	-11943
bird	-11944
cium	-11945
copy	-11946
ench	-11947
eton	-11948
iath	-11949
isan	-11950
neum	-11951
oved	-11952
oven	-11953
phia	-11954
rine	-11955
spec	-11956
ummy	-11957
uper	-11958
▁16,	-11959
▁50,	-11960
▁Cla	-11961
▁Ide	-11962
▁Kle	-11963
▁Mot	-11964
▁Muh	-11965
▁NGO	-11966
▁NSA	-11967
▁Pur	-11968
▁Sup	-11969
▁Tit	-11970
▁Zip	-11971
▁fis	-11972
▁mit	-11973
▁plu	-11974
arial	-11975
asant	-11976
avors	-11977
chill	-11978
erers	-11979
essim	-11980
frame	-11981
gered	-11982
lical	-11983
munic	-11984
sight	-11985
third	-11986
ucked	-11987
▁Wars	-11988
▁buzz	-11989
▁cort	-11990
▁dorm	-11991
▁esca	-11992
▁larv	-11993
▁leak	-11994
▁moms	-11995
▁mund	-11996
▁orth	-11997
▁skip	-11998
▁slum	-11999
▁symb	-12000
▁unin	-12001
atical	-12002
enment	-12003
ibbean	-12004
irable	-12005
istant	-12006
orship	-12007
putnik	-12008
ustice	-12009
▁2001,	-12010
▁2008.	-12011
▁2010.	-12012
▁Fifty	-12013
▁Later	-12014
▁Pitts	-12015
▁Princ	-12016
▁Quite	-12017
▁Radio	-12018
▁Stand	-12019
▁Tesla	-12020
▁Tower	-12021
▁arous	-12022
▁beast	-12023
▁boson	-12024
▁deter	-12025
▁doses	-12026
▁gifts	-12027
▁halls	-12028
▁jokes	-12029
▁oblig	-12030
▁physi	-12031
▁spike	-12032
▁steer	-12033
▁swing	-12034
▁tenth	-12035
acities	-12036
genesis	-12037
inators	-12038
▁Apollo	-12039
▁Bosnia	-12040
▁Johnny	-12041
▁Jordan	-12042
▁Mathem	-12043
▁Nicole	-12044
▁Others	-12045
▁Public	-12046
▁Rights	-12047
▁Wilson	-12048
▁Wonder	-12049
▁asthma	-12050
▁avatar	-12051
▁coined	-12052
▁depths	-12053
▁differ	-12054
▁expose	-12055
▁fights	-12056
▁gallon	-12057
▁incons	-12058
▁intend	-12059
▁judges	-12060
▁pessim	-12061
▁pilots	-12062
▁prohib	-12063
▁purely	-12064
▁reader	-12065
▁retina	-12066
▁spends	-12067
▁sticky	-12068
▁urgent	-12069
▁voters	-12070
adelphia	-12071
assembly	-12072
building	-12073
ceptable	-12074
specific	-12075
▁Clearly	-12076
▁Finland	-12077
▁bankers	-12078
▁blocked	-12079
▁captain	-12080
▁careers	-12081
▁desires	-12082
▁donated	-12083
▁knocked	-12084
▁multipl	-12085
▁persons	-12086
▁posters	-12087
▁prisons	-12088
▁puberty	-12089
▁recruit	-12090
▁regrets	-12091
▁reinfor	-12092
▁scanned	-12093
▁secular	-12094
▁shipped	-12095
▁skilled	-12096
▁summary	-12097
▁victory	-12098
▁whisper	-12099
▁winners	-12100
▁worship	-12101
expensive	-12102
▁Buddhist	-12103
▁TEDsters	-12104
▁abnormal	-12105
▁adaptive	-12106
▁appropri	-12107
▁assuming	-12108
▁athletes	-12109
▁balanced	-12110
▁champion	-12111
▁colorful	-12112
▁contents	-12113
▁daylight	-12114
▁exploded	-12115
▁graffiti	-12116
▁headline	-12117
▁marathon	-12118
▁marginal	-12119
▁mustache	-12120
▁passport	-12121
▁persuade	-12122
▁presents	-12123
▁rainfall	-12124
▁register	-12125
▁releases	-12126
▁sacrific	-12127
▁secondly	-12128
▁superher	-12129
▁superior	-12130
▁supports	-12131
▁visitors	-12132
generation	-12133
▁Caribbean	-12134
▁Princeton	-12135
▁aggregate	-12136
▁certainty	-12137
▁exclusive	-12138
▁filmmaker	-12139
▁graduates	-12140
▁humankind	-12141
▁improvise	-12142
▁inclusive	-12143
▁inflation	-12144
▁launching	-12145
▁libraries	-12146
▁limestone	-12147
▁pregnancy	-12148
▁similarly	-12149
▁Parliament	-12150
▁attraction	-12151
▁basketball	-12152
▁brainstorm	-12153
▁conscience	-12154
▁globalized	-12155
▁harvesting	-12156
▁parameters	-12157
▁temptation	-12158
▁catastrophe	-12159
▁celebrating	-12160
▁conferences	-12161
▁flexibility	-12162
▁introducing	-12163
▁maintaining	-12164
▁wonderfully	-12165
▁Philadelphia	-12166
▁constitution	-12167
▁manufacturers	-12168
▁revolutionary	-12169
Af	-12170
BA	-12171
To	-12172
600	-12173
SPR	-12174
cav	-12175
fig	-12176
flu	-12177
oft	-12178
ria	-12179
▁98	-12180
▁AD	-12181
▁DM	-12182
▁Mu	-12183
▁Sn	-12184
acks	-12185
acle	-12186
atus	-12187
aven	-12188
bone	-12189
cuse	-12190
educ	-12191
eman	-12192
fund	-12193
gage	-12194
inas	-12195
iner	-12196
obic	-12197
ocke	-12198
ousy	-12199
rove	-12200
shah	-12201
uled	-12202
umor	-12203
wall	-12204
▁1.3	-12205
▁125	-12206
▁160	-12207
▁180	-12208
▁187	-12209
▁CRI	-12210
▁Dig	-12211
▁EDI	-12212
▁Est	-12213
▁Lee	-12214
▁Len	-12215
▁Map	-12216
▁Nav	-12217
▁Pra	-12218
▁Rog	-12219
▁cod	-12220
▁dug	-12221
▁fee	-12222
▁heh	-12223
▁hij	-12224
▁hob	-12225
▁mum	-12226
adequ	-12227
amous	-12228
backs	-12229
ensed	-12230
ilage	-12231
imony	-12232
metic	-12233
phing	-12234
vania	-12235
venue	-12236
wheel	-12237
▁100,	-12238
▁2007	-12239
▁2010	-12240
▁Alph	-12241
▁Cars	-12242
▁Cult	-12243
▁Doug	-12244
▁Down	-12245
▁Jobs	-12246
▁Luck	-12247
▁Pass	-12248
▁Sher	-12249
▁Vill	-12250
▁fans	-12251
▁grim	-12252
▁nail	-12253
▁obsc	-12254
▁pity	-12255
▁plum	-12256
▁rept	-12257
▁stir	-12258
advant	-12259
inates	-12260
levant	-12261
ogenic	-12262
rowing	-12263
▁2000.	-12264
▁7,000	-12265
▁Carne	-12266
▁Death	-12267
▁Keith	-12268
▁Libya	-12269
▁Rover	-12270
▁Solar	-12271
▁Ushah	-12272
▁Vegas	-12273
▁absor	-12274
▁arose	-12275
▁backs	-12276
▁blend	-12277
▁chore	-12278
▁dates	-12279
▁drift	-12280
▁eager	-12281
▁elbow	-12282
▁firms	-12283
▁hurts	-12284
▁irres	-12285
▁lasts	-12286
▁moder	-12287
▁peaks	-12288
▁pneum	-12289
▁resid	-12290
▁sands	-12291
▁scope	-12292
▁shuff	-12293
▁sucks	-12294
▁swamp	-12295
▁wells	-12296
▁wreck	-12297
iratory	-12298
itorium	-12299
▁Bhutan	-12300
▁CRISPR	-12301
▁Colomb	-12302
▁Desert	-12303
▁Invest	-12304
▁Lester	-12305
▁Warren	-12306
▁agrees	-12307
▁banana	-12308
▁bitter	-12309
▁bucket	-12310
▁bypass	-12311
▁condom	-12312
▁crocod	-12313
▁defeat	-12314
▁elders	-12315
▁entity	-12316
▁fierce	-12317
▁firmly	-12318
▁fixing	-12319
▁hollow	-12320
▁improb	-12321
▁interd	-12322
▁ladder	-12323
▁larvae	-12324
▁lasted	-12325
▁listed	-12326
▁louder	-12327
▁scaled	-12328
▁scarce	-12329
▁slowed	-12330
▁spouse	-12331
▁sulfur	-12332
▁towers	-12333
▁truths	-12334
▁typing	-12335
▁undert	-12336
appiness	-12337
vascular	-12338
▁Connect	-12339
▁Georgia	-12340
▁Namibia	-12341
▁abandon	-12342
▁anatomy	-12343
▁calcium	-12344
▁cousins	-12345
▁crystal	-12346
▁fossils	-12347
▁harmful	-12348
▁inadequ	-12349
▁legally	-12350
▁literal	-12351
▁monsoon	-12352
▁monster	-12353
▁mundane	-12354
▁posture	-12355
▁reduces	-12356
▁refined	-12357
▁reperto	-12358
▁reviews	-12359
▁sailing	-12360
▁settled	-12361
▁singers	-12362
▁spheres	-12363
▁surplus	-12364
▁symptom	-12365
▁torture	-12366
▁tracked	-12367
condition	-12368
ropolitan	-12369
▁Cambodia	-12370
▁Recently	-12371
▁advocate	-12372
▁blocking	-12373
▁calendar	-12374
▁certific	-12375
▁civilian	-12376
▁cleaning	-12377
▁climbers	-12378
▁commands	-12379
▁declared	-12380
▁enabling	-12381
▁envelope	-12382
▁executed	-12383
▁flourish	-12384
▁happiest	-12385
▁impaired	-12386
▁imprison	-12387
▁inviting	-12388
▁midnight	-12389
▁missions	-12390
▁modified	-12391
▁observer	-12392
▁optimize	-12393
▁pursuing	-12394
▁receiver	-12395
▁shouting	-12396
▁workshop	-12397
▁Architect	-12398
▁Education	-12399
▁accepting	-12400
▁addressed	-12401
▁afterward	-12402
▁assembled	-12403
▁bandwidth	-12404
▁cartilage	-12405
▁cathedral	-12406
▁cigarette	-12407
▁conductor	-12408
▁confusion	-12409
▁delighted	-12410
▁disadvant	-12411
▁gratitude	-12412
▁mythology	-12413
▁relevance	-12414
▁resonance	-12415
▁supercond	-12416
▁varieties	-12417
▁Democratic	-12418
▁Republican	-12419
▁comparable	-12420
▁culturally	-12421
▁friendship	-12422
▁pesticides	-12423
▁programmer	-12424
▁randomness	-12425
▁reasonably	-12426
▁suspicious	-12427
▁unemployed	-12428
▁vegetation	-12429
▁Association	-12430
▁accountable	-12431
▁battlefield	-12432
▁circulation	-12433
▁conclusions	-12434
▁destructive	-12435
▁eradication	-12436
▁inexpensive	-12437
▁problematic	-12438
▁requirement	-12439
▁spontaneous	-12440
▁acceleration	-12441
▁encyclopedia	-12442
▁contradiction	-12443
▁environmentally	-12444
Me	-12445
mn	-12446
800	-12447
ARS	-12448
Cor	-12449
cko	-12450
fts	-12451
iza	-12452
mia	-12453
pit	-12454
syl	-12455
uci	-12456
▁86	-12457
▁IP	-12458
▁Py	-12459
▁SA	-12460
▁SO	-12461
▁ov	-12462
amil	-12463
arks	-12464
asso	-12465
bled	-12466
dest	-12467
eron	-12468
imed	-12469
isha	-12470
lies	-12471
onto	-12472
stan	-12473
verb	-12474
▁12.	-12475
▁40-	-12476
▁900	-12477
▁Fal	-12478
▁Mem	-12479
▁Oft	-12480
▁Rub	-12481
▁Scr	-12482
▁Seb	-12483
▁Tai	-12484
▁Toy	-12485
▁agn	-12486
▁bol	-12487
▁eco	-12488
▁lem	-12489
▁los	-12490
▁reh	-12491
▁sap	-12492
ammad	-12493
apses	-12494
integ	-12495
kings	-12496
ocamp	-12497
opoly	-12498
osion	-12499
otive	-12500
shore	-12501
stick	-12502
ymmet	-12503
▁2006	-12504
▁Germ	-12505
▁Home	-12506
▁Mind	-12507
▁MoMA	-12508
▁Poll	-12509
▁Shir	-12510
▁Work	-12511
▁adul	-12512
▁bent	-12513
▁budd	-12514
▁gaze	-12515
▁germ	-12516
▁keen	-12517
▁lith	-12518
▁lobe	-12519
▁padd	-12520
▁pops	-12521
▁snap	-12522
achers	-12523
bercul	-12524
health	-12525
▁Beeth	-12526
▁Exact	-12527
▁Kyoto	-12528
▁Matth	-12529
▁Music	-12530
▁Simon	-12531
▁arter	-12532
▁blade	-12533
▁booth	-12534
▁chalk	-12535
▁crust	-12536
▁desal	-12537
▁excer	-12538
▁fairy	-12539
▁glory	-12540
▁incon	-12541
▁incub	-12542
▁inert	-12543
▁insur	-12544
▁moist	-12545
▁myths	-12546
▁noble	-12547
▁orang	-12548
▁radar	-12549
▁recip	-12550
▁riots	-12551
▁rolls	-12552
▁ruins	-12553
▁skies	-12554
▁snaps	-12555
▁spawn	-12556
▁spine	-12557
▁templ	-12558
▁tread	-12559
▁wrink	-12560
eliness	-12561
sterdam	-12562
▁Either	-12563
▁Evergl	-12564
▁Person	-12565
▁balcon	-12566
▁biased	-12567
▁bounce	-12568
▁cooler	-12569
▁digits	-12570
▁divine	-12571
▁freeze	-12572
▁harass	-12573
▁heroic	-12574
▁hotter	-12575
▁issued	-12576
▁labels	-12577
▁learns	-12578
▁radius	-12579
▁slaves	-12580
▁sought	-12581
▁strand	-12582
▁strang	-12583
▁taller	-12584
▁tastes	-12585
▁thirds	-12586
▁titles	-12587
▁treaty	-12588
▁triple	-12589
▁underp	-12590
cellular	-12591
friendly	-12592
osterone	-12593
sylvania	-12594
▁300,000	-12595
▁Climate	-12596
▁Francis	-12597
▁Freedom	-12598
▁Liberia	-12599
▁Supreme	-12600
▁Toronto	-12601
▁Usually	-12602
▁addicts	-12603
▁anytime	-12604
▁aquatic	-12605
▁broadly	-12606
▁catalog	-12607
▁dragged	-12608
▁episode	-12609
▁equator	-12610
▁erectus	-12611
▁forcing	-12612
▁funeral	-12613
▁heights	-12614
▁laundry	-12615
▁migrate	-12616
▁millise	-12617
▁needing	-12618
▁painter	-12619
▁placebo	-12620
▁portray	-12621
▁quietly	-12622
▁satisfy	-12623
▁utility	-12624
▁volumes	-12625
▁wonders	-12626
▁Carnegie	-12627
▁Franklin	-12628
▁Muhammad	-12629
▁Russians	-12630
▁Scotland	-12631
▁Ushahidi	-12632
▁annoying	-12633
▁applause	-12634
▁backpack	-12635
▁blogging	-12636
▁diagnose	-12637
▁drilling	-12638
▁duration	-12639
▁emergent	-12640
▁fighters	-12641
▁glaciers	-12642
▁indirect	-12643
▁reactors	-12644
▁redefine	-12645
▁referred	-12646
▁sessions	-12647
▁shortcut	-12648
▁stumbled	-12649
▁unstable	-12650
▁velocity	-12651
▁visceral	-12652
berculosis	-12653
▁Beethoven	-12654
▁Darwinian	-12655
▁Egyptians	-12656
▁Interview	-12657
▁Palestine	-12658
▁affection	-12659
▁assistant	-12660
▁automatic	-12661
▁campaigns	-12662
▁cellphone	-12663
▁corridors	-12664
▁declining	-12665
▁educators	-12666
▁injustice	-12667
▁instances	-12668
▁intrinsic	-12669
▁kilograms	-12670
▁mysteries	-12671
▁nurturing	-12672
▁parasites	-12673
▁pervasive	-12674
▁promising	-12675
▁schooling	-12676
▁simulated	-12677
▁submitted	-12678
▁synthesis	-12679
▁vibrating	-12680
▁Pittsburgh	-12681
▁accounting	-12682
▁assessment	-12683
▁coordinate	-12684
▁geographic	-12685
▁identities	-12686
▁infinitely	-12687
▁influences	-12688
▁nonviolent	-12689
▁pollutants	-12690
▁repertoire	-12691
▁unintended	-12692
▁accompanied	-12693
▁appreciated	-12694
▁aspirations	-12695
▁coincidence	-12696
▁commodities	-12697
▁corporation	-12698
▁existential	-12699
▁meaningless	-12700
▁negotiation	-12701
▁specialists	-12702
▁Pennsylvania	-12703
▁demographics	-12704
▁disconnected	-12705
▁incidentally	-12706
▁interconnect	-12707
▁quantitative	-12708
▁testosterone	-12709
▁unacceptable	-12710
▁comprehensive	-12711
▁statistically	-12712
▁cybercriminals	-12713
▁mathematically	-12714
.7	-12715
EA	-12716
Hi	-12717
Je	-12718
On	-12719
Pe	-12720
400	-12721
PTC	-12722
cam	-12723
eur	-12724
fur	-12725
gue	-12726
oub	-12727
pot	-12728
raz	-12729
rug	-12730
ulu	-12731
▁34	-12732
▁4:	-12733
▁FG	-12734
▁Fa	-12735
▁Ju	-12736
▁TM	-12737
agin	-12738
arer	-12739
ause	-12740
brow	-12741
cult	-12742
etts	-12743
imic	-12744
itis	-12745
mala	-12746
mble	-12747
olar	-12748
omic	-12749
rett	-12750
ruce	-12751
text	-12752
urbs	-12753
ylan	-12754
▁13,	-12755
▁Abu	-12756
▁BMW	-12757
▁Bul	-12758
▁Gam	-12759
▁Got	-12760
▁Kam	-12761
▁Las	-12762
▁Reg	-12763
▁Sel	-12764
▁Sty	-12765
▁Ter	-12766
▁Too	-12767
▁geo	-12768
▁hug	-12769
▁nud	-12770
▁pup	-12771
▁ups	-12772
▁wax	-12773
Great	-12774
These	-12775
achus	-12776
amboo	-12777
bands	-12778
borne	-12779
built	-12780
erend	-12781
gebra	-12782
ibles	-12783
icism	-12784
tends	-12785
▁Alan	-12786
▁Dave	-12787
▁Dean	-12788
▁Dian	-12789
▁Didn	-12790
▁Peps	-12791
▁Rose	-12792
▁Rule	-12793
▁Wild	-12794
▁argu	-12795
▁bulk	-12796
▁cafe	-12797
▁cues	-12798
▁grip	-12799
▁lure	-12800
▁sket	-12801
▁sums	-12802
▁taxi	-12803
▁tect	-12804
▁tink	-12805
Listen	-12806
airobi	-12807
carbon	-12808
cripts	-12809
energy	-12810
engers	-12811
erness	-12812
esteem	-12813
etical	-12814
ignant	-12815
inator	-12816
ortune	-12817
resses	-12818
▁1990,	-12819
▁2012,	-12820
▁Alpha	-12821
▁Const	-12822
▁Doesn	-12823
▁Dylan	-12824
▁Freud	-12825
▁Going	-12826
▁Guate	-12827
▁Jerry	-12828
▁Skype	-12829
▁Techn	-12830
▁awake	-12831
▁bumps	-12832
▁centr	-12833
▁chunk	-12834
▁dealt	-12835
▁dwell	-12836
▁epile	-12837
▁grabs	-12838
▁guilt	-12839
▁hobby	-12840
▁kilos	-12841
▁locom	-12842
▁neutr	-12843
▁oppon	-12844
▁unequ	-12845
▁unity	-12846
balance	-12847
fashion	-12848
rations	-12849
ulators	-12850
▁Agency	-12851
▁Copern	-12852
▁Darfur	-12853
▁Edward	-12854
▁Eighty	-12855
▁Samuel	-12856
▁Taiwan	-12857
▁Venice	-12858
▁arrows	-12859
▁bamboo	-12860
▁camels	-12861
▁census	-12862
▁coding	-12863
▁compat	-12864
▁enters	-12865
▁finite	-12866
▁forbid	-12867
▁hammer	-12868
▁joyful	-12869
▁loaded	-12870
▁misery	-12871
▁mosque	-12872
▁nuclei	-12873
▁potato	-12874
▁poured	-12875
▁resort	-12876
▁routes	-12877
▁shield	-12878
▁singer	-12879
▁slogan	-12880
▁tender	-12881
▁theirs	-12882
▁underw	-12883
▁valued	-12884
▁voyage	-12885
▁writes	-12886
attering	-12887
breaking	-12888
conflict	-12889
ictional	-12890
▁Austria	-12891
▁Exactly	-12892
▁Goliath	-12893
▁Luckily	-12894
▁Nairobi	-12895
▁Siberia	-12896
▁Somalia	-12897
▁Wolfram	-12898
▁anxious	-12899
▁barrels	-12900
▁beaches	-12901
▁bluefin	-12902
▁cleaned	-12903
▁curator	-12904
▁epiphan	-12905
▁gaining	-12906
▁humming	-12907
▁hunters	-12908
▁justify	-12909
▁manages	-12910
▁margins	-12911
▁outdoor	-12912
▁prevail	-12913
▁recycle	-12914
▁ringing	-12915
▁shuttle	-12916
▁sounded	-12917
▁unified	-12918
▁volcano	-12919
achusetts	-12920
nutrition	-12921
▁Building	-12922
▁Movement	-12923
▁composer	-12924
▁delicate	-12925
▁embraced	-12926
▁founding	-12927
▁horrific	-12928
▁incarcer	-12929
▁insisted	-12930
▁meanings	-12931
▁noticing	-12932
▁obtained	-12933
▁potatoes	-12934
▁resolved	-12935
▁sensible	-12936
▁settings	-12937
▁sketches	-12938
▁societal	-12939
▁strictly	-12940
▁symphony	-12941
▁volcanic	-12942
▁weekends	-12943
▁Amsterdam	-12944
▁Certainly	-12945
▁Hopefully	-12946
▁Venezuela	-12947
▁ambiguity	-12948
▁decentral	-12949
▁demanding	-12950
▁directors	-12951
▁donations	-12952
▁eradicate	-12953
▁executive	-12954
▁exquisite	-12955
▁hamburger	-12956
▁hippocamp	-12957
▁implanted	-12958
▁inconsist	-12959
▁instincts	-12960
▁intersect	-12961
▁marvelous	-12962
▁neocortex	-12963
▁paralysis	-12964
▁routinely	-12965
▁scenarios	-12966
▁selective	-12967
▁sovereign	-12968
▁streaming	-12969
▁stressful	-12970
▁surprises	-12971
▁survivors	-12972
▁wandering	-12973
▁Compassion	-12974
▁altogether	-12975
▁animations	-12976
▁antibodies	-12977
▁appliances	-12978
▁attachment	-12979
▁auditorium	-12980
▁beginnings	-12981
▁cigarettes	-12982
▁compressed	-12983
▁explicitly	-12984
▁guaranteed	-12985
▁indication	-12986
▁innovators	-12987
▁irrigation	-12988
▁protective	-12989
▁registered	-12990
▁satisfying	-12991
▁specialist	-12992
▁Interviewer	-12993
▁accelerated	-12994
▁association	-12995
▁citizenship	-12996
▁competitors	-12997
▁continually	-12998
▁fundraising	-12999
▁ideological	-13000
▁initiatives	-13001
▁negotiating	-13002
▁operational	-13003
▁preventable	-13004
▁reinventing	-13005
▁surroundings	-13006
▁tremendously	-13007
▁tuberculosis	-13008
▁urbanization	-13009
▁Massachusetts	-13010
▁appropriately	-13011
▁breakthroughs	-13012
▁developmental	-13013
▁photographers	-13014
▁unpredictable	-13015
▁organizational	-13016
99	-13017
Am	-13018
dy	-13019
ISD	-13020
aba	-13021
boy	-13022
dog	-13023
een	-13024
ffe	-13025
isa	-13026
nie	-13027
obo	-13028
ogy	-13029
▁53	-13030
▁74	-13031
▁AO	-13032
▁BL	-13033
▁HG	-13034
▁KA	-13035
▁Mi	-13036
▁RL	-13037
▁RO	-13038
▁SJ	-13039
▁ST	-13040
▁TR	-13041
▁ze	-13042
Mart	-13043
acon	-13044
alin	-13045
bons	-13046
ects	-13047
fill	-13048
hops	-13049
know	-13050
onal	-13051
rics	-13052
rust	-13053
▁18,	-13054
▁18-	-13055
▁360	-13056
▁Bat	-13057
▁Cir	-13058
▁Cub	-13059
▁Cup	-13060
▁Fil	-13061
▁Hop	-13062
▁Lev	-13063
▁Nev	-13064
▁Ott	-13065
▁Pic	-13066
▁Rec	-13067
▁Rel	-13068
▁Syd	-13069
▁aph	-13070
▁dar	-13071
▁fer	-13072
▁haz	-13073
▁jur	-13074
▁quo	-13075
▁soy	-13076
▁tid	-13077
allas	-13078
atics	-13079
cular	-13080
idity	-13081
ieval	-13082
irmed	-13083
leans	-13084
meter	-13085
ucose	-13086
wired	-13087
▁AIMS	-13088
▁Beck	-13089
▁Cass	-13090
▁Fall	-13091
▁Fire	-13092
▁Full	-13093
▁Gord	-13094
▁Harr	-13095
▁Pier	-13096
▁RISD	-13097
▁Type	-13098
▁UCLA	-13099
▁amph	-13100
▁axes	-13101
▁blob	-13102
▁bron	-13103
▁cass	-13104
▁deny	-13105
▁ease	-13106
▁exit	-13107
▁gosh	-13108
▁iPad	-13109
▁indo	-13110
▁moth	-13111
▁pets	-13112
▁pond	-13113
▁scra	-13114
▁slam	-13115
▁tilt	-13116
▁wage	-13117
▁writ	-13118
anting	-13119
astery	-13120
astian	-13121
giving	-13122
imicry	-13123
linear	-13124
ocaust	-13125
ranean	-13126
reatic	-13127
rogram	-13128
strong	-13129
verbal	-13130
weeney	-13131
▁Allen	-13132
▁DARPA	-13133
▁Field	-13134
▁Labor	-13135
▁Linux	-13136
▁Often	-13137
▁Susan	-13138
▁amino	-13139
▁amput	-13140
▁arrog	-13141
▁bands	-13142
▁bikes	-13143
▁blows	-13144
▁compr	-13145
▁flown	-13146
▁handy	-13147
▁icons	-13148
▁lakes	-13149
▁merit	-13150
▁ozone	-13151
▁patri	-13152
▁penis	-13153
▁petro	-13154
▁pools	-13155
▁poses	-13156
▁races	-13157
▁rooft	-13158
▁royal	-13159
▁traff	-13160
▁tweet	-13161
▁vapor	-13162
▁verge	-13163
▁votes	-13164
appropr	-13165
assador	-13166
ometers	-13167
rasound	-13168
writing	-13169
▁Commun	-13170
▁Cooper	-13171
▁Easter	-13172
▁Garden	-13173
▁Incred	-13174
▁Jersey	-13175
▁Kibera	-13176
▁Poland	-13177
▁Wouldn	-13178
▁acquis	-13179
▁archae	-13180
▁bookst	-13181
▁collar	-13182
▁hotels	-13183
▁indoor	-13184
▁legend	-13185
▁melody	-13186
▁obsess	-13187
▁orgasm	-13188
▁overse	-13189
▁poorly	-13190
▁prejud	-13191
▁prizes	-13192
▁quotes	-13193
▁reflex	-13194
▁reluct	-13195
▁salmon	-13196
▁shares	-13197
▁shells	-13198
▁spades	-13199
▁stocks	-13200
▁tennis	-13201
▁thrive	-13202
▁throws	-13203
▁thumbs	-13204
▁toxins	-13205
▁turbul	-13206
▁verbal	-13207
Jeopardy	-13208
aterials	-13209
ensitive	-13210
ithmetic	-13211
lessness	-13212
security	-13213
▁400,000	-13214
▁Already	-13215
▁Believe	-13216
▁Germans	-13217
▁Hawking	-13218
▁Hundred	-13219
▁Orleans	-13220
▁Perfect	-13221
▁Sputnik	-13222
▁Windows	-13223
▁algebra	-13224
▁beloved	-13225
▁boiling	-13226
▁cabinet	-13227
▁compact	-13228
▁compens	-13229
▁council	-13230
▁crowded	-13231
▁defines	-13232
▁deserts	-13233
▁diamond	-13234
▁editing	-13235
▁excerpt	-13236
▁gallons	-13237
▁glucose	-13238
▁hallway	-13239
▁heavens	-13240
▁inspect	-13241
▁mentors	-13242
▁partial	-13243
▁ranging	-13244
▁rehears	-13245
▁scripts	-13246
▁seafood	-13247
▁seasons	-13248
▁suburbs	-13249
▁tropics	-13250
▁veterin	-13251
▁wasting	-13252
intuitive	-13253
organized	-13254
wandering	-13255
▁Medicine	-13256
▁Students	-13257
▁approval	-13258
▁assigned	-13259
▁balloons	-13260
▁constitu	-13261
▁crashing	-13262
▁crawling	-13263
▁crystall	-13264
▁degraded	-13265
▁donation	-13266
▁employed	-13267
▁entitled	-13268
▁interrog	-13269
▁juggling	-13270
▁notebook	-13271
▁officers	-13272
▁pinpoint	-13273
▁portable	-13274
▁schedule	-13275
▁survivor	-13276
▁synapses	-13277
▁threaten	-13278
▁Guatemala	-13279
▁Mountains	-13280
▁Norwegian	-13281
▁academics	-13282
▁appearing	-13283
▁certified	-13284
▁charities	-13285
▁checklist	-13286
▁cognition	-13287
▁criticism	-13288
▁educating	-13289
▁epidemics	-13290
▁explorers	-13291
▁histories	-13292
▁imaginary	-13293
▁injection	-13294
▁intrigued	-13295
▁metaphors	-13296
▁ministers	-13297
▁pediatric	-13298
▁preferred	-13299
▁qualified	-13300
▁satisfied	-13301
▁swallowed	-13302
▁triangles	-13303
▁triggered	-13304
▁waterfall	-13305
▁Especially	-13306
▁Everglades	-13307
▁aesthetics	-13308
▁censorship	-13309
▁courageous	-13310
▁distribute	-13311
▁executives	-13312
▁homosexual	-13313
▁humanities	-13314
▁inadequate	-13315
▁intangible	-13316
▁irrelevant	-13317
▁photosynth	-13318
▁restricted	-13319
▁worthwhile	-13320
▁Information	-13321
▁automobiles	-13322
▁departments	-13323
▁efficiently	-13324
▁illustrates	-13325
▁inefficient	-13326
▁instability	-13327
▁mammography	-13328
▁projections	-13329
▁prototyping	-13330
▁suggestions	-13331
▁threatening	-13332
▁astronomical	-13333
▁combinations	-13334
▁developments	-13335
▁illustration	-13336
▁malnutrition	-13337
▁manufacturer	-13338
▁neurogenesis	-13339
▁reproductive	-13340
▁unemployment	-13341
▁biotechnology	-13342
▁experimenting	-13343
▁improvisation	-13344
▁manifestation	-13345
▁traditionally	-13346
▁discrimination	-13347
▁industrialized	-13348
▁nanotechnology	-13349
▁bioluminescence	-13350
Cl	-13351
HO	-13352
IP	-13353
NN	-13354
wa	-13355
zo	-13356
adp	-13357
aic	-13358
dad	-13359
dle	-13360
lem	-13361
obe	-13362
obi	-13363
ols	-13364
oul	-13365
rer	-13366
rip	-13367
sex	-13368
sis	-13369
tic	-13370
▁3,	-13371
▁57	-13372
▁AR	-13373
▁AS	-13374
▁BC	-13375
▁FO	-13376
▁NO	-13377
▁PH	-13378
▁Si	-13379
▁uh	-13380
abad	-13381
ells	-13382
eram	-13383
hill	-13384
ickr	-13385
iflu	-13386
mail	-13387
omer	-13388
phal	-13389
stal	-13390
stop	-13391
urge	-13392
▁14,	-13393
▁17,	-13394
▁25,	-13395
▁Ark	-13396
▁Cat	-13397
▁Ell	-13398
▁Emb	-13399
▁End	-13400
▁Fem	-13401
▁Han	-13402
▁Hit	-13403
▁Ill	-13404
▁Isa	-13405
▁Kar	-13406
▁Max	-13407
▁Oak	-13408
▁Sho	-13409
▁Tah	-13410
▁bot	-13411
▁cav	-13412
▁cue	-13413
▁dub	-13414
▁gym	-13415
▁mol	-13416
▁ove	-13417
▁piv	-13418
▁vib	-13419
▁vig	-13420
Corps	-13421
acent	-13422
ambia	-13423
ashes	-13424
bucks	-13425
etary	-13426
garet	-13427
green	-13428
ibati	-13429
ipper	-13430
izona	-13431
olith	-13432
regon	-13433
▁1800	-13434
▁200-	-13435
▁2001	-13436
▁Hold	-13437
▁Katr	-13438
▁Lady	-13439
▁Lots	-13440
▁Mama	-13441
▁Nine	-13442
▁Palm	-13443
▁True	-13444
▁Virt	-13445
▁Yale	-13446
▁buck	-13447
▁bunk	-13448
▁buys	-13449
▁cann	-13450
▁cher	-13451
▁doct	-13452
▁feas	-13453
▁flop	-13454
▁gira	-13455
▁guid	-13456
▁hats	-13457
▁mism	-13458
▁mite	-13459
▁nick	-13460
▁numb	-13461
▁owns	-13462
▁peel	-13463
▁plun	-13464
▁plut	-13465
▁prag	-13466
▁ramp	-13467
▁rhet	-13468
▁skys	-13469
▁swap	-13470
▁sync	-13471
▁tadp	-13472
▁unne	-13473
▁veil	-13474
abytes	-13475
asking	-13476
consum	-13477
ermaid	-13478
esters	-13479
igrade	-13480
itical	-13481
ocated	-13482
ospher	-13483
ostics	-13484
worthy	-13485
▁Agnes	-13486
▁Bruce	-13487
▁Build	-13488
▁Emily	-13489
▁Intel	-13490
▁Julia	-13491
▁Kelly	-13492
▁Moses	-13493
▁Pepsi	-13494
▁Point	-13495
▁Short	-13496
▁Vinci	-13497
▁appar	-13498
▁armor	-13499
▁chord	-13500
▁clich	-13501
▁cubic	-13502
▁dunes	-13503
▁fatty	-13504
▁goats	-13505
▁grief	-13506
▁homin	-13507
▁lined	-13508
▁loops	-13509
▁parap	-13510
▁pries	-13511
▁rides	-13512
▁sadly	-13513
▁scare	-13514
▁strat	-13515
▁swear	-13516
▁trait	-13517
▁tutor	-13518
▁wages	-13519
atively	-13520
centric	-13521
growing	-13522
keeping	-13523
massive	-13524
quarium	-13525
▁Achill	-13526
▁Energy	-13527
▁Engine	-13528
▁Inside	-13529
▁Marcus	-13530
▁Marine	-13531
▁Murray	-13532
▁Oregon	-13533
▁Reagan	-13534
▁Sydney	-13535
▁Unlike	-13536
▁Zipcar	-13537
▁antide	-13538
▁carcin	-13539
▁cooked	-13540
▁denied	-13541
▁dining	-13542
▁drinks	-13543
▁enzyme	-13544
▁hacker	-13545
▁ideals	-13546
▁impose	-13547
▁inputs	-13548
▁lenses	-13549
▁pirate	-13550
▁popped	-13551
▁praise	-13552
▁priest	-13553
▁rooted	-13554
▁sealed	-13555
▁smiles	-13556
▁stated	-13557
▁statue	-13558
▁stereo	-13559
▁stockp	-13560
▁stunts	-13561
▁thrust	-13562
▁timber	-13563
▁transf	-13564
▁united	-13565
▁varied	-13566
▁waking	-13567
▁wallet	-13568
▁wander	-13569
▁wolves	-13570
positive	-13571
▁Arizona	-13572
▁Justice	-13573
▁Snowden	-13574
▁Tamiflu	-13575
▁Tunisia	-13576
▁athlete	-13577
▁erosion	-13578
▁evident	-13579
▁exhilar	-13580
▁expands	-13581
▁faculty	-13582
▁favelas	-13583
▁focuses	-13584
▁holiday	-13585
▁indoors	-13586
▁inmates	-13587
▁kidneys	-13588
▁lesbian	-13589
▁mustard	-13590
▁nurture	-13591
▁optimal	-13592
▁overlap	-13593
▁placing	-13594
▁relaxed	-13595
▁replied	-13596
▁retired	-13597
▁romance	-13598
▁sapiens	-13599
▁shallow	-13600
▁shaping	-13601
▁sterile	-13602
▁thirdly	-13603
▁thunder	-13604
▁tourist	-13605
▁untouch	-13606
▁withdra	-13607
efficient	-13608
ependence	-13609
fashioned	-13610
ographing	-13611
▁Guardian	-13612
▁Kiribati	-13613
▁Language	-13614
▁Learning	-13615
▁Margaret	-13616
▁absorbed	-13617
▁addicted	-13618
▁adjacent	-13619
▁auditory	-13620
▁contexts	-13621
▁creators	-13622
▁currents	-13623
▁develops	-13624
▁distress	-13625
▁drowning	-13626
▁guidance	-13627
▁liberals	-13628
▁maximize	-13629
▁migraine	-13630
▁minimize	-13631
▁occupied	-13632
▁prevents	-13633
▁requests	-13634
▁respects	-13635
▁stewards	-13636
▁stimulus	-13637
▁unnecess	-13638
▁uploaded	-13639
organizing	-13640
▁Himalayas	-13641
▁Otherwise	-13642
▁Starbucks	-13643
▁cockroach	-13644
▁confusing	-13645
▁contracts	-13646
▁cultivate	-13647
▁databases	-13648
▁detectors	-13649
▁execution	-13650
▁exhausted	-13651
▁fictional	-13652
▁honeybees	-13653
▁imperfect	-13654
▁northeast	-13655
▁orphanage	-13656
▁packaging	-13657
▁pneumonia	-13658
▁slaughter	-13659
▁Australian	-13660
▁Depression	-13661
▁Government	-13662
▁Scientists	-13663
▁StoryCorps	-13664
▁advantages	-13665
▁complained	-13666
▁conspiracy	-13667
▁contagious	-13668
▁excellence	-13669
▁expressing	-13670
▁foreground	-13671
▁incomplete	-13672
▁limitation	-13673
▁pancreatic	-13674
▁prioritize	-13675
▁reflecting	-13676
▁antidepress	-13677
▁arrangement	-13678
▁convenience	-13679
▁counterpart	-13680
▁financially	-13681
▁hippocampus	-13682
▁medications	-13683
▁publication	-13684
▁respiratory	-13685
▁scholarship	-13686
▁stereotypes	-13687
▁achievements	-13688
▁fluctuations	-13689
▁hypothetical	-13690
▁interviewing	-13691
▁negotiations	-13692
▁similarities	-13693
▁conservatives	-13694
▁intrinsically	-13695
▁investigating	-13696
▁bioluminescent	-13697
-'	-13698
ER	-13699
fi	-13700
fu	-13701
ni	-13702
Get	-13703
Spe	-13704
bec	-13705
bot	-13706
bro	-13707
deg	-13708
gel	-13709
ocr	-13710
ods	-13711
oug	-13712
▁1:	-13713
▁3:	-13714
▁47	-13715
▁Aw	-13716
▁IT	-13717
▁JC	-13718
▁Ku	-13719
▁MP	-13720
▁SR	-13721
▁UV	-13722
▁Ur	-13723
▁VC	-13724
▁Ze	-13725
▁ly	-13726
arin	-13727
assy	-13728
avil	-13729
coal	-13730
feed	-13731
hall	-13732
hran	-13733
ikes	-13734
ingo	-13735
iper	-13736
mart	-13737
plex	-13738
your	-13739
▁14-	-13740
▁188	-13741
▁189	-13742
▁99.	-13743
▁Aur	-13744
▁Bah	-13745
▁Cro	-13746
▁ELA	-13747
▁Fox	-13748
▁Heb	-13749
▁Hud	-13750
▁IMF	-13751
▁LOL	-13752
▁Lyn	-13753
▁Nik	-13754
▁Ric	-13755
▁Tro	-13756
▁Use	-13757
▁Vis	-13758
▁Wel	-13759
▁bru	-13760
▁hay	-13761
▁hoo	-13762
▁huh	-13763
▁lam	-13764
▁onc	-13765
▁ray	-13766
▁upl	-13767
▁wig	-13768
Hello	-13769
azine	-13770
fting	-13771
geria	-13772
great	-13773
iages	-13774
ifted	-13775
otent	-13776
pical	-13777
shirt	-13778
style	-13779
uding	-13780
▁Cart	-13781
▁Dead	-13782
▁Deep	-13783
▁Fair	-13784
▁Fast	-13785
▁Hard	-13786
▁Help	-13787
▁Jean	-13788
▁Left	-13789
▁Mald	-13790
▁Read	-13791
▁Rena	-13792
▁Stat	-13793
▁auto	-13794
▁coch	-13795
▁dodo	-13796
▁ecst	-13797
▁envy	-13798
▁heel	-13799
▁jury	-13800
▁lazy	-13801
▁lett	-13802
▁lied	-13803
▁rear	-13804
▁reli	-13805
▁ruin	-13806
▁seiz	-13807
▁watt	-13808
ateral	-13809
change	-13810
charge	-13811
ellers	-13812
estion	-13813
izable	-13814
ologic	-13815
ougher	-13816
puters	-13817
secure	-13818
uclear	-13819
ussani	-13820
▁1995,	-13821
▁1997,	-13822
▁2002,	-13823
▁2050,	-13824
▁Costa	-13825
▁Cross	-13826
▁Forty	-13827
▁Paulo	-13828
▁Psych	-13829
▁Stock	-13830
▁Truth	-13831
▁Wired	-13832
▁ambul	-13833
▁angel	-13834
▁banjo	-13835
▁crawl	-13836
▁flick	-13837
▁gecko	-13838
▁geeks	-13839
▁geese	-13840
▁germs	-13841
▁humil	-13842
▁innoc	-13843
▁jeans	-13844
▁livel	-13845
▁merch	-13846
▁nests	-13847
▁ninth	-13848
▁overd	-13849
▁reads	-13850
▁relie	-13851
▁sanct	-13852
▁tails	-13853
▁tales	-13854
▁trunk	-13855
▁urine	-13856
agement	-13857
discipl	-13858
ignific	-13859
markets	-13860
product	-13861
▁Barack	-13862
▁Doctor	-13863
▁Flickr	-13864
▁Guinea	-13865
▁Hitler	-13866
▁Hubble	-13867
▁Modern	-13868
▁Ninety	-13869
▁Norman	-13870
▁Senate	-13871
▁Simple	-13872
▁abused	-13873
▁brakes	-13874
▁cardio	-13875
▁carrot	-13876
▁clicks	-13877
▁costly	-13878
▁decomp	-13879
▁dumped	-13880
▁edited	-13881
▁elites	-13882
▁expend	-13883
▁feared	-13884
▁invade	-13885
▁microw	-13886
▁parked	-13887
▁poorer	-13888
▁puppet	-13889
▁racial	-13890
▁sewage	-13891
▁spills	-13892
▁syring	-13893
▁unexpl	-13894
▁vastly	-13895
▁weekly	-13896
▁wiring	-13897
▁wounds	-13898
ospheric	-13899
violence	-13900
▁Command	-13901
▁Company	-13902
▁Katrina	-13903
▁Lesters	-13904
▁Mediter	-13905
▁Network	-13906
▁Somehow	-13907
▁Station	-13908
▁Village	-13909
▁abusive	-13910
▁battles	-13911
▁categor	-13912
▁charter	-13913
▁crashed	-13914
▁disagre	-13915
▁exhaust	-13916
▁founder	-13917
▁fractal	-13918
▁invaded	-13919
▁learner	-13920
▁lithium	-13921
▁mineral	-13922
▁miracul	-13923
▁payload	-13924
▁regimes	-13925
▁rightly	-13926
▁seroton	-13927
▁strains	-13928
▁vicious	-13929
▁virtues	-13930
▁worries	-13931
astically	-13932
resistant	-13933
▁Anything	-13934
▁Giussani	-13935
▁Moreover	-13936
▁Pentagon	-13937
▁Scottish	-13938
▁Williams	-13939
▁agnostic	-13940
▁backward	-13941
▁clapping	-13942
▁coherent	-13943
▁contacts	-13944
▁depended	-13945
▁emphasis	-13946
▁employee	-13947
▁estrogen	-13948
▁flooding	-13949
▁foraging	-13950
▁grounded	-13951
▁ignorant	-13952
▁improves	-13953
▁insecure	-13954
▁invasive	-13955
▁literary	-13956
▁matching	-13957
▁meantime	-13958
▁offshore	-13959
▁periodic	-13960
▁policing	-13961
▁pristine	-13962
▁quantity	-13963
▁reacting	-13964
▁realizes	-13965
▁reporter	-13966
▁richness	-13967
▁rotating	-13968
▁smartest	-13969
▁steering	-13970
▁sympathy	-13971
▁underway	-13972
▁unimagin	-13973
industrial	-13974
performing	-13975
▁Sebastian	-13976
▁appealing	-13977
▁attempted	-13978
▁attribute	-13979
▁combining	-13980
▁developer	-13981
▁firsthand	-13982
▁followers	-13983
▁historian	-13984
▁ingenuity	-13985
▁inherited	-13986
▁interfere	-13987
▁marriages	-13988
▁meanwhile	-13989
▁personnel	-13990
▁prevalent	-13991
▁promotion	-13992
▁recruited	-13993
▁strangely	-13994
▁whistling	-13995
▁Conference	-13996
▁Throughout	-13997
▁aspiration	-13998
▁beekeepers	-13999
▁calculator	-14000
▁capacities	-14001
▁caregivers	-14002
▁cartoonist	-14003
▁centimeter	-14004
▁depressing	-14005
▁developers	-14006
▁eliminated	-14007
▁encryption	-14008
▁fingertips	-14009
▁footprints	-14010
▁loneliness	-14011
▁motorcycle	-14012
▁outrageous	-14013
▁telephones	-14014
▁translates	-14015
▁Renaissance	-14016
▁adolescents	-14017
▁backgrounds	-14018
▁commercials	-14019
▁constrained	-14020
▁immortality	-14021
▁implication	-14022
▁methodology	-14023
▁permanently	-14024
▁variability	-14025
▁acknowledged	-14026
▁availability	-14027
▁collaborator	-14028
▁conditioning	-14029
▁descriptions	-14030
▁neurological	-14031
▁Mediterranean	-14032
▁contributions	-14033
▁corresponding	-14034
▁presentations	-14035
▁unsustainable	-14036
▁cardiovascular	-14037
▁desertification	-14038
▁internationally	-14039
▁neuroscientists	-14040
Of	-14041
gi	-14042
Pro	-14043
abb	-14044
abs	-14045
agu	-14046
hel	-14047
kel	-14048
oko	-14049
rus	-14050
uns	-14051
▁54	-14052
▁58	-14053
▁AV	-14054
▁BR	-14055
▁DD	-14056
▁DJ	-14057
▁Hu	-14058
▁RG	-14059
▁Uk	-14060
▁ft	-14061
Give	-14062
Just	-14063
Star	-14064
Your	-14065
anor	-14066
bags	-14067
cils	-14068
fits	-14069
gath	-14070
hole	-14071
home	-14072
ieth	-14073
itra	-14074
kill	-14075
last	-14076
obos	-14077
olia	-14078
opol	-14079
opsy	-14080
oura	-14081
rans	-14082
shot	-14083
tent	-14084
type	-14085
uate	-14086
weet	-14087
with	-14088
▁11.	-14089
▁110	-14090
▁15.	-14091
▁Adm	-14092
▁Bow	-14093
▁CIA	-14094
▁CNN	-14095
▁Dur	-14096
▁Ess	-14097
▁Hem	-14098
▁Hur	-14099
▁Sri	-14100
▁Wil	-14101
▁ais	-14102
▁blo	-14103
▁gru	-14104
▁kin	-14105
▁mun	-14106
▁sha	-14107
▁umb	-14108
Afric	-14109
acted	-14110
annel	-14111
arity	-14112
artic	-14113
brain	-14114
cards	-14115
igate	-14116
ihood	-14117
named	-14118
ocate	-14119
oshop	-14120
pable	-14121
ravel	-14122
▁2009	-14123
▁Ages	-14124
▁Aust	-14125
▁Best	-14126
▁Bond	-14127
▁Capt	-14128
▁Case	-14129
▁Chim	-14130
▁Club	-14131
▁Coch	-14132
▁Emma	-14133
▁Geor	-14134
▁Ivan	-14135
▁Joel	-14136
▁Kind	-14137
▁LEDs	-14138
▁Marx	-14139
▁Much	-14140
▁Pope	-14141
▁SARS	-14142
▁Sony	-14143
▁Soon	-14144
▁Text	-14145
▁Town	-14146
▁Whit	-14147
▁Yves	-14148
▁anom	-14149
▁bass	-14150
▁boil	-14151
▁brow	-14152
▁cane	-14153
▁clap	-14154
▁coma	-14155
▁dash	-14156
▁deer	-14157
▁encl	-14158
▁fuse	-14159
▁goss	-14160
▁hect	-14161
▁hood	-14162
▁horn	-14163
▁lent	-14164
▁mama	-14165
▁mash	-14166
▁swar	-14167
▁unve	-14168
▁whip	-14169
▁wipe	-14170
People	-14171
agraph	-14172
atized	-14173
belief	-14174
degree	-14175
govern	-14176
growth	-14177
icular	-14178
irming	-14179
people	-14180
razine	-14181
social	-14182
ulsive	-14183
▁1,100	-14184
▁Among	-14185
▁Barry	-14186
▁Cuban	-14187
▁Given	-14188
▁Glass	-14189
▁Hindu	-14190
▁Jacqu	-14191
▁Laure	-14192
▁Roger	-14193
▁Sadly	-14194
▁Sever	-14195
▁appet	-14196
▁biote	-14197
▁bites	-14198
▁ceram	-14199
▁claws	-14200
▁erase	-14201
▁exams	-14202
▁fonts	-14203
▁forum	-14204
▁gangs	-14205
▁gyrus	-14206
▁hunch	-14207
▁idiot	-14208
▁impat	-14209
▁kings	-14210
▁laure	-14211
▁lemon	-14212
▁mites	-14213
▁obliv	-14214
▁overt	-14215
▁oxide	-14216
▁perse	-14217
▁poets	-14218
▁ruled	-14219
▁smugg	-14220
▁sober	-14221
▁souls	-14222
▁spear	-14223
▁spong	-14224
▁stagn	-14225
▁stain	-14226
▁steak	-14227
▁sting	-14228
▁sunny	-14229
▁therm	-14230
▁tunas	-14231
▁unple	-14232
▁valve	-14233
▁vents	-14234
amation	-14235
amiliar	-14236
banisha	-14237
cellent	-14238
healthy	-14239
ocative	-14240
osaurus	-14241
sharing	-14242
▁Behind	-14243
▁Cities	-14244
▁Dallas	-14245
▁Falcon	-14246
▁Forest	-14247
▁Hadron	-14248
▁Hudson	-14249
▁Kenyan	-14250
▁Lakota	-14251
▁Tehran	-14252
▁artery	-14253
▁bronze	-14254
▁cliffs	-14255
▁condem	-14256
▁county	-14257
▁crafts	-14258
▁curved	-14259
▁dissem	-14260
▁fiscal	-14261
▁floods	-14262
▁gifted	-14263
▁intest	-14264
▁libert	-14265
▁novels	-14266
▁oyster	-14267
▁phthal	-14268
▁polite	-14269
▁primal	-14270
▁prosec	-14271
▁redund	-14272
▁refers	-14273
▁regain	-14274
▁retain	-14275
▁retrie	-14276
▁retros	-14277
▁suburb	-14278
▁sucked	-14279
▁traded	-14280
▁twenty	-14281
activity	-14282
ceptible	-14283
othermal	-14284
sourcing	-14285
▁500,000	-14286
▁Between	-14287
▁Caltech	-14288
▁Cassini	-14289
▁Digital	-14290
▁Program	-14291
▁accused	-14292
▁apprent	-14293
▁assault	-14294
▁breasts	-14295
▁cafeter	-14296
▁crosses	-14297
▁curtain	-14298
▁derived	-14299
▁excuses	-14300
▁fishery	-14301
▁flipped	-14302
▁lasting	-14303
▁modular	-14304
▁novelty	-14305
▁outward	-14306
▁perpetr	-14307
▁plotted	-14308
▁reconst	-14309
▁spirits	-14310
▁strokes	-14311
▁trailer	-14312
▁unthink	-14313
▁upwards	-14314
▁wounded	-14315
▁Collider	-14316
▁Colorado	-14317
▁Intellig	-14318
▁Iranians	-14319
▁Lawrence	-14320
▁Magazine	-14321
▁Movember	-14322
▁amateurs	-14323
▁ancestry	-14324
▁animated	-14325
▁arranged	-14326
▁atrazine	-14327
▁avoiding	-14328
▁behaving	-14329
▁bleeding	-14330
▁catalyst	-14331
▁charcoal	-14332
▁clicking	-14333
▁dictator	-14334
▁elevated	-14335
▁epiphany	-14336
▁fairness	-14337
▁frequent	-14338
▁glorious	-14339
▁highways	-14340
▁husbands	-14341
▁implicit	-14342
▁lifelong	-14343
▁medieval	-14344
▁mismatch	-14345
▁murdered	-14346
▁mutually	-14347
▁notation	-14348
▁overseas	-14349
▁paradise	-14350
▁province	-14351
▁reminder	-14352
▁resemble	-14353
▁resulted	-14354
▁rigorous	-14355
▁scalable	-14356
▁shortage	-14357
▁starving	-14358
▁sweeping	-14359
▁switches	-14360
▁terminal	-14361
▁tortured	-14362
▁troubled	-14363
▁trusting	-14364
▁Companies	-14365
▁Excellent	-14366
▁Victorian	-14367
▁aerodynam	-14368
▁augmented	-14369
▁balancing	-14370
▁billboard	-14371
▁circuitry	-14372
▁committee	-14373
▁enjoyable	-14374
▁extracted	-14375
▁fertility	-14376
▁generator	-14377
▁immensely	-14378
▁inventors	-14379
▁messaging	-14380
▁partially	-14381
▁penetrate	-14382
▁periphery	-14383
▁reconnect	-14384
▁rectangle	-14385
▁remembers	-14386
▁revealing	-14387
▁serotonin	-14388
▁shrinking	-14389
▁spaceship	-14390
▁stabilize	-14391
▁stretched	-14392
▁submarine	-14393
▁supernova	-14394
▁switching	-14395
▁thylacine	-14396
appropriate	-14397
munications	-14398
▁Commission	-14399
▁Panbanisha	-14400
▁Vietnamese	-14401
▁accidental	-14402
▁arithmetic	-14403
▁automotive	-14404
▁conducting	-14405
▁containers	-14406
▁criticized	-14407
▁deliberate	-14408
▁downstairs	-14409
▁eradicated	-14410
▁fulfilling	-14411
▁liberation	-14412
▁livelihood	-14413
▁manuscript	-14414
▁overweight	-14415
▁perceptual	-14416
▁performers	-14417
▁persistent	-14418
▁references	-14419
▁settlement	-14420
▁simplistic	-14421
▁starvation	-14422
▁thoroughly	-14423
▁unpleasant	-14424
▁wastewater	-14425
▁anticipated	-14426
▁certificate	-14427
▁distinctive	-14428
▁eliminating	-14429
▁exceptional	-14430
▁fingerprint	-14431
▁incorporate	-14432
▁inhabitants	-14433
▁integrating	-14434
▁involvement	-14435
▁measurement	-14436
▁progressive	-14437
▁transferred	-14438
▁transistors	-14439
▁visualizing	-14440
▁announcement	-14441
▁commissioned	-14442
▁desalination	-14443
▁exploitation	-14444
▁preservation	-14445
▁restrictions	-14446
▁standardized	-14447
▁decentralized	-14448
▁determination	-14449
▁differentiate	-14450
▁establishment	-14451
▁substantially	-14452
▁supercomputer	-14453
▁underestimate	-14454
▁neuroscientist	-14455
Bl	-14456
IN	-14457
RN	-14458
cc	-14459
ju	-14460
sa	-14461
eor	-14462
erk	-14463
iro	-14464
iry	-14465
nob	-14466
pen	-14467
rah	-14468
sim	-14469
vet	-14470
▁64	-14471
▁73	-14472
▁BP	-14473
▁ES	-14474
▁Ga	-14475
▁JL	-14476
▁eg	-14477
▁hi	-14478
acci	-14479
arse	-14480
arts	-14481
atma	-14482
bear	-14483
bell	-14484
cile	-14485
cuss	-14486
elve	-14487
iary	-14488
ileo	-14489
lean	-14490
mies	-14491
nels	-14492
otto	-14493
race	-14494
rand	-14495
real	-14496
rosh	-14497
that	-14498
uced	-14499
wire	-14500
ymph	-14501
▁186	-14502
▁2.5	-14503
▁Cre	-14504
▁Dam	-14505
▁Dec	-14506
▁Fib	-14507
▁Fly	-14508
▁IDE	-14509
▁Imp	-14510
▁Kep	-14511
▁McK	-14512
▁Pap	-14513
▁RNG	-14514
▁Rus	-14515
▁Sol	-14516
▁dye	-14517
▁inh	-14518
▁rud	-14519
▁sug	-14520
▁unm	-14521
▁woo	-14522
PTCHA	-14523
agina	-14524
akery	-14525
annah	-14526
icken	-14527
igers	-14528
imore	-14529
ladus	-14530
lived	-14531
ochem	-14532
ogene	-14533
owned	-14534
ppers	-14535
stood	-14536
▁Andy	-14537
▁Barb	-14538
▁Beat	-14539
▁CERN	-14540
▁Duke	-14541
▁Ence	-14542
▁Gaza	-14543
▁Holy	-14544
▁Lang	-14545
▁Lank	-14546
▁Near	-14547
▁Nich	-14548
▁Odys	-14549
▁Poor	-14550
▁Save	-14551
▁Self	-14552
▁Tenn	-14553
▁Word	-14554
▁aged	-14555
▁apoc	-14556
▁atro	-14557
▁dude	-14558
▁fees	-14559
▁flap	-14560
▁fled	-14561
▁hind	-14562
▁hive	-14563
▁hull	-14564
▁lava	-14565
▁mang	-14566
▁pies	-14567
▁pist	-14568
▁rage	-14569
▁rhin	-14570
▁ripp	-14571
▁rode	-14572
▁rust	-14573
▁spra	-14574
▁todd	-14575
▁utop	-14576
▁warn	-14577
agging	-14578
alling	-14579
funded	-14580
houses	-14581
icides	-14582
itutes	-14583
omfort	-14584
oscope	-14585
oulder	-14586
places	-14587
saving	-14588
urfing	-14589
▁1,200	-14590
▁1998,	-14591
▁2004.	-14592
▁2020.	-14593
▁Brain	-14594
▁Cairo	-14595
▁Hyper	-14596
▁Irish	-14597
▁Qatar	-14598
▁baker	-14599
▁burns	-14600
▁croch	-14601
▁deriv	-14602
▁essay	-14603
▁fraud	-14604
▁greed	-14605
▁hears	-14606
▁hives	-14607
▁hurry	-14608
▁juris	-14609
▁leaks	-14610
▁milit	-14611
▁nanot	-14612
▁poles	-14613
▁posts	-14614
▁rever	-14615
▁saves	-14616
▁scrap	-14617
▁scuba	-14618
▁skate	-14619
▁soils	-14620
▁stiff	-14621
▁stink	-14622
▁sword	-14623
▁tense	-14624
▁theft	-14625
▁twent	-14626
▁versa	-14627
▁volat	-14628
erendip	-14629
versely	-14630
▁80,000	-14631
▁Avenue	-14632
▁Bulgar	-14633
▁Europa	-14634
▁Forget	-14635
▁Gordon	-14636
▁Ground	-14637
[...]
