<unk>	0
<s>	0
</s>	0
[PAD]	0
[UNK]	0
[CLS]	0
[SEP]	0
[MASK]	0
[BOS]	0
[EOS]	0
[UNK0]	0
[UNK1]	0
[UNK2]	0
[UNK3]	0
[UNK4]	0
[UNK5]	0
[UNK6]	0
[UNK7]	0
[UNK8]	0
[UNK9]	0
[unused0]	0
[unused1]	0
[unused2]	0
[unused3]	0
[unused4]	0
[unused5]	0
[unused6]	0
[unused7]	0
[unused8]	0
[unused9]	0
[unused10]	0
[unused11]	0
[unused12]	0
[unused13]	0
[unused14]	0
[unused15]	0
[unused16]	0
[unused17]	0
[unused18]	0
[unused19]	0
[unused20]	0
[unused21]	0
[unused22]	0
[unused23]	0
[unused24]	0
[unused25]	0
[unused26]	0
[unused27]	0
[unused28]	0
[unused29]	0
[unused30]	0
[unused31]	0
[unused32]	0
[unused33]	0
[unused34]	0
[unused35]	0
[unused36]	0
[unused37]	0
[unused38]	0
[unused39]	0
[unused40]	0
[unused41]	0
[unused42]	0
[unused43]	0
[unused44]	0
[unused45]	0
[unused46]	0
[unused47]	0
[unused48]	0
[unused49]	0
[unused50]	0
[unused51]	0
[unused52]	0
[unused53]	0
[unused54]	0
[unused55]	0
[unused56]	0
[unused57]	0
[unused58]	0
[unused59]	0
[unused60]	0
[unused61]	0
[unused62]	0
[unused63]	0
[unused64]	0
[unused65]	0
[unused66]	0
[unused67]	0
[unused68]	0
[unused69]	0
[unused70]	0
[unused71]	0
[unused72]	0
[unused73]	0
[unused74]	0
[unused75]	0
[unused76]	0
[unused77]	0
[unused78]	0
[unused79]	0
[unused80]	0
[unused81]	0
[unused82]	0
[unused83]	0
[unused84]	0
[unused85]	0
[unused86]	0
[unused87]	0
[unused88]	0
[unused89]	0
[unused90]	0
[unused91]	0
[unused92]	0
[unused93]	0
[unused94]	0
[unused95]	0
[unused96]	0
[unused97]	0
[unused98]	0
[unused99]	0
en	-0
er	-1
ch	-2
▁d	-3
in	-4
ie	-5
▁w	-6
un	-7
▁s	-8
ich	-9
▁e	-10
an	-11
st	-12
as	-13
ei	-14
▁die	-15
▁a	-16
▁un	-17
▁m	-18
▁ein	-19
te	-20
▁S	-21
ge	-22
▁i	-23
on	-24
▁v	-25
ir	-26
▁h	-27
sch	-28
▁z	-29
▁n	-30
ll	-31
▁und	-32
▁das	-33
ar	-34
gen	-35
ten	-36
▁b	-37
es	-38
▁D	-39
hr	-40
▁A	-41
▁W	-42
▁zu	-43
▁k	-44
▁M	-45
▁der	-46
or	-47
at	-48
ein	-49
it	-50
em	-51
▁in	-52
der	-53
▁E	-54
▁wir	-55
au	-56
▁ist	-57
▁au	-58
▁I	-59
icht	-60
de	-61
den	-62
al	-63
ach	-64
ier	-65
lich	-66
▁f	-67
▁G	-68
ben	-69
▁g	-70
ber	-71
▁B	-72
el	-73
▁ich	-74
▁ge	-75
ur	-76
ter	-77
▁U	-78
▁K	-79
▁es	-80
▁F	-81
ung	-82
se	-83
le	-84
▁an	-85
▁er	-86
▁Un	-87
▁P	-88
▁sie	-89
sen	-90
▁den	-91
▁Sie	-92
▁L	-93
ür	-94
mm	-95
ro	-96
▁T	-97
nen	-98
um	-99
ig	-100
ls	-101
▁nicht	-102
▁ver	-103
▁dass	-104
▁von	-105
eit	-106
▁be	-107
re	-108
is	-109
▁eine	-110
▁Und	-111
ck	-112
▁auf	-113
ser	-114
▁H	-115
ann	-116
▁ha	-117
▁so	-118
tz	-119
eh	-120
▁V	-121
▁mit	-122
ion	-123
ind	-124
▁wie	-125
▁R	-126
isch	-127
ra	-128
enn	-129
▁als	-130
▁N	-131
am	-132
▁war	-133
▁sch	-134
▁sich	-135
us	-136
kt	-137
ent	-138
▁l	-139
eu	-140
▁o	-141
▁Ich	-142
▁J	-143
▁Z	-144
▁t	-145
ft	-146
ahr	-147
über	-148
ol	-149
▁sind	-150
ön	-151
be	-152
ehr	-153
▁haben	-154
▁für	-155
lle	-156
▁j	-157
▁hat	-158
ste	-159
▁man	-160
▁aus	-161
ag	-162
▁um	-163
and	-164
iel	-165
il	-166
ik	-167
än	-168
▁St	-169
▁über	-170
ff	-171
▁kön	-172
▁"	-173
eine	-174
▁p	-175
▁Das	-176
▁Die	-177
och	-178
ut	-179
▁wer	-180
▁Es	-181
llen	-182
tw	-183
▁Wir	-184
▁Sch	-185
sten	-186
▁Ge	-187
▁In	-188
om	-189
▁da	-190
hl	-191
eil	-192
▁diese	-193
▁was	-194
▁Er	-195
▁dem	-196
▁im	-197
igen	-198
ern	-199
hen	-200
▁wenn	-201
▁O	-202
▁ihr	-203
bt	-204
sp	-205
▁dies	-206
▁uns	-207
▁einen	-208
rei	-209
omm	-210
▁-	-211
chen	-212
ieren	-213
▁Ver	-214
▁C	-215
ensch	-216
ne	-217
▁können	-218
▁des	-219
▁je	-220
▁unser	-221
▁werden	-222
ien	-223
▁Jahr	-224
wei	-225
iv	-226
▁Pro	-227
▁oder	-228
ehen	-229
rau	-230
ungen	-231
▁vor	-232
zu	-233
ige	-234
▁Ar	-235
▁sein	-236
iert	-237
elt	-238
scha	-239
ation	-240
▁An	-241
rü	-242
▁ander	-243
▁kann	-244
▁aber	-245
▁wo	-246
▁auch	-247
▁einer	-248
▁1	-249
▁Mensch	-250
men	-251
▁einem	-252
▁Aber	-253
gt	-254
anz	-255
▁Be	-256
▁nach	-257
ken	-258
▁mach	-259
▁mein	-260
ort	-261
hnen	-262
uch	-263
▁Ein	-264
▁sehr	-265
▁hier	-266
▁wird	-267
▁etw	-268
▁nur	-269
▁bei	-270
▁all	-271
ischen	-272
▁dar	-273
ht	-274
▁Menschen	-275
os	-276
ibt	-277
ör	-278
aus	-279
fen	-280
▁ent	-281
hn	-282
▁mich	-283
▁–	-284
urch	-285
äch	-286
▁st	-287
▁gibt	-288
issen	-289
▁dann	-290
▁Re	-291
lau	-292
▁also	-293
ot	-294
▁wur	-295
▁le	-296
▁--	-297
▁Le	-298
tzt	-299
ät	-300
ill	-301
hal	-302
▁sp	-303
eute	-304
ab	-305
▁En	-306
og	-307
ru	-308
und	-309
▁noch	-310
▁etwas	-311
ing	-312
bl	-313
schaft	-314
dern	-315
ommen	-316
ick	-317
▁her	-318
rie	-319
▁sehen	-320
▁habe	-321
tet	-322
et	-323
▁wei	-324
ang	-325
▁sa	-326
▁Sp	-327
▁vie	-328
▁dieser	-329
▁Welt	-330
▁Als	-331
▁mir	-332
ul	-333
mmer	-334
bei	-335
▁mehr	-336
▁durch	-337
▁kl	-338
heit	-339
roß	-340
▁sag	-341
ische	-342
ers	-343
op	-344
▁re	-345
mal	-346
lichen	-347
▁gen	-348
keit	-349
all	-350
▁Was	-351
acht	-352
we	-353
00	-354
▁viel	-355
▁Wenn	-356
he	-357
."	-358
ffen	-359
ank	-360
▁Leben	-361
her	-362
▁Au	-363
liche	-364
▁2	-365
▁alle	-366
är	-367
üs	-368
klich	-369
fach	-370
uss	-371
end	-372
amm	-373
cht	-374
▁ganz	-375
▁mö	-376
▁zum	-377
▁wurde	-378
▁Zeit	-379
ri	-380
fü	-381
▁Ihnen	-382
ess	-383
▁unter	-384
▁wür	-385
ze	-386
ähr	-387
rin	-388
bst	-389
▁machen	-390
imm	-391
assen	-392
▁ste	-393
▁groß	-394
▁wirklich	-395
tzen	-396
oll	-397
ech	-398
ass	-399
▁ab	-400
▁zwei	-401
▁Gesch	-402
▁einfach	-403
▁immer	-404
for	-405
▁meine	-406
fl	-407
rück	-408
ungs	-409
▁r	-410
▁weil	-411
wer	-412
▁bes	-413
▁am	-414
inge	-415
ob	-416
▁kon	-417
▁tun	-418
▁Also	-419
bar	-420
chte	-421
ekt	-422
tern	-423
schie	-424
▁fü	-425
ner	-426
art	-427
▁hatte	-428
äu	-429
nte	-430
▁neu	-431
aten	-432
▁dieses	-433
▁bis	-434
ad	-435
▁Ihr	-436
ist	-437
inden	-438
lie	-439
ap	-440
▁müs	-441
iz	-442
▁unsere	-443
ehmen	-444
elbst	-445
che	-446
▁hin	-447
leich	-448
gel	-449
▁keine	-450
per	-451
ück	-452
eiten	-453
▁Leute	-454
▁ihre	-455
▁♫	-456
ger	-457
im	-458
▁wissen	-459
glich	-460
▁Gr	-461
rach	-462
ionen	-463
iger	-464
stell	-465
▁diesem	-466
unkt	-467
▁Art	-468
▁müssen	-469
▁soll	-470
hlen	-471
omp	-472
▁Man	-473
▁Dinge	-474
▁dam	-475
dem	-476
▁sagte	-477
ke	-478
olog	-479
▁sagen	-480
est	-481
ßen	-482
▁waren	-483
pt	-484
▁viele	-485
▁diesen	-486
itte	-487
gend	-488
rä	-489
unden	-490
lt	-491
▁beg	-492
▁Jahren	-493
▁Zu	-494
blem	-495
age	-496
▁weiter	-497
▁Ges	-498
▁lie	-499
ild	-500
▁bin	-501
ats	-502
sam	-503
kommen	-504
ah	-505
zen	-506
▁Kon	-507
du	-508
▁eines	-509
einen	-510
▁jetzt	-511
▁gew	-512
▁andere	-513
▁Or	-514
ammen	-515
ver	-516
▁Kin	-517
▁Vor	-518
▁zei	-519
ster	-520
▁wieder	-521
▁anderen	-522
▁eigen	-523
▁Wie	-524
ität	-525
det	-526
ed	-527
lleicht	-528
angen	-529
▁würde	-530
ichte	-531
ichtig	-532
▁glau	-533
auf	-534
▁Bei	-535
geb	-536
▁alles	-537
nis	-538
▁Problem	-539
pp	-540
▁zur	-541
▁So	-542
▁Aus	-543
▁damit	-544
▁du	-545
▁selbst	-546
ün	-547
sehen	-548
▁nie	-549
▁vers	-550
▁ar	-551
▁Der	-552
eg	-553
zi	-554
▁wen	-555
▁verb	-556
auen	-557
▁Ch	-558
▁geht	-559
eln	-560
yst	-561
▁Mill	-562
▁gem	-563
spiel	-564
under	-565
ant	-566
ast	-567
▁Jahre	-568
änder	-569
ler	-570
ande	-571
tes	-572
▁zurück	-573
ystem	-574
▁ob	-575
halten	-576
off	-577
beit	-578
▁ber	-579
▁Auf	-580
▁ger	-581
▁denn	-582
▁Frau	-583
inn	-584
ale	-585
mer	-586
▁wel	-587
▁muss	-588
ragen	-589
kl	-590
rö	-591
pf	-592
▁gut	-593
ßer	-594
▁zus	-595
▁zw	-596
ächlich	-597
schl	-598
nten	-599
▁schon	-600
▁Um	-601
äre	-602
amen	-603
▁heraus	-604
▁Pl	-605
▁Ne	-606
igkeit	-607
zeu	-608
aar	-609
▁Kinder	-610
von	-611
▁möchte	-612
des	-613
vor	-614
lei	-615
▁verst	-616
zent	-617
rit	-618
stellen	-619
▁ihnen	-620
▁Dies	-621
agen	-622
echn	-623
ell	-624
ierte	-625
ringen	-626
▁vielleicht	-627
ok	-628
fahr	-629
ationen	-630
▁son	-631
▁best	-632
ommt	-633
▁Her	-634
▁Ide	-635
▁Teil	-636
▁pass	-637
atsächlich	-638
ert	-639
ahl	-640
▁letz	-641
me	-642
▁3	-643
▁zusammen	-644
▁drei	-645
▁Nun	-646
▁pro	-647
ran	-648
ug	-649
▁davon	-650
▁Geh	-651
▁dort	-652
▁arbei	-653
ade	-654
▁brau	-655
zie	-656
fe	-657
▁Fl	-658
rechen	-659
hne	-660
uchen	-661
alt	-662
alen	-663
▁Land	-664
halb	-665
▁Dank	-666
▁Hier	-667
▁gleich	-668
▁heute	-669
▁Wissen	-670
▁hatten	-671
atür	-672
▁Techn	-673
▁einige	-674
▁genau	-675
▁inter	-676
▁Geschichte	-677
000	-678
form	-679
ha	-680
kte	-681
cken	-682
▁Bild	-683
▁bet	-684
ater	-685
weise	-686
esen	-687
wo	-688
▁Kl	-689
att	-690
mlich	-691
schen	-692
aut	-693
▁ir	-694
ichten	-695
anden	-696
eld	-697
▁kein	-698
▁könnte	-699
▁Arbeit	-700
zä	-701
aum	-702
▁ihn	-703
▁jem	-704
▁For	-705
ändern	-706
ennen	-707
net	-708
ologie	-709
▁Diese	-710
ielen	-711
atz	-712
rage	-713
▁Bl	-714
▁Gen	-715
▁Nach	-716
▁paar	-717
▁Unter	-718
ine	-719
▁wollen	-720
unde	-721
▁einz	-722
ud	-723
▁woll	-724
war	-725
fr	-726
▁darüber	-727
oren	-728
▁wahr	-729
▁werde	-730
▁gehen	-731
▁nun	-732
qu	-733
▁wurden	-734
▁meiner	-735
reich	-736
irn	-737
▁ben	-738
▁Mit	-739
▁Inter	-740
für	-741
ak	-742
▁tatsächlich	-743
rag	-744
▁Je	-745
hm	-746
▁Wei	-747
tlich	-748
unktion	-749
wick	-750
?"	-751
▁Ber	-752
utzen	-753
schieden	-754
▁verw	-755
▁Beispiel	-756
hren	-757
eich	-758
ache	-759
▁zie	-760
▁sondern	-761
▁grö	-762
▁ange	-763
ährend	-764
gar	-765
hör	-766
▁besser	-767
äd	-768
▁Geb	-769
atur	-770
atürlich	-771
▁weiß	-772
▁seine	-773
▁Ü	-774
fol	-775
ativ	-776
▁Ab	-777
▁Da	-778
▁gab	-779
▁bede	-780
eisten	-781
▁unserer	-782
ander	-783
hin	-784
▁bek	-785
▁Wasser	-786
akt	-787
▁5	-788
▁gu	-789
▁Se	-790
▁wäre	-791
▁dazu	-792
▁neue	-793
änd	-794
ode	-795
▁denke	-796
ult	-797
▁will	-798
▁irgend	-799
▁leben	-800
▁vom	-801
▁Fre	-802
▁Al	-803
schein	-804
br	-805
ite	-806
achen	-807
eite	-808
▁Aut	-809
teil	-810
▁gef	-811
▁19	-812
▁ges	-813
▁denken	-814
▁hät	-815
▁Ste	-816
schei	-817
gie	-818
▁kommen	-819
▁macht	-820
öglich	-821
▁finden	-822
▁denen	-823
▁entwick	-824
▁einmal	-825
▁gemacht	-826
▁sogar	-827
utz	-828
▁lang	-829
▁Wer	-830
ma	-831
▁hei	-832
▁Grund	-833
▁Mon	-834
▁gerade	-835
▁gegen	-836
▁verl	-837
▁Tag	-838
▁glaube	-839
▁erzä	-840
ittel	-841
▁zwischen	-842
▁interess	-843
▁20	-844
▁kommt	-845
▁geben	-846
erson	-847
öff	-848
ften	-849
▁gel	-850
▁Ent	-851
▁funktion	-852
äh	-853
geben	-854
ierung	-855
ingen	-856
ika	-857
keiten	-858
▁Des	-859
▁Im	-860
enden	-861
▁Lebens	-862
▁wichtig	-863
▁Frauen	-864
▁Frage	-865
ange	-866
▁bedeu	-867
olle	-868
▁Mal	-869
▁Mar	-870
od	-871
▁erst	-872
▁Gehirn	-873
▁ex	-874
▁Über	-875
lück	-876
▁näch	-877
gan	-878
hem	-879
▁mus	-880
▁ohne	-881
pl	-882
ay	-883
▁jeder	-884
▁zeigen	-885
▁dafür	-886
rank	-887
rün	-888
▁letzten	-889
fer	-890
▁nichts	-891
▁4	-892
▁Prozent	-893
alten	-894
▁würden	-895
▁sieht	-896
▁passiert	-897
gef	-898
▁verschieden	-899
achte	-900
▁ihren	-901
tschaft	-902
▁ersten	-903
ue	-904
ate	-905
andel	-906
▁konnte	-907
ikan	-908
chten	-909
äl	-910
cher	-911
weg	-912
ss	-913
ce	-914
▁Daten	-915
▁Reg	-916
▁während	-917
▁meisten	-918
▁daran	-919
ys	-920
▁verstehen	-921
gr	-922
immt	-923
nell	-924
aufen	-925
ßt	-926
▁Eine	-927
▁Millionen	-928
▁mal	-929
ischer	-930
▁Ex	-931
▁Ihre	-932
rupp	-933
▁sollte	-934
▁besch	-935
stand	-936
▁erste	-937
▁Hand	-938
▁warum	-939
▁lassen	-940
sicht	-941
▁etwa	-942
gehen	-943
sel	-944
▁Idee	-945
hrt	-946
iele	-947
▁sicher	-948
▁natürlich	-949
ord	-950
ße	-951
▁Med	-952
gew	-953
bs	-954
▁10	-955
▁Ph	-956
jekt	-957
zeit	-958
ivers	-959
ramm	-960
▁sollten	-961
agt	-962
▁Geld	-963
ucht	-964
yp	-965
ogen	-966
stellt	-967
ompu	-968
▁meinen	-969
ign	-970
▁schw	-971
▁mensch	-972
▁Me	-973
ergie	-974
▁wollte	-975
▁Person	-976
iere	-977
▁Schl	-978
licher	-979
.000	-980
erst	-981
▁ganze	-982
▁ja	-983
▁könnten	-984
▁meinem	-985
fte	-986
ide	-987
▁schnell	-988
tro	-989
▁Raum	-990
igt	-991
▁Weg	-992
▁ziemlich	-993
▁Ger	-994
▁komp	-995
▁große	-996
pro	-997
▁geb	-998
▁gesch	-999
llt	-1000
schied	-1001
innen	-1002
▁We	-1003
▁klein	-1004
ia	-1005
ckt	-1006
▁bekommen	-1007
ös	-1008
▁sprechen	-1009
aupt	-1010
▁Inform	-1011
ollar	-1012
▁jemand	-1013
ält	-1014
▁arbeiten	-1015
▁scha	-1016
▁dabei	-1017
▁sagt	-1018
richt	-1019
wir	-1020
als	-1021
ären	-1022
▁ging	-1023
ic	-1024
▁ins	-1025
wie	-1026
äng	-1027
ktiv	-1028
▁ihrer	-1029
▁Wo	-1030
ernen	-1031
ark	-1032
▁War	-1033
▁Ä	-1034
▁kam	-1035
onder	-1036
ts	-1037
▁hör	-1038
▁nehmen	-1039
enz	-1040
örper	-1041
omputer	-1042
▁darauf	-1043
dien	-1044
lung	-1045
olut	-1046
▁System	-1047
kun	-1048
ierten	-1049
utter	-1050
twort	-1051
▁sol	-1052
▁Wissenschaft	-1053
ktur	-1054
▁Univers	-1055
amil	-1056
io	-1057
eist	-1058
▁Ende	-1059
scheinlich	-1060
ele	-1061
laub	-1062
orden	-1063
tt	-1064
rad	-1065
finden	-1066
str	-1067
▁Mann	-1068
reiben	-1069
▁Kre	-1070
▁bereit	-1071
▁Kind	-1072
▁El	-1073
▁Min	-1074
▁doch	-1075
urz	-1076
▁weniger	-1077
▁Dollar	-1078
▁Men	-1079
▁kleinen	-1080
▁Mus	-1081
..	-1082
ane	-1083
adt	-1084
äter	-1085
fühl	-1086
▁Gem	-1087
▁Ö	-1088
olit	-1089
▁Stra	-1090
▁vier	-1091
▁schl	-1092
▁bedeutet	-1093
id	-1094
mus	-1095
fall	-1096
ker	-1097
nah	-1098
asch	-1099
▁Technologie	-1100
▁Sache	-1101
gl	-1102
kunft	-1103
ial	-1104
▁Dann	-1105
▁Entw	-1106
▁unseren	-1107
sst	-1108
▁Bo	-1109
▁dir	-1110
arbei	-1111
▁Q	-1112
ganis	-1113
annt	-1114
▁Denn	-1115
▁welche	-1116
▁Verb	-1117
▁Computer	-1118
".	-1119
▁Mein	-1120
rat	-1121
▁Famil	-1122
▁bringen	-1123
▁Möglich	-1124
usst	-1125
▁Y	-1126
▁Rei	-1127
itz	-1128
ennt	-1129
▁dachte	-1130
▁ung	-1131
▁eigentlich	-1132
▁ihm	-1133
▁Te	-1134
orgen	-1135
▁Lie	-1136
▁gesehen	-1137
▁Energie	-1138
äft	-1139
lo	-1140
▁US	-1141
▁seit	-1142
ruck	-1143
▁kleine	-1144
▁möglich	-1145
▁All	-1146
tete	-1147
nit	-1148
▁„	-1149
ald	-1150
raft	-1151
▁brauchen	-1152
▁Fall	-1153
▁Vers	-1154
ive	-1155
▁Seite	-1156
oment	-1157
ga	-1158
no	-1159
▁wenig	-1160
▁Gew	-1161
▁sei	-1162
uten	-1163
achsen	-1164
fin	-1165
▁großen	-1166
▁jeden	-1167
▁se	-1168
▁get	-1169
ition	-1170
▁Weise	-1171
unter	-1172
▁gest	-1173
iges	-1174
ätz	-1175
▁ganzen	-1176
▁Män	-1177
schw	-1178
▁ausge	-1179
...	-1180
▁Menge	-1181
▁Schu	-1182
our	-1183
▁200	-1184
",	-1185
▁Licht	-1186
▁Kar	-1187
▁keinen	-1188
opf	-1189
raf	-1190
▁en	-1191
legen	-1192
▁versuchen	-1193
halt	-1194
nung	-1195
▁Groß	-1196
▁außer	-1197
▁fin	-1198
icher	-1199
▁Am	-1200
schaften	-1201
hlt	-1202
▁6	-1203
▁hätte	-1204
▁hoch	-1205
▁voll	-1206
wegen	-1207
kten	-1208
▁Tage	-1209
▁Ha	-1210
▁al	-1211
folg	-1212
isten	-1213
▁Woch	-1214
▁gern	-1215
▁fün	-1216
▁Buch	-1217
▁gesagt	-1218
ernt	-1219
alis	-1220
ust	-1221
▁Fil	-1222
ard	-1223
gramm	-1224
stellung	-1225
Ich	-1226
▁Zukunft	-1227
fft	-1228
ultur	-1229
eht	-1230
▁De	-1231
th	-1232
rieben	-1233
▁Ja	-1234
▁glauben	-1235
▁Danke	-1236
▁Grupp	-1237
▁schle	-1238
▁später	-1239
ähn	-1240
▁Ko	-1241
denken	-1242
iss	-1243
achten	-1244
wohl	-1245
leben	-1246
lekt	-1247
iar	-1248
▁vielen	-1249
▁Augen	-1250
▁Spiel	-1251
▁unglaub	-1252
▁Körper	-1253
hol	-1254
lex	-1255
▁verm	-1256
▁Entwick	-1257
ormal	-1258
▁te	-1259
▁gehör	-1260
eilen	-1261
ip	-1262
zeug	-1263
▁Son	-1264
▁Vielen	-1265
essen	-1266
▁Stadt	-1267
aden	-1268
▁stellen	-1269
▁Afr	-1270
▁Den	-1271
▁Ort	-1272
▁lernen	-1273
oten	-1274
▁wunder	-1275
▁eigenen	-1276
▁konnten	-1277
▁beim	-1278
öffent	-1279
öl	-1280
▁indem	-1281
▁fest	-1282
ausen	-1283
ellen	-1284
asse	-1285
▁heißt	-1286
▁fünf	-1287
tr	-1288
▁funktioniert	-1289
nehmen	-1290
▁Sprach	-1291
fahren	-1292
▁Gemein	-1293
mp	-1294
undheit	-1295
gang	-1296
ruktur	-1297
▁besonder	-1298
▁Natur	-1299
▁Ob	-1300
elfen	-1301
▁Jetzt	-1302
▁Mutter	-1303
stoff	-1304
▁Ged	-1305
alität	-1306
▁schaffen	-1307
ges	-1308
ließ	-1309
inner	-1310
▁fast	-1311
▁jedes	-1312
▁Moment	-1313
▁oft	-1314
ständ	-1315
setzen	-1316
reichen	-1317
▁Du	-1318
ium	-1319
ändert	-1320
▁nä	-1321
eile	-1322
▁Musik	-1323
▁Schul	-1324
▁Untern	-1325
▁größ	-1326
▁rie	-1327
▁Milliar	-1328
reis	-1329
zeich	-1330
gefähr	-1331
ause	-1332
▁Erde	-1333
kel	-1334
▁Haus	-1335
▁Produ	-1336
▁offen	-1337
allen	-1338
▁Wahr	-1339
satz	-1340
echs	-1341
▁sozi	-1342
▁Probleme	-1343
ho	-1344
ritt	-1345
▁gute	-1346
▁Stud	-1347
▁lange	-1348
▁seiner	-1349
▁Hin	-1350
volut	-1351
lichkeit	-1352
hle	-1353
▁8	-1354
▁Vide	-1355
wusst	-1356
▁Warum	-1357
spro	-1358
▁nutzen	-1359
kon	-1360
eiden	-1361
ott	-1362
isches	-1363
▁schwer	-1364
▁Ma	-1365
▁Gesell	-1366
▁gl	-1367
zahl	-1368
▁Pat	-1369
▁Lehr	-1370
▁wahrscheinlich	-1371
▁fol	-1372
ett	-1373
▁allen	-1374
▁helfen	-1375
fangen	-1376
▁Sta	-1377
▁aller	-1378
▁anders	-1379
ED	-1380
▁genug	-1381
▁Kam	-1382
euten	-1383
▁herum	-1384
fä	-1385
so	-1386
▁erzählen	-1387
▁Bil	-1388
▁Form	-1389
▁c	-1390
▁sah	-1391
volution	-1392
▁verk	-1393
▁Internet	-1394
ahlen	-1395
▁weit	-1396
▁Qu	-1397
nisse	-1398
▁einge	-1399
▁zeigt	-1400
▁schön	-1401
▁Ang	-1402
▁unserem	-1403
duz	-1404
▁weg	-1405
▁begann	-1406
ib	-1407
unst	-1408
▁neuen	-1409
▁7	-1410
ünst	-1411
▁Gesundheit	-1412
esser	-1413
ossen	-1414
yn	-1415
▁pl	-1416
▁nächsten	-1417
glichen	-1418
▁ne	-1419
▁Stu	-1420
▁kennen	-1421
ren	-1422
chmal	-1423
▁ungefähr	-1424
▁klar	-1425
zess	-1426
▁Amer	-1427
▁wicht	-1428
dent	-1429
gleich	-1430
land	-1431
welt	-1432
▁15	-1433
▁Gegen	-1434
rieg	-1435
ron	-1436
▁betrach	-1437
▁Met	-1438
liches	-1439
itu	-1440
▁50	-1441
▁größer	-1442
▁bisschen	-1443
▁Mo	-1444
ph	-1445
kay	-1446
▁Ro	-1447
schaffen	-1448
▁frü	-1449
eim	-1450
raum	-1451
▁100	-1452
heiten	-1453
▁9	-1454
umen	-1455
ösen	-1456
▁USA	-1457
▁Selbst	-1458
igkeiten	-1459
▁richtig	-1460
▁Kunst	-1461
gangen	-1462
▁Ideen	-1463
▁bevor	-1464
▁30	-1465
▁Lu	-1466
▁star	-1467
ehn	-1468
▁♪	-1469
▁nah	-1470
▁jede	-1471
▁bestimm	-1472
▁we	-1473
aneten	-1474
▁Fot	-1475
reffen	-1476
▁bauen	-1477
ina	-1478
▁Dar	-1479
hunder	-1480
ens	-1481
asst	-1482
andeln	-1483
▁Wor	-1484
setzt	-1485
▁wus	-1486
chn	-1487
▁Pu	-1488
▁Fäh	-1489
▁blei	-1490
▁liegt	-1491
▁Mater	-1492
▁recht	-1493
▁fal	-1494
▁gemein	-1495
▁Design	-1496
öt	-1497
▁Zus	-1498
scheid	-1499
▁Informationen	-1500
▁kurz	-1501
kennen	-1502
▁Leuten	-1503
▁seinen	-1504
mpf	-1505
iker	-1506
▁New	-1507
▁Projekt	-1508
▁verändern	-1509
▁TED	-1510
▁Schw	-1511
▁Di	-1512
▁Rob	-1513
llig	-1514
eut	-1515
ffe	-1516
▁Planeten	-1517
sche	-1518
ädchen	-1519
▁Nicht	-1520
▁normal	-1521
ere	-1522
▁Su	-1523
▁gar	-1524
▁Vie	-1525
▁Schule	-1526
dig	-1527
zieh	-1528
▁gehört	-1529
omen	-1530
▁Bür	-1531
▁ro	-1532
▁beh	-1533
▁Erfahr	-1534
utzt	-1535
▁Arten	-1536
anken	-1537
äche	-1538
ände	-1539
▁Lin	-1540
▁Mode	-1541
sk	-1542
ktion	-1543
▁inner	-1544
▁überall	-1545
▁hö	-1546
▁Forsch	-1547
itzen	-1548
▁stehen	-1549
mö	-1550
▁Mu	-1551
▁Für	-1552
▁versuch	-1553
forder	-1554
▁sagten	-1555
bo	-1556
elle	-1557
▁darum	-1558
▁nennen	-1559
▁ko	-1560
ringt	-1561
▁Kopf	-1562
▁erkl	-1563
▁Punkt	-1564
▁ern	-1565
▁Milliarden	-1566
▁At	-1567
▁Antwort	-1568
ütz	-1569
anzen	-1570
▁Gebäu	-1571
ismus	-1572
▁Vort	-1573
▁dich	-1574
▁hinter	-1575
▁anzu	-1576
mittel	-1577
▁euch	-1578
▁Exper	-1579
▁Afrika	-1580
▁anderes	-1581
▁reden	-1582
▁Dieses	-1583
▁Fragen	-1584
werk	-1585
▁bem	-1586
gesch	-1587
▁eben	-1588
▁Bü	-1589
▁Mädchen	-1590
▁Universum	-1591
mand	-1592
▁ihrem	-1593
▁musste	-1594
los	-1595
▁schwier	-1596
▁Unternehmen	-1597
zept	-1598
▁sel	-1599
▁Netz	-1600
▁Geschichten	-1601
cke	-1602
▁Br	-1603
▁de	-1604
▁Glück	-1605
▁Männer	-1606
pr	-1607
eren	-1608
twor	-1609
▁großart	-1610
je	-1611
auer	-1612
▁hal	-1613
▁Krank	-1614
sy	-1615
▁Bi	-1616
gung	-1617
rieb	-1618
▁Meine	-1619
▁Zwei	-1620
▁Wirtschaft	-1621
bringen	-1622
änger	-1623
▁entwickelt	-1624
fang	-1625
▁bereits	-1626
ief	-1627
▁Jahrhunder	-1628
▁Richt	-1629
scheiden	-1630
amens	-1631
einander	-1632
▁oben	-1633
gem	-1634
▁Auto	-1635
öhn	-1636
▁entde	-1637
▁Film	-1638
▁steht	-1639
▁fragen	-1640
▁Minuten	-1641
▁spielen	-1642
▁Zusammen	-1643
▁benutzen	-1644
▁halten	-1645
▁seinem	-1646
voll	-1647
ome	-1648
inen	-1649
▁Bed	-1650
▁Indien	-1651
▁erreichen	-1652
ienten	-1653
▁ü	-1654
▁namens	-1655
▁Lös	-1656
▁gerne	-1657
▁besonders	-1658
▁verschiedene	-1659
▁frag	-1660
if	-1661
erv	-1662
izin	-1663
zei	-1664
▁Gesellschaft	-1665
▁machte	-1666
▁hören	-1667
▁erkennen	-1668
▁hätten	-1669
▁darin	-1670
▁erh	-1671
▁Flug	-1672
indung	-1673
ilfe	-1674
inde	-1675
▁Stück	-1676
aun	-1677
etz	-1678
▁Far	-1679
ielt	-1680
▁Familie	-1681
▁Gl	-1682
▁Video	-1683
▁Verhalten	-1684
▁[	-1685
akter	-1686
andelt	-1687
▁na	-1688
▁Them	-1689
▁sechs	-1690
ks	-1691
▁Oder	-1692
ommun	-1693
zentr	-1694
ahn	-1695
rom	-1696
▁ähn	-1697
▁ho	-1698
deut	-1699
annte	-1700
▁Kön	-1701
▁Fü	-1702
▁Kor	-1703
pen	-1704
grund	-1705
geln	-1706
▁gesam	-1707
▁Bilder	-1708
▁Organis	-1709
▁Sprache	-1710
mals	-1711
endet	-1712
▁Gruppe	-1713
bare	-1714
euer	-1715
▁bef	-1716
▁Herz	-1717
▁jedem	-1718
mit	-1719
ient	-1720
▁Beweg	-1721
setz	-1722
unge	-1723
ließlich	-1724
üt	-1725
ume	-1726
▁Fol	-1727
▁Eltern	-1728
▁Ur	-1729
▁Doch	-1730
▁Fir	-1731
▁Weil	-1732
▁Ergeb	-1733
richten	-1734
oter	-1735
▁Luft	-1736
▁statt	-1737
▁Entscheid	-1738
ack	-1739
let	-1740
was	-1741
▁Sü	-1742
onen	-1743
schnit	-1744
▁Angst	-1745
▁Macht	-1746
▁richt	-1747
urs	-1748
ützen	-1749
▁beein	-1750
bild	-1751
kehr	-1752
▁Beg	-1753
▁erf	-1754
ölker	-1755
▁braucht	-1756
ezie	-1757
heor	-1758
▁vorstellen	-1759
▁Vielleicht	-1760
▁wohl	-1761
ächt	-1762
▁Gefühl	-1763
▁irgendwie	-1764
▁glob	-1765
▁ries	-1766
ings	-1767
ante	-1768
▁Durch	-1769
▁mag	-1770
system	-1771
▁Eigen	-1772
▁Dem	-1773
▁entwickeln	-1774
führt	-1775
punkt	-1776
▁flie	-1777
▁Kultur	-1778
▁ch	-1779
sych	-1780
▁Unser	-1781
▁Möglichkeit	-1782
dr	-1783
▁bewegen	-1784
ock	-1785
▁Str	-1786
▁tro	-1787
▁hoff	-1788
▁Bau	-1789
anten	-1790
ase	-1791
uer	-1792
▁Vater	-1793
▁glück	-1794
ure	-1795
▁Wort	-1796
▁Stimm	-1797
▁Stunden	-1798
▁verschiedenen	-1799
ider	-1800
urop	-1801
genommen	-1802
blik	-1803
esse	-1804
▁erhalten	-1805
ässt	-1806
▁Beh	-1807
▁Gener	-1808
▁Bereich	-1809
▁erw	-1810
▁einzel	-1811
icherheit	-1812
▁einigen	-1813
iken	-1814
haupt	-1815
▁einzige	-1816
gte	-1817
ohn	-1818
ersön	-1819
reten	-1820
ow	-1821
▁manchmal	-1822
▁drau	-1823
▁Freund	-1824
▁wollten	-1825
▁Sachen	-1826
gestellt	-1827
zug	-1828
▁Neu	-1829
▁abs	-1830
▁frei	-1831
zeugen	-1832
▁bemer	-1833
▁ändern	-1834
▁Hause	-1835
▁führen	-1836
▁Sinn	-1837
stehen	-1838
▁Masch	-1839
▁Veränder	-1840
gal	-1841
annen	-1842
äten	-1843
▁Arm	-1844
▁alt	-1845
▁stell	-1846
▁beiden	-1847
▁besten	-1848
▁Patienten	-1849
err	-1850
▁sage	-1851
häng	-1852
▁nämlich	-1853
▁unbe	-1854
▁verwenden	-1855
tel	-1856
▁for	-1857
▁Gott	-1858
▁eher	-1859
▁Komp	-1860
▁vert	-1861
▁innerhalb	-1862
▁Kindern	-1863
zin	-1864
okrat	-1865
eig	-1866
▁erk	-1867
zustellen	-1868
führ	-1869
▁beginnen	-1870
vest	-1871
teten	-1872
▁Regierung	-1873
one	-1874
ikro	-1875
▁Gebäude	-1876
▁unterschied	-1877
isk	-1878
reifen	-1879
▁unglaublich	-1880
zt	-1881
erweise	-1882
▁Hö	-1883
▁Yor	-1884
▁Werk	-1885
tens	-1886
▁Rück	-1887
▁Krebs	-1888
▁Gesicht	-1889
gabe	-1890
sent	-1891
▁verändert	-1892
▁Bab	-1893
▁Roboter	-1894
▁brach	-1895
▁welch	-1896
hemat	-1897
▁getan	-1898
ehe	-1899
druck	-1900
▁Grün	-1901
▁Po	-1902
▁Pol	-1903
enzen	-1904
▁Sol	-1905
▁los	-1906
▁per	-1907
▁ansch	-1908
▁menschlichen	-1909
▁Arch	-1910
schlossen	-1911
▁Part	-1912
▁gemeinsam	-1913
▁...	-1914
▁Mat	-1915
▁überhaupt	-1916
bte	-1917
fel	-1918
ende	-1919
▁wegen	-1920
▁Bezieh	-1921
▁Gleich	-1922
son	-1923
▁bl	-1924
denten	-1925
▁schauen	-1926
▁versucht	-1927
ai	-1928
hlte	-1929
racht	-1930
▁abge	-1931
erikan	-1932
▁Heraus	-1933
nov	-1934
onnen	-1935
▁zwar	-1936
berfl	-1937
blikum	-1938
▁fand	-1939
▁gleichen	-1940
icken	-1941
▁Fahr	-1942
▁Länder	-1943
▁Meer	-1944
tem	-1945
ingt	-1946
▁Lage	-1947
▁18	-1948
▁gr	-1949
stens	-1950
▁Dieser	-1951
▁Material	-1952
führen	-1953
kü	-1954
▁Ziel	-1955
▁Umwelt	-1956
uß	-1957
ans	-1958
eint	-1959
▁beob	-1960
▁Anfang	-1961
igten	-1962
▁Lehrer	-1963
ont	-1964
▁Kn	-1965
imen	-1966
ffekt	-1967
▁aufge	-1968
▁treffen	-1969
▁Par	-1970
ative	-1971
riff	-1972
▁rau	-1973
▁allem	-1974
▁Wochen	-1975
abor	-1976
ängt	-1977
▁verd	-1978
uf	-1979
han	-1980
▁Krieg	-1981
erk	-1982
▁%	-1983
▁Okay	-1984
▁Prozess	-1985
▁Programm	-1986
▁niemand	-1987
▁Erfahrung	-1988
▁Sy	-1989
▁China	-1990
▁Entwicklung	-1991
entr	-1992
▁Rest	-1993
▁öffent	-1994
haus	-1995
▁Grö	-1996
enne	-1997
▁Essen	-1998
av	-1999
völker	-2000
▁Publikum	-2001
ivi	-2002
ute	-2003
▁40	-2004
▁To	-2005
▁lin	-2006
St	-2007
▁dre	-2008
ument	-2009
▁Städ	-2010
▁Stellen	-2011
eid	-2012
▁jen	-2013
ritte	-2014
▁auszu	-2015
▁weltw	-2016
▁mussten	-2017
▁nächste	-2018
▁Bet	-2019
▁Prä	-2020
▁folgen	-2021
▁Herausforder	-2022
▁Zum	-2023
uelle	-2024
arten	-2025
baren	-2026
eister	-2027
ötz	-2028
▁Pap	-2029
nahme	-2030
▁Nacht	-2031
oss	-2032
▁Dingen	-2033
▁produz	-2034
min	-2035
auso	-2036
▁Chr	-2037
▁Bes	-2038
innern	-2039
ras	-2040
▁polit	-2041
sie	-2042
▁bel	-2043
▁kamen	-2044
▁'	-2045
▁vö	-2046
uren	-2047
eigen	-2048
▁entf	-2049
▁Tiere	-2050
▁meines	-2051
möglich	-2052
ager	-2053
▁Freunde	-2054
▁weitere	-2055
iet	-2056
wert	-2057
▁Situ	-2058
▁erre	-2059
▁Grunde	-2060
▁Mittel	-2061
▁falsch	-2062
▁vorher	-2063
▁Geschäft	-2064
wär	-2065
▁Nu	-2066
itze	-2067
anach	-2068
▁Verein	-2069
▁tut	-2070
▁Tier	-2071
arbeit	-2072
▁Dam	-2073
▁Frei	-2074
ziehen	-2075
▁Tages	-2076
▁Denken	-2077
▁wusste	-2078
ehl	-2079
▁fl	-2080
▁ster	-2081
ächst	-2082
ranken	-2083
▁fühlen	-2084
sein	-2085
▁eigene	-2086
▁wor	-2087
lligen	-2088
ransp	-2089
▁Kont	-2090
▁Unterschied	-2091
dlich	-2092
▁worden	-2093
▁12	-2094
▁Kap	-2095
ienen	-2096
▁bringt	-2097
▁Sicherheit	-2098
▁Klim	-2099
▁Lassen	-2100
amp	-2101
▁Inst	-2102
▁lässt	-2103
▁Pf	-2104
nahmen	-2105
ational	-2106
ragt	-2107
▁jed	-2108
▁Boden	-2109
▁ersch	-2110
▁erstaun	-2111
▁Struktur	-2112
ax	-2113
▁or	-2114
▁Ant	-2115
achst	-2116
▁erlau	-2117
▁Möglichkeiten	-2118
elig	-2119
▁Res	-2120
falls	-2121
anke	-2122
▁unten	-2123
▁solche	-2124
▁Vert	-2125
▁erwar	-2126
▁Typ	-2127
rauen	-2128
▁hervor	-2129
▁verschw	-2130
sichtlich	-2131
statt	-2132
annten	-2133
▁Hilfe	-2134
▁leicht	-2135
▁Gedanken	-2136
iment	-2137
stet	-2138
▁exist	-2139
▁völlig	-2140
▁gleiche	-2141
troll	-2142
▁Nein	-2143
▁aufzu	-2144
▁obwohl	-2145
sph	-2146
fluss	-2147
ötzlich	-2148
haft	-2149
▁Job	-2150
antwort	-2151
▁damals	-2152
▁dessen	-2153
▁menschliche	-2154
ian	-2155
▁Fern	-2156
▁berü	-2157
▁Staaten	-2158
innt	-2159
ksam	-2160
▁Ster	-2161
ations	-2162
▁deren	-2163
Was	-2164
▁Sek	-2165
▁teil	-2166
izieren	-2167
▁letzte	-2168
▁schreiben	-2169
lungs	-2170
▁York	-2171
▁grund	-2172
▁jedoch	-2173
▁Pr	-2174
bung	-2175
ahren	-2176
rieden	-2177
▁wären	-2178
xt	-2179
▁mo	-2180
ologien	-2181
inger	-2182
ograf	-2183
▁25	-2184
achstum	-2185
▁direkt	-2186
▁Elekt	-2187
▁fragte	-2188
▁Kü	-2189
iziert	-2190
▁Polit	-2191
▁Thema	-2192
▁betrachten	-2193
bau	-2194
▁Sk	-2195
▁Haupt	-2196
▁lösen	-2197
▁hunder	-2198
▁unters	-2199
uche	-2200
wesen	-2201
▁Schwe	-2202
drück	-2203
▁sollen	-2204
hält	-2205
flanzen	-2206
▁erinner	-2207
blick	-2208
zellen	-2209
▁Woche	-2210
▁besteht	-2211
ehm	-2212
▁Is	-2213
scht	-2214
bauen	-2215
ließen	-2216
▁Markt	-2217
▁teilen	-2218
▁bleiben	-2219
rakt	-2220
▁Per	-2221
▁funktionieren	-2222
iff	-2223
ikaner	-2224
▁Ander	-2225
zip	-2226
▁entscheiden	-2227
are	-2228
mot	-2229
▁ph	-2230
elten	-2231
▁zuvor	-2232
arbeitet	-2233
▁interessant	-2234
gebung	-2235
▁Kraft	-2236
▁suchen	-2237
▁genauso	-2238
▁Oze	-2239
▁ged	-2240
hören	-2241
▁zehn	-2242
get	-2243
zogen	-2244
▁Viele	-2245
▁Monate	-2246
opp	-2247
▁Mikro	-2248
man	-2249
▁Li	-2250
▁eins	-2251
▁Ho	-2252
▁Neur	-2253
▁benöt	-2254
schnitt	-2255
▁sieben	-2256
▁Ländern	-2257
bes	-2258
spr	-2259
osit	-2260
▁stellt	-2261
▁schwierig	-2262
cen	-2263
ool	-2264
wend	-2265
▁Nahr	-2266
▁Tats	-2267
▁Namen	-2268
ond	-2269
elbe	-2270
zeuge	-2271
▁Engl	-2272
▁persön	-2273
▁langsam	-2274
▁DN	-2275
fort	-2276
▁Team	-2277
▁bitte	-2278
▁Gesetz	-2279
aur	-2280
alter	-2281
erstör	-2282
heorie	-2283
▁führt	-2284
ausende	-2285
▁amerikan	-2286
ub	-2287
▁Öl	-2288
▁Ist	-2289
rifft	-2290
▁Lösung	-2291
ilden	-2292
▁Prin	-2293
▁ermö	-2294
▁inte	-2295
▁Ihren	-2296
▁kaufen	-2297
▁Familien	-2298
lin	-2299
▁Tr	-2300
trem	-2301
▁gefunden	-2302
▁Dr	-2303
▁Go	-2304
wirk	-2305
▁Gol	-2306
aktion	-2307
▁Erfolg	-2308
▁verbunden	-2309
bene	-2310
zeigt	-2311
▁stark	-2312
▁zweite	-2313
aren	-2314
▁Gal	-2315
▁verbesser	-2316
▁Liebe	-2317
▁sprach	-2318
▁sterben	-2319
ore	-2320
▁Bro	-2321
ose	-2322
iven	-2323
▁Bru	-2324
licht	-2325
rop	-2326
alien	-2327
ieten	-2328
reiten	-2329
▁gescha	-2330
▁größten	-2331
▁gro	-2332
▁trotz	-2333
▁größte	-2334
▁Fähigkeit	-2335
äuf	-2336
atten	-2337
itein	-2338
▁liebe	-2339
▁Modell	-2340
▁unseres	-2341
vers	-2342
▁lesen	-2343
▁Archite	-2344
▁Co	-2345
auft	-2346
▁Kat	-2347
weisen	-2348
sprochen	-2349
▁welches	-2350
spir	-2351
▁hast	-2352
spiele	-2353
tworten	-2354
jekte	-2355
ählen	-2356
▁Stand	-2357
▁Zellen	-2358
▁Wissenschaftler	-2359
gegen	-2360
▁draußen	-2361
▁komplex	-2362
rän	-2363
▁führ	-2364
▁Labor	-2365
unehmen	-2366
▁Bedeut	-2367
▁hinein	-2368
Das	-2369
▁Autos	-2370
berfläche	-2371
▁dein	-2372
▁Sehen	-2373
▁mitein	-2374
▁Bewegung	-2375
dust	-2376
▁Ind	-2377
gaben	-2378
▁Innov	-2379
▁herauszu	-2380
▁Europ	-2381
▁Heute	-2382
ünstler	-2383
▁erinnern	-2384
aw	-2385
sta	-2386
äuft	-2387
▁Mil	-2388
▁Na	-2389
▁Hoff	-2390
uellen	-2391
▁gelernt	-2392
▁scheint	-2393
▁schließlich	-2394
▁anderer	-2395
jen	-2396
chter	-2397
mo	-2398
▁Fr	-2399
inne	-2400
▁Char	-2401
▁Zahl	-2402
jähr	-2403
▁Eis	-2404
▁Fort	-2405
▁bewusst	-2406
völkerung	-2407
▁Natürlich	-2408
bel	-2409
lassen	-2410
olz	-2411
bend	-2412
▁nahm	-2413
bten	-2414
▁Wert	-2415
▁gewesen	-2416
▁Gemeinschaft	-2417
cker	-2418
ffiz	-2419
ochen	-2420
▁bist	-2421
▁erschaffen	-2422
ätze	-2423
▁Süd	-2424
▁Vir	-2425
▁Reihe	-2426
▁essen	-2427
▁jemals	-2428
aß	-2429
▁sehe	-2430
▁beeinfl	-2431
In	-2432
ift	-2433
fern	-2434
iver	-2435
▁Führ	-2436
▁passieren	-2437
▁Alter	-2438
▁erklären	-2439
▁Verbindung	-2440
▁gegenüber	-2441
▁qu	-2442
ance	-2443
ware	-2444
▁übr	-2445
▁erfolg	-2446
▁fanden	-2447
▁Tatsache	-2448
ja	-2449
oral	-2450
ament	-2451
▁Medien	-2452
▁Muster	-2453
▁Wahrheit	-2454
▁Technologien	-2455
itut	-2456
igung	-2457
gessen	-2458
▁Jeder	-2459
▁mache	-2460
▁Schritt	-2461
▁kleines	-2462
reck	-2463
ehler	-2464
sieht	-2465
▁anfangen	-2466
ese	-2467
▁60	-2468
reibt	-2469
▁Wahl	-2470
wasser	-2471
agieren	-2472
▁Jahrhundert	-2473
line	-2474
rain	-2475
▁nimmt	-2476
▁deshalb	-2477
▁konzentr	-2478
zw	-2479
iko	-2480
igit	-2481
wohn	-2482
▁Unsere	-2483
▁Richtung	-2484
▁glücklich	-2485
▁br	-2486
lett	-2487
▁lei	-2488
gefühl	-2489
gewöhn	-2490
▁Blick	-2491
▁daraus	-2492
▁hinaus	-2493
▁beginnt	-2494
▁wachsen	-2495
▁aussehen	-2496
▁Studenten	-2497
älter	-2498
▁Technik	-2499
▁möchten	-2500
▁geworden	-2501
▁miteinander	-2502
Sch	-2503
▁fr	-2504
gliche	-2505
▁Platz	-2506
▁Anzahl	-2507
▁Erw	-2508
▁neben	-2509
▁länger	-2510
▁nachdem	-2511
▁unterst	-2512
▁wissenschaft	-2513
▁80	-2514
rift	-2515
älfte	-2516
zeugt	-2517
▁Alles	-2518
▁Recht	-2519
▁schwar	-2520
ve	-2521
zus	-2522
immer	-2523
▁Tatsächlich	-2524
▁Alle	-2525
▁Plan	-2526
dustrie	-2527
▁Kranken	-2528
ity	-2529
äß	-2530
▁CA	-2531
wand	-2532
weis	-2533
lauf	-2534
▁plötzlich	-2535
▁Ris	-2536
spekt	-2537
▁Ihrem	-2538
▁danach	-2539
fon	-2540
fäh	-2541
änden	-2542
ämp	-2543
▁bew	-2544
itäten	-2545
▁Bildung	-2546
▁verloren	-2547
gende	-2548
▁gebaut	-2549
▁überras	-2550
▁schlecht	-2551
▁Är	-2552
▁fort	-2553
▁Teile	-2554
merksam	-2555
▁bekommt	-2556
▁schrieb	-2557
ator	-2558
▁erle	-2559
▁Bel	-2560
▁laufen	-2561
asen	-2562
ividu	-2563
▁Medik	-2564
▁Sicht	-2565
▁Einige	-2566
▁Gewalt	-2567
▁Situation	-2568
▁verwendet	-2569
▁Mot	-2570
▁wert	-2571
▁Bürger	-2572
▁genannt	-2573
▁kleiner	-2574
▁hil	-2575
▁Stimme	-2576
▁Aufgabe	-2577
ungsk	-2578
ativen	-2579
▁stellte	-2580
si	-2581
▁Erk	-2582
▁Ihrer	-2583
▁versch	-2584
▁gezeigt	-2585
▁Mathemat	-2586
▁Umgebung	-2587
gn	-2588
▁Fa	-2589
▁Tem	-2590
▁komm	-2591
▁findet	-2592
▁sofort	-2593
▁Deshalb	-2594
▁Krankheit	-2595
▁bi	-2596
aszin	-2597
durch	-2598
▁tief	-2599
▁elekt	-2600
▁Forschung	-2601
lang	-2602
▁Mitte	-2603
▁beschäft	-2604
▁entfernt	-2605
unk	-2606
▁Fuß	-2607
▁acht	-2608
▁aktiv	-2609
▁guten	-2610
▁benutzt	-2611
wusstsein	-2612
▁Bedeutung	-2613
▁Vorstellung	-2614
öst	-2615
▁tö	-2616
▁Blut	-2617
▁Test	-2618
▁Viel	-2619
▁raus	-2620
▁Kamer	-2621
▁einzu	-2622
ct	-2623
ies	-2624
unkte	-2625
▁Foto	-2626
radition	-2627
▁Während	-2628
aler	-2629
esent	-2630
▁bewe	-2631
▁grün	-2632
▁nachzu	-2633
sm	-2634
urt	-2635
▁ind	-2636
sprechen	-2637
▁niemals	-2638
▁nachdenken	-2639
prä	-2640
immen	-2641
zeitig	-2642
▁Ru	-2643
ment	-2644
rans	-2645
rate	-2646
raten	-2647
▁hoffe	-2648
del	-2649
▁Mag	-2650
▁Sonnen	-2651
dete	-2652
▁Tür	-2653
▁Nord	-2654
▁Tele	-2655
trolle	-2656
▁Aktiv	-2657
▁sonst	-2658
▁techn	-2659
.“	-2660
affen	-2661
rauch	-2662
teilt	-2663
ichtet	-2664
▁beide	-2665
ppe	-2666
▁kü	-2667
elte	-2668
▁Rolle	-2669
▁Wirklich	-2670
▁Information	-2671
▁Fä	-2672
ines	-2673
uell	-2674
▁Reise	-2675
▁Hälfte	-2676
▁verrück	-2677
▁Veränderung	-2678
Wir	-2679
▁tat	-2680
▁egal	-2681
▁reich	-2682
▁Größe	-2683
▁Vortrag	-2684
▁erfolgreich	-2685
▁samm	-2686
▁allein	-2687
▁Amerika	-2688
▁erreicht	-2689
iten	-2690
▁höher	-2691
▁schau	-2692
ierungen	-2693
▁Straßen	-2694
ogra	-2695
▁öff	-2696
recht	-2697
tzut	-2698
▁Tat	-2699
immel	-2700
▁zeige	-2701
▁gingen	-2702
eutzut	-2703
eutzutage	-2704
omb	-2705
roh	-2706
▁Nie	-2707
▁rei	-2708
ritten	-2709
▁Herausforderung	-2710
lage	-2711
änge	-2712
▁199	-2713
▁Bar	-2714
▁blau	-2715
zü	-2716
ysik	-2717
▁geh	-2718
ame	-2719
▁Bä	-2720
▁Rad	-2721
▁kre	-2722
▁Schü	-2723
ierend	-2724
▁bekam	-2725
▁gefähr	-2726
▁Meinung	-2727
▁ru	-2728
ändig	-2729
▁toll	-2730
▁daher	-2731
▁He	-2732
▁Erd	-2733
▁rein	-2734
sphäre	-2735
▁Prinzip	-2736
▁bekannt	-2737
▁jemanden	-2738
wirtschaft	-2739
▁veröffent	-2740
app	-2741
orf	-2742
äss	-2743
alls	-2744
▁beste	-2745
▁mögen	-2746
▁genommen	-2747
ram	-2748
ette	-2749
ängen	-2750
▁Geist	-2751
▁kontroll	-2752
nt	-2753
Pro	-2754
rab	-2755
äuser	-2756
▁Straße	-2757
▁ziehen	-2758
▁Demokrat	-2759
antast	-2760
▁alten	-2761
▁extrem	-2762
▁fahren	-2763
▁brachte	-2764
▁gegeben	-2765
▁ur	-2766
itel	-2767
▁DNA	-2768
ertig	-2769
iegen	-2770
▁soziale	-2771
▁komplett	-2772
ari	-2773
▁Ju	-2774
▁ak	-2775
gten	-2776
ehmer	-2777
▁hinzu	-2778
▁Entwicklungs	-2779
uchs	-2780
▁Kil	-2781
edizin	-2782
▁entst	-2783
arbeiten	-2784
kre	-2785
arkt	-2786
fekt	-2787
▁lau	-2788
findet	-2789
▁Kosten	-2790
▁Fähigkeiten	-2791
viel	-2792
dessen	-2793
▁Kolle	-2794
schieht	-2795
▁Wachstum	-2796
▁interessiert	-2797
az	-2798
ezi	-2799
▁Gef	-2800
▁Chem	-2801
▁stand	-2802
jenigen	-2803
▁Bakter	-2804
▁Bücher	-2805
▁Hinter	-2806
▁geschieht	-2807
▁wichtiger	-2808
rech	-2809
stück	-2810
▁liegen	-2811
▁fliegen	-2812
▁11	-2813
lekü	-2814
▁Wör	-2815
▁Papier	-2816
▁setzen	-2817
▁weltweit	-2818
▁Dro	-2819
▁Kal	-2820
▁empf	-2821
▁Sonne	-2822
gebracht	-2823
▁machten	-2824
▁Realität	-2825
▁Generation	-2826
struktur	-2827
▁Medizin	-2828
▁schneller	-2829
af	-2830
▁nein	-2831
▁Strom	-2832
▁geboren	-2833
isse	-2834
itzt	-2835
▁Zeu	-2836
echan	-2837
▁einfache	-2838
▁Vereinigten	-2839
auber	-2840
ftware	-2841
▁faszin	-2842
▁gesamte	-2843
legt	-2844
ssen	-2845
auern	-2846
ister	-2847
▁Ding	-2848
▁Stat	-2849
rim	-2850
ällt	-2851
▁Maß	-2852
▁nennt	-2853
▁Europa	-2854
▁Ergebnis	-2855
▁Maschine	-2856
▁Nur	-2857
▁tot	-2858
▁Einz	-2859
abhäng	-2860
▁Preis	-2861
▁digit	-2862
▁Studie	-2863
▁Zahlen	-2864
▁absolut	-2865
▁herauszufinden	-2866
ikel	-2867
▁Tod	-2868
istan	-2869
ollen	-2870
▁Goog	-2871
▁Firma	-2872
▁Städte	-2873
▁geschrieben	-2874
Die	-2875
▁zer	-2876
ätzen	-2877
▁stimmt	-2878
▁Schauen	-2879
▁Entscheidungen	-2880
inz	-2881
▁OK	-2882
▁Zeich	-2883
▁wirtschaft	-2884
bildung	-2885
▁lieben	-2886
amer	-2887
▁Gel	-2888
▁bed	-2889
ologen	-2890
▁defin	-2891
▁Evolution	-2892
▁App	-2893
schul	-2894
▁gesprochen	-2895
gor	-2896
ile	-2897
imp	-2898
ons	-2899
uchten	-2900
▁übert	-2901
ikation	-2902
▁früher	-2903
▁tragen	-2904
▁Oberfläche	-2905
▁90	-2906
▁bas	-2907
▁Kommun	-2908
▁dachten	-2909
hand	-2910
tten	-2911
schlag	-2912
▁Karte	-2913
▁Fehler	-2914
schlagen	-2915
▁Nachrichten	-2916
obil	-2917
▁Tro	-2918
▁gek	-2919
itter	-2920
▁Ganz	-2921
▁neues	-2922
▁anstatt	-2923
▁zerstör	-2924
merksamkeit	-2925
▁Gesundheits	-2926
tler	-2927
essour	-2928
▁begannen	-2929
twas	-2930
daten	-2931
igens	-2932
indungen	-2933
!"	-2934
ieg	-2935
▁Wieder	-2936
▁Produkt	-2937
▁Aufmerksamkeit	-2938
üss	-2939
glie	-2940
stein	-2941
wissen	-2942
▁finde	-2943
▁Leiden	-2944
▁Beziehung	-2945
dert	-2946
vent	-2947
▁Har	-2948
▁prä	-2949
▁Inte	-2950
▁Auswirk	-2951
▁Experiment	-2952
▁lok	-2953
▁ähnlich	-2954
sell	-2955
▁lern	-2956
▁erfor	-2957
▁großer	-2958
▁Hoffnung	-2959
atte	-2960
fess	-2961
nern	-2962
iegel	-2963
üssel	-2964
▁enor	-2965
indest	-2966
▁Schön	-2967
▁bewegt	-2968
▁Erinner	-2969
▁Revolution	-2970
▁Gu	-2971
isst	-2972
▁Von	-2973
ussen	-2974
▁gebe	-2975
▁Psych	-2976
▁Google	-2977
▁Politik	-2978
▁Ad	-2979
▁Dorf	-2980
▁Jahrz	-2981
▁verurs	-2982
▁ansehen	-2983
▁Künstler	-2984
▁Bewusstsein	-2985
stra	-2986
gendes	-2987
▁zuerst	-2988
▁Wind	-2989
▁heut	-2990
lungen	-2991
ämpfen	-2992
▁Druck	-2993
▁gearbeitet	-2994
deck	-2995
hode	-2996
▁Hoch	-2997
laufen	-2998
▁Super	-2999
▁sahen	-3000
▁vorbei	-3001
▁Pflanzen	-3002
beh	-3003
öpf	-3004
▁fre	-3005
▁kosten	-3006
▁Schulen	-3007
▁passierte	-3008
▁Ka	-3009
hang	-3010
pfen	-3011
▁aut	-3012
▁Meter	-3013
▁Bevölkerung	-3014
co	-3015
▁Wohl	-3016
▁abzu	-3017
▁ernst	-3018
▁Gruppen	-3019
▁Einfluss	-3020
Wie	-3021
ime	-3022
▁Do	-3023
verb	-3024
▁junge	-3025
▁verfü	-3026
▁bestimmt	-3027
▁Kontrolle	-3028
▁Mitgefühl	-3029
▁verlassen	-3030
ivil	-3031
▁Regen	-3032
▁näher	-3033
enk	-3034
▁16	-3035
nete	-3036
▁anf	-3037
hnung	-3038
▁Baum	-3039
eltsam	-3040
▁Genau	-3041
▁Behand	-3042
▁Seiten	-3043
▁spezie	-3044
▁Fortsch	-3045
▁beobachten	-3046
▁bestimmten	-3047
▁gleichzeitig	-3048
win	-3049
zte	-3050
▁HI	-3051
▁Fin	-3052
▁kur	-3053
▁Ange	-3054
▁bein	-3055
▁älter	-3056
▁Regeln	-3057
▁Spezie	-3058
▁Versuch	-3059
▁versuchte	-3060
▁14	-3061
ales	-3062
▁Frü	-3063
▁Sohn	-3064
▁kompl	-3065
▁fantast	-3066
▁sozialen	-3067
ote	-3068
lern	-3069
▁Auch	-3070
▁Himmel	-3071
▁Oh	-3072
▁Ressour	-3073
▁schlechte	-3074
50	-3075
▁Glau	-3076
altung	-3077
▁Ozean	-3078
apan	-3079
▁Kan	-3080
▁einzelne	-3081
▁wichtige	-3082
▁offensichtlich	-3083
▁Orte	-3084
▁stud	-3085
▁sitzen	-3086
▁Monaten	-3087
▁bedeuten	-3088
feld	-3089
▁Ton	-3090
▁nahe	-3091
▁inspir	-3092
▁Konzept	-3093
▁Universität	-3094
▁ehr	-3095
elegen	-3096
▁Fisch	-3097
▁falls	-3098
▁Demokratie	-3099
ey	-3100
abel	-3101
ickt	-3102
bracht	-3103
▁Studien	-3104
▁anschauen	-3105
les	-3106
iell	-3107
letz	-3108
▁Hig	-3109
▁Bill	-3110
▁Verl	-3111
ausend	-3112
▁überw	-3113
▁Zugang	-3114
▁finanz	-3115
kul	-3116
stes	-3117
▁HIV	-3118
▁Sau	-3119
▁Menschheit	-3120
herap	-3121
▁bald	-3122
▁Eines	-3123
▁natür	-3124
ierende	-3125
▁Wörter	-3126
▁bleibt	-3127
▁ständig	-3128
▁Hü	-3129
▁Hel	-3130
orfen	-3131
▁verg	-3132
atisch	-3133
▁prakt	-3134
▁wider	-3135
▁richtige	-3136
itär	-3137
rise	-3138
ützt	-3139
▁kannst	-3140
ständnis	-3141
▁ö	-3142
ama	-3143
▁Ku	-3144
▁Trä	-3145
▁Park	-3146
▁intern	-3147
indigkeit	-3148
▁bemerken	-3149
▁vergessen	-3150
wür	-3151
▁Wel	-3152
▁end	-3153
quenz	-3154
machen	-3155
▁moder	-3156
▁richtigen	-3157
go	-3158
schir	-3159
▁Morgen	-3160
▁Stelle	-3161
▁Software	-3162
▁arbeitete	-3163
blich	-3164
▁Mehr	-3165
▁Spaß	-3166
▁Webs	-3167
▁Arbei	-3168
▁Galax	-3169
▁ihres	-3170
greifen	-3171
abil	-3172
error	-3173
kommt	-3174
▁Phil	-3175
▁Gebiet	-3176
▁bilden	-3177
▁großes	-3178
▁Nachbar	-3179
▁erzählt	-3180
bert	-3181
echt	-3182
ppen	-3183
▁000	-3184
schung	-3185
klär	-3186
ählt	-3187
▁Armut	-3188
▁Besch	-3189
▁Poliz	-3190
▁dahin	-3191
▁deine	-3192
▁links	-3193
ologische	-3194
imul	-3195
ombin	-3196
▁Zeug	-3197
eitung	-3198
gemein	-3199
▁Orten	-3200
▁posit	-3201
schluss	-3202
▁Molekü	-3203
▁invest	-3204
▁Grenzen	-3205
▁möglichen	-3206
▁verlieren	-3207
ix	-3208
rist	-3209
▁blo	-3210
digen	-3211
▁Lauf	-3212
▁wussten	-3213
▁aussieht	-3214
▁Vergangen	-3215
▁zumindest	-3216
bet	-3217
arte	-3218
▁John	-3219
▁Kern	-3220
▁Feuer	-3221
▁fertig	-3222
▁Hände	-3223
▁Schüler	-3224
▁bessere	-3225
▁irgendwo	-3226
▁On	-3227
eits	-3228
▁Wür	-3229
ielten	-3230
▁erlaubt	-3231
▁Personen	-3232
▁verbessern	-3233
▁—	-3234
dass	-3235
▁Gut	-3236
▁Sex	-3237
igner	-3238
▁Baby	-3239
▁Tagen	-3240
▁Spezies	-3241
▁Mathematik	-3242
▁Sc	-3243
dung	-3244
ünft	-3245
▁Bot	-3246
▁Prote	-3247
▁versuche	-3248
▁Nachricht	-3249
ums	-3250
ktor	-3251
▁Gra	-3252
ferenz	-3253
▁voller	-3254
zeichnet	-3255
▁produzieren	-3256
ufen	-3257
▁Ord	-3258
eisen	-3259
▁erklär	-3260
▁Beispiele	-3261
▁nachzudenken	-3262
▁Vergangenheit	-3263
▁Car	-3264
▁Chris	-3265
▁medizin	-3266
▁Institut	-3267
fre	-3268
met	-3269
sor	-3270
äte	-3271
▁17	-3272
▁Th	-3273
stru	-3274
▁Uhr	-3275
▁Ebene	-3276
▁echte	-3277
▁Objekt	-3278
▁Bakterien	-3279
▁Krankheiten	-3280
▁Entscheidung	-3281
ko	-3282
rig	-3283
äst	-3284
▁Mü	-3285
▁Zw	-3286
sion	-3287
▁Jed	-3288
räfte	-3289
ächen	-3290
troffen	-3291
▁arbeitet	-3292
▁gebracht	-3293
▁Innovation	-3294
▁heutzutage	-3295
▁Nerv	-3296
▁Wand	-3297
ierter	-3298
werfen	-3299
▁nenne	-3300
▁führte	-3301
▁seltsam	-3302
▁gewinnen	-3303
▁Wirklichkeit	-3304
aup	-3305
ograph	-3306
▁Daher	-3307
▁Firmen	-3308
▁Terror	-3309
▁befinden	-3310
▁gesamten	-3311
ins	-3312
zer	-3313
▁70	-3314
ckte	-3315
▁vis	-3316
ildet	-3317
teilen	-3318
▁Konfl	-3319
▁Zentr	-3320
▁denkt	-3321
▁schreck	-3322
▁Sekunden	-3323
mut	-3324
emen	-3325
▁Vol	-3326
press	-3327
äufig	-3328
▁gekommen	-3329
falt	-3330
zähl	-3331
▁reg	-3332
▁Gerät	-3333
▁Worte	-3334
▁Können	-3335
igte	-3336
uchte	-3337
folgen	-3338
▁Leist	-3339
▁Linie	-3340
▁gewalt	-3341
▁Theorie	-3342
▁solchen	-3343
Un	-3344
▁Fe	-3345
ital	-3346
▁Ern	-3347
▁Sign	-3348
▁auft	-3349
▁Geschw	-3350
▁manche	-3351
▁Telefon	-3352
▁interessante	-3353
iot	-3354
▁Det	-3355
genie	-3356
holen	-3357
orben	-3358
▁traf	-3359
▁winz	-3360
reitet	-3361
zimmer	-3362
▁keiner	-3363
▁morgen	-3364
▁erzeugen	-3365
▁trotzdem	-3366
to	-3367
sto	-3368
▁Sym	-3369
▁runter	-3370
▁einzelnen	-3371
mt	-3372
ath	-3373
▁et	-3374
rägt	-3375
▁Bus	-3376
altet	-3377
▁Oper	-3378
stelle	-3379
mäß	-3380
oph	-3381
merz	-3382
▁201	-3383
twend	-3384
werke	-3385
▁Dien	-3386
utzung	-3387
▁Monat	-3388
▁aufre	-3389
org	-3390
▁CO	-3391
tert	-3392
▁Rau	-3393
▁Vis	-3394
▁umzu	-3395
▁Stamm	-3396
▁geschehen	-3397
▁Amerikaner	-3398
ail	-3399
▁Miss	-3400
▁alte	-3401
▁stär	-3402
peratur	-3403
▁Frieden	-3404
licherweise	-3405
hei	-3406
▁bau	-3407
▁hab	-3408
▁kaum	-3409
▁vorh	-3410
▁Präsi	-3411
▁unmöglich	-3412
▁Ressourcen	-3413
▁Ir	-3414
▁Nä	-3415
ehme	-3416
▁rund	-3417
ationalen	-3418
▁bestimmte	-3419
▁Ergebnisse	-3420
Oh	-3421
anter	-3422
itten	-3423
wenden	-3424
osition	-3425
▁Bienen	-3426
▁Gefäng	-3427
▁riesige	-3428
▁Netzwerk	-3429
▁aufgrund	-3430
▁Gefü	-3431
▁Bezug	-3432
▁sodass	-3433
▁Arbeits	-3434
▁Regierungen	-3435
ret	-3436
▁danke	-3437
▁irgendw	-3438
▁organis	-3439
▁erfahren	-3440
▁Medikamen	-3441
▁entdecken	-3442
▁Wahrscheinlich	-3443
len	-3444
mmern	-3445
▁Haut	-3446
▁neun	-3447
sprach	-3448
▁Relig	-3449
▁moral	-3450
▁verbinden	-3451
▁Auswirkungen	-3452
ball	-3453
stern	-3454
▁erhö	-3455
otwend	-3456
▁dritte	-3457
▁jungen	-3458
▁Nahrung	-3459
▁»	-3460
arm	-3461
▁13	-3462
▁21	-3463
schön	-3464
▁gefragt	-3465
▁entschieden	-3466
▁198	-3467
▁hol	-3468
▁dest	-3469
▁hilft	-3470
▁leisten	-3471
▁großartige	-3472
▁verstanden	-3473
ry	-3474
emand	-3475
sprün	-3476
▁Höhe	-3477
ingungen	-3478
▁dadurch	-3479
▁Ker	-3480
leist	-3481
reche	-3482
▁fing	-3483
assung	-3484
▁Fotos	-3485
▁psych	-3486
ssystem	-3487
▁Invest	-3488
▁rechts	-3489
▁zeigte	-3490
▁Kollegen	-3491
▁einander	-3492
Sp	-3493
uhr	-3494
ille	-3495
pfer	-3496
schu	-3497
wart	-3498
▁Ben	-3499
asche	-3500
reise	-3501
▁Sinne	-3502
▁läuft	-3503
▁Gelegen	-3504
▁Ordnung	-3505
▁großartig	-3506
▁Verantwort	-3507
▁untersuchen	-3508
fg	-3509
ou	-3510
abr	-3511
▁tä	-3512
aben	-3513
grün	-3514
▁lebt	-3515
▁wann	-3516
glicht	-3517
ometer	-3518
▁Formen	-3519
▁arbeite	-3520
▁übrigens	-3521
▁tradition	-3522
▁My	-3523
▁he	-3524
grupp	-3525
indet	-3526
▁Heim	-3527
▁hält	-3528
stoffe	-3529
▁hörte	-3530
▁Chance	-3531
▁sowohl	-3532
gleichen	-3533
zunehmen	-3534
▁Glauben	-3535
▁herausfinden	-3536
hy	-3537
▁Kur	-3538
▁tie	-3539
▁Berg	-3540
▁Herr	-3541
▁zufä	-3542
▁Außer	-3543
▁Brust	-3544
▁niedr	-3545
▁Landes	-3546
ativität	-3547
▁ermöglicht	-3548
▁normalerweise	-3549
ov	-3550
▁Vo	-3551
▁Bas	-3552
▁Sand	-3553
nungen	-3554
zahlen	-3555
▁Million	-3556
▁zweiten	-3557
▁erzählte	-3558
▁gestellt	-3559
ologischen	-3560
▁Architektur	-3561
volle	-3562
▁Diag	-3563
▁hinge	-3564
▁retten	-3565
ude	-3566
▁1,	-3567
▁is	-3568
zial	-3569
▁Inf	-3570
odell	-3571
▁Disk	-3572
rochen	-3573
▁Geräu	-3574
▁reduz	-3575
▁Transp	-3576
ationale	-3577
▁Systeme	-3578
▁Flugzeug	-3579
▁Freiheit	-3580
▁entdeckt	-3581
▁außerhalb	-3582
▁geschaffen	-3583
ek	-3584
leb	-3585
ven	-3586
▁Ak	-3587
▁ant	-3588
▁Büro	-3589
▁Stre	-3590
▁Geburt	-3591
▁Jahres	-3592
▁warten	-3593
▁Methode	-3594
▁handelt	-3595
▁sammeln	-3596
▁Erwachsen	-3597
▁Maschinen	-3598
▁Krankenhaus	-3599
ym	-3600
onie	-3601
▁Lei	-3602
▁Fluss	-3603
▁Kampf	-3604
▁verste	-3605
arbeiter	-3606
▁bestehen	-3607
▁diejenigen	-3608
▁Lö	-3609
buch	-3610
ießen	-3611
▁gesp	-3612
▁umge	-3613
motion	-3614
stände	-3615
▁Damit	-3616
▁taten	-3617
▁Meeres	-3618
▁befindet	-3619
▁Organisation	-3620
par	-3621
unt	-3622
ürz	-3623
▁ca	-3624
▁of	-3625
ährt	-3626
ücht	-3627
stütz	-3628
▁uner	-3629
aschen	-3630
▁Zivil	-3631
▁globalen	-3632
alle	-3633
▁tau	-3634
deten	-3635
astrop	-3636
▁Wesen	-3637
ständig	-3638
▁einzig	-3639
▁kommun	-3640
▁Entdeck	-3641
▁Ingenie	-3642
▁Schlüssel	-3643
umm	-3644
stre	-3645
inder	-3646
▁Mich	-3647
▁Bühne	-3648
▁Regel	-3649
unächst	-3650
▁gewöhn	-3651
lam	-3652
schn	-3653
ynam	-3654
fghan	-3655
▁Noch	-3656
▁höch	-3657
änomen	-3658
▁entwe	-3659
ffizien	-3660
isieren	-3661
▁Beginn	-3662
▁messen	-3663
▁Artikel	-3664
▁herunter	-3665
Ja	-3666
▁Ök	-3667
Nein	-3668
icks	-3669
zwei	-3670
önen	-3671
▁Not	-3672
illen	-3673
▁König	-3674
▁Finger	-3675
▁Englisch	-3676
▁einzigen	-3677
▁Verständnis	-3678
▁grü	-3679
▁lag	-3680
▁Hirn	-3681
gebaut	-3682
schirm	-3683
▁Abend	-3684
▁Farbe	-3685
▁Verfü	-3686
barkeit	-3687
▁Geheim	-3688
▁Nummer	-3689
▁schützen	-3690
folge	-3691
unger	-3692
▁Mars	-3693
liegen	-3694
▁Liebl	-3695
▁genet	-3696
▁spielt	-3697
▁betrachtet	-3698
▁amerikanischen	-3699
up	-3700
iti	-3701
▁Mark	-3702
▁mächt	-3703
▁bisher	-3704
▁welcher	-3705
▁Interesse	-3706
▁unterstützen	-3707
orn	-3708
nehm	-3709
▁Bis	-3710
schte	-3711
dienen	-3712
▁Gründe	-3713
▁selben	-3714
▁Gehirns	-3715
stellungen	-3716
reg	-3717
urg	-3718
▁Sa	-3719
▁äu	-3720
ifor	-3721
ement	-3722
▁Arzt	-3723
▁Gene	-3724
▁Jungen	-3725
▁benutz	-3726
▁berühm	-3727
▁ebenso	-3728
▁effekt	-3729
▁getroffen	-3730
▁herstellen	-3731
arf	-3732
stä	-3733
gibt	-3734
eller	-3735
▁Muse	-3736
ätzlich	-3737
▁Fakt	-3738
▁Inse	-3739
▁lief	-3740
schiede	-3741
▁Partner	-3742
▁National	-3743
▁Behandlung	-3744
apt	-3745
▁Kä	-3746
ügen	-3747
▁opt	-3748
▁Drogen	-3749
▁Finanz	-3750
▁Lernen	-3751
▁Reaktion	-3752
▁öffentlichen	-3753
lose	-3754
sser	-3755
stag	-3756
umor	-3757
▁The	-3758
▁Name	-3759
frikan	-3760
passen	-3761
▁unver	-3762
▁Punkte	-3763
▁mehrere	-3764
▁Zeitpunkt	-3765
▁grundlegen	-3766
iels	-3767
iter	-3768
▁Fen	-3769
▁Quad	-3770
▁bean	-3771
selben	-3772
▁Ereig	-3773
▁Klimaw	-3774
▁erwarten	-3775
zut	-3776
▁Somm	-3777
▁drin	-3778
▁setz	-3779
▁Einer	-3780
▁Tisch	-3781
▁Herzen	-3782
▁hundert	-3783
▁entweder	-3784
seh	-3785
▁Än	-3786
anen	-3787
ahmen	-3788
▁Komm	-3789
ritann	-3790
▁Gespr	-3791
▁Traum	-3792
▁Einzel	-3793
▁Stunde	-3794
▁Einkommen	-3795
ake	-3796
spl	-3797
tra	-3798
▁Hy	-3799
riere	-3800
▁Anal	-3801
▁unge	-3802
▁Poten	-3803
gefunden	-3804
▁Lösungen	-3805
▁dasselbe	-3806
▁schicken	-3807
▁verkaufen	-3808
▁Beziehungen	-3809
tag	-3810
▁Ok	-3811
▁Mär	-3812
istor	-3813
▁krei	-3814
fassen	-3815
▁spricht	-3816
▁Funktion	-3817
▁Manchmal	-3818
▁Gefängnis	-3819
War	-3820
bed	-3821
urm	-3822
▁kn	-3823
lebt	-3824
▁Ser	-3825
maßen	-3826
▁Inner	-3827
▁belie	-3828
▁desto	-3829
▁verhin	-3830
▁Komplex	-3831
▁durchge	-3832
▁erinnere	-3833
▁heutigen	-3834
▁Jahrhunderts	-3835
Es	-3836
rak	-3837
vie	-3838
öse	-3839
such	-3840
▁akt	-3841
produ	-3842
▁Lond	-3843
▁Instr	-3844
▁nahmen	-3845
▁erfunden	-3846
▁ebenfalls	-3847
hre	-3848
▁Fel	-3849
▁Ball	-3850
▁hart	-3851
▁phys	-3852
▁Japan	-3853
▁fällt	-3854
entlich	-3855
zusagen	-3856
▁Kamera	-3857
▁Teilen	-3858
▁behaup	-3859
▁schlimm	-3860
▁Schönheit	-3861
▁Veränderungen	-3862
kop	-3863
kur	-3864
gnor	-3865
▁San	-3866
scher	-3867
▁Wohn	-3868
▁cool	-3869
achtet	-3870
▁Jedes	-3871
wendung	-3872
▁Zeiten	-3873
ierenden	-3874
▁Industrie	-3875
▁Erfahrungen	-3876
iete	-3877
▁Kol	-3878
enken	-3879
▁Wege	-3880
▁elektr	-3881
▁fühlte	-3882
▁voraus	-3883
▁ehrlich	-3884
ac	-3885
ikt	-3886
ürf	-3887
ivat	-3888
will	-3889
▁Win	-3890
fälle	-3891
ilien	-3892
ütter	-3893
rücken	-3894
▁guter	-3895
brechen	-3896
▁Worten	-3897
▁kultur	-3898
▁gedacht	-3899
▁einfachen	-3900
▁intelligen	-3901
pu	-3902
enze	-3903
webe	-3904
flanz	-3905
krieg	-3906
imente	-3907
▁erwei	-3908
▁gutes	-3909
▁Manche	-3910
▁verrückt	-3911
rastruktur	-3912
▁Vergleich	-3913
▁Eigenschaften	-3914
maß	-3915
▁km	-3916
bald	-3917
räge	-3918
▁500	-3919
isser	-3920
kraft	-3921
wärts	-3922
▁jene	-3923
▁Kreis	-3924
▁sowie	-3925
▁Wunder	-3926
▁selten	-3927
ritannien	-3928
▁jemandem	-3929
▁Charakter	-3930
aul	-3931
örp	-3932
▁mer	-3933
iforn	-3934
istisch	-3935
▁Schwar	-3936
▁wenige	-3937
▁wesent	-3938
▁Individu	-3939
▁unglaubliche	-3940
▁Kommunikation	-3941
kam	-3942
gien	-3943
▁Auge	-3944
▁Liste	-3945
▁Ärzte	-3946
sichtig	-3947
▁erleben	-3948
▁behandeln	-3949
ka	-3950
prü	-3951
▁Cl	-3952
▁pr	-3953
eigt	-3954
▁wün	-3955
▁Öff	-3956
▁Junge	-3957
Ge	-3958
rum	-3959
▁Dav	-3960
▁Wol	-3961
bewer	-3962
etten	-3963
raucht	-3964
▁Haben	-3965
▁Ahnung	-3966
▁Risiko	-3967
▁fangen	-3968
▁sobald	-3969
Warum	-3970
dings	-3971
erstoff	-3972
▁Farben	-3973
▁lernte	-3974
▁wunderbar	-3975
▁überleben	-3976
oo	-3977
ilt	-3978
fter	-3979
pekt	-3980
wech	-3981
▁ans	-3982
▁dür	-3983
lagen	-3984
▁Grad	-3985
▁Wald	-3986
schutz	-3987
▁äußer	-3988
▁London	-3989
▁Zustand	-3990
▁Produkte	-3991
alisierung	-3992
▁Intelligen	-3993
Ver	-3994
▁Bu	-3995
orge	-3996
gress	-3997
masch	-3998
seite	-3999
▁komme	-4000
präsent	-4001
▁Freude	-4002
▁Schutz	-4003
▁frühen	-4004
▁Erkennt	-4005
▁eigenes	-4006
britannien	-4007
▁Verfügung	-4008
▁konzentrieren	-4009
ikas	-4010
seit	-4011
▁zeich	-4012
▁Physik	-4013
▁Region	-4014
▁emotion	-4015
▁geschah	-4016
▁Biologie	-4017
▁angefangen	-4018
frika	-4019
techn	-4020
unkel	-4021
▁gehe	-4022
bieren	-4023
ierungs	-4024
▁seines	-4025
▁trifft	-4026
▁öffnen	-4027
▁Antworten	-4028
▁außergewöhn	-4029
gän	-4030
ails	-4031
oper	-4032
ourn	-4033
weil	-4034
ption	-4035
stimm	-4036
▁bill	-4037
▁Bäume	-4038
▁Werte	-4039
▁perfe	-4040
▁Spitze	-4041
▁Waffen	-4042
▁gegangen	-4043
▁größeren	-4044
▁unabhäng	-4045
▁verbringen	-4046
▁Materialien	-4047
bü	-4048
▁Sh	-4049
▁on	-4050
orgt	-4051
▁Mut	-4052
▁Tal	-4053
▁Plast	-4054
▁Afghan	-4055
▁Sommer	-4056
▁Tieren	-4057
▁Fenster	-4058
▁Projekte	-4059
amb	-4060
ammt	-4061
▁197	-4062
▁echt	-4063
itionen	-4064
▁spreche	-4065
▁Freunden	-4066
▁Sauerstoff	-4067
▁Leidenschaft	-4068
▁Verantwortung	-4069
▁Pil	-4070
▁dank	-4071
isiert	-4072
▁Ident	-4073
▁Erstens	-4074
▁Designer	-4075
▁existiert	-4076
▁aufgenommen	-4077
"-	-4078
▁24	-4079
▁Mö	-4080
eien	-4081
lant	-4082
▁för	-4083
ielle	-4084
konom	-4085
unsch	-4086
▁Arme	-4087
▁Erst	-4088
▁Kons	-4089
▁Nähe	-4090
▁ident	-4091
▁Bedürf	-4092
▁ursprün	-4093
▁begonnen	-4094
reib	-4095
▁Del	-4096
auert	-4097
stieg	-4098
▁hört	-4099
ochter	-4100
▁fallen	-4101
▁Männern	-4102
▁erzeugt	-4103
▁globale	-4104
▁herzustellen	-4105
▁kontrollieren	-4106
ID	-4107
ärm	-4108
anda	-4109
sinn	-4110
▁eng	-4111
▁Zelle	-4112
setzung	-4113
▁Westen	-4114
▁Ausdruck	-4115
▁Gelegenheit	-4116
▁Infrastruktur	-4117
dre	-4118
netz	-4119
▁300	-4120
▁Drei	-4121
▁Krie	-4122
▁entsp	-4123
frieden	-4124
haltung	-4125
stellte	-4126
▁Strate	-4127
▁wählen	-4128
▁Schluss	-4129
▁nachhalt	-4130
sellschaft	-4131
▁geschafft	-4132
▁Unterstütz	-4133
▁Kreativität	-4134
▁erstaunlich	-4135
geg	-4136
▁Bio	-4137
▁Kurz	-4138
▁nutz	-4139
▁west	-4140
ennung	-4141
rachte	-4142
▁Trans	-4143
▁Wider	-4144
▁chines	-4145
▁häufig	-4146
▁entlang	-4147
▁größere	-4148
▁Werkzeuge	-4149
▁Überleben	-4150
▁Großbritannien	-4151
Er	-4152
rael	-4153
▁typ	-4154
hause	-4155
stadt	-4156
uster	-4157
▁Klei	-4158
▁Organ	-4159
▁Osten	-4160
ichtbar	-4161
▁akzept	-4162
▁genutzt	-4163
▁notwend	-4164
▁entstehen	-4165
▁Pe	-4166
gier	-4167
inos	-4168
▁Text	-4169
▁ließ	-4170
▁wirk	-4171
▁Nehmen	-4172
mosphäre	-4173
▁riesigen	-4174
▁irgendein	-4175
▁überraschen	-4176
bol	-4177
irt	-4178
▁Ins	-4179
▁Pal	-4180
hlten	-4181
▁erwähn	-4182
▁Jahrzeh	-4183
▁Tochter	-4184
▁dorthin	-4185
▁Interess	-4186
▁brauchte	-4187
kung	-4188
▁Glas	-4189
▁Prot	-4190
riffen	-4191
▁bezahl	-4192
▁Knochen	-4193
▁Polizei	-4194
ain	-4195
ört	-4196
text	-4197
üsse	-4198
▁196	-4199
▁Ele	-4200
▁kor	-4201
iesen	-4202
▁Dort	-4203
▁auss	-4204
▁lust	-4205
▁Gehir	-4206
▁schaut	-4207
ettbewer	-4208
minister	-4209
▁Gefühle	-4210
▁Version	-4211
▁handeln	-4212
▁mittler	-4213
▁erlauben	-4214
pe	-4215
ana	-4216
cebo	-4217
▁Erf	-4218
frage	-4219
▁fehl	-4220
▁gilt	-4221
▁Suche	-4222
▁nehme	-4223
drücken	-4224
eutlich	-4225
▁langen	-4226
▁kämpfen	-4227
▁Standard	-4228
▁Medikamente	-4229
▁ermöglichen	-4230
abe	-4231
holt	-4232
▁Tim	-4233
bruch	-4234
ilder	-4235
▁High	-4236
▁Loch	-4237
▁Müll	-4238
▁fühlt	-4239
▁kenne	-4240
▁sogen	-4241
zeichnen	-4242
▁Klassen	-4243
▁Schrift	-4244
▁einfacher	-4245
▁verantwort	-4246
stab	-4247
artig	-4248
dimen	-4249
etter	-4250
▁Mond	-4251
▁nütz	-4252
▁David	-4253
▁Frank	-4254
▁Ansatz	-4255
▁endlich	-4256
▁Neuronen	-4257
▁Phänomen	-4258
▁Vielfalt	-4259
geschichte	-4260
▁Geschäfts	-4261
▁Temperatur	-4262
▁produziert	-4263
▁beeinflusst	-4264
An	-4265
mel	-4266
▁Fo	-4267
▁Rä	-4268
leun	-4269
atter	-4270
führer	-4271
▁Todes	-4272
schauen	-4273
istische	-4274
▁Geschwindigkeit	-4275
▁iP	-4276
opul	-4277
neten	-4278
▁Vari	-4279
▁früh	-4280
▁okay	-4281
orgung	-4282
utlich	-4283
▁Typen	-4284
▁fühle	-4285
▁legen	-4286
osystem	-4287
▁Klasse	-4288
spektive	-4289
▁Statist	-4290
▁kompliz	-4291
▁Karriere	-4292
▁deutlich	-4293
▁weiterhin	-4294
▁Komplexität	-4295
▁wichtigsten	-4296
▁Lebensmittel	-4297
angt	-4298
renz	-4299
▁Bank	-4300
▁Hall	-4301
▁Häuser	-4302
▁transp	-4303
▁afrikan	-4304
▁reagieren	-4305
Wenn	-4306
gest	-4307
omin	-4308
▁Wal	-4309
▁nöt	-4310
gorit	-4311
mögen	-4312
▁blie	-4313
▁habt	-4314
▁krit	-4315
fallen	-4316
tember	-4317
▁hielt	-4318
▁Hunder	-4319
▁ändert	-4320
▁entsteht	-4321
▁beeinflussen	-4322
ged	-4323
swer	-4324
heben	-4325
▁Holz	-4326
▁Port	-4327
▁abst	-4328
▁Beruf	-4329
▁Karten	-4330
▁Massen	-4331
▁Ameisen	-4332
▁entschied	-4333
▁Produktion	-4334
▁Unterschiede	-4335
▁Verbindungen	-4336
▁Zusammenhang	-4337
hö	-4338
zur	-4339
pfel	-4340
▁Denk	-4341
▁kostet	-4342
▁Materie	-4343
▁Religion	-4344
▁stellten	-4345
▁Botschaft	-4346
▁Entwicklungsl	-4347
mme	-4348
▁Ep	-4349
geht	-4350
ikal	-4351
atell	-4352
nissen	-4353
▁seien	-4354
▁Kohlen	-4355
▁Kunden	-4356
▁online	-4357
▁Spielen	-4358
▁verkauft	-4359
SA	-4360
fil	-4361
vert	-4362
▁Mir	-4363
▁Zit	-4364
▁and	-4365
▁buch	-4366
▁krie	-4367
▁schn	-4368
istenz	-4369
umente	-4370
▁Opfer	-4371
▁Virus	-4372
▁Gewicht	-4373
▁vertrau	-4374
alisieren	-4375
▁Werkzeug	-4376
▁Wirtschafts	-4377
▁Gesellschaften	-4378
fit	-4379
älte	-4380
akten	-4381
eitet	-4382
▁Haar	-4383
aurier	-4384
▁Position	-4385
▁gewonnen	-4386
▁politischen	-4387
rug	-4388
afen	-4389
gere	-4390
view	-4391
wahr	-4392
▁2000	-4393
▁Blog	-4394
▁Jede	-4395
▁Körp	-4396
andels	-4397
iertel	-4398
indust	-4399
▁verbl	-4400
alismus	-4401
▁Result	-4402
▁passen	-4403
▁politische	-4404
▁Afghanistan	-4405
▁&	-4406
vel	-4407
▁Mc	-4408
▁Kop	-4409
hilfe	-4410
▁Band	-4411
▁Deut	-4412
▁Eins	-4413
▁Letz	-4414
artige	-4415
schrän	-4416
wohner	-4417
▁Vogel	-4418
änderte	-4419
▁erhält	-4420
▁letztes	-4421
industrie	-4422
▁Ökosystem	-4423
üh	-4424
Sie	-4425
etr	-4426
ong	-4427
▁Los	-4428
▁res	-4429
▁saß	-4430
acken	-4431
hoden	-4432
schlä	-4433
▁Satz	-4434
▁Seit	-4435
formen	-4436
recher	-4437
▁Offen	-4438
▁Titel	-4439
▁Privat	-4440
▁Schlag	-4441
▁Spiele	-4442
▁verfüg	-4443
zwischen	-4444
▁Einsatz	-4445
▁Zeichen	-4446
▁Aufgaben	-4447
▁Kilometer	-4448
▁Unterstützung	-4449
cy	-4450
ami	-4451
▁Jo	-4452
gern	-4453
tend	-4454
▁Sal	-4455
▁jün	-4456
▁sex	-4457
impan	-4458
▁Fein	-4459
▁anal	-4460
▁darf	-4461
digung	-4462
ährung	-4463
klärung	-4464
▁Plastik	-4465
▁dagegen	-4466
zubringen	-4467
▁behandelt	-4468
▁Atmosphäre	-4469
▁Zusammenarbeit	-4470
IDS	-4471
oge	-4472
anne	-4473
▁Bef	-4474
lecht	-4475
▁Kein	-4476
cebook	-4477
spielt	-4478
▁davor	-4479
▁Altern	-4480
▁ganzes	-4481
ifornien	-4482
▁Niemand	-4483
▁Sekunde	-4484
▁Städten	-4485
▁Facebook	-4486
▁Insekten	-4487
▁Fernsehen	-4488
▁Ausbildung	-4489
▁übertragen	-4490
ca	-4491
▁.	-4492
how	-4493
ost	-4494
otyp	-4495
▁Kir	-4496
dingt	-4497
halte	-4498
laden	-4499
▁Gang	-4500
▁spür	-4501
▁vern	-4502
aurant	-4503
schloss	-4504
▁klingt	-4505
▁Kontakt	-4506
dimension	-4507
▁Qualität	-4508
▁Schimpan	-4509
▁betrifft	-4510
▁weiteres	-4511
▁erstellen	-4512
▁verursacht	-4513
mung	-4514
▁Hor	-4515
▁Red	-4516
frist	-4517
▁Verk	-4518
▁ober	-4519
▁gaben	-4520
okument	-4521
▁Zentrum	-4522
▁schafft	-4523
▁steigen	-4524
▁benötigen	-4525
▁Universums	-4526
die	-4527
▁sü	-4528
arch	-4529
imal	-4530
▁Bud	-4531
▁rel	-4532
ender	-4533
▁Brie	-4534
▁Eind	-4535
▁Stär	-4536
▁chem	-4537
vollen	-4538
▁dauer	-4539
otograf	-4540
▁Rücken	-4541
▁Sterne	-4542
▁Diskuss	-4543
▁Drittel	-4544
▁Schwier	-4545
▁Soldaten	-4546
▁dieselbe	-4547
▁überzeugt	-4548
▁Hintergrund	-4549
▁Intelligenz	-4550
▁beschreiben	-4551
fs	-4552
appen	-4553
rücke	-4554
▁Heil	-4555
▁West	-4556
▁Babys	-4557
▁Genom	-4558
▁solch	-4559
bereich	-4560
▁leiden	-4561
sächlich	-4562
▁begeister	-4563
▁erforschen	-4564
▁investieren	-4565
▁veröffentlicht	-4566
▁,	-4567
▁us	-4568
bank	-4569
omat	-4570
▁Zur	-4571
▁Abst	-4572
▁Auft	-4573
▁Brot	-4574
▁Feld	-4575
▁Jobs	-4576
▁Szen	-4577
▁inst	-4578
▁Reich	-4579
▁sitzt	-4580
▁wirst	-4581
▁Schiff	-4582
▁Wunsch	-4583
▁perfekt	-4584
▁wiederum	-4585
▁Konferenz	-4586
▁unbedingt	-4587
▁verbreitet	-4588
▁wunderschön	-4589
▁Landwirtschaft	-4590
▁herausgefunden	-4591
asi	-4592
ipp	-4593
reu	-4594
rid	-4595
keln	-4596
serv	-4597
▁Web	-4598
▁Hund	-4599
▁erfü	-4600
derung	-4601
▁Klima	-4602
▁spiel	-4603
▁zentr	-4604
gewicht	-4605
isation	-4606
▁Fällen	-4607
▁Objekte	-4608
▁rechten	-4609
▁außerdem	-4610
▁Untersuch	-4611
▁vollkommen	-4612
▁überzeugen	-4613
▁Bedingungen	-4614
▁Klimawandel	-4615
▁Organisationen	-4616
▁Vö	-4617
▁Mex	-4618
krebs	-4619
losen	-4620
gument	-4621
▁Jugend	-4622
▁Wandel	-4623
▁lautet	-4624
▁Profess	-4625
▁erklärt	-4626
▁umgehen	-4627
▁Gemeinde	-4628
▁benötigt	-4629
▁sozusagen	-4630
0,	-4631
ames	-4632
plan	-4633
port	-4634
▁Che	-4635
▁See	-4636
eligi	-4637
▁Fach	-4638
▁bloß	-4639
▁trau	-4640
ournal	-4641
▁Handy	-4642
▁Zusch	-4643
▁haupt	-4644
▁spezi	-4645
steller	-4646
▁drehen	-4647
▁selber	-4648
▁verdienen	-4649
▁beschäftigt	-4650
ämpf	-4651
▁Bal	-4652
▁Dis	-4653
▁geha	-4654
entwick	-4655
▁leider	-4656
undament	-4657
▁alleine	-4658
▁buchstä	-4659
▁stecken	-4660
▁sicherlich	-4661
▁entwickelten	-4662
▁kommunizieren	-4663
sh	-4664
ieß	-4665
amin	-4666
▁Nor	-4667
▁daß	-4668
▁zuk	-4669
▁Schau	-4670
▁absch	-4671
führung	-4672
▁erstes	-4673
▁Einfach	-4674
▁Mitglie	-4675
▁Modelle	-4676
▁zufällig	-4677
ungssystem	-4678
▁Vertrauen	-4679
sse	-4680
▁Wü	-4681
ford	-4682
orte	-4683
▁Dre	-4684
▁Rom	-4685
▁Säu	-4686
▁Zug	-4687
urcht	-4688
▁Gold	-4689
▁künst	-4690
▁tolle	-4691
athemat	-4692
hältnis	-4693
▁Dienst	-4694
▁hinweg	-4695
▁erwartet	-4696
▁Identität	-4697
stu	-4698
▁Ei	-4699
iden	-4700
▁20.	-4701
▁Ken	-4702
▁Zwe	-4703
folgt	-4704
front	-4705
▁Auss	-4706
▁Will	-4707
▁Basis	-4708
▁Masse	-4709
▁Stoff	-4710
▁krank	-4711
aterial	-4712
▁Nutzen	-4713
aktionen	-4714
richtung	-4715
istischen	-4716
▁bezahlen	-4717
▁vermutlich	-4718
▁durchgeführt	-4719
ada	-4720
dit	-4721
ice	-4722
▁su	-4723
eils	-4724
mann	-4725
▁Hil	-4726
osoph	-4727
platz	-4728
raben	-4729
▁Fabr	-4730
▁Rede	-4731
▁Schn	-4732
▁Kaffe	-4733
▁Keine	-4734
▁dreht	-4735
▁neuer	-4736
herapie	-4737
spieler	-4738
programm	-4739
▁Forscher	-4740
▁besitzen	-4741
▁Bildschirm	-4742
Du	-4743
chtz	-4744
iste	-4745
lege	-4746
ring	-4747
ügel	-4748
▁Fün	-4749
▁usw	-4750
fügen	-4751
haben	-4752
▁Graf	-4753
▁aufw	-4754
emente	-4755
iellen	-4756
▁Affen	-4757
▁weiss	-4758
organis	-4759
▁Geräte	-4760
▁Nichts	-4761
▁Themen	-4762
▁bitten	-4763
▁werfen	-4764
▁geführt	-4765
▁zukünft	-4766
tu	-4767
fält	-4768
riffe	-4769
▁Paar	-4770
▁Sehr	-4771
▁disk	-4772
▁entw	-4773
wirken	-4774
▁wohin	-4775
spielen	-4776
teilung	-4777
zeichen	-4778
▁Museum	-4779
▁Schmerz	-4780
▁anderem	-4781
▁Korallen	-4782
▁individu	-4783
▁modernen	-4784
▁Milliarde	-4785
▁gestalten	-4786
▁repräsent	-4787
▁natürliche	-4788
▁auseinander	-4789
uz	-4790
ruf	-4791
lette	-4792
markt	-4793
▁Gest	-4794
▁Irak	-4795
▁läch	-4796
leisch	-4797
▁Beine	-4798
▁Motor	-4799
▁stolz	-4800
▁töten	-4801
▁Satell	-4802
▁antwor	-4803
ungskraft	-4804
▁Leistung	-4805
▁zurückzu	-4806
▁Fortschritt	-4807
▁buchstäblich	-4808
Re	-4809
grö	-4810
änn	-4811
hört	-4812
ling	-4813
▁erl	-4814
fisch	-4815
ätsel	-4816
▁Bett	-4817
▁Fest	-4818
iertes	-4819
oppelt	-4820
▁Bauern	-4821
▁Schwei	-4822
▁fragten	-4823
forschung	-4824
▁Großteil	-4825
▁Problemen	-4826
,"	-4827
▁at	-4828
ibel	-4829
▁Akt	-4830
▁Ans	-4831
▁Syn	-4832
aktiv	-4833
▁Ecke	-4834
▁Golf	-4835
zeiten	-4836
▁Beste	-4837
▁Mobil	-4838
geladen	-4839
ächtnis	-4840
▁Sorgen	-4841
▁schöne	-4842
▁verwir	-4843
▁Bildern	-4844
▁Wichtig	-4845
▁Galaxien	-4846
▁gelangen	-4847
▁Erinnerung	-4848
▁überrascht	-4849
rt	-4850
band	-4851
fert	-4852
onom	-4853
▁Mos	-4854
▁Rat	-4855
▁mot	-4856
ektor	-4857
▁Lern	-4858
▁Jungs	-4859
▁Staat	-4860
▁hängt	-4861
▁religi	-4862
isierung	-4863
▁Führung	-4864
▁Gründen	-4865
▁Kontext	-4866
▁kümmern	-4867
▁Kindheit	-4868
▁erinnert	-4869
▁nächstes	-4870
▁tausende	-4871
▁Präsident	-4872
▁verfolgen	-4873
▁interagieren	-4874
▁Institutionen	-4875
uh	-4876
▁1.	-4877
nitt	-4878
▁Tre	-4879
chern	-4880
hafte	-4881
▁Iran	-4882
▁laut	-4883
▁Train	-4884
▁Erzähl	-4885
▁Öffent	-4886
alisiert	-4887
▁Gesetze	-4888
▁derzeit	-4889
▁falsche	-4890
▁Gegenteil	-4891
▁gegenseit	-4892
gs	-4893
ox	-4894
▁Tw	-4895
ingu	-4896
uern	-4897
▁Dir	-4898
▁Rich	-4899
▁verh	-4900
▁Colle	-4901
▁eröff	-4902
▁fragt	-4903
▁halte	-4904
▁hohen	-4905
▁dürfen	-4906
▁sorgen	-4907
▁steckt	-4908
▁Depress	-4909
gendetwas	-4910
indestens	-4911
▁Sprachen	-4912
▁Wahrnehm	-4913
▁Zweitens	-4914
▁scheinen	-4915
▁interessanter	-4916
Der	-4917
bern	-4918
ehnt	-4919
▁400	-4920
aptop	-4921
▁Temp	-4922
▁ausl	-4923
▁Falls	-4924
▁Statt	-4925
achtung	-4926
▁Meilen	-4927
▁Online	-4928
▁Rahmen	-4929
▁Zuerst	-4930
▁lieber	-4931
▁schlie	-4932
stellten	-4933
▁Teilchen	-4934
▁verbracht	-4935
▁irgendwann	-4936
▁Kalifornien	-4937
kn	-4938
hmen	-4939
klus	-4940
beweg	-4941
▁Kann	-4942
▁dunk	-4943
▁getö	-4944
▁kürz	-4945
afrika	-4946
▁ignor	-4947
▁Norden	-4948
▁weiteren	-4949
richtungen	-4950
▁entwerfen	-4951
▁schließen	-4952
▁verhindern	-4953
▁Kohlenstoff	-4954
riz	-4955
▁el	-4956
adem	-4957
▁150	-4958
reite	-4959
▁City	-4960
▁sinn	-4961
▁Stein	-4962
▁Stift	-4963
▁Gewebe	-4964
▁beteil	-4965
▁deinen	-4966
▁einsch	-4967
▁gehabt	-4968
▁wächst	-4969
▁stärker	-4970
▁Elektron	-4971
▁verwandeln	-4972
▁möglicherweise	-4973
Nun	-4974
anst	-4975
sver	-4976
inken	-4977
macht	-4978
schau	-4979
▁Filme	-4980
quenzen	-4981
▁Händen	-4982
▁aussch	-4983
▁verlie	-4984
jährigen	-4985
▁Begriff	-4986
▁Patient	-4987
▁gewisse	-4988
▁täglich	-4989
blichkeit	-4990
▁besseren	-4991
▁Strukturen	-4992
▁begeistert	-4993
wissenschaft	-4994
▁hauptsächlich	-4995
pag	-4996
utt	-4997
▁Em	-4998
▁Gar	-4999
eiste	-5000
▁Sein	-5001
jekten	-5002
sweise	-5003
▁Autor	-5004
▁Außen	-5005
▁Sport	-5006
▁Bruder	-5007
▁Nation	-5008
▁Vision	-5009
▁testen	-5010
▁Aktivität	-5011
▁einsetzen	-5012
▁wunderbare	-5013
dige	-5014
▁Log	-5015
▁tue	-5016
krank	-5017
▁Fran	-5018
▁Frem	-5019
▁Brenn	-5020
▁weder	-5021
jährige	-5022
▁Gefahr	-5023
▁Nerven	-5024
▁Zimmer	-5025
▁schick	-5026
▁verein	-5027
ausenden	-5028
▁mathemat	-5029
▁Lieblings	-5030
▁vorhanden	-5031
▁letztendlich	-5032
ace	-5033
kle	-5034
wahl	-5035
▁Col	-5036
▁Sep	-5037
ckten	-5038
fahrt	-5039
▁Lied	-5040
▁ausb	-5041
schule	-5042
spiels	-5043
▁Bitte	-5044
▁Spekt	-5045
▁Fleisch	-5046
▁Militär	-5047
▁bemerkt	-5048
▁schwarz	-5049
▁Experten	-5050
▁zunehmen	-5051
▁Schimpansen	-5052
▁irgendetwas	-5053
▁Öffentlichkeit	-5054
äbe	-5055
▁35	-5056
wood	-5057
▁Asp	-5058
▁rad	-5059
ierer	-5060
▁Bras	-5061
▁Glob	-5062
▁hohe	-5063
▁Ziele	-5064
▁starb	-5065
▁Israel	-5066
▁ausgeb	-5067
▁glaubt	-5068
▁stelle	-5069
▁England	-5070
▁getötet	-5071
▁Außerdem	-5072
▁Verstand	-5073
▁angesehen	-5074
▁bestimmen	-5075
▁gefährlich	-5076
▁versuchten	-5077
▁wichtigste	-5078
▁interessieren	-5079
stau	-5080
weit	-5081
▁Tel	-5082
▁Aben	-5083
▁virt	-5084
▁Metap	-5085
▁begeg	-5086
▁regel	-5087
ammlung	-5088
▁Haufen	-5089
▁Videos	-5090
▁erster	-5091
▁Richard	-5092
▁Verkehr	-5093
▁gewisser	-5094
▁Augenblick	-5095
▁mindestens	-5096
▁vollständig	-5097
ly	-5098
amt	-5099
iag	-5100
▁Ox	-5101
bahn	-5102
läss	-5103
▁Ach	-5104
▁Ehe	-5105
▁Tau	-5106
▁Liter	-5107
▁frage	-5108
▁könnt	-5109
▁setzt	-5110
problem	-5111
vention	-5112
▁Heimat	-5113
▁Mütter	-5114
▁Quadrat	-5115
▁kreativ	-5116
▁schönen	-5117
inosaurier	-5118
▁praktisch	-5119
▁schlimmer	-5120
▁Landschaft	-5121
▁arbeiteten	-5122
▁amerikanische	-5123
▁Zä	-5124
alte	-5125
hingt	-5126
▁Chin	-5127
▁Volk	-5128
mutter	-5129
▁Austr	-5130
▁einst	-5131
▁bieten	-5132
▁sauber	-5133
▁einiger	-5134
▁präsent	-5135
▁September	-5136
▁Restaurant	-5137
▁eingesetzt	-5138
▁verantwortlich	-5139
zy	-5140
ädt	-5141
ekte	-5142
idem	-5143
▁Con	-5144
▁neg	-5145
eucht	-5146
nimmt	-5147
unken	-5148
utzer	-5149
▁Kohle	-5150
▁Schei	-5151
▁kennt	-5152
▁kurze	-5153
schrift	-5154
maschine	-5155
▁Gedanke	-5156
▁Stimmen	-5157
▁Verletz	-5158
▁erzähle	-5159
▁wenigen	-5160
▁Besonder	-5161
▁Nahrungs	-5162
▁fotograf	-5163
▁Wettbewer	-5164
▁durchschnitt	-5165
MS	-5166
hi	-5167
ara	-5168
oth	-5169
▁NA	-5170
schm	-5171
▁Ama	-5172
▁Sil	-5173
▁Ter	-5174
▁Uns	-5175
aufte	-5176
hlung	-5177
ognit	-5178
▁Maus	-5179
bliche	-5180
kehren	-5181
▁klass	-5182
▁teuer	-5183
gegeben	-5184
hington	-5185
ologisch	-5186
verständ	-5187
▁dritten	-5188
▁gehalten	-5189
▁hoffentlich	-5190
▁öffentliche	-5191
▁unterscheiden	-5192
Be	-5193
IT	-5194
wegs	-5195
▁Fle	-5196
▁Sei	-5197
eting	-5198
usion	-5199
▁Beob	-5200
▁Best	-5201
▁Chir	-5202
▁Gras	-5203
▁aufs	-5204
▁eint	-5205
▁halb	-5206
atoren	-5207
▁Innen	-5208
▁Schne	-5209
▁Trend	-5210
▁holen	-5211
agement	-5212
chtzeit	-5213
▁nannte	-5214
▁bekamen	-5215
▁nochmal	-5216
▁meistens	-5217
▁Schwester	-5218
▁existieren	-5219
air	-5220
cks	-5221
omit	-5222
pret	-5223
ieben	-5224
letzt	-5225
▁herr	-5226
▁Dimen	-5227
▁absol	-5228
bewesen	-5229
▁Grenze	-5230
▁dauert	-5231
▁eigent	-5232
▁Elektro	-5233
▁basiert	-5234
▁schaute	-5235
▁Diagramm	-5236
▁normalen	-5237
▁Erkenntnis	-5238
▁Verhaltens	-5239
▁Washington	-5240
▁Experimente	-5241
▁Perspektive	-5242
mon	-5243
▁As	-5244
▁oh	-5245
asste	-5246
▁Fehl	-5247
▁Lang	-5248
▁Mund	-5249
▁Sind	-5250
rennen	-5251
▁Folge	-5252
▁Radio	-5253
▁gener	-5254
▁total	-5255
▁10.000	-5256
▁Beweis	-5257
▁Laptop	-5258
▁Stress	-5259
▁gesund	-5260
▁Eindruck	-5261
▁Konflikt	-5262
▁Nationen	-5263
▁aufhören	-5264
▁entworfen	-5265
Ein	-5266
kan	-5267
urf	-5268
ühr	-5269
digt	-5270
▁Fig	-5271
▁Opt	-5272
▁kap	-5273
swert	-5274
zelle	-5275
▁Bein	-5276
▁Pfer	-5277
▁Rand	-5278
▁priv	-5279
echsel	-5280
sionen	-5281
untern	-5282
▁Fische	-5283
▁Obwohl	-5284
▁berech	-5285
▁ließen	-5286
▁linken	-5287
▁mitten	-5288
gänglich	-5289
▁Algorit	-5290
▁Gleiche	-5291
▁Gespräch	-5292
▁hunderte	-5293
▁beantworten	-5294
2-	-5295
The	-5296
arb	-5297
uft	-5298
ull	-5299
▁Abs	-5300
▁kom	-5301
reien	-5302
ängst	-5303
▁Boot	-5304
fragen	-5305
häuser	-5306
nehmer	-5307
▁Klein	-5308
▁Laufe	-5309
▁lernt	-5310
▁musst	-5311
▁Effekt	-5312
▁Irgend	-5313
▁Minute	-5314
▁Wesent	-5315
▁Gehirne	-5316
▁Folgendes	-5317
▁Katastrop	-5318
▁Zeitalter	-5319
▁Satelliten	-5320
▁hergestellt	-5321
▁vergleichen	-5322
för	-5323
nost	-5324
▁Gas	-5325
▁Imm	-5326
▁Nan	-5327
rasch	-5328
▁Dass	-5329
▁gäbe	-5330
▁verf	-5331
gewalt	-5332
hängig	-5333
▁Klang	-5334
▁Kombin	-5335
▁Sozial	-5336
▁hoffen	-5337
▁lustig	-5338
▁müsste	-5339
▁Journal	-5340
▁Spieler	-5341
▁Moleküle	-5342
▁Gegensatz	-5343
▁entspricht	-5344
▁Unternehmer	-5345
▁unterschiedlich	-5346
hte	-5347
leg	-5348
pte	-5349
heim	-5350
skop	-5351
▁zog	-5352
acher	-5353
rippe	-5354
▁Impf	-5355
gruppe	-5356
wiesen	-5357
▁Defin	-5358
▁Ganze	-5359
▁Niger	-5360
▁meist	-5361
▁nutzt	-5362
▁trägt	-5363
▁wieso	-5364
artigen	-5365
▁Kontin	-5366
▁diskut	-5367
▁erlebt	-5368
▁Zuhause	-5369
▁tausend	-5370
▁Politiker	-5371
▁allerdings	-5372
▁Dinosaurier	-5373
kor	-5374
pft	-5375
▁Spr	-5376
▁Toi	-5377
aster	-5378
▁dran	-5379
▁trin	-5380
▁Momen	-5381
▁roten	-5382
▁wahre	-5383
ständen	-5384
▁Kräfte	-5385
▁Lachen	-5386
▁Rätsel	-5387
▁aufgew	-5388
▁vieler	-5389
▁Körpers	-5390
▁Twitter	-5391
▁dennoch	-5392
▁genauer	-5393
▁reichen	-5394
▁effektiv	-5395
▁erkannte	-5396
▁Brasilien	-5397
▁UN	-5398
jahr	-5399
samt	-5400
▁21.	-5401
eiger	-5402
etrie	-5403
rüben	-5404
▁Phys	-5405
▁fiel	-5406
▁somit	-5407
▁Andere	-5408
▁Zucker	-5409
▁schlau	-5410
▁starke	-5411
▁College	-5412
▁Arbeiten	-5413
▁erfinden	-5414
▁entstanden	-5415
▁verbreiten	-5416
omme	-5417
test	-5418
▁Anw	-5419
ähren	-5420
▁engl	-5421
▁schm	-5422
▁Franc	-5423
▁Insel	-5424
▁Verbr	-5425
▁lebte	-5426
▁echten	-5427
▁schien	-5428
▁Vorteil	-5429
▁relativ	-5430
▁schlagen	-5431
▁brauchten	-5432
▁wichtigen	-5433
▁Eigentlich	-5434
▁entwickelte	-5435
wärt	-5436
ischt	-5437
ologe	-5438
▁zuzu	-5439
riften	-5440
▁Krise	-5441
▁Milch	-5442
ordnung	-5443
schland	-5444
▁Rechte	-5445
▁Steuer	-5446
▁Spiegel	-5447
▁fördern	-5448
▁gelesen	-5449
fähigkeit	-5450
▁brachten	-5451
▁Lebewesen	-5452
▁Bewegungen	-5453
▁Entdeckung	-5454
▁erscheinen	-5455
ld	-5456
oc	-5457
dru	-5458
ates	-5459
ogar	-5460
▁AIDS	-5461
▁Zell	-5462
▁Erleb	-5463
▁Etwas	-5464
▁Solar	-5465
▁Trotz	-5466
ulieren	-5467
▁drüben	-5468
▁kurzen	-5469
▁zahlen	-5470
▁beinhal	-5471
▁bezahlt	-5472
▁brauche	-5473
▁gestern	-5474
▁demokrat	-5475
▁programm	-5476
▁Zuschauer	-5477
▁Organismen	-5478
.,	-5479
ahe	-5480
bas	-5481
use	-5482
▁ag	-5483
adel	-5484
akte	-5485
olly	-5486
öpfe	-5487
▁Deb	-5488
▁Jul	-5489
▁Tie	-5490
▁par	-5491
mäßig	-5492
rafen	-5493
werden	-5494
▁Ihres	-5495
meister	-5496
rizität	-5497
▁Wellen	-5498
▁Wetter	-5499
▁integr	-5500
▁vorber	-5501
▁Buchsta	-5502
▁Mission	-5503
▁Nachdem	-5504
▁aufbauen	-5505
▁zunächst	-5506
▁Generationen	-5507
Ar	-5508
▁45	-5509
▁Gi	-5510
abei	-5511
elev	-5512
ffer	-5513
hmus	-5514
nahm	-5515
osen	-5516
▁Bri	-5517
▁Elef	-5518
▁Empf	-5519
▁Fett	-5520
▁Krit	-5521
▁Tanz	-5522
▁männ	-5523
▁fängt	-5524
amerika	-5525
dlichen	-5526
fordert	-5527
▁Jemand	-5528
▁auftau	-5529
▁Ansicht	-5530
▁Einstein	-5531
▁Hinsicht	-5532
▁Methoden	-5533
▁reduzieren	-5534
üge	-5535
üte	-5536
trag	-5537
▁Hom	-5538
▁Hyp	-5539
▁Mem	-5540
▁Wik	-5541
ietet	-5542
igend	-5543
▁Atom	-5544
▁Dabei	-5545
▁Viren	-5546
▁Weile	-5547
ografie	-5548
▁Normal	-5549
sätzlich	-5550
▁gehören	-5551
▁welchen	-5552
▁Netzwerke	-5553
▁Operation	-5554
▁Professor	-5555
▁Individuen	-5556
▁persönlich	-5557
▁verbrachte	-5558
▁verschwinden	-5559
▁la	-5560
vard	-5561
äuse	-5562
▁Sen	-5563
passt	-5564
▁Dach	-5565
▁jähr	-5566
▁zeit	-5567
agiert	-5568
eicher	-5569
▁Jeden	-5570
▁Aspekt	-5571
▁Fakten	-5572
▁Folgen	-5573
▁Kaffee	-5574
▁Streit	-5575
▁identif	-5576
▁normale	-5577
▁Elemente	-5578
▁Tausende	-5579
▁abhängig	-5580
▁geändert	-5581
▁kürzlich	-5582
echtigkeit	-5583
▁Gemeinden	-5584
▁gestorben	-5585
▁vermittel	-5586
▁definieren	-5587
▁zusammenge	-5588
▁beschlossen	-5589
▁Elektrizität	-5590
by	-5591
ala	-5592
osm	-5593
yse	-5594
▁Tex	-5595
ichen	-5596
▁rede	-5597
▁halbe	-5598
▁nötig	-5599
rauchen	-5600
▁Ausmaß	-5601
▁Grafik	-5602
▁Linien	-5603
▁Mechan	-5604
▁starten	-5605
▁entgegen	-5606
▁beschloss	-5607
▁vergangen	-5608
▁Interessen	-5609
▁Wahrnehmung	-5610
▁traditionellen	-5611
?“	-5612
ube	-5613
▁2,	-5614
▁Ed	-5615
aust	-5616
▁Com	-5617
▁Hei	-5618
▁Pak	-5619
▁Tor	-5620
▁las	-5621
▁Atem	-5622
▁Blau	-5623
▁Eben	-5624
▁rück	-5625
aturen	-5626
igsten	-5627
reisen	-5628
▁Armen	-5629
▁Laden	-5630
▁passt	-5631
▁wobei	-5632
ruption	-5633
scheint	-5634
▁kombin	-5635
▁körper	-5636
▁meiste	-5637
▁nieder	-5638
▁stammt	-5639
ätigkeit	-5640
▁begrenz	-5641
▁Arbeitspl	-5642
▁aufregend	-5643
spielsweise	-5644
▁Deutschland	-5645
edia	-5646
erne	-5647
tial	-5648
▁Exp	-5649
▁MIT	-5650
omben	-5651
onstr	-5652
wagen	-5653
ösung	-5654
▁Ober	-5655
fische	-5656
▁Konse	-5657
▁folgt	-5658
▁wechs	-5659
erseits	-5660
umenten	-5661
▁histor	-5662
▁tiefer	-5663
▁zählen	-5664
ographie	-5665
▁ausgest	-5666
▁ungewöhn	-5667
▁verwende	-5668
▁Abschluss	-5669
▁Wohlstand	-5670
▁erscheint	-5671
▁verbindet	-5672
▁darstellen	-5673
▁entsprechen	-5674
▁grundlegende	-5675
ham	-5676
hek	-5677
ike	-5678
res	-5679
tin	-5680
zon	-5681
▁fäh	-5682
plant	-5683
▁Emot	-5684
▁Null	-5685
▁Orig	-5686
▁dram	-5687
▁eure	-5688
▁fuhr	-5689
endung	-5690
▁Times	-5691
▁angeb	-5692
▁Garten	-5693
▁Staats	-5694
▁analys	-5695
▁kurzem	-5696
▁lebten	-5697
▁Beweise	-5698
▁Details	-5699
▁Francis	-5700
▁Theater	-5701
▁spielte	-5702
▁worüber	-5703
▁Prototyp	-5704
▁anwenden	-5705
▁behalten	-5706
▁Erklärung	-5707
▁verfügbar	-5708
▁zerstören	-5709
▁Forschungs	-5710
▁natürlichen	-5711
▁Schwierigkeiten	-5712
▁Sl	-5713
atik	-5714
klen	-5715
mord	-5716
▁Bon	-5717
geber	-5718
stung	-5719
▁Sens	-5720
▁mass	-5721
olitik	-5722
▁exper	-5723
▁gross	-5724
▁optim	-5725
▁Darwin	-5726
▁reicht	-5727
▁Berechn	-5728
▁Konflik	-5729
▁Website	-5730
▁eindeut	-5731
▁Weltraum	-5732
▁Emotionen	-5733
▁studieren	-5734
▁Mitarbeiter	-5735
möglichkeiten	-5736
▁beschäftigen	-5737
hü	-5738
nü	-5739
yl	-5740
aff	-5741
eise	-5742
▁ruh	-5743
bares	-5744
▁Code	-5745
rechte	-5746
▁train	-5747
▁übrig	-5748
▁Träume	-5749
▁Voraus	-5750
▁Maßstab	-5751
▁morgens	-5752
▁Nachbarn	-5753
▁komplexe	-5754
▁aufgebaut	-5755
▁entdeckte	-5756
▁schlechter	-5757
sa	-5758
gyp	-5759
itt	-5760
umb	-5761
▁Ap	-5762
mmen	-5763
▁Hör	-5764
enter	-5765
llekt	-5766
▁Kerl	-5767
▁zahl	-5768
ischem	-5769
▁Islam	-5770
▁wuchs	-5771
▁Besitz	-5772
▁Umfeld	-5773
▁allgem	-5774
▁dauern	-5775
▁setzte	-5776
▁Arbeiter	-5777
▁gewissen	-5778
▁zerstört	-5779
▁geschickt	-5780
▁wesentlich	-5781
▁medizinische	-5782
20	-5783
flug	-5784
uman	-5785
▁Tom	-5786
▁bat	-5787
ancen	-5788
bliot	-5789
ehren	-5790
▁Pass	-5791
▁Verw	-5792
merzen	-5793
▁Neben	-5794
▁blieb	-5795
▁Batter	-5796
▁Mexiko	-5797
▁Schlaf	-5798
▁formen	-5799
▁umgeben	-5800
▁verschl	-5801
▁deswegen	-5802
▁nützlich	-5803
issenschaft	-5804
▁beobachtet	-5805
▁zugänglich	-5806
äne	-5807
aria	-5808
herr	-5809
ohnt	-5810
ones	-5811
▁Ill	-5812
▁abl	-5813
gerät	-5814
▁Beim	-5815
▁Paul	-5816
▁nerv	-5817
sichts	-5818
▁Vögel	-5819
▁bewer	-5820
▁motiv	-5821
▁quasi	-5822
ersagen	-5823
rachten	-5824
züglich	-5825
▁Inhalt	-5826
▁Persön	-5827
▁Quelle	-5828
▁School	-5829
▁heißen	-5830
▁steigt	-5831
▁Werbung	-5832
▁Freundin	-5833
▁Vorstell	-5834
▁annehmen	-5835
▁langweil	-5836
▁Geschlecht	-5837
▁Korruption	-5838
▁vermitteln	-5839
▁Zivilisation	-5840
IP	-5841
fir	-5842
anzös	-5843
räume	-5844
▁Auff	-5845
▁Fünf	-5846
▁Russ	-5847
▁Sitz	-5848
andert	-5849
▁Fälle	-5850
▁Pingu	-5851
▁Seine	-5852
▁Zitat	-5853
▁ermut	-5854
sprache	-5855
steigen	-5856
▁Gewinn	-5857
▁Größen	-5858
▁Riesen	-5859
▁zusätz	-5860
▁Fernseh	-5861
▁Kapital	-5862
▁erkennt	-5863
verbrauch	-5864
▁Kulturen	-5865
▁ersetzen	-5866
▁sprachen	-5867
▁Vorfahren	-5868
▁beschleun	-5869
▁Australien	-5870
▁Diskussion	-5871
▁Medikament	-5872
▁Architekten	-5873
30	-5874
ica	-5875
ton	-5876
mehr	-5877
ulen	-5878
▁Sam	-5879
▁min	-5880
▁zut	-5881
zieht	-5882
▁grau	-5883
▁Stufe	-5884
▁Tests	-5885
▁vorne	-5886
▁zieht	-5887
▁ausger	-5888
▁Entfern	-5889
▁erwähnt	-5890
▁solcher	-5891
▁Geräusch	-5892
▁schwarze	-5893
▁Bereichen	-5894
▁langfrist	-5895
▁verhalten	-5896
▁Verhältnis	-5897
▁schrecklich	-5898
▁Durchschnitt	-5899
azi	-5900
ozi	-5901
put	-5902
oler	-5903
▁Les	-5904
▁rot	-5905
antas	-5906
eskop	-5907
rennt	-5908
rufen	-5909
stren	-5910
weile	-5911
▁fern	-5912
recken	-5913
spruch	-5914
talien	-5915
▁Neues	-5916
▁Sogar	-5917
▁außen	-5918
ziehung	-5919
▁Zauber	-5920
▁herein	-5921
▁treten	-5922
▁Gericht	-5923
▁Schnitt	-5924
▁gebeten	-5925
▁müssten	-5926
versorgung	-5927
▁Verbesser	-5928
▁industrie	-5929
▁Buchstaben	-5930
▁Situationen	-5931
aat	-5932
▁wü	-5933
ging	-5934
itiv	-5935
▁wes	-5936
▁Teen	-5937
▁Vorh	-5938
▁Zahn	-5939
▁heil	-5940
▁leid	-5941
▁miss	-5942
ategor	-5943
letten	-5944
räumen	-5945
▁Seele	-5946
▁Zweck	-5947
▁unend	-5948
▁Bedroh	-5949
▁Doktor	-5950
▁enorme	-5951
▁hinten	-5952
issionen	-5953
▁Präsent	-5954
▁berührt	-5955
▁seitdem	-5956
▁Schatten	-5957
▁Strategie	-5958
▁notwendig	-5959
▁Großmutter	-5960
▁aufzubauen	-5961
▁inspiriert	-5962
▁fantastisch	-5963
▁persönlichen	-5964
▁Kö	-5965
affe	-5966
▁Got	-5967
▁ide	-5968
▁inf	-5969
antes	-5970
▁Stau	-5971
▁ille	-5972
▁klin	-5973
▁rief	-5974
▁stop	-5975
einbar	-5976
gehend	-5977
▁Gutes	-5978
▁versp	-5979
diglich	-5980
itation	-5981
▁Damals	-5982
▁Erwart	-5983
▁Rechen	-5984
▁Welche	-5985
▁gering	-5986
▁schaff	-5987
▁stabil	-5988
▁Auswahl	-5989
▁hierher	-5990
▁schätzen	-5991
▁feststellen	-5992
▁stattdessen	-5993
ex	-5994
pon	-5995
▁dr	-5996
▁Rot	-5997
▁Sob	-5998
ember	-5999
karte	-6000
▁Wurz	-6001
▁beit	-6002
▁mult	-6003
▁Anrei	-6004
▁Tumor	-6005
▁fähig	-6006
▁heran	-6007
▁Belohn	-6008
▁Chemie	-6009
▁Signal	-6010
▁gelöst	-6011
▁Verlust	-6012
▁Bereiche	-6013
▁entstand	-6014
▁verteilt	-6015
▁Anwendung	-6016
▁Tradition	-6017
▁schlechten	-6018
▁Interaktion	-6019
la	-6020
vol	-6021
ähm	-6022
▁Ke	-6023
▁hü	-6024
iein	-6025
tels	-6026
wach	-6027
uropä	-6028
▁real	-6029
bieten	-6030
jemand	-6031
sprung	-6032
▁Angel	-6033
▁Lager	-6034
▁Parad	-6035
▁betro	-6036
▁geist	-6037
▁poten	-6038
▁voran	-6039
▁Herren	-6040
▁Schuld	-6041
▁Willen	-6042
▁Bestand	-6043
▁Fischer	-6044
▁Student	-6045
▁Viertel	-6046
▁spannen	-6047
▁überprü	-6048
▁erstellt	-6049
▁untersucht	-6050
verständlich	-6051
Pl	-6052
int	-6053
pol	-6054
zig	-6055
ehlt	-6056
▁Teu	-6057
▁Urs	-6058
▁syn	-6059
elben	-6060
▁Trag	-6061
▁Vern	-6062
▁Ägyp	-6063
▁Süden	-6064
▁enorm	-6065
▁kolle	-6066
einhalb	-6067
richtet	-6068
▁Anteil	-6069
▁Gegend	-6070
▁Helden	-6071
▁Leider	-6072
▁Planet	-6073
▁Stärke	-6074
▁Wolken	-6075
▁ergibt	-6076
▁heisst	-6077
▁kannte	-6078
▁langer	-6079
▁vergrö	-6080
besonder	-6081
▁Fahrrad	-6082
▁Galaxie	-6083
▁Harvard	-6084
▁standen	-6085
▁welchem	-6086
▁Aufnahme	-6087
▁gespielt	-6088
▁versteht	-6089
▁aufnehmen	-6090
▁westlichen	-6091
▁Erwachsenen	-6092
▁unterstützt	-6093
▁Erinnerungen	-6094
ird	-6095
etik	-6096
frei	-6097
igem	-6098
ilde	-6099
raht	-6100
▁11.	-6101
euern	-6102
fähig	-6103
ässer	-6104
▁Klin	-6105
▁Rake	-6106
▁Schä	-6107
▁erwä	-6108
▁beweg	-6109
atische	-6110
ikalien	-6111
▁dunkle	-6112
▁junger	-6113
omatisch	-6114
▁Malaria	-6115
▁Risiken	-6116
▁steuern	-6117
▁Echtzeit	-6118
▁speziell	-6119
▁Geheimnis	-6120
▁digitalen	-6121
▁lediglich	-6122
▁beinhaltet	-6123
▁unabhängig	-6124
▁internationalen	-6125
com	-6126
rot	-6127
oßen	-6128
ston	-6129
▁Air	-6130
▁Brü	-6131
▁Gro	-6132
▁You	-6133
▁dur	-6134
eiter	-6135
gener	-6136
▁Früh	-6137
▁Stör	-6138
fernen	-6139
leitet	-6140
▁Hunde	-6141
▁Kreuz	-6142
▁Start	-6143
etische	-6144
gründet	-6145
▁Blumen	-6146
▁Nieder	-6147
▁blauen	-6148
▁kümmer	-6149
gelassen	-6150
▁Charles	-6151
▁Wissens	-6152
▁Anderson	-6153
▁Existenz	-6154
▁Kongress	-6155
▁Lebenser	-6156
▁Zwischen	-6157
▁beweisen	-6158
▁Kontinent	-6159
▁Potential	-6160
▁kollektiv	-6161
▁überwinden	-6162
▁persönliche	-6163
▁wirtschaftliche	-6164
ael	-6165
ida	-6166
pha	-6167
ült	-6168
▁Ta	-6169
aser	-6170
hrop	-6171
hung	-6172
ions	-6173
seln	-6174
star	-6175
▁Tun	-6176
lekul	-6177
▁Eier	-6178
▁Mess	-6179
▁Roll	-6180
▁Wein	-6181
▁expl	-6182
ammelt	-6183
testen	-6184
▁Stuhl	-6185
▁World	-6186
▁domin	-6187
▁stehe	-6188
wärmung	-6189
▁Teufel	-6190
▁Weiter	-6191
▁belieb	-6192
▁profit	-6193
sprozess	-6194
wachstum	-6195
▁Element	-6196
▁Fliegen	-6197
▁Geistes	-6198
▁beinahe	-6199
▁konstru	-6200
▁kriegen	-6201
▁äußerst	-6202
besondere	-6203
▁besuchen	-6204
▁verstehe	-6205
▁vermeiden	-6206
▁verbessert	-6207
▁schwieriger	-6208
▁Wesentlichen	-6209
▁erstaunliche	-6210
▁menschlicher	-6211
▁99	-6212
▁GP	-6213
▁Bem	-6214
▁dün	-6215
artet	-6216
denkt	-6217
euert	-6218
kreis	-6219
▁Post	-6220
▁höre	-6221
flicht	-6222
geschw	-6223
nitten	-6224
▁Gemäl	-6225
▁Pfund	-6226
▁Stock	-6227
▁brill	-6228
▁still	-6229
▁sucht	-6230
blichen	-6231
▁Kampag	-6232
▁Schlei	-6233
▁Winter	-6234
▁meinte	-6235
▁singen	-6236
▁soviel	-6237
▁sparen	-6238
ffizienz	-6239
▁Respekt	-6240
▁gefällt	-6241
▁lokalen	-6242
▁Überrasch	-6243
▁Instrument	-6244
▁Kombination	-6245
▁gegenseitig	-6246
▁kompliziert	-6247
ley	-6248
rang	-6249
äfte	-6250
▁Rhy	-6251
boden	-6252
linge	-6253
rimin	-6254
undes	-6255
▁Kurs	-6256
▁Prim	-6257
▁form	-6258
geregt	-6259
▁Damen	-6260
▁Kabel	-6261
▁Moral	-6262
▁Platt	-6263
▁Wieso	-6264
▁innov	-6265
reibung	-6266
samkeit	-6267
wechsel	-6268
▁Brücke	-6269
▁kognit	-6270
▁lebens	-6271
▁Erkrank	-6272
▁Komment	-6273
▁liefern	-6274
▁moderne	-6275
▁gefangen	-6276
▁kreieren	-6277
▁weiterer	-6278
▁Grundlage	-6279
▁wirkliche	-6280
▁Definition	-6281
▁Bedürfnisse	-6282
▁vorzustellen	-6283
fig	-6284
Mail	-6285
burg	-6286
eier	-6287
ifiz	-6288
kton	-6289
▁etc	-6290
iveau	-6291
weite	-6292
▁Allt	-6293
▁Anim	-6294
▁NASA	-6295
▁arab	-6296
▁brit	-6297
▁neur	-6298
ichter	-6299
rieren	-6300
▁Gehen	-6301
▁Links	-6302
▁Schle	-6303
▁Spezi	-6304
▁Danach	-6305
qualität	-6306
vermögen	-6307
▁Einheit	-6308
▁Richtig	-6309
▁Deswegen	-6310
▁Südafrika	-6311
▁fundament	-6312
▁Aktivitäten	-6313
Hey	-6314
hls	-6315
orp	-6316
lied	-6317
ühen	-6318
▁Jan	-6319
anger	-6320
ringe	-6321
▁Betr	-6322
▁Cent	-6323
▁Wild	-6324
▁seid	-6325
▁spät	-6326
▁verab	-6327
zentrum	-6328
▁George	-6329
▁Gesamt	-6330
▁besagt	-6331
▁durchs	-6332
▁Erfindung	-6333
▁besondere	-6334
▁entfernen	-6335
▁erweitern	-6336
▁transport	-6337
▁gemeinsame	-6338
▁übernehmen	-6339
▁beschrieben	-6340
▁faszinierend	-6341
Na	-6342
ago	-6343
far	-6344
kal	-6345
▁Cy	-6346
reif	-6347
▁19.	-6348
▁Seh	-6349
▁Skl	-6350
▁iPh	-6351
nungs	-6352
▁2008	-6353
▁Astr	-6354
▁Rech	-6355
▁Tour	-6356
▁Trau	-6357
▁stet	-6358
▁tats	-6359
fahrer	-6360
haften	-6361
▁Bauch	-6362
▁Kapit	-6363
▁Kenia	-6364
▁Weihn	-6365
▁armen	-6366
▁drauf	-6367
▁fährt	-6368
▁Inspir	-6369
▁Kirche	-6370
▁Mengen	-6371
▁bauten	-6372
▁gelebt	-6373
▁lachen	-6374
▁moment	-6375
▁verblü	-6376
▁Absicht	-6377
▁Bibliot	-6378
▁erhöhen	-6379
▁Ereignis	-6380
▁Nachhalt	-6381
▁ähnliche	-6382
▁dieselben	-6383
▁eindeutig	-6384
▁gegründet	-6385
▁fasziniert	-6386
▁geschlossen	-6387
▁großartigen	-6388
▁funktionierte	-6389
okus	-6390
rett	-6391
teln	-6392
▁Ehr	-6393
▁Jun	-6394
▁erz	-6395
biert	-6396
nchen	-6397
rustr	-6398
ätter	-6399
imeter	-6400
▁Blatt	-6401
▁Brief	-6402
▁Küste	-6403
▁Würde	-6404
▁innen	-6405
gruppen	-6406
ließend	-6407
▁Zufall	-6408
▁bietet	-6409
▁Schicks	-6410
▁Zeitung	-6411
▁grundle	-6412
▁Bildungs	-6413
▁Pakistan	-6414
▁Russland	-6415
▁Schritte	-6416
▁Vorteile	-6417
▁dahinter	-6418
▁Philosoph	-6419
▁veränderte	-6420
▁Chemikalien	-6421
▁Sicherheits	-6422
▁Statistiken	-6423
▁akzeptieren	-6424
zz	-6425
gas	-6426
osh	-6427
▁23	-6428
krie	-6429
▁Eth	-6430
▁Ren	-6431
▁Ung	-6432
▁Wäl	-6433
staat	-6434
zesse	-6435
▁Gemü	-6436
▁Tief	-6437
▁länd	-6438
▁rote	-6439
gesetz	-6440
▁Theor	-6441
▁Wagen	-6442
▁baute	-6443
▁unbek	-6444
▁vorzu	-6445
▁Führer	-6446
▁Ozeane	-6447
▁ausgew	-6448
▁furcht	-6449
amerikan	-6450
▁Afrikas	-6451
▁Momente	-6452
▁Signale	-6453
▁erhielt	-6454
▁glaubte	-6455
▁Komponen	-6456
▁elektron	-6457
▁konfront	-6458
▁sichtbar	-6459
▁Gegenwart	-6460
▁Interview	-6461
▁gebraucht	-6462
▁Stattdessen	-6463
▁gesellschaft	-6464
anc	-6465
ash	-6466
sum	-6467
beln	-6468
förm	-6469
▁Gre	-6470
▁log	-6471
amour	-6472
eiern	-6473
flekt	-6474
grenz	-6475
noten	-6476
ücken	-6477
▁Merk	-6478
▁froh	-6479
▁genü	-6480
▁trag	-6481
bücher	-6482
drückt	-6483
holfen	-6484
▁Folie	-6485
▁Wüste	-6486
fliegen	-6487
stoffen	-6488
▁Christ	-6489
▁Gottes	-6490
▁inform	-6491
▁willst	-6492
▁Gebiete	-6493
▁Nigeria	-6494
▁ansieht	-6495
▁besitzt	-6496
▁manchen	-6497
losigkeit	-6498
schriften	-6499
▁Mehrheit	-6500
▁Metapher	-6501
▁Ungleich	-6502
▁Zunächst	-6503
▁darunter	-6504
▁folgende	-6505
▁gefallen	-6506
▁perfekte	-6507
▁Überzeug	-6508
▁Francisco	-6509
▁Transport	-6510
▁Einstellung	-6511
▁dargestellt	-6512
▁Informations	-6513
▁beispielsweise	-6514
bür	-6515
mar	-6516
önt	-6517
▁2.	-6518
berg	-6519
esie	-6520
gefü	-6521
inkt	-6522
stud	-6523
urer	-6524
▁Bur	-6525
▁SMS	-6526
▁fil	-6527
▁mut	-6528
▁wüs	-6529
▁Ähn	-6530
▁Verd	-6531
▁heiß	-6532
kelett	-6533
▁Darum	-6534
▁Paten	-6535
▁Steve	-6536
▁jener	-6537
▁Fabrik	-6538
▁Hunger	-6539
▁Tonnen	-6540
▁intens	-6541
scheidet	-6542
▁Kapitel	-6543
▁Lektion	-6544
▁Wirkung	-6545
▁digitale	-6546
▁mögliche	-6547
▁vertraut	-6548
▁Geburtstag	-6549
▁verwandelt	-6550
▁Fortschritte	-6551
▁aufgewachsen	-6552
▁internationale	-6553
bi	-6554
ags	-6555
har	-6556
hnt	-6557
ole	-6558
wen	-6559
ackt	-6560
▁600	-6561
▁Ass	-6562
▁Eng	-6563
▁Roh	-6564
▁Top	-6565
räger	-6566
teile	-6567
▁Mult	-6568
▁erhe	-6569
▁mark	-6570
gesamt	-6571
stechn	-6572
unkten	-6573
▁James	-6574
▁trans	-6575
▁Lungen	-6576
▁Löcher	-6577
▁Pflege	-6578
▁Unfall	-6579
▁realen	-6580
bewegung	-6581
derungen	-6582
▁enthält	-6583
▁gewählt	-6584
verhalten	-6585
▁Erlebnis	-6586
▁angenommen	-6587
▁bezeichnen	-6588
▁automatisch	-6589
▁Unterhaltung	-6590
▁afrikanischen	-6591
▁unglaublichen	-6592
Wo	-6593
kr	-6594
bek	-6595
ics	-6596
ruh	-6597
uck	-6598
▁75	-6599
eten	-6600
iban	-6601
ores	-6602
rast	-6603
▁Tit	-6604
▁Zer	-6605
ippen	-6606
menge	-6607
osten	-6608
▁Show	-6609
▁Symm	-6610
▁arme	-6611
▁zust	-6612
System	-6613
bstoff	-6614
quelle	-6615
ruppen	-6616
▁Einen	-6617
▁Erdbe	-6618
▁Immer	-6619
▁Stahl	-6620
▁blaue	-6621
▁platz	-6622
▁schne	-6623
▁sowas	-6624
▁wofür	-6625
andelte	-6626
schicht	-6627
▁Dunkel	-6628
▁Epidem	-6629
▁Kanada	-6630
▁Sobald	-6631
▁Symbol	-6632
▁Völker	-6633
▁anfing	-6634
▁bedeut	-6635
▁Hindern	-6636
▁dauerte	-6637
▁zeigten	-6638
erstörung	-6639
▁schlafen	-6640
▁wechseln	-6641
▁zurückge	-6642
▁Gedächtnis	-6643
▁Innovationen	-6644
▁Untersuchung	-6645
En	-6646
ward	-6647
öser	-6648
▁Dat	-6649
▁Krä	-6650
▁Pan	-6651
▁the	-6652
▁ult	-6653
▁Alex	-6654
▁Dazu	-6655
▁Nase	-6656
▁moch	-6657
duktiv	-6658
kungen	-6659
▁Popul	-6660
▁extra	-6661
▁staat	-6662
fession	-6663
spiegel	-6664
▁Amazon	-6665
▁Flücht	-6666
▁Kriegs	-6667
▁fingen	-6668
▁leiten	-6669
▁senden	-6670
▁Molekül	-6671
▁Nutzung	-6672
▁führten	-6673
▁unglück	-6674
▁unteren	-6675
▁verring	-6676
▁Webseite	-6677
▁falschen	-6678
▁hinunter	-6679
▁zeichnen	-6680
▁Billionen	-6681
▁Gesichter	-6682
▁Literatur	-6683
▁bekannten	-6684
▁beobachte	-6685
▁Verbrechen	-6686
▁zusammenzu	-6687
▁Jahrzehnten	-6688
▁Terrorismus	-6689
▁bemerkenswer	-6690
▁überraschend	-6691
▁grundsätzlich	-6692
see	-6693
▁ok	-6694
iber	-6695
nach	-6696
tele	-6697
▁194	-6698
▁Dan	-6699
▁Tri	-6700
inter	-6701
reibe	-6702
samen	-6703
uhren	-6704
üssen	-6705
▁Flie	-6706
▁Mach	-6707
▁Phot	-6708
hängen	-6709
schaut	-6710
▁Hallo	-6711
▁Ohren	-6712
▁Phase	-6713
zwungen	-6714
▁Aktion	-6715
▁Eigent	-6716
▁Handel	-6717
▁bestät	-6718
▁reisen	-6719
▁Michael	-6720
▁Musiker	-6721
arbeitung	-6722
▁Resultat	-6723
▁Teenager	-6724
▁springen	-6725
▁verstand	-6726
▁Elefanten	-6727
▁Jahrzehnt	-6728
▁allgemein	-6729
▁kostenlos	-6730
▁schwarzen	-6731
▁überlegen	-6732
▁gemeinsamen	-6733
▁Präsentation	-6734
▁verschwunden	-6735
▁Gerechtigkeit	-6736
-,	-6737
di	-6738
täu	-6739
▁Ac	-6740
icro	-6741
leib	-6742
nütz	-6743
spar	-6744
zipl	-6745
▁Ven	-6746
zepte	-6747
▁isol	-6748
▁verz	-6749
▁Hotel	-6750
▁Räume	-6751
▁Trick	-6752
▁Anwend	-6753
▁Neurow	-6754
▁verknü	-6755
▁weißen	-6756
▁ökonom	-6757
▁Mittler	-6758
▁Quanten	-6759
▁Verwand	-6760
▁tatsäch	-6761
▁trinken	-6762
▁zweimal	-6763
probieren	-6764
unktionen	-6765
▁Geschenk	-6766
▁beeindru	-6767
▁bemerkte	-6768
▁effizien	-6769
▁Geräusche	-6770
▁behaupten	-6771
▁scheinbar	-6772
▁vertrauen	-6773
▁zufrieden	-6774
▁Stammzellen	-6775
▁menschliches	-6776
▁Nachhaltigkeit	-6777
abl	-6778
vis	-6779
▁ök	-6780
anal	-6781
mark	-6782
nose	-6783
ulpt	-6784
▁DNS	-6785
▁Okt	-6786
▁Uni	-6787
▁mil	-6788
behör	-6789
eidet	-6790
ettet	-6791
fällt	-6792
füllt	-6793
▁Chic	-6794
▁Ohne	-6795
▁Stan	-6796
▁baut	-6797
chtern	-6798
lernen	-6799
muster	-6800
reiche	-6801
ysikal	-6802
▁Wikip	-6803
▁stimm	-6804
▁städt	-6805
▁wisst	-6806
▁Schwer	-6807
▁Welten	-6808
▁grünen	-6809
▁landen	-6810
▁Chancen	-6811
▁Wechsel	-6812
▁bekomme	-6813
▁drücken	-6814
▁solange	-6815
▁Versuche	-6816
▁leichter	-6817
leistungen	-6818
▁betreiben	-6819
▁erwachsen	-6820
▁gebrochen	-6821
bevölkerung	-6822
unternehmen	-6823
▁beibringen	-6824
▁speziellen	-6825
▁Ausstellung	-6826
▁Darstellung	-6827
▁durchführen	-6828
▁unterrichten	-6829
ih	-6830
▁["	-6831
azif	-6832
ehrt	-6833
ison	-6834
ombe	-6835
tage	-6836
ästh	-6837
ätzt	-6838
▁Emp	-6839
▁Kom	-6840
▁Pri	-6841
▁erm	-6842
▁Laut	-6843
▁YouT	-6844
Dollar	-6845
punkte	-6846
▁Dafür	-6847
▁Noten	-6848
▁Samen	-6849
▁Spann	-6850
▁super	-6851
▁umher	-6852
▁vorge	-6853
gedacht	-6854
standen	-6855
▁Abfall	-6856
▁Märkte	-6857
▁Strand	-6858
▁achten	-6859
▁anhand	-6860
▁hinauf	-6861
▁iPhone	-6862
▁trafen	-6863
▁worauf	-6864
leistung	-6865
▁Anstatt	-6866
▁Schaden	-6867
▁Sternen	-6868
▁erkannt	-6869
▁mächtig	-6870
▁positiv	-6871
▁überein	-6872
▁übersch	-6873
schneiden	-6874
▁Argument	-6875
▁besseres	-6876
▁geholfen	-6877
▁teilweise	-6878
▁versteckt	-6879
▁sogenannte	-6880
▁irgendjemand	-6881
▁organisieren	-6882
wissenschaften	-6883
▁Vorstellungen	-6884
2.	-6885
lim	-6886
▁27	-6887
frau	-6888
▁Cha	-6889
Techn	-6890
aktor	-6891
bchen	-6892
ordin	-6893
preis	-6894
▁Fast	-6895
▁jung	-6896
bungen	-6897
eilung	-6898
▁Asien	-6899
▁Motiv	-6900
ahnsinn	-6901
▁altern	-6902
▁dunkel	-6903
▁grosse	-6904
▁vieles	-6905
atastrop	-6906
ktivität	-6907
omputern	-6908
▁Quellen	-6909
▁YouTube	-6910
▁einiges	-6911
▁hielten	-6912
▁Teleskop	-6913
▁positive	-6914
▁Ernährung	-6915
▁Marketing	-6916
▁Weltkrieg	-6917
▁berichten	-6918
▁enthalten	-6919
▁Wettbewerb	-6920
▁moralische	-6921
▁nachgedacht	-6922
▁konzentriert	-6923
▁Klassenzimmer	-6924
▁medizinischen	-6925
Le	-6926
oß	-6927
cyc	-6928
hof	-6929
lad	-6930
ähl	-6931
äum	-6932
ober	-6933
phen	-6934
ücke	-6935
▁GPS	-6936
▁kop	-6937
linie	-6938
okuss	-6939
äufer	-6940
▁Adam	-6941
▁Ehem	-6942
▁Koll	-6943
▁Mart	-6944
▁Soll	-6945
▁Stad	-6946
▁Voll	-6947
▁lebe	-6948
karten	-6949
mensch	-6950
nommen	-6951
stands	-6952
▁Beute	-6953
▁Bevor	-6954
▁Micro	-6955
▁lande	-6956
▁repar	-6957
sterben	-6958
▁lokale	-6959
▁wirken	-6960
pflanzen	-6961
▁traurig	-6962
▁treiben	-6963
▁Anführer	-6964
▁Schweden	-6965
▁physikal	-6966
▁wertvoll	-6967
ordentlich	-6968
▁Wikipedia	-6969
▁darstellt	-6970
▁komplexen	-6971
▁langsamer	-6972
▁Jahrzehnte	-6973
▁Unterricht	-6974
▁Schließlich	-6975
▁Gemeinschaften	-6976
ips	-6977
own	-6978
▁Mr	-6979
andt	-6980
holz	-6981
plos	-6982
steh	-6983
▁Alt	-6984
▁Sel	-6985
barer	-6986
hoben	-6987
▁Jung	-6988
▁Rock	-6989
▁Ruhe	-6990
▁frem	-6991
▁merk	-6992
▁zuge	-6993
dienst	-6994
orient	-6995
tragen	-6996
ynamik	-6997
zeigen	-6998
ätzung	-6999
▁Magie	-7000
▁Sympt	-7001
▁Treib	-7002
▁enden	-7003
▁günst	-7004
mitteln	-7005
▁Schnee	-7006
▁Status	-7007
▁europä	-7008
▁merken	-7009
▁spüren	-7010
ollywood	-7011
▁gekauft	-7012
▁weshalb	-7013
scheinend	-7014
▁Bevölker	-7015
▁Regionen	-7016
▁anschaut	-7017
▁Schicksal	-7018
▁Verstehen	-7019
▁betroffen	-7020
▁Frankreich	-7021
▁Regierungs	-7022
▁antwortete	-7023
▁verglichen	-7024
gesellschaft	-7025
geschwindigkeit	-7026
yr	-7027
kst	-7028
van	-7029
▁La	-7030
▁Tö	-7031
▁Dör	-7032
▁Lab	-7033
▁Lad	-7034
▁Ost	-7035
andid	-7036
weich	-7037
▁1000	-7038
▁Gute	-7039
▁Repu	-7040
▁Span	-7041
▁land	-7042
dliche	-7043
kosten	-7044
messen	-7045
▁Fokus	-7046
▁Stern	-7047
▁weiße	-7048
rüstung	-7049
örtlich	-7050
▁Mangel	-7051
▁Presse	-7052
▁Robert	-7053
▁Skulpt	-7054
▁heilen	-7055
▁hörten	-7056
▁mechan	-7057
▁system	-7058
▁Aussage	-7059
▁Gemälde	-7060
▁Meister	-7061
▁starben	-7062
▁Mikroben	-7063
▁schreibt	-7064
▁unmittel	-7065
oberfläche	-7066
▁derselben	-7067
▁folgenden	-7068
▁Prinzipien	-7069
▁weltweiten	-7070
▁wenigstens	-7071
flu	-7072
ias	-7073
ney	-7074
gelt	-7075
groß	-7076
tere	-7077
ugen	-7078
▁Dia	-7079
▁Tab	-7080
▁ums	-7081
icket	-7082
kehrt	-7083
stero	-7084
zweif	-7085
▁2007	-7086
▁Sozi	-7087
▁Zent	-7088
▁fürs	-7089
▁hieß	-7090
ranche	-7091
▁1.000	-7092
▁Feind	-7093
▁Flüss	-7094
▁Paris	-7095
ersonen	-7096
griffen	-7097
schafft	-7098
▁Bundes	-7099
▁Grippe	-7100
▁Kindes	-7101
▁freien	-7102
▁sozial	-7103
ieinhalb	-7104
▁100.000	-7105
▁Bericht	-7106
▁Chicago	-7107
▁durchzu	-7108
▁respekt	-7109
▁verlang	-7110
▁Kampagne	-7111
▁Kleidung	-7112
▁Proteine	-7113
▁Schlacht	-7114
▁beschrän	-7115
▁besessen	-7116
▁genügend	-7117
▁Aufnahmen	-7118
▁betrieben	-7119
▁bezüglich	-7120
▁einfaches	-7121
▁Ereignisse	-7122
▁irgendeine	-7123
▁profession	-7124
Tal	-7125
▁Py	-7126
ilen	-7127
▁Ast	-7128
▁Pho	-7129
▁Pra	-7130
athie	-7131
erien	-7132
▁Gibt	-7133
▁Klav	-7134
▁nett	-7135
ammeln	-7136
bringt	-7137
modell	-7138
werken	-7139
winkel	-7140
▁Angeb	-7141
▁Armee	-7142
▁Lasst	-7143
▁Nadel	-7144
▁Optim	-7145
▁fehlt	-7146
▁woran	-7147
antasie	-7148
▁Besuch	-7149
▁Fläche	-7150
▁Intern	-7151
▁Stücke	-7152
▁Säuget	-7153
▁Annahme	-7154
▁Gedicht	-7155
▁bestand	-7156
▁Ingenieur	-7157
▁produktiv	-7158
▁Inspiration	-7159
▁Instrumente	-7160
▁grundlegend	-7161
sterblichkeit	-7162
▁Konsequenzen	-7163
▁Lebenserwart	-7164
arr	-7165
dro	-7166
its	-7167
rav	-7168
stö	-7169
▁ew	-7170
▁lö	-7171
▁Äl	-7172
▁Mel	-7173
▁Stä	-7174
endes	-7175
küste	-7176
▁2005	-7177
▁Nest	-7178
▁Open	-7179
▁Verp	-7180
▁Vier	-7181
▁Weis	-7182
manden	-7183
▁Chaos	-7184
▁Kurve	-7185
▁anget	-7186
▁dynam	-7187
▁gelie	-7188
▁organ	-7189
▁relev	-7190
▁schwe	-7191
▁wovon	-7192
▁Boston	-7193
▁rechte	-7194
bekommen	-7195
▁Debatte	-7196
▁Zweifel	-7197
▁besorgt	-7198
▁offenen	-7199
▁stoppen	-7200
imulation	-7201
▁Hunderte	-7202
▁dokument	-7203
▁genießen	-7204
▁umfassen	-7205
schmutzung	-7206
ussendlich	-7207
▁Computern	-7208
▁Spielzeug	-7209
▁irgendwel	-7210
▁versorgen	-7211
▁Depression	-7212
▁Entfernung	-7213
▁eingeladen	-7214
▁Algorithmen	-7215
▁Dimensionen	-7216
▁Sonnenlicht	-7217
▁voneinander	-7218
▁Sonnensystem	-7219
▁kontrolliert	-7220
▁Überraschung	-7221
ots	-7222
zum	-7223
azin	-7224
deln	-7225
obel	-7226
▁250	-7227
▁Dad	-7228
▁arm	-7229
auten	-7230
izont	-7231
rüche	-7232
▁Akte	-7233
▁Hühn	-7234
▁Mosk	-7235
▁half	-7236
▁seht	-7237
finder	-7238
ueller	-7239
unklen	-7240
zählen	-7241
▁Higgs	-7242
▁Hilfs	-7243
▁Wegen	-7244
▁gehei	-7245
▁woher	-7246
rittens	-7247
ältigen	-7248
▁Darauf	-7249
▁Faktor	-7250
▁Pollen	-7251
▁Rezept	-7252
▁hängen	-7253
▁nachts	-7254
▁suchte	-7255
▁überqu	-7256
▁Kameras	-7257
▁doppelt	-7258
▁ergeben	-7259
▁neugier	-7260
▁schauten	-7261
▁aufgeregt	-7262
▁bedeutete	-7263
▁beteiligt	-7264
▁definiert	-7265
▁folgendes	-7266
▁umzugehen	-7267
▁Sichtweise	-7268
▁ausgesetzt	-7269
▁Psychologie	-7270
▁biologische	-7271
▁vergangenen	-7272
cin	-7273
iat	-7274
ire	-7275
mat	-7276
ump	-7277
▁Sä	-7278
Okay	-7279
mack	-7280
wald	-7281
▁End	-7282
▁Hem	-7283
▁Lar	-7284
▁gep	-7285
▁zit	-7286
hängt	-7287
lesen	-7288
onien	-7289
▁2010	-7290
▁Biom	-7291
▁Mass	-7292
▁dick	-7293
gelöst	-7294
mittag	-7295
▁Decke	-7296
▁Eisen	-7297
▁Toten	-7298
▁Astero	-7299
▁Atlant	-7300
▁Handys	-7301
▁ausser	-7302
▁deiner	-7303
▁dienen	-7304
▁gelang	-7305
▁Angeles	-7306
▁Krieges	-7307
▁Merkmal	-7308
▁beenden	-7309
▁merkwür	-7310
▁verstär	-7311
erkennung	-7312
▁Freiwill	-7313
▁Zeitraum	-7314
▁begegnen	-7315
▁Programme	-7316
▁basierend	-7317
▁intellekt	-7318
▁unterwegs	-7319
▁Richtungen	-7320
▁University	-7321
▁Zerstörung	-7322
▁bezeichnet	-7323
▁öffentlich	-7324
▁Verbreitung	-7325
▁Entdeckungen	-7326
wahrscheinlich	-7327
▁veröffentlichen	-7328
Bo	-7329
tä	-7330
gab	-7331
▁Wh	-7332
back	-7333
dach	-7334
irbt	-7335
ärme	-7336
▁Hat	-7337
▁Prü	-7338
▁wid	-7339
▁Ära	-7340
halts	-7341
lager	-7342
ünden	-7343
▁Gerü	-7344
▁Kart	-7345
▁Läch	-7346
▁Naja	-7347
▁kalt	-7348
▁naja	-7349
bilder	-7350
flanze	-7351
stücke	-7352
wellen	-7353
▁angen	-7354
▁grüne	-7355
▁schul	-7356
▁Detail	-7357
▁Ganzen	-7358
▁Island	-7359
▁Schalt	-7360
▁Aspekte	-7361
▁Kategor	-7362
▁Taschen	-7363
▁grossen	-7364
▁nannten	-7365
▁Gebäuden	-7366
▁Gegenden	-7367
▁ausgeben	-7368
▁lebendig	-7369
▁momentan	-7370
berflächen	-7371
▁Geschäfte	-7372
▁Potenzial	-7373
▁anzusehen	-7374
▁niemanden	-7375
▁wundervoll	-7376
▁elektrische	-7377
▁inspirieren	-7378
▁dreidimension	-7379
MM	-7380
haf	-7381
ory	-7382
ses	-7383
▁ra	-7384
hana	-7385
omas	-7386
züge	-7387
▁Hal	-7388
▁Übr	-7389
gangs	-7390
ience	-7391
seher	-7392
teils	-7393
teuer	-7394
ttung	-7395
▁Bang	-7396
▁Sing	-7397
▁entz	-7398
▁jahr	-7399
mechan	-7400
ponent	-7401
rimine	-7402
uliert	-7403
▁Berge	-7404
▁Große	-7405
▁wirkt	-7406
isierte	-7407
tztlich	-7408
▁Anders	-7409
▁Extrem	-7410
▁Futter	-7411
▁Gemüse	-7412
▁Hypoth	-7413
▁Konsum	-7414
▁angeht	-7415
▁fokuss	-7416
▁lehren	-7417
abilität	-7418
▁gezogen	-7419
▁gründen	-7420
▁Gesichts	-7421
▁bewirken	-7422
▁verdient	-7423
▁verliert	-7424
▁wünschte	-7425
▁Afrikaner	-7426
▁reduziert	-7427
▁spezielle	-7428
▁zunehmend	-7429
technologie	-7430
▁Ingenieure	-7431
▁Teilnehmer	-7432
▁hinzufügen	-7433
▁Änderungen	-7434
▁Herstellung	-7435
▁eigentliche	-7436
▁vorbereitet	-7437
▁insbesondere	-7438
▁ursprünglich	-7439
Kon	-7440
iox	-7441
zir	-7442
erie	-7443
lymp	-7444
▁Tin	-7445
ahnen	-7446
alent	-7447
unruh	-7448
viele	-7449
ähern	-7450
▁Dial	-7451
▁Nähr	-7452
▁Witz	-7453
▁deut	-7454
▁gebl	-7455
▁gele	-7456
▁hilf	-7457
▁legt	-7458
▁rech	-7459
▁risk	-7460
gnügen	-7461
linien	-7462
▁Erste	-7463
▁Zähne	-7464
eichern	-7465
▁Aufbau	-7466
▁Street	-7467
▁erhöht	-7468
▁erneut	-7469
▁garant	-7470
▁modern	-7471
▁Darüber	-7472
▁Schicht	-7473
▁Erdbeben	-7474
▁bekannte	-7475
▁ernähren	-7476
▁glaubten	-7477
▁untersch	-7478
▁Brustkrebs	-7479
▁Dunkelheit	-7480
▁eingeführt	-7481
▁unsichtbar	-7482
▁Erwartungen	-7483
▁wiederholen	-7484
▁hinterlassen	-7485
▁Normalerweise	-7486
▁interessanten	-7487
▁Persönlichkeit	-7488
▁Lebenserwartung	-7489
kün	-7490
züg	-7491
▁ad	-7492
derm	-7493
fone	-7494
▁pri	-7495
atein	-7496
▁Dsch	-7497
▁Mamm	-7498
▁Wann	-7499
ittelt	-7500
schaff	-7501
▁Obama	-7502
▁Teams	-7503
▁veran	-7504
▁weißt	-7505
lichten	-7506
mitglie	-7507
prozess	-7508
▁Flügel	-7509
▁Medium	-7510
▁Metall	-7511
▁Rechts	-7512
▁Schuhe	-7513
▁Verlauf	-7514
▁letzter	-7515
▁schmerz	-7516
▁Chinesen	-7517
▁Weisheit	-7518
▁Bedrohung	-7519
▁evolution	-7520
zeichnungen	-7521
▁Bibliothek	-7522
▁Erwachsene	-7523
▁wahrnehmen	-7524
▁Terroristen	-7525
▁wunderbaren	-7526
▁Bevölkerungs	-7527
▁fantastische	-7528
▁Krankenhäuser	-7529
500	-7530
Wer	-7531
▁är	-7532
ight	-7533
kauf	-7534
ront	-7535
same	-7536
▁Ban	-7537
▁Box	-7538
▁Spe	-7539
▁ang	-7540
ünder	-7541
▁Dipl	-7542
▁Juni	-7543
▁Knie	-7544
▁trug	-7545
kultur	-7546
messer	-7547
öntgen	-7548
▁Hitze	-7549
▁knapp	-7550
konomen	-7551
stausch	-7552
▁Laufen	-7553
▁Reisen	-7554
▁Schild	-7555
▁kaufte	-7556
▁machst	-7557
▁neigen	-7558
▁oberen	-7559
sproblem	-7560
▁Angriff	-7561
▁General	-7562
▁Klavier	-7563
▁Neugier	-7564
operation	-7565
▁Gebrauch	-7566
▁Männchen	-7567
▁Training	-7568
▁Ursprung	-7569
▁anpassen	-7570
▁erfassen	-7571
▁erfüllen	-7572
▁mehreren	-7573
▁reagiert	-7574
▁Plötzlich	-7575
▁Schreiben	-7576
▁Umständen	-7577
▁Verfahren	-7578
▁Wachstums	-7579
▁begreifen	-7580
▁genetische	-7581
▁ländlichen	-7582
▁verursachen	-7583
▁grundlegenden	-7584
gut	-7585
hst	-7586
ipl	-7587
uar	-7588
▁Sm	-7589
▁sä	-7590
ampe	-7591
emin	-7592
part	-7593
roht	-7594
zten	-7595
▁Ruf	-7596
▁Tur	-7597
▁Täu	-7598
▁int	-7599
aumen	-7600
iness	-7601
ratet	-7602
reift	-7603
these	-7604
▁Anti	-7605
▁Beit	-7606
▁Euch	-7607
▁Haie	-7608
▁diag	-7609
▁gere	-7610
▁koll	-7611
fläche	-7612
schiff	-7613
▁Cyber	-7614
▁Haiti	-7615
▁Kongo	-7616
▁Scham	-7617
▁Schok	-7618
▁Sechs	-7619
▁Tiefe	-7620
▁Wicht	-7621
ichtete	-7622
▁Infekt	-7623
▁Sicher	-7624
▁beherr	-7625
▁deinem	-7626
aufnahme	-7627
▁Inneren	-7628
▁Treffen	-7629
▁mittels	-7630
▁Erinnern	-7631
▁Innerhalb	-7632
▁ausmachen	-7633
▁Eigenschaft	-7634
▁technischen	-7635
▁Nachbarschaft	-7636
2,	-7637
ota	-7638
sun	-7639
vin	-7640
iens	-7641
osex	-7642
park	-7643
zusp	-7644
andet	-7645
asern	-7646
▁2009	-7647
▁Bier	-7648
▁Schm	-7649
▁Such	-7650
▁Trin	-7651
freund	-7652
irgend	-7653
stitut	-7654
▁Anruf	-7655
▁Humor	-7656
▁blind	-7657
▁rufen	-7658
▁worum	-7659
fordern	-7660
schläge	-7661
systeme	-7662
▁Machen	-7663
▁Niveau	-7664
▁berück	-7665
▁höhere	-7666
▁schlug	-7667
▁Verkauf	-7668
▁beunruh	-7669
▁starken	-7670
▁Ägypten	-7671
sprogramm	-7672
▁anhalten	-7673
▁gerettet	-7674
▁studiert	-7675
lichkeiten	-7676
produktion	-7677
▁Angelegen	-7678
▁Mobiltele	-7679
▁mitnehmen	-7680
schnittlich	-7681
▁Heutzutage	-7682
▁kulturelle	-7683
▁verblüffen	-7684
▁beigebracht	-7685
▁konfrontiert	-7686
▁bemerkenswert	-7687
MMY	-7688
vir	-7689
▁0,	-7690
▁Et	-7691
UMMY	-7692
appt	-7693
elen	-7694
gert	-7695
ktes	-7696
raun	-7697
äden	-7698
äufe	-7699
llung	-7700
stete	-7701
▁Bord	-7702
▁Chef	-7703
▁Glet	-7704
▁Male	-7705
▁Nutz	-7706
▁älte	-7707
design	-7708
gebiet	-7709
▁Aller	-7710
▁Alpha	-7711
▁Ghana	-7712
▁Initi	-7713
▁Level	-7714
▁Misch	-7715
▁Subst	-7716
eichert	-7717
▁Center	-7718
▁Thomas	-7719
▁Wahlen	-7720
▁soweit	-7721
▁späten	-7722
▁vorhin	-7723
▁winzig	-7724
atischen	-7725
ikations	-7726
▁besucht	-7727
▁dankbar	-7728
▁Amerikan	-7729
▁Faktoren	-7730
▁Problems	-7731
▁Theorien	-7732
▁besuchte	-7733
▁erwähnen	-7734
▁exponent	-7735
▁vielmehr	-7736
▁Belohnung	-7737
▁Vergnügen	-7738
▁bekämpfen	-7739
▁erforscht	-7740
▁ernsthaft	-7741
▁beeindruck	-7742
▁langweilig	-7743
▁Neuigkeiten	-7744
▁Wasserstoff	-7745
▁Mathematiker	-7746
▁entscheidend	-7747
▁Einrichtungen	-7748
oh	-7749
“.	-7750
ban	-7751
way	-7752
▁Hu	-7753
▁Ve	-7754
Aber	-7755
gste	-7756
ziel	-7757
ßern	-7758
ätte	-7759
▁Mor	-7760
▁wär	-7761
fühlt	-7762
heuer	-7763
oppel	-7764
ppich	-7765
ridge	-7766
stuhl	-7767
▁Frie	-7768
▁Ritu	-7769
decken	-7770
ffekte	-7771
melzen	-7772
▁Bibel	-7773
▁Polio	-7774
▁schei	-7775
enseits	-7776
ktionen	-7777
▁Alters	-7778
▁Reihen	-7779
▁konsum	-7780
▁nervös	-7781
gefallen	-7782
stimmung	-7783
▁Anstieg	-7784
▁Italien	-7785
▁französ	-7786
▁musikal	-7787
▁wieviel	-7788
▁Behinder	-7789
▁Fahrzeug	-7790
▁Physiker	-7791
▁Schulter	-7792
▁Spektrum	-7793
▁Systemen	-7794
▁Transpar	-7795
▁berühren	-7796
▁erklärte	-7797
▁seltsame	-7798
▁visuelle	-7799
▁Projekten	-7800
▁Schmerzen	-7801
▁denselben	-7802
▁kreativen	-7803
▁Verwendung	-7804
▁vorsichtig	-7805
▁sogenannten	-7806
▁elektrischen	-7807
▁Gleichgewicht	-7808
▁außergewöhnlich	-7809
AR	-7810
Sc	-7811
hai	-7812
ils	-7813
rel	-7814
ris	-7815
tex	-7816
xis	-7817
▁28	-7818
▁AB	-7819
▁Lo	-7820
▁Rö	-7821
Welt	-7822
agte	-7823
fand	-7824
inal	-7825
soft	-7826
ters	-7827
tion	-7828
▁Ath	-7829
▁Haw	-7830
▁Hir	-7831
▁Mad	-7832
▁Mio	-7833
▁zwe	-7834
▁Arab	-7835
▁Brow	-7836
▁Kohl	-7837
▁Mama	-7838
▁fein	-7839
▁sens	-7840
auften	-7841
leicht	-7842
schten	-7843
▁Autom	-7844
▁Enkel	-7845
▁Gebur	-7846
▁Posit	-7847
▁manip	-7848
▁ruhig	-7849
▁verkl	-7850
▁zählt	-7851
▁Chirur	-7852
▁Geruch	-7853
▁Gipfel	-7854
▁Schöpf	-7855
▁Studio	-7856
▁gewiss	-7857
▁liebte	-7858
▁lächer	-7859
▁planen	-7860
▁stirbt	-7861
▁wütend	-7862
▁Lächeln	-7863
▁unerwar	-7864
▁Batterie	-7865
▁Gefangen	-7866
▁Richtige	-7867
▁winzigen	-7868
▁Ökonomen	-7869
ologischer	-7870
▁berechnen	-7871
▁gestartet	-7872
ischerweise	-7873
▁investiert	-7874
▁schwierige	-7875
▁moralischen	-7876
▁zurückgehen	-7877
▁biologischen	-7878
▁zurückkehren	-7879
"]	-7880
Je	-7881
ep	-7882
Ach	-7883
▁BG	-7884
▁DH	-7885
▁Ol	-7886
▁pf	-7887
arto	-7888
fung	-7889
üren	-7890
▁Bob	-7891
▁Kle	-7892
▁Kuh	-7893
▁Mig	-7894
▁Ohr	-7895
▁Wut	-7896
brech	-7897
gespr	-7898
ianer	-7899
leger	-7900
ocken	-7901
riebs	-7902
vater	-7903
änner	-7904
▁Acht	-7905
▁Ausl	-7906
▁Benz	-7907
▁Dame	-7908
▁Ment	-7909
▁Verm	-7910
▁hind	-7911
▁spir	-7912
andern	-7913
▁Immun	-7914
▁Sagen	-7915
▁hoher	-7916
▁mikro	-7917
station	-7918
twortet	-7919
▁Früher	-7920
▁Tränen	-7921
▁gewann	-7922
▁Analyse	-7923
▁Konstru	-7924
▁Röntgen	-7925
▁Skelett	-7926
▁abgesch	-7927
▁benutze	-7928
▁brechen	-7929
▁entfern	-7930
▁geteilt	-7931
▁Trotzdem	-7932
▁gelassen	-7933
▁Plattform	-7934
▁Vorschlag	-7935
▁Reaktionen	-7936
▁dazwischen	-7937
▁ignorieren	-7938
▁Oberflächen	-7939
▁Transparenz	-7940
▁verschiedener	-7941
Ex	-7942
dy	-7943
üter	-7944
griff	-7945
ätten	-7946
ürzen	-7947
▁Aufl	-7948
▁Flor	-7949
▁Füße	-7950
▁Glüh	-7951
▁Jack	-7952
▁Konz	-7953
▁Saal	-7954
▁Trei	-7955
▁klet	-7956
▁vorn	-7957
bilden	-7958
▁Beton	-7959
▁Guten	-7960
▁alltä	-7961
▁frühe	-7962
▁jenem	-7963
▁jenen	-7964
▁könne	-7965
▁verpf	-7966
dringen	-7967
fassung	-7968
▁Großen	-7969
▁Leiter	-7970
▁bildet	-7971
▁freund	-7972
▁hassen	-7973
▁tanzen	-7974
▁Spinnen	-7975
▁gesetzt	-7976
▁lernten	-7977
▁Ausnahme	-7978
▁Autismus	-7979
▁Dokument	-7980
▁Hinblick	-7981
▁lebenden	-7982
▁riesiges	-7983
▁vernünft	-7984
▁Denkweise	-7985
▁Konflikte	-7986
▁Microsoft	-7987
▁chemische	-7988
▁interpret	-7989
▁Geschäftsm	-7990
▁besonderen	-7991
▁glücklicher	-7992
▁wunderschöne	-7993
▁identifizieren	-7994
RI	-7995
bie	-7996
bit	-7997
hel	-7998
kol	-7999
uen	-8000
▁26	-8001
▁Zy	-8002
▁nu	-8003
iffe	-8004
pass	-8005
ütte	-8006
▁BIP	-8007
▁Don	-8008
▁Get	-8009
▁Nat	-8010
▁Pen	-8011
▁Rel	-8012
▁Sar	-8013
▁eth	-8014
eiben	-8015
ikale	-8016
ioxid	-8017
ächer	-8018
▁Base	-8019
▁Leid	-8020
▁leer	-8021
▁sorg	-8022
▁stre	-8023
anlage	-8024
eignet	-8025
ichtum	-8026
ivileg	-8027
lichem	-8028
utzend	-8029
▁Block	-8030
▁Figur	-8031
▁Karik	-8032
▁korre	-8033
▁saßen	-8034
aktoren	-8035
brochen	-8036
gemacht	-8037
▁Rollen	-8038
▁Yorker	-8039
▁Zurück	-8040
▁kaputt	-8041
▁kommer	-8042
▁schaue	-8043
▁schock	-8044
▁univer	-8045
▁wenden	-8046
anischen	-8047
ffizient	-8048
funktion	-8049
▁Flächen	-8050
▁Schwarz	-8051
▁dunklen	-8052
▁militär	-8053
▁getrennt	-8054
▁gründete	-8055
▁verfolgt	-8056
▁Effizienz	-8057
▁Jedenfalls	-8058
▁Mitglieder	-8059
▁Präsidenten	-8060
▁anscheinend	-8061
▁chinesische	-8062
▁genetischen	-8063
▁organisiert	-8064
▁mittlerweile	-8065
,5	-8066
So	-8067
car	-8068
kap	-8069
▁Ky	-8070
▁Tu	-8071
▁cm	-8072
▁zü	-8073
summ	-8074
wort	-8075
▁Fal	-8076
▁att	-8077
▁prü	-8078
▁rum	-8079
▁tre	-8080
▁wem	-8081
alley	-8082
istin	-8083
▁Intu	-8084
▁Klar	-8085
▁Näch	-8086
▁Salz	-8087
▁foss	-8088
▁häss	-8089
▁umso	-8090
▁welt	-8091
fachen	-8092
fältig	-8093
ogramm	-8094
waffen	-8095
▁Küche	-8096
▁Szene	-8097
▁atmen	-8098
▁bewir	-8099
▁japan	-8100
▁stieg	-8101
gerufen	-8102
wachsen	-8103
▁Höhlen	-8104
▁Marken	-8105
▁Organe	-8106
▁Proben	-8107
▁Wälder	-8108
▁billig	-8109
▁wahren	-8110
schnitts	-8111
▁Anstren	-8112
▁Schokol	-8113
▁Verschw	-8114
▁Vorgang	-8115
▁höheren	-8116
▁molekul	-8117
▁stimmen	-8118
▁verletz	-8119
ianischen	-8120
ikationen	-8121
▁Entschul	-8122
▁Stanford	-8123
▁Vermögen	-8124
▁diagnost	-8125
▁gemessen	-8126
▁hindurch	-8127
▁nebenbei	-8128
▁beschreibt	-8129
▁irgendeinem	-8130
▁Investitionen	-8131
Man	-8132
gin	-8133
jet	-8134
▁fe	-8135
kopf	-8136
▁Sha	-8137
▁mon	-8138
Spiel	-8139
betes	-8140
deckt	-8141
weils	-8142
▁Brun	-8143
▁Camp	-8144
▁Ener	-8145
▁Grie	-8146
▁Last	-8147
▁gefl	-8148
▁lieb	-8149
fühlen	-8150
geräte	-8151
rinzip	-8152
▁Apple	-8153
▁Carto	-8154
▁Kugel	-8155
▁Tragö	-8156
▁unvor	-8157
▁verur	-8158
▁Atomen	-8159
▁Budget	-8160
▁abstra	-8161
▁drehte	-8162
▁eingeb	-8163
▁fliegt	-8164
aufgaben	-8165
ständige	-8166
tausende	-8167
▁Dadurch	-8168
▁Sequenz	-8169
▁Systems	-8170
▁angehen	-8171
▁erneuer	-8172
▁niedrig	-8173
▁Pinguine	-8174
▁heiraten	-8175
▁höchsten	-8176
▁kleinere	-8177
▁Gespräche	-8178
▁Weihnacht	-8179
▁Motivation	-8180
▁angemessen	-8181
▁arabischen	-8182
▁reparieren	-8183
▁Anwendungen	-8184
▁Einfachheit	-8185
▁unternehmen	-8186
▁wundervolle	-8187
▁Universitäten	-8188
▁Weltbevölkerung	-8189
ds	-8190
ise	-8191
ola	-8192
▁36	-8193
▁Op	-8194
▁Ug	-8195
▁hy	-8196
iums	-8197
umpf	-8198
volv	-8199
wehr	-8200
▁120	-8201
▁195	-8202
▁Act	-8203
▁Eur	-8204
▁Hon	-8205
▁Ros	-8206
▁Sur	-8207
▁mel	-8208
▁rom	-8209
agern	-8210
legte	-8211
▁Kühl	-8212
▁ment	-8213
annter	-8214
archie	-8215
azifik	-8216
etisch	-8217
lichte	-8218
wählen	-8219
ziplin	-8220
▁Katze	-8221
▁Logik	-8222
▁Marke	-8223
▁Sorge	-8224
▁Wände	-8225
▁geöff	-8226
▁harte	-8227
gebiete	-8228
▁Kommen	-8229
▁Muskel	-8230
▁Vertei	-8231
▁explod	-8232
▁keines	-8233
▁potent	-8234
material	-8235
zukommen	-8236
▁Blätter	-8237
▁Muskeln	-8238
▁Protein	-8239
▁Science	-8240
▁Ursache	-8241
▁gewöhnt	-8242
▁jeweils	-8243
▁reflekt	-8244
▁richten	-8245
▁schwere	-8246
▁Gebieten	-8247
▁Liebling	-8248
▁Prozesse	-8249
▁Einschrän	-8250
▁Nachfrage	-8251
▁Treibhaus	-8252
▁benutzten	-8253
▁gesammelt	-8254
▁infiziert	-8255
▁insgesamt	-8256
▁mittleren	-8257
▁neugierig	-8258
▁Organismus	-8259
▁inzwischen	-8260
▁Konsumenten	-8261
▁Philosophie	-8262
▁Schauspieler	-8263
ua	-8264
▁“	-8265
eah	-8266
ule	-8267
▁65	-8268
▁Vi	-8269
▁my	-8270
eige	-8271
eins	-8272
erin	-8273
prov	-8274
städ	-8275
ürzt	-8276
▁Abl	-8277
▁Aug	-8278
▁Tum	-8279
▁Vag	-8280
▁Zie	-8281
▁geg	-8282
▁ärm	-8283
amera	-8284
ektar	-8285
ohlen	-8286
reide	-8287
ämpft	-8288
örder	-8289
▁1990	-8290
▁2006	-8291
▁Ehre	-8292
▁Live	-8293
Wissen	-8294
eigung	-8295
gänger	-8296
klasse	-8297
leiter	-8298
▁Serie	-8299
▁Texas	-8300
▁womit	-8301
▁öfter	-8302
▁Bedarf	-8303
▁Daumen	-8304
▁Glücks	-8305
▁Integr	-8306
▁Kredit	-8307
▁Preise	-8308
▁Sektor	-8309
▁Tasche	-8310
▁beides	-8311
▁beseit	-8312
▁jünger	-8313
▁romant	-8314
▁vierte	-8315
▁Dutzend	-8316
▁Flederm	-8317
▁bedeckt	-8318
▁wirksam	-8319
alisierte	-8320
formation	-8321
▁Symptome	-8322
▁aktuelle	-8323
▁anbieten	-8324
▁anstelle	-8325
▁früheren	-8326
▁kreative	-8327
▁verletzt	-8328
▁wahrhaft	-8329
alisierten	-8330
▁Maßnahmen	-8331
▁Resultate	-8332
▁schwimmen	-8333
▁Funktionen	-8334
▁Handlungen	-8335
▁Wichtigste	-8336
▁emotionale	-8337
▁experiment	-8338
▁regelmäßig	-8339
▁Katastrophe	-8340
iam	-8341
ish	-8342
twa	-8343
räum	-8344
stat	-8345
ämen	-8346
▁Sub	-8347
chtet	-8348
kohol	-8349
▁Feed	-8350
▁flog	-8351
▁gete	-8352
▁rest	-8353
deuten	-8354
fällig	-8355
stoßen	-8356
wendet	-8357
▁Haare	-8358
▁Indem	-8359
▁Proje	-8360
▁human	-8361
▁islam	-8362
angehen	-8363
ogenese	-8364
staaten	-8365
▁Januar	-8366
▁Valley	-8367
▁Vorder	-8368
▁feiern	-8369
▁frustr	-8370
mögliche	-8371
▁Büchern	-8372
▁Designs	-8373
▁Letzten	-8374
▁beträgt	-8375
▁geraten	-8376
▁lebende	-8377
▁setzten	-8378
▁verließ	-8379
▁Schweine	-8380
▁Sensoren	-8381
▁eröffnet	-8382
▁schickte	-8383
▁Änderung	-8384
▁Übrigens	-8385
▁gezwungen	-8386
▁indischen	-8387
▁nachdenkt	-8388
▁Strategien	-8389
▁gemeinnütz	-8390
▁wiederholt	-8391
▁traditionelle	-8392
kö	-8393
üd	-8394
Und	-8395
aku	-8396
bir	-8397
iop	-8398
izz	-8399
ura	-8400
akul	-8401
ches	-8402
enkt	-8403
gefä	-8404
ünde	-8405
▁Arz	-8406
▁Lau	-8407
▁rob	-8408
▁sub	-8409
▁sym	-8410
▁ört	-8411
fache	-8412
gänge	-8413
selbe	-8414
▁1960	-8415
▁1980	-8416
▁Bush	-8417
▁Fels	-8418
▁Jeff	-8419
▁Verz	-8420
▁Wäre	-8421
▁arch	-8422
▁ehem	-8423
▁hand	-8424
▁tanz	-8425
ordnet	-8426
skraft	-8427
▁Leber	-8428
▁Stick	-8429
▁beruh	-8430
▁heben	-8431
▁mobil	-8432
politik	-8433
▁Abhäng	-8434
▁Anweis	-8435
▁Mannes	-8436
▁Metern	-8437
▁Ratten	-8438
▁Therap	-8439
▁echtes	-8440
▁erlaub	-8441
▁mochte	-8442
▁wartet	-8443
▁öffnet	-8444
schieben	-8445
▁Ausland	-8446
▁Ehemann	-8447
▁Erstaun	-8448
▁Schnell	-8449
▁anfängt	-8450
▁enormen	-8451
▁gelegen	-8452
▁höchste	-8453
▁kreiert	-8454
▁trocken	-8455
▁unsicht	-8456
▁zurecht	-8457
▁änderte	-8458
setzungen	-8459
▁Epidemie	-8460
▁Gebäudes	-8461
▁Mitglied	-8462
▁Umstände	-8463
▁Weibchen	-8464
▁begrenzt	-8465
▁eingehen	-8466
▁gesunden	-8467
▁hingehen	-8468
▁leuchten	-8469
▁veränder	-8470
▁Höhepunkt	-8471
▁Versuchen	-8472
▁vergleich	-8473
▁Prototypen	-8474
▁Verteilung	-8475
▁übersetzen	-8476
▁Alternative	-8477
▁diskutieren	-8478
▁Ungleichheit	-8479
▁irgendwelche	-8480
▁komplizierter	-8481
Fl	-8482
▁:	-8483
Ges	-8484
ask	-8485
ony	-8486
yto	-8487
▁BF	-8488
baum	-8489
meid	-8490
reht	-8491
äger	-8492
ürze	-8493
▁Mac	-8494
▁Pop	-8495
▁Wen	-8496
▁san	-8497
asien	-8498
etzen	-8499
▁1950	-8500
▁2004	-8501
▁Kond	-8502
▁Kore	-8503
▁Star	-8504
▁flex	-8505
▁hell	-8506
assten	-8507
eitete	-8508
leiten	-8509
ordnen	-8510
spanne	-8511
steine	-8512
▁Autob	-8513
▁Mount	-8514
▁Pferd	-8515
▁Staub	-8516
▁Waffe	-8517
▁alter	-8518
▁selbe	-8519
chester	-8520
duktion	-8521
quellen	-8522
wandeln	-8523
▁Dialog	-8524
▁danken	-8525
▁füllen	-8526
▁involv	-8527
▁keinem	-8528
▁offene	-8529
▁sonder	-8530
illionen	-8531
▁Auftrag	-8532
▁Entsteh	-8533
▁Fremden	-8534
▁Handeln	-8535
▁Pflanze	-8536
▁Spezial	-8537
▁Verzwei	-8538
▁install	-8539
▁stammen	-8540
▁verbrei	-8541
▁Biologen	-8542
▁gefahren	-8543
▁geöffnet	-8544
▁sinnvoll	-8545
▁Überwach	-8546
▁Symmetrie	-8547
▁antworten	-8548
▁empfinden	-8549
▁gegenwärt	-8550
▁kommerzie	-8551
▁politisch	-8552
▁verrückte	-8553
▁weltweite	-8554
▁ähnlichen	-8555
▁Schwestern	-8556
▁ausgegeben	-8557
▁physischen	-8558
▁Investition	-8559
▁Komponenten	-8560
▁aufeinander	-8561
▁kulturellen	-8562
▁schlimmsten	-8563
▁Berechnungen	-8564
▁Verbesserung	-8565
▁festgestellt	-8566
tn	-8567
uk	-8568
Reg	-8569
aps	-8570
imb	-8571
Amer	-8572
erei	-8573
errt	-8574
gäng	-8575
irca	-8576
kord	-8577
takt	-8578
äude	-8579
▁Bek	-8580
▁Flu	-8581
▁Tee	-8582
▁emp	-8583
▁hüb	-8584
▁leg	-8585
eifen	-8586
fasst	-8587
itute	-8588
weist	-8589
▁Brut	-8590
▁Koch	-8591
▁Musl	-8592
▁Myth	-8593
▁gift	-8594
▁stat	-8595
Mensch	-8596
raktiv	-8597
zenten	-8598
▁Achse	-8599
▁Ernst	-8600
▁Gramm	-8601
▁Schon	-8602
▁Wasch	-8603
▁dient	-8604
▁misst	-8605
▁Übung	-8606
anlagen	-8607
gesetzt	-8608
raucher	-8609
▁Explos	-8610
▁Moskit	-8611
▁Uganda	-8612
▁fließt	-8613
▁inklus	-8614
▁nahezu	-8615
▁werdet	-8616
befinden	-8617
schalten	-8618
▁Lehrern	-8619
▁Wurzeln	-8620
▁Überall	-8621
▁Amerikas	-8622
▁Aufstieg	-8623
▁Betracht	-8624
▁Diabetes	-8625
▁Feedback	-8626
▁Kontroll	-8627
▁Schwarze	-8628
▁Therapie	-8629
▁Toilette	-8630
▁ausmacht	-8631
▁befassen	-8632
▁benutzte	-8633
▁geworfen	-8634
▁jenseits	-8635
▁offenbar	-8636
▁verständ	-8637
▁vorwärts	-8638
▁Fahrzeuge	-8639
▁abgesehen	-8640
▁beitragen	-8641
▁weibliche	-8642
▁Ausrüstung	-8643
▁Lebensraum	-8644
▁Flüssigkeit	-8645
▁analysieren	-8646
▁einzigartig	-8647
▁Unternehmens	-8648
▁chinesischen	-8649
▁hinsichtlich	-8650
▁repräsentiert	-8651
▁Globalisierung	-8652
1.	-8653
Os	-8654
vo	-8655
?",	-8656
ios	-8657
por	-8658
▁22	-8659
▁Ah	-8660
▁Kr	-8661
▁to	-8662
komp	-8663
ular	-8664
▁Kok	-8665
▁Meg	-8666
▁Süß	-8667
▁ret	-8668
Inter	-8669
andem	-8670
anzig	-8671
ifest	-8672
ruppe	-8673
sagen	-8674
▁Mahl	-8675
▁Manh	-8676
▁Urkn	-8677
▁fair	-8678
▁qual	-8679
▁trat	-8680
brauch	-8681
drehen	-8682
lament	-8683
ührung	-8684
▁Lesen	-8685
▁Löwen	-8686
▁Onkel	-8687
▁Stich	-8688
▁Wärme	-8689
▁lasse	-8690
▁lasst	-8691
▁simul	-8692
▁stets	-8693
▁zwang	-8694
▁Bomben	-8695
▁Ebenen	-8696
▁Sprung	-8697
▁entwar	-8698
gebungen	-8699
icherung	-8700
▁Alkohol	-8701
▁Erfolgs	-8702
▁Verhand	-8703
▁zuhören	-8704
▁Konzepte	-8705
▁einziges	-8706
▁freiwill	-8707
▁schwerer	-8708
▁bedeutend	-8709
▁nationale	-8710
▁physische	-8711
▁vergewalt	-8712
▁Versorgung	-8713
▁verstecken	-8714
▁unterhalten	-8715
▁vorgestellt	-8716
▁zukünftigen	-8717
▁Katastrophen	-8718
▁Privatsphäre	-8719
▁verschwindet	-8720
▁beeindruckend	-8721
ci	-8722
sl	-8723
▁y	-8724
bru	-8725
eta	-8726
ood	-8727
ölf	-8728
▁3.	-8729
▁Cr	-8730
▁wä	-8731
aven	-8732
baut	-8733
bein	-8734
gült	-8735
iene	-8736
ives	-8737
unft	-8738
ätig	-8739
▁Anh	-8740
▁Cal	-8741
hafen	-8742
lösen	-8743
meter	-8744
orten	-8745
thmus	-8746
▁Dist	-8747
▁Ever	-8748
▁Life	-8749
▁Stil	-8750
▁gefr	-8751
▁heim	-8752
▁häuf	-8753
eltern	-8754
pflanz	-8755
schild	-8756
sitzen	-8757
steckt	-8758
▁Blase	-8759
▁Titan	-8760
▁exakt	-8761
▁legte	-8762
▁spont	-8763
igungen	-8764
▁Allgem	-8765
▁Analog	-8766
▁Benzin	-8767
▁Kuchen	-8768
▁Partei	-8769
▁Reserv	-8770
▁befest	-8771
▁höchst	-8772
▁innere	-8773
▁muslim	-8774
▁verlor	-8775
beziehen	-8776
eitungen	-8777
jähriger	-8778
▁Kohlend	-8779
▁Lichter	-8780
▁Raketen	-8781
▁gesunde	-8782
igerweise	-8783
wesenheit	-8784
▁Ausgaben	-8785
▁Diagnose	-8786
▁Griechen	-8787
▁ausgehen	-8788
▁befreien	-8789
▁demonstr	-8790
▁erkunden	-8791
▁schreibe	-8792
▁sozialer	-8793
▁Ansichten	-8794
▁Gletscher	-8795
▁Mikroskop	-8796
▁Techniken	-8797
▁Toiletten	-8798
▁betreffen	-8799
▁visuellen	-8800
▁Population	-8801
▁Selbstmord	-8802
▁Treibstoff	-8803
▁teilnehmen	-8804
abhängigkeit	-8805
▁Blickwinkel	-8806
▁Nervenzellen	-8807
▁Wohlbefinden	-8808
▁Schriftsteller	-8809
▁ausschließlich	-8810
▁schlussendlich	-8811
KW	-8812
nä	-8813
Auf	-8814
Gen	-8815
Wei	-8816
afe	-8817
any	-8818
edy	-8819
inf	-8820
ops	-8821
▁PM	-8822
▁bo	-8823
orth	-8824
reut	-8825
▁700	-8826
▁Mak	-8827
▁Mas	-8828
▁Zut	-8829
chron	-8830
firma	-8831
größe	-8832
ismen	-8833
lever	-8834
llige	-8835
twick	-8836
▁1970	-8837
▁Gand	-8838
▁Grav	-8839
▁Kenn	-8840
▁Serv	-8841
▁hung	-8842
▁stra	-8843
ütteln	-8844
▁Frühl	-8845
▁Höhle	-8846
▁Oxyto	-8847
▁Prior	-8848
▁freie	-8849
Projekt	-8850
bezogen	-8851
üchtern	-8852
▁Fahrer	-8853
▁Magnet	-8854
▁Praxis	-8855
▁Stille	-8856
▁Umgang	-8857
▁durfte	-8858
▁fuhren	-8859
▁kooper	-8860
▁schief	-8861
schätzen	-8862
▁Angebot	-8863
▁Inhalte	-8864
▁Schwanz	-8865
▁ersetzt	-8866
▁gelehrt	-8867
▁heutige	-8868
▁schöner	-8869
▁tauchen	-8870
▁verschm	-8871
schreiben	-8872
▁Erfinder	-8873
▁Hinweise	-8874
▁Illusion	-8875
▁Stiftung	-8876
▁Vorträge	-8877
▁behaupte	-8878
▁jährlich	-8879
▁künstler	-8880
▁privaten	-8881
▁verliebt	-8882
▁zentrale	-8883
▁Abenteuer	-8884
▁Internets	-8885
▁Statistik	-8886
▁erhielten	-8887
▁letztlich	-8888
▁niedriger	-8889
▁positiven	-8890
▁ungeheuer	-8891
▁unterhalb	-8892
▁verteilen	-8893
▁Standpunkt	-8894
▁Widerstand	-8895
▁dramatisch	-8896
▁nachhaltig	-8897
▁offensicht	-8898
▁umzusetzen	-8899
▁wirklichen	-8900
▁auszudrücken	-8901
▁zurückkommen	-8902
▁Geschichtener	-8903
▁international	-8904
BI	-8905
kä	-8906
Als	-8907
For	-8908
▁32	-8909
▁Id	-8910
Bahn	-8911
dest	-8912
flie	-8913
ippe	-8914
raut	-8915
▁Dün	-8916
▁Mün	-8917
▁Oel	-8918
▁Tra	-8919
▁mar	-8920
ampag	-8921
igant	-8922
orien	-8923
steht	-8924
sätze	-8925
umpen	-8926
▁Bron	-8927
▁Egal	-8928
▁Etwa	-8929
▁Hard	-8930
▁Türk	-8931
▁frie	-8932
fällen	-8933
lehnen	-8934
straße	-8935
undern	-8936
ändler	-8937
üchtig	-8938
▁Künst	-8939
▁Tempo	-8940
▁circa	-8941
▁herab	-8942
▁leist	-8943
projekt	-8944
▁Alltag	-8945
▁Astron	-8946
▁Ballon	-8947
▁Fliege	-8948
▁Intens	-8949
▁Klinik	-8950
▁Konkur	-8951
▁Martin	-8952
▁Oxford	-8953
▁Ruanda	-8954
▁Sieben	-8955
▁Trends	-8956
▁enttäu	-8957
▁umwelt	-8958
▁verlei	-8959
▁ältere	-8960
gegangen	-8961
ierendes	-8962
▁Entwurf	-8963
▁Schlagz	-8964
▁Zentral	-8965
▁bedroht	-8966
▁berühmt	-8967
▁fließen	-8968
▁gelangt	-8969
▁konserv	-8970
▁kümmert	-8971
▁reicher	-8972
▁widersp	-8973
▁älteren	-8974
▁Baseball	-8975
▁Schreibt	-8976
▁Schülern	-8977
▁Speicher	-8978
▁berühmte	-8979
▁bewahren	-8980
▁gegessen	-8981
▁getestet	-8982
▁zweitens	-8983
▁Bedürfnis	-8984
▁Gleichung	-8985
▁Hollywood	-8986
▁aktuellen	-8987
▁übersetzt	-8988
▁Elektronen	-8989
▁angekommen	-8990
▁entdeckten	-8991
▁technische	-8992
▁verringern	-8993
▁Kooperation	-8994
▁Mechanismus	-8995
▁Videospiele	-8996
▁afrikanische	-8997
▁komplizierte	-8998
PA	-8999
Sh	-9000
Te	-9001
wä	-9002
ary	-9003
gra	-9004
ius	-9005
uth	-9006
igma	-9007
kept	-9008
klar	-9009
llte	-9010
▁Jer	-9011
heber	-9012
krise	-9013
▁Appl	-9014
▁Gift	-9015
▁Homo	-9016
▁Kilo	-9017
▁Lärm	-9018
▁Mist	-9019
▁Spur	-9020
▁dumm	-9021
ingung	-9022
mengen	-9023
ungsst	-9024
▁Carol	-9025
▁Front	-9026
▁Hölle	-9027
▁Kapaz	-9028
▁Knopf	-9029
▁Mathe	-9030
▁Peter	-9031
▁Satur	-9032
▁braun	-9033
▁malen	-9034
▁rüber	-9035
▁Älter	-9036
fischen	-9037
schönen	-9038
stecken	-9039
zugehen	-9040
▁Beinen	-9041
▁Bäumen	-9042
▁Diesen	-9043
▁Dinger	-9044
▁Knoten	-9045
▁Werden	-9046
▁global	-9047
▁konkur	-9048
▁treibt	-9049
Programm	-9050
ächtigen	-9051
▁Betrieb	-9052
▁Schädel	-9053
▁illegal	-9054
▁liefert	-9055
▁schönes	-9056
aktivität	-9057
▁Bedenken	-9058
▁Konzentr	-9059
▁Oxytocin	-9060
▁argument	-9061
▁Geschmack	-9062
▁Mittleren	-9063
▁erfordert	-9064
▁erinnerte	-9065
▁inklusive	-9066
▁komplexer	-9067
▁schrieben	-9068
krankheiten	-9069
▁Asteroiden	-9070
▁Entstehung	-9071
▁angetrieben	-9072
▁verbrauchen	-9073
▁intelligente	-9074
▁Durchschnitts	-9075
▁weiterentwick	-9076
Se	-9077
ku	-9078
col	-9079
mod	-9080
oto	-9081
rix	-9082
uld	-9083
▁95	-9084
▁TV	-9085
grad	-9086
hten	-9087
uste	-9088
▁Lux	-9089
▁Nar	-9090
▁Nov	-9091
▁Zig	-9092
▁irr	-9093
Mails	-9094
aters	-9095
elles	-9096
leute	-9097
werte	-9098
▁Flag	-9099
▁Prop	-9100
▁intu	-9101
▁löst	-9102
▁oper	-9103
▁üben	-9104
ektion	-9105
garten	-9106
grunde	-9107
jenige	-9108
mitten	-9109
spunkt	-9110
terung	-9111
▁Mauer	-9112
▁Pause	-9113
▁Reden	-9114
▁Trink	-9115
▁altes	-9116
▁derer	-9117
▁drück	-9118
▁lagen	-9119
▁theor	-9120
wertung	-9121
zustand	-9122
▁20.000	-9123
▁Europä	-9124
▁Köpfen	-9125
▁Nutzer	-9126
▁Pocken	-9127
▁ehemal	-9128
▁Dynamik	-9129
▁Fußball	-9130
▁Weltall	-9131
▁greifen	-9132
▁nirgend	-9133
▁Fantasie	-9134
▁erlangen	-9135
▁gebildet	-9136
▁schießen	-9137
▁spannend	-9138
▁überlebt	-9139
▁Einheiten	-9140
▁Flughafen	-9141
▁Flugzeuge	-9142
▁Intuition	-9143
▁Tätigkeit	-9144
▁angepasst	-9145
▁errichten	-9146
▁gestaltet	-9147
▁hoffnungs	-9148
▁verlangen	-9149
▁Auswirkung	-9150
▁Gegenstand	-9151
▁Gestaltung	-9152
▁ausdrücken	-9153
▁beschützen	-9154
▁nationalen	-9155
▁vermittelt	-9156
▁zukünftige	-9157
▁überprüfen	-9158
▁Anerkennung	-9159
▁profitieren	-9160
▁verarbeiten	-9161
▁vorhersagen	-9162
▁Depressionen	-9163
▁Kohlendioxid	-9164
▁schreckliche	-9165
▁Produktivität	-9166
▁Nahrungsmittel	-9167
“,	-9168
fro	-9169
äub	-9170
▁PC	-9171
▁kg	-9172
arth	-9173
geld	-9174
hnte	-9175
mith	-9176
oben	-9177
äser	-9178
▁800	-9179
▁Hai	-9180
▁ras	-9181
ahara	-9182
lässt	-9183
ronen	-9184
schel	-9185
sucht	-9186
▁Iron	-9187
▁Kosm	-9188
▁Penn	-9189
▁Thun	-9190
▁befr	-9191
▁beru	-9192
▁ethn	-9193
anders	-9194
binden	-9195
breite	-9196
drücke	-9197
heimer	-9198
ildern	-9199
ropfen	-9200
▁5.000	-9201
▁Apfel	-9202
▁Gates	-9203
▁Nobel	-9204
▁Werke	-9205
▁begrü	-9206
▁offiz	-9207
▁zogen	-9208
▁zweit	-9209
verkehr	-9210
▁Belast	-9211
▁Gerade	-9212
▁Katzen	-9213
▁Werten	-9214
▁Würden	-9215
▁festge	-9216
▁kochen	-9217
▁verhei	-9218
geschäft	-9219
reichend	-9220
▁Beitrag	-9221
▁Drucker	-9222
▁Glühbir	-9223
▁Handels	-9224
▁Letztes	-9225
▁Manhatt	-9226
▁Spenden	-9227
▁gewinnt	-9228
▁trennen	-9229
zeichnung	-9230
▁Einblick	-9231
▁Erschein	-9232
▁beachten	-9233
▁billiger	-9234
▁einziger	-9235
▁zugrunde	-9236
▁Erwärmung	-9237
▁Gleichheit	-9238
▁allgemeine	-9239
▁religiösen	-9240
▁virtuellen	-9241
▁Operationen	-9242
▁allgemeinen	-9243
▁ausgebildet	-9244
▁einzusetzen	-9245
▁schwierigen	-9246
▁zusätzliche	-9247
▁Arbeitsplatz	-9248
▁abgeschlossen	-9249
▁Menschlichkeit	-9250
EC	-9251
ET	-9252
ln	-9253
zo	-9254
agd	-9255
dat	-9256
emp	-9257
▁KB	-9258
eder	-9259
flei	-9260
stel	-9261
vern	-9262
▁Anf	-9263
▁Jim	-9264
▁Jon	-9265
kunst	-9266
rateg	-9267
sorge	-9268
terte	-9269
ucken	-9270
▁Camb	-9271
▁King	-9272
▁halt	-9273
kasten	-9274
orenen	-9275
ramide	-9276
wecken	-9277
▁Beide	-9278
▁Digit	-9279
▁Käfer	-9280
▁Köpfe	-9281
▁Meere	-9282
▁Notiz	-9283
▁Olymp	-9284
▁Party	-9285
▁Smith	-9286
▁block	-9287
▁dicht	-9288
▁schme	-9289
▁verle	-9290
konstru	-9291
▁Inseln	-9292
▁Kandid	-9293
▁Kriege	-9294
▁Saturn	-9295
▁Spuren	-9296
▁Stämme	-9297
▁leeren	-9298
▁reiste	-9299
▁tollen	-9300
gekommen	-9301
isierten	-9302
▁Ausgang	-9303
▁Dennoch	-9304
▁Flasche	-9305
▁Geburts	-9306
▁Hinweis	-9307
▁Magazin	-9308
▁Oktober	-9309
▁Veranst	-9310
▁bevorzu	-9311
▁erfüllt	-9312
▁geredet	-9313
▁klingen	-9314
▁landete	-9315
▁ärmsten	-9316
schaffung	-9317
▁Amazonas	-9318
▁Gefahren	-9319
▁Vorgehen	-9320
▁schnelle	-9321
▁Allgemein	-9322
▁Austausch	-9323
▁Parlament	-9324
▁Zeitungen	-9325
▁ausführen	-9326
▁erledigen	-9327
▁erzählten	-9328
bedingungen	-9329
▁Abendessen	-9330
▁Engagement	-9331
▁angeschaut	-9332
▁verbraucht	-9333
▁zusätzlich	-9334
▁Nordamerika	-9335
▁Unterwasser	-9336
▁stattfinden	-9337
▁Abhängigkeit	-9338
▁Journalisten	-9339
▁ungewöhnlich	-9340
▁unterscheidet	-9341
--	-9342
LA	-9343
MA	-9344
now	-9345
ric	-9346
ymm	-9347
atom	-9348
aver	-9349
otto	-9350
rufe	-9351
verl	-9352
ühle	-9353
▁Dop	-9354
▁Hut	-9355
▁Oft	-9356
▁Pin	-9357
▁Wow	-9358
▁ass	-9359
▁imm	-9360
dacht	-9361
rugen	-9362
örung	-9363
üster	-9364
▁2003	-9365
▁Seil	-9366
▁Tode	-9367
▁Watt	-9368
▁live	-9369
auchen	-9370
gerung	-9371
gungen	-9372
regung	-9373
summen	-9374
▁Hügel	-9375
▁Lehre	-9376
▁Probe	-9377
▁Sätze	-9378
▁liebt	-9379
▁steig	-9380
▁trage	-9381
▁ultim	-9382
aschine	-9383
lechter	-9384
sträger	-9385
▁Berufs	-9386
▁Chines	-9387
▁Dichte	-9388
▁Felsen	-9389
▁Könnte	-9390
▁Schall	-9391
▁Talent	-9392
▁clever	-9393
▁tolles	-9394
bteilung	-9395
designer	-9396
erkennen	-9397
▁Autoren	-9398
▁Pazifik	-9399
▁Punkten	-9400
▁William	-9401
▁beendet	-9402
▁fühlten	-9403
▁gefüllt	-9404
▁zweites	-9405
▁Bewohner	-9406
▁Energien	-9407
▁Minister	-9408
▁Sammlung	-9409
▁schließt	-9410
wohnheiten	-9411
▁Cambridge	-9412
▁Erziehung	-9413
▁geblieben	-9414
▁hilfreich	-9415
▁künstliche	-9416
▁revolution	-9417
▁verhindert	-9418
▁Allgemeinen	-9419
▁Zeichnungen	-9420
▁kombinieren	-9421
▁nachhaltige	-9422
▁Kapitalismus	-9423
▁Medikamenten	-9424
▁ursprüngliche	-9425
▁wunderschönen	-9426
'.	-9427
Ist	-9428
kes	-9429
urr	-9430
öne	-9431
▁85	-9432
▁Av	-9433
ardo	-9434
izop	-9435
quem	-9436
sitz	-9437
ulin	-9438
well	-9439
wjet	-9440
änen	-9441
▁Bew	-9442
▁Fro	-9443
▁Sus	-9444
▁Tes	-9445
▁nör	-9446
▁weh	-9447
antom	-9448
bruar	-9449
ipend	-9450
▁Gast	-9451
▁Kauf	-9452
▁quer	-9453
▁sign	-9454
haufen	-9455
werten	-9456
▁Gehör	-9457
▁Ignor	-9458
▁Kiste	-9459
▁Summe	-9460
▁abend	-9461
▁allzu	-9462
▁heiße	-9463
▁kauft	-9464
▁schie	-9465
▁tiefe	-9466
▁50.000	-9467
▁Besten	-9468
▁Latein	-9469
▁Liefer	-9470
▁Tricks	-9471
▁gigant	-9472
etischen	-9473
izophren	-9474
werkraft	-9475
zweifelt	-9476
▁Chirurg	-9477
▁Februar	-9478
▁Figuren	-9479
▁Komprom	-9480
▁Spitzen	-9481
▁diesmal	-9482
▁dreimal	-9483
▁grösser	-9484
▁negativ	-9485
▁nutzten	-9486
▁suchten	-9487
▁unangen	-9488
▁winzige	-9489
▁Fotograf	-9490
▁Reichtum	-9491
▁Schlange	-9492
▁Versagen	-9493
▁Weltbank	-9494
▁beziehen	-9495
▁erschien	-9496
▁erzielen	-9497
▁gesünder	-9498
▁sexuelle	-9499
▁struktur	-9500
▁wünschen	-9501
unterricht	-9502
▁Anzeichen	-9503
▁Einwohner	-9504
▁Fundament	-9505
▁Täuschung	-9506
▁attraktiv	-9507
▁irgendwas	-9508
▁vielerlei	-9509
geschritten	-9510
ministerium	-9511
▁Allerdings	-9512
▁auftauchen	-9513
▁anzuschauen	-9514
▁Schreibtisch	-9515
▁weitermachen	-9516
▁Bürgermeister	-9517
▁durchzuführen	-9518
▁programmieren	-9519
▁sicherstellen	-9520
wissenschaftler	-9521
].	-9522
va	-9523
bew	-9524
dam	-9525
hil	-9526
äme	-9527
▁CD	-9528
Jähr	-9529
ahre	-9530
dere	-9531
erte	-9532
fäll	-9533
ical	-9534
obby	-9535
omos	-9536
puls	-9537
stil	-9538
strö	-9539
uden	-9540
utet	-9541
uzin	-9542
▁191	-9543
▁Alz	-9544
▁Cra	-9545
▁Hen	-9546
▁Leg	-9547
▁Vul	-9548
▁ert	-9549
▁pol	-9550
▁Äth	-9551
srate	-9552
▁Fund	-9553
▁Hill	-9554
▁Lust	-9555
fanden	-9556
gewebe	-9557
körper	-9558
onomie	-9559
▁Absch	-9560
▁Füßen	-9561
▁Haust	-9562
▁Mäuse	-9563
▁Somit	-9564
▁Welle	-9565
▁Zuhör	-9566
▁schlä	-9567
▁schäd	-9568
▁wirft	-9569
▁zwölf	-9570
lichung	-9571
sonsten	-9572
▁Einmal	-9573
▁Liebes	-9574
▁Lieder	-9575
▁Messer	-9576
▁Schock	-9577
▁Stimmt	-9578
▁Szenar	-9579
▁Tenden	-9580
▁aussah	-9581
▁echter	-9582
▁erfuhr	-9583
▁lenken	-9584
▁region	-9585
▁spiele	-9586
▁stoßen	-9587
▁Äthiop	-9588
andelten	-9589
getragen	-9590
ichteten	-9591
sichtigt	-9592
▁Effekte	-9593
▁Florida	-9594
▁Install	-9595
▁Königin	-9596
▁Studium	-9597
▁beschäd	-9598
▁neulich	-9599
▁private	-9600
▁Benutzer	-9601
▁Fabriken	-9602
▁Tragödie	-9603
▁aufrecht	-9604
▁erledigt	-9605
▁Übergang	-9606
▁Animation	-9607
▁Fernseher	-9608
▁Führungsp	-9609
▁Interpret	-9610
▁Kreislauf	-9611
▁Regenwald	-9612
▁anzugehen	-9613
▁folgender	-9614
▁perfekten	-9615
▁tausenden	-9616
▁Bandbreite	-9617
▁Elektronik	-9618
▁Optimismus	-9619
▁Supermarkt	-9620
▁aufmerksam	-9621
▁chemischen	-9622
▁trainieren	-9623
▁abschließen	-9624
▁irgendeiner	-9625
▁wundervollen	-9626
▁gewissermaßen	-9627
▁interessantes	-9628
▁Untersuchungen	-9629
ati	-9630
eis	-9631
hus	-9632
mph	-9633
obi	-9634
▁33	-9635
Kopf	-9636
aker	-9637
drom	-9638
gner	-9639
mmel	-9640
sens	-9641
wich	-9642
▁Grü	-9643
▁Jes	-9644
▁Kab	-9645
▁LED	-9646
▁Pre	-9647
▁Tän	-9648
▁unf	-9649
achel	-9650
besch	-9651
bogen	-9652
dustr	-9653
ettel	-9654
formt	-9655
geord	-9656
iller	-9657
inson	-9658
spart	-9659
ville	-9660
▁Euro	-9661
▁Hals	-9662
▁Prem	-9663
▁Wale	-9664
▁beur	-9665
▁plus	-9666
iegeln	-9667
ildete	-9668
uchsen	-9669
▁Appar	-9670
▁Genen	-9671
▁Green	-9672
▁Honig	-9673
▁Hyper	-9674
▁Hören	-9675
▁Kluft	-9676
▁Koran	-9677
▁Länge	-9678
▁Nahen	-9679
▁Waren	-9680
▁Woher	-9681
▁endet	-9682
▁kämpf	-9683
▁nukle	-9684
▁reale	-9685
▁synth	-9686
behörde	-9687
fleisch	-9688
ildeten	-9689
tragung	-9690
wirkung	-9691
▁Ameise	-9692
▁Küsten	-9693
▁Phosph	-9694
▁Poster	-9695
▁Spiels	-9696
▁Vagina	-9697
▁akadem	-9698
▁halben	-9699
▁senken	-9700
▁widmen	-9701
▁Ökonom	-9702
tagessen	-9703
zumachen	-9704
▁Balance	-9705
▁Industr	-9706
▁Richter	-9707
▁komisch	-9708
▁verdopp	-9709
▁vermute	-9710
▁zwingen	-9711
wirkungen	-9712
▁Business	-9713
▁Empathie	-9714
▁Frühling	-9715
▁betreten	-9716
▁hundertt	-9717
▁häufiger	-9718
▁inmitten	-9719
▁relevant	-9720
▁verfügen	-9721
▁verlangt	-9722
▁Institute	-9723
▁Manhattan	-9724
▁Strahlung	-9725
▁Störungen	-9726
▁effizient	-9727
▁geschützt	-9728
▁scheitern	-9729
▁transform	-9730
▁täglichen	-9731
Technologie	-9732
▁Betrachten	-9733
▁ansprechen	-9734
▁ausgewählt	-9735
▁einstellen	-9736
▁geschlagen	-9737
▁Gegenstände	-9738
▁Mittelpunkt	-9739
▁Schwerkraft	-9740
▁finanzieren	-9741
▁stattfindet	-9742
▁zweieinhalb	-9743
▁Bewusstseins	-9744
▁Stoffwechsel	-9745
▁entschlossen	-9746
▁optimistisch	-9747
▁Lebensqualität	-9748
▁bemerkenswerte	-9749
',	-9750
cl	-9751
Aus	-9752
ani	-9753
aya	-9754
ima	-9755
ino	-9756
las	-9757
ors	-9758
row	-9759
sex	-9760
uel	-9761
vas	-9762
bell	-9763
iale	-9764
kern	-9765
stoß	-9766
▁17.	-9767
▁Big	-9768
▁Tja	-9769
▁jüd	-9770
flung	-9771
ibiot	-9772
otter	-9773
strom	-9774
▁Farm	-9775
▁Güte	-9776
▁Maße	-9777
▁Rein	-9778
▁herz	-9779
▁kosm	-9780
▁simp	-9781
ierbar	-9782
odelle	-9783
▁Derek	-9784
▁Griff	-9785
▁Kämpf	-9786
▁Laser	-9787
▁Lücke	-9788
▁Straf	-9789
▁liest	-9790
▁linke	-9791
▁mater	-9792
▁tritt	-9793
arakter	-9794
gebäude	-9795
grenzen	-9796
hundert	-9797
pressiv	-9798
setzten	-9799
streben	-9800
▁Brüder	-9801
▁Mandel	-9802
▁Option	-9803
▁Republ	-9804
▁Türkei	-9805
▁herbei	-9806
ensystem	-9807
probleme	-9808
▁Abstand	-9809
▁Genauso	-9810
▁Manager	-9811
▁Schlimm	-9812
▁Urheber	-9813
▁einzeln	-9814
▁erfasst	-9815
▁zugeben	-9816
▁Beschäft	-9817
▁Diplomat	-9818
▁Gewässer	-9819
▁Herkunft	-9820
▁Kontinen	-9821
▁Mischung	-9822
▁Original	-9823
▁Privileg	-9824
▁Skulptur	-9825
▁Vielzahl	-9826
▁aufgeben	-9827
▁bedenken	-9828
▁bedienen	-9829
▁bewerten	-9830
▁herrscht	-9831
▁schaffte	-9832
▁sicherer	-9833
▁unsicher	-9834
▁zugleich	-9835
▁Alzheimer	-9836
▁Großvater	-9837
▁Kreaturen	-9838
▁Schlechte	-9839
▁Vereinten	-9840
▁probieren	-9841
▁vergrößer	-9842
▁westliche	-9843
▁wiederher	-9844
▁Reichweite	-9845
▁Religionen	-9846
▁angesichts	-9847
▁involviert	-9848
▁verdoppelt	-9849
▁Mittagessen	-9850
▁Überzeugung	-9851
▁Verzweiflung	-9852
▁exponentiell	-9853
▁finanziellen	-9854
▁leidenschaft	-9855
▁präsentieren	-9856
Geh	-9857
Ger	-9858
opt	-9859
röh	-9860
ßte	-9861
▁mü	-9862
..."	-9863
able	-9864
achs	-9865
fabr	-9866
icon	-9867
otel	-9868
ähmt	-9869
üben	-9870
▁10,	-9871
▁Aqu	-9872
▁Bay	-9873
▁Clo	-9874
▁Dez	-9875
▁LKW	-9876
▁Mah	-9877
▁Ski	-9878
▁Van	-9879
attet	-9880
dauer	-9881
gsten	-9882
haber	-9883
iffen	-9884
läuft	-9885
ortex	-9886
reter	-9887
ähler	-9888
▁2001	-9889
▁Arzn	-9890
▁Bahn	-9891
▁Hung	-9892
▁Wird	-9893
▁Zehn	-9894
▁bele	-9895
▁lass	-9896
▁wein	-9897
bellen	-9898
eidung	-9899
genden	-9900
handel	-9901
immern	-9902
istent	-9903
lässig	-9904
person	-9905
uchtet	-9906
▁Behör	-9907
▁Conne	-9908
▁Dauer	-9909
▁Dreie	-9910
▁Falle	-9911
▁Möbel	-9912
▁Robot	-9913
▁Taten	-9914
▁Vietn	-9915
▁Wohlt	-9916
▁Zigar	-9917
▁flüss	-9918
▁verne	-9919
enschwe	-9920
imenten	-9921
klichen	-9922
technik	-9923
▁Gehalt	-9924
▁Poesie	-9925
▁Vorles	-9926
▁Winkel	-9927
▁Wüsten	-9928
▁kurzer	-9929
▁primit	-9930
▁sinken	-9931
▁symbol	-9932
▁zusamm	-9933
ierender	-9934
▁Anreize	-9935
▁Betrach	-9936
▁Dopamin	-9937
▁Kolonie	-9938
▁Notwend	-9939
▁Planung	-9940
▁ankommt	-9941
▁beliebt	-9942
▁bewegte	-9943
▁träumen	-9944
▁verhält	-9945
iversität	-9946
▁Handlung	-9947
▁Ignoranz	-9948
▁Norwegen	-9949
▁Vernunft	-9950
▁Vortrags	-9951
▁vielmals	-9952
temperatur	-9953
▁Architekt	-9954
▁Bewegungs	-9955
▁Führungsk	-9956
▁Offenheit	-9957
▁Prozesses	-9958
▁Rollstuhl	-9959
▁berühmten	-9960
▁definitiv	-9961
▁mitteilen	-9962
friedenheit	-9963
▁Herangehen	-9964
▁Management	-9965
▁Schokolade	-9966
▁Wörterbuch	-9967
▁britischen	-9968
▁finanziert	-9969
▁lächerlich	-9970
▁überlassen	-9971
▁Einrichtung	-9972
▁Hindernisse	-9973
▁Institution	-9974
▁Widerspruch	-9975
▁beobachtete	-9976
▁großartiger	-9977
▁Beschreibung	-9978
▁Erkrankungen	-9979
▁Interessante	-9980
▁Verletzungen	-9981
▁fotografiert	-9982
▁individuelle	-9983
▁individuellen	-9984
▁einschließlich	-9985
▁ursprünglichen	-9986
▁fortgeschritten	-9987
ux	-9988
Ber	-9989
beu	-9990
mär	-9991
nel	-9992
osn	-9993
ray	-9994
uge	-9995
▁CE	-9996
Mein	-9997
arzt	-9998
bele	-9999
bole	-10000
ilem	-10001
illa	-10002
itar	-10003
lass	-10004
zenz	-10005
▁10-	-10006
▁Hol	-10007
▁Mai	-10008
▁Sec	-10009
▁Sir	-10010
▁Wün	-10011
▁brä	-10012
agent	-10013
ampen	-10014
board	-10015
erung	-10016
kamen	-10017
onald	-10018
steck	-10019
▁Brit	-10020
▁Dreh	-10021
▁Gore	-10022
▁Mary	-10023
▁Prob	-10024
▁Samm	-10025
▁Sexu	-10026
▁Ther	-10027
▁brei	-10028
▁deta	-10029
▁fett	-10030
▁gekl	-10031
▁tend	-10032
blasen	-10033
kinder	-10034
ladung	-10035
steten	-10036
ustern	-10037
üttern	-10038
▁Bruch	-10039
▁Roman	-10040
▁Weltw	-10041
▁beruf	-10042
▁etabl	-10043
▁präzi	-10044
▁spekt	-10045
artiges	-10046
brachte	-10047
flächen	-10048
iversen	-10049
legenen	-10050
▁Babies	-10051
▁Banken	-10052
▁Blasen	-10053
▁Doppel	-10054
▁Ersatz	-10055
▁Filter	-10056
▁Keiner	-10057
▁Kurzem	-10058
▁Später	-10059
▁Wollen	-10060
▁rennen	-10061
▁Ärzten	-10062
▁Muslime	-10063
▁Platten	-10064
▁Tropfen	-10065
▁bewirkt	-10066
▁detaill	-10067
▁empfind	-10068
▁hierfür	-10069
▁verdien	-10070
▁Demonstr	-10071
▁Dezember	-10072
▁Objekten	-10073
▁Schwefel	-10074
▁Sprecher	-10075
▁andauern	-10076
▁ankommen	-10077
▁spielten	-10078
▁startete	-10079
raditionen	-10080
▁Einzelnen	-10081
▁Tausenden	-10082
▁anstellen	-10083
▁auftreten	-10084
▁berichtet	-10085
▁einnehmen	-10086
▁ermöglich	-10087
▁schickten	-10088
▁speichern	-10089
▁unendlich	-10090
▁ähnliches	-10091
bewusstsein	-10092
▁Leistungen	-10093
▁Umgebungen	-10094
▁englischen	-10095
▁gewöhnlich	-10096
▁Erfindungen	-10097
▁Erforschung	-10098
▁Hilfsmittel	-10099
▁Trinkwasser	-10100
▁beeindrucken	-10101
▁Sterblichkeit	-10102
▁erstaunlichen	-10103
▁Unabhängigkeit	-10104
9.	-10105
Bl	-10106
We	-10107
ya	-10108
▁ä	-10109
Des	-10110
Kön	-10111
Wow	-10112
aby	-10113
krä	-10114
ope	-10115
▁3,	-10116
▁rü	-10117
Null	-10118
alem	-10119
aufe	-10120
hrer	-10121
ocht	-10122
olum	-10123
▁Hey	-10124
▁Joe	-10125
▁Kra	-10126
▁Ult	-10127
▁kat	-10128
Gesch	-10129
aller	-10130
block	-10131
ehrte	-10132
iefer	-10133
ikeln	-10134
kampf	-10135
obile	-10136
otten	-10137
ungsf	-10138
uropa	-10139
▁Budd	-10140
▁Dick	-10141
▁Erle	-10142
▁Fing	-10143
▁Held	-10144
▁Mais	-10145
▁Neun	-10146
▁Vieh	-10147
▁imit	-10148
▁lehr	-10149
graben	-10150
ktoren	-10151
rachen	-10152
reicht	-10153
ymmetr	-10154
▁Kompl	-10155
▁Panik	-10156
▁Rauch	-10157
▁Volks	-10158
▁anerk	-10159
▁befür	-10160
▁behin	-10161
▁illeg	-10162
▁stärk	-10163
▁weich	-10164
▁übers	-10165
enntnis	-10166
gefasst	-10167
laubnis	-10168
▁Ernähr	-10169
▁Howard	-10170
▁Steine	-10171
▁genaue	-10172
schungen	-10173
sorganis	-10174
vielfalt	-10175
▁Motoren	-10176
▁beginne	-10177
▁betonen	-10178
▁beängst	-10179
▁blicken	-10180
▁fortsch	-10181
▁gedreht	-10182
▁inneren	-10183
▁kannten	-10184
▁schwach	-10185
▁wodurch	-10186
katastrop	-10187
schließen	-10188
▁Antibiot	-10189
▁Bedauern	-10190
▁Bescheid	-10191
▁Blutgefä	-10192
▁Gewinner	-10193
▁Hochzeit	-10194
▁Horizont	-10195
▁Rhythmus	-10196
▁geeignet	-10197
▁interakt	-10198
▁steigern	-10199
▁umsetzen	-10200
▁verboten	-10201
▁überwält	-10202
▁Auflösung	-10203
▁Autorität	-10204
▁Dimension	-10205
▁Hypothese	-10206
▁Meinungen	-10207
▁Schichten	-10208
▁ermutigen	-10209
▁genetisch	-10210
▁gewachsen	-10211
▁innovativ	-10212
▁schafften	-10213
▁unvermeid	-10214
▁vorkommen	-10215
riminalität	-10216
▁Auffassung	-10217
▁Emissionen	-10218
▁Königreich	-10219
▁Nachmittag	-10220
▁Simulation	-10221
▁aktivieren	-10222
▁verbrennen	-10223
▁vergrößern	-10224
▁wahrschein	-10225
▁Immunsystem	-10226
▁Vorhersagen	-10227
▁effizienter	-10228
▁experimente	-10229
▁städtischen	-10230
▁Krankenschwe	-10231
▁darzustellen	-10232
▁Aufzeichnungen	-10233
▁Entschuldigung	-10234
▁Offensichtlich	-10235
▁eingeschlossen	-10236
▁sicherzustellen	-10237
Ch	-10238
NA	-10239
aj	-10240
do	-10241
yt	-10242
okl	-10243
pal	-10244
tzu	-10245
une	-10246
wol	-10247
Test	-10248
belt	-10249
film	-10250
imon	-10251
istr	-10252
kind	-10253
odie	-10254
üten	-10255
▁1,5	-10256
▁Bör	-10257
▁Cap	-10258
▁Dok	-10259
▁Göt	-10260
▁max	-10261
▁met	-10262
▁str	-10263
allel	-10264
apier	-10265
klang	-10266
loser	-10267
ropie	-10268
stock	-10269
▁Agen	-10270
▁Foss	-10271
▁Jose	-10272
▁Papa	-10273
▁Prof	-10274
▁Reis	-10275
▁euer	-10276
▁iPod	-10277
▁klug	-10278
▁phil	-10279
▁wozu	-10280
aneben	-10281
aufbau	-10282
besitz	-10283
firmen	-10284
ilität	-10285
lösung	-10286
ranten	-10287
sektor	-10288
uelles	-10289
ussten	-10290
weiten	-10291
▁Blogs	-10292
▁Bären	-10293
▁Exped	-10294
▁Leder	-10295
▁Media	-10296
▁Smart	-10297
▁Story	-10298
▁draht	-10299
▁flach	-10300
▁ständ	-10301
▁teure	-10302
okraten	-10303
spruchs	-10304
theorie	-10305
▁Akadem	-10306
▁Anreiz	-10307
▁TEDTal	-10308
▁Virgin	-10309
▁brauch	-10310
▁drüber	-10311
▁erfand	-10312
▁großem	-10313
▁legten	-10314
gefangen	-10315
sprecher	-10316
ulierung	-10317
wechseln	-10318
▁Antarkt	-10319
▁Anthrop	-10320
▁Einkauf	-10321
▁Könnten	-10322
▁Phantom	-10323
▁Rechner	-10324
▁Umfrage	-10325
▁blieben	-10326
▁gerecht	-10327
▁glamour	-10328
▁schlägt	-10329
▁würdest	-10330
arenergie	-10331
maschinen	-10332
▁Flaschen	-10333
▁basieren	-10334
▁eröffnen	-10335
▁nochmals	-10336
▁soziales	-10337
▁verdammt	-10338
▁Feuerwehr	-10339
▁Fischerei	-10340
▁Impfstoff	-10341
▁Standards	-10342
▁gewaltige	-10343
▁spektakul	-10344
▁verkaufte	-10345
▁virtuelle	-10346
▁bewältigen	-10347
▁klassische	-10348
▁verurteilt	-10349
▁überqueren	-10350
▁überwachen	-10351
▁Reihenfolge	-10352
▁ausreichend	-10353
▁verzweifelt	-10354
▁Angestellten	-10355
▁Diskussionen	-10356
▁Unsicherheit	-10357
▁beizubringen	-10358
▁industrielle	-10359
▁unterrichtet	-10360
issenschaftler	-10361
▁entscheidende	-10362
/&	-10363
Ab	-10364
lem	-10365
rah	-10366
sey	-10367
wäl	-10368
▁55	-10369
▁EU	-10370
▁fä	-10371
agos	-10372
ahme	-10373
arma	-10374
ehle	-10375
eide	-10376
erry	-10377
ffin	-10378
flos	-10379
gase	-10380
oole	-10381
pern	-10382
rien	-10383
zirk	-10384
älen	-10385
▁18.	-10386
▁Hub	-10387
▁Kub	-10388
▁Neg	-10389
▁Rio	-10390
▁Tax	-10391
▁Tut	-10392
▁bzw	-10393
▁eur	-10394
▁gol	-10395
▁zun	-10396
agert	-10397
ehnte	-10398
figur	-10399
gehör	-10400
▁Farb	-10401
▁Flut	-10402
▁Käse	-10403
▁Lass	-10404
▁Lego	-10405
▁Mont	-10406
▁Poly	-10407
▁Qual	-10408
▁Song	-10409
▁Stap	-10410
▁Tank	-10411
kräfte	-10412
leiden	-10413
rucken	-10414
▁Extra	-10415
▁Kopie	-10416
▁Liber	-10417
▁Luxus	-10418
▁Paras	-10419
▁Proto	-10420
▁Sturm	-10421
▁Wende	-10422
▁freue	-10423
▁meint	-10424
▁tötet	-10425
führten	-10426
ulation	-10427
▁August	-10428
▁Buches	-10429
▁Kreise	-10430
▁Methan	-10431
▁Wirbel	-10432
▁prüfen	-10433
▁tiefen	-10434
computer	-10435
▁Laptops	-10436
▁Niederl	-10437
▁Taliban	-10438
▁Tendenz	-10439
▁Töchter	-10440
▁Urknall	-10441
▁Vietnam	-10442
▁Zweiten	-10443
▁ausländ	-10444
▁bezieht	-10445
▁wüssten	-10446
▁züchten	-10447
bereitung	-10448
istischer	-10449
▁Anhänger	-10450
▁Friedens	-10451
▁Spannung	-10452
▁draussen	-10453
▁erwähnte	-10454
▁gebunden	-10455
▁geringer	-10456
▁Chirurgen	-10457
▁Orchester	-10458
▁Produkten	-10459
▁Unterhalt	-10460
▁keinerlei	-10461
▁komplette	-10462
▁studierte	-10463
▁umgekehrt	-10464
▁wiederver	-10465
▁Brennstoff	-10466
▁Stabilität	-10467
▁anzunehmen	-10468
▁biologisch	-10469
▁schlechtes	-10470
▁Beobachtung	-10471
▁Restaurants	-10472
▁aufzunehmen	-10473
▁eingestellt	-10474
▁großartiges	-10475
▁Konstruktion	-10476
▁Solarenergie	-10477
▁eigentlichen	-10478
▁Notwendigkeit	-10479
▁Wohltätigkeit	-10480
▁beschleunigen	-10481
▁Bildungssystem	-10482
▁Kommunikations	-10483
▁Menschenrechte	-10484
▁transportieren	-10485
abb	-10486
aot	-10487
das	-10488
geh	-10489
kür	-10490
äle	-10491
▁MT	-10492
▁RB	-10493
appe	-10494
dene	-10495
fiel	-10496
flex	-10497
gels	-10498
ihad	-10499
kins	-10500
osis	-10501
rein	-10502
zell	-10503
▁FBI	-10504
▁Fer	-10505
▁Mod	-10506
▁kal	-10507
burgh	-10508
ehlen	-10509
hielt	-10510
hinge	-10511
ision	-10512
liste	-10513
otern	-10514
ource	-10515
rägen	-10516
zeige	-10517
▁Chip	-10518
▁Halb	-10519
▁Matt	-10520
▁Tsun	-10521
▁fröh	-10522
▁wach	-10523
Untern	-10524
altete	-10525
attung	-10526
averei	-10527
bereit	-10528
echnet	-10529
führte	-10530
voller	-10531
▁Count	-10532
▁Werbe	-10533
▁besie	-10534
▁breit	-10535
▁chaot	-10536
▁geprä	-10537
▁redet	-10538
▁verbr	-10539
▁zivil	-10540
schwing	-10541
▁Bergen	-10542
▁Besser	-10543
▁Frucht	-10544
▁Insekt	-10545
▁Jedoch	-10546
▁Nächst	-10547
▁Sowjet	-10548
▁falten	-10549
▁jahrel	-10550
▁wüsste	-10551
▁zutief	-10552
bereiten	-10553
stheorie	-10554
änderung	-10555
▁Brücken	-10556
▁Connect	-10557
▁Kleider	-10558
▁Sendung	-10559
▁Teppich	-10560
▁gelingt	-10561
▁radikal	-10562
▁regener	-10563
ungsweise	-10564
▁Fettleib	-10565
▁Getreide	-10566
▁Kalorien	-10567
▁Neandert	-10568
▁Substanz	-10569
▁erstaunt	-10570
▁intensiv	-10571
▁streiten	-10572
▁Explosion	-10573
▁aufstehen	-10574
▁auswählen	-10575
▁berechnet	-10576
▁erweitert	-10577
▁niemandem	-10578
▁Berechnung	-10579
▁Einkommens	-10580
▁Individuum	-10581
▁Verpflicht	-10582
▁akzeptiert	-10583
▁anzuwenden	-10584
▁effektiver	-10585
▁zueinander	-10586
▁Algorithmus	-10587
▁Geheimnisse	-10588
▁Verbraucher	-10589
▁Klimawandels	-10590
▁vergewaltigt	-10591
▁Arbeitsplätze	-10592
▁fantastischen	-10593
▁landwirtschaft	-10594
▁repräsentieren	-10595
-1	-10596
4.	-10597
Kl	-10598
RT	-10599
],	-10600
häu	-10601
ini	-10602
ith	-10603
val	-10604
ßig	-10605
öch	-10606
▁4,	-10607
face	-10608
ftig	-10609
hett	-10610
prim	-10611
reng	-10612
▁Lou	-10613
▁Ted	-10614
elson	-10615
flüss	-10616
ieber	-10617
iffer	-10618
lings	-10619
ophen	-10620
probe	-10621
ummer	-10622
äuber	-10623
▁Cous	-10624
▁Dikt	-10625
▁Fert	-10626
▁Josh	-10627
▁Lein	-10628
▁Real	-10629
▁Yeah	-10630
▁lese	-10631
bergen	-10632
brüche	-10633
ersage	-10634
izität	-10635
runken	-10636
senden	-10637
terten	-10638
▁Atome	-10639
▁Endes	-10640
▁Pilot	-10641
▁chron	-10642
▁coole	-10643
▁warst	-10644
▁wiegt	-10645
passung	-10646
stimmen	-10647
ungslos	-10648
▁Felder	-10649
▁Gerüst	-10650
▁Glaube	-10651
▁Hacker	-10652
▁Mittag	-10653
▁Patent	-10654
▁Solche	-10655
▁Wortes	-10656
▁assozi	-10657
▁gelben	-10658
▁kontin	-10659
▁lauter	-10660
▁sendet	-10661
▁vollen	-10662
▁weinen	-10663
gebnisse	-10664
izierten	-10665
undation	-10666
▁Heilung	-10667
▁Indiens	-10668
▁Rettung	-10669
▁Symbole	-10670
▁Unglück	-10671
▁Vertrag	-10672
▁Vorbild	-10673
▁Wohnung	-10674
▁brennen	-10675
▁fressen	-10676
▁gefolgt	-10677
▁korrekt	-10678
▁schmutz	-10679
▁sequenz	-10680
▁unschul	-10681
▁versagt	-10682
otherapie	-10683
sichtigen	-10684
ventionen	-10685
▁Freizeit	-10686
▁Lehrerin	-10687
▁Primaten	-10688
▁angewand	-10689
▁geleitet	-10690
▁gleicher	-10691
▁globaler	-10692
▁normales	-10693
▁zutiefst	-10694
▁Datenbank	-10695
▁Karikatur	-10696
▁aktiviert	-10697
▁getrieben	-10698
▁jedermann	-10699
▁kleineren	-10700
▁männliche	-10701
▁religiöse	-10702
▁verpflich	-10703
▁Großeltern	-10704
▁Grundlagen	-10705
▁Initiative	-10706
▁Investoren	-10707
▁Stickstoff	-10708
▁Zentimeter	-10709
▁Anweisungen	-10710
▁Durchmesser	-10711
▁Wichtigkeit	-10712
▁durchlaufen	-10713
▁intelligent	-10714
▁tiefgreifen	-10715
▁verheiratet	-10716
verschmutzung	-10717
▁einzigartige	-10718
▁europäischen	-10719
▁gemeinschaft	-10720
▁Interaktionen	-10721
▁Interessanter	-10722
7,	-10723
9,	-10724
ams	-10725
ect	-10726
erz	-10727
gei	-10728
med	-10729
▁tr	-10730
ahen	-10731
coln	-10732
meld	-10733
paar	-10734
stär	-10735
▁Soc	-10736
▁Vit	-10737
▁biz	-10738
▁sau	-10739
anner	-10740
itäre	-10741
laubt	-10742
llten	-10743
onanz	-10744
riech	-10745
sters	-10746
öhnen	-10747
▁Böse	-10748
▁Dete	-10749
▁Geom	-10750
▁Jazz	-10751
▁Juli	-10752
▁Pilz	-10753
▁Wall	-10754
▁Weiß	-10755
▁line	-10756
▁pein	-10757
▁russ	-10758
▁warm	-10759
▁wild	-10760
hafter	-10761
ivität	-10762
legten	-10763
plätze	-10764
regend	-10765
reißen	-10766
▁Andre	-10767
▁Black	-10768
▁Höhen	-10769
▁Jesus	-10770
▁Leser	-10771
▁Pläne	-10772
▁Rhyth	-10773
▁Seife	-10774
▁Slums	-10775
▁State	-10776
▁Tiger	-10777
▁Väter	-10778
▁Zwill	-10779
▁jagen	-10780
▁konst	-10781
▁lügen	-10782
▁sicht	-10783
▁unaus	-10784
anische	-10785
eilchen	-10786
oleranz	-10787
ometern	-10788
rategie	-10789
schrank	-10790
zentren	-10791
▁Albert	-10792
▁Allein	-10793
▁Bereit	-10794
▁Fasern	-10795
▁Paläst	-10796
▁Sinnes	-10797
▁bricht	-10798
▁gelegt	-10799
▁mittel	-10800
eimittel	-10801
ferenzen	-10802
freiheit	-10803
ifiziert	-10804
schafter	-10805
zutreten	-10806
▁Drohnen	-10807
▁Glamour	-10808
▁Konserv	-10809
▁Streben	-10810
▁drinnen	-10811
▁fürchte	-10812
▁gesucht	-10813
▁großzüg	-10814
▁strateg	-10815
▁versich	-10816
▁öffnete	-10817
aufnahmen	-10818
gegenwärt	-10819
ifizieren	-10820
▁Analogie	-10821
▁Anliegen	-10822
▁Besitzer	-10823
▁Entropie	-10824
▁Nächstes	-10825
▁Personal	-10826
▁Phosphor	-10827
▁Sprechen	-10828
▁Ungefähr	-10829
▁bewiesen	-10830
▁dringend	-10831
▁mithilfe	-10832
▁schlicht	-10833
▁typische	-10834
▁wahnsinn	-10835
▁Erlaubnis	-10836
▁Selektion	-10837
▁Verlangen	-10838
▁angeboten	-10839
▁eingebaut	-10840
▁schneiden	-10841
▁trainiert	-10842
▁Dankeschön	-10843
▁Foundation	-10844
▁Kommentare	-10845
▁beteiligen	-10846
▁glückliche	-10847
▁jedenfalls	-10848
▁sorgfältig	-10849
▁Schizophren	-10850
▁beantwortet	-10851
▁eingeschrän	-10852
▁fokussieren	-10853
▁konsumieren	-10854
▁Erkenntnisse	-10855
▁Schlagzeilen	-10856
▁Studierenden	-10857
▁Größenordnung	-10858
▁Programmierer	-10859
▁mathematische	-10860
▁schrecklichen	-10861
▁tatsächlichen	-10862
▁Fettleibigkeit	-10863
BM	-10864
Up	-10865
Fre	-10866
ilz	-10867
ora	-10868
ros	-10869
sal	-10870
yle	-10871
ärt	-10872
▁Dü	-10873
▁Sw	-10874
▁pu	-10875
Naja	-10876
fügt	-10877
herz	-10878
king	-10879
lles	-10880
rand	-10881
▁Arg	-10882
▁Cel	-10883
▁Ray	-10884
▁Squ	-10885
▁füt	-10886
▁hey	-10887
▁kle	-10888
▁maß	-10889
▁spr	-10890
▁Äqu	-10891
agten	-10892
derte	-10893
diger	-10894
ekten	-10895
günst	-10896
ickte	-10897
iland	-10898
ließt	-10899
oskop	-10900
oster	-10901
right	-10902
spezi	-10903
▁Gumm	-10904
▁Hipp	-10905
▁Long	-10906
▁klop	-10907
▁räum	-10908
ission	-10909
schuss	-10910
treten	-10911
üsseln	-10912
▁2.000	-10913
▁Brand	-10914
▁Hafen	-10915
▁Lügen	-10916
▁Rande	-10917
▁Ratte	-10918
▁Sonnt	-10919
▁leise	-10920
▁umgew	-10921
▁verfl	-10922
anthrop	-10923
blicken	-10924
gezogen	-10925
kriegen	-10926
leitung	-10927
osophen	-10928
▁Anlage	-10929
▁Beutel	-10930
▁Dörfer	-10931
▁Garage	-10932
▁Impuls	-10933
▁Kochen	-10934
▁Kortex	-10935
▁Nelson	-10936
▁Obdach	-10937
▁Seiden	-10938
▁Vaters	-10939
▁Weißen	-10940
▁Wurzel	-10941
▁befand	-10942
▁denkst	-10943
▁fassen	-10944
▁geheim	-10945
▁stimul	-10946
gespräch	-10947
schnitte	-10948
zuhalten	-10949
▁Behaupt	-10950
▁Chromos	-10951
▁Dichter	-10952
▁Gelände	-10953
▁Konvers	-10954
▁Premier	-10955
▁Sklaven	-10956
▁Unglaub	-10957
▁Verrück	-10958
▁direkte	-10959
▁minimal	-10960
▁problem	-10961
▁wandern	-10962
▁Dschihad	-10963
▁Gesetzen	-10964
▁besserer	-10965
▁getragen	-10966
▁riesiger	-10967
▁schuldig	-10968
▁verraten	-10969
▁woanders	-10970
▁Kommentar	-10971
▁Schätzung	-10972
▁Sklaverei	-10973
▁herstellt	-10974
▁interview	-10975
▁kognitive	-10976
▁technisch	-10977
▁Kunststoff	-10978
▁Nährstoffe	-10979
▁beschränkt	-10980
▁durchgehen	-10981
▁gewaltigen	-10982
▁kombiniert	-10983
▁Psychologen	-10984
▁Traditionen	-10985
▁Nervensystem	-10986
▁beschleunigt	-10987
▁außerordentlich	-10988
3.	-10989
5.	-10990
8,	-10991
▁0	-10992
gst	-10993
low	-10994
rät	-10995
uts	-10996
▁37	-10997
▁7.	-10998
▁hä	-10999
▁ue	-11000
▁üb	-11001
Komm	-11002
ahll	-11003
ckel	-11004
eilt	-11005
empf	-11006
idee	-11007
ideo	-11008
izza	-11009
kömm	-11010
sätz	-11011
uckt	-11012
zung	-11013
ören	-11014
▁Alb	-11015
▁Zun	-11016
▁süß	-11017
aucht	-11018
blatt	-11019
raham	-11020
welle	-11021
▁2050	-11022
▁Ford	-11023
▁Tast	-11024
▁serv	-11025
▁spaz	-11026
achtel	-11027
barung	-11028
becken	-11029
dachte	-11030
endete	-11031
haftes	-11032
iction	-11033
strahl	-11034
ündung	-11035
▁Bombe	-11036
▁Freit	-11037
▁Güter	-11038
▁Shang	-11039
▁Türen	-11040
▁Wolke	-11041
▁loszu	-11042
▁traur	-11043
abdruck	-11044
imieren	-11045
iologie	-11046
ografen	-11047
wohnern	-11048
▁Anwalt	-11049
▁Kritik	-11050
▁Pandem	-11051
▁Profit	-11052
▁Rakete	-11053
▁Rennen	-11054
▁Schach	-11055
▁Tempel	-11056
▁Treppe	-11057
▁Weizen	-11058
▁abgest	-11059
▁auszur	-11060
▁binden	-11061
▁flogen	-11062
▁halfen	-11063
▁merkte	-11064
forscher	-11065
leuchten	-11066
orischen	-11067
probiert	-11068
▁Gestalt	-11069
▁Johnson	-11070
▁Koordin	-11071
▁Lincoln	-11072
▁Meisten	-11073
▁Silicon	-11074
▁Spanien	-11075
▁Stammes	-11076
▁Strecke	-11077
▁Tiefsee	-11078
▁Ursprün	-11079
▁abhängt	-11080
▁allerer	-11081
▁archite	-11082
▁automat	-11083
▁daneben	-11084
▁leichte	-11085
▁spontan	-11086
▁umfasst	-11087
▁zuletzt	-11088
▁Aussehen	-11089
▁Direktor	-11090
▁Robotern	-11091
▁erlaubte	-11092
▁mächtige	-11093
▁neuesten	-11094
riminellen	-11095
verstanden	-11096
▁Computers	-11097
▁Erzählung	-11098
▁Schweigen	-11099
▁Veröffent	-11100
▁bedeutsam	-11101
▁einfallen	-11102
▁gestohlen	-11103
▁rückwärts	-11104
▁schwarzes	-11105
▁typischen	-11106
▁zentralen	-11107
▁Konkurrenz	-11108
▁Säugetiere	-11109
▁Werkzeugen	-11110
▁bescheiden	-11111
▁verrückten	-11112
organisation	-11113
▁Atomenergie	-11114
▁Versprechen	-11115
▁emotionalen	-11116
▁mitgebracht	-11117
▁staatlichen	-11118
▁verblüffend	-11119
▁verbreitete	-11120
▁verwendeten	-11121
▁Freiwilligen	-11122
▁ausprobieren	-11123
▁erfolgreiche	-11124
▁persönlicher	-11125
▁tatsächliche	-11126
▁wahrgenommen	-11127
▁Angelegenheit	-11128
▁elektronische	-11129
8.	-11130
CA	-11131
CH	-11132
wa	-11133
Syn	-11134
krö	-11135
neu	-11136
sol	-11137
ött	-11138
▁ED	-11139
▁II	-11140
▁sc	-11141
Also	-11142
Zeit	-11143
ania	-11144
delt	-11145
kurs	-11146
onds	-11147
quot	-11148
seel	-11149
ustr	-11150
▁Att	-11151
▁Kün	-11152
▁Law	-11153
▁Lok	-11154
▁Pla	-11155
▁hor	-11156
agnet	-11157
armen	-11158
eiert	-11159
ierst	-11160
izenz	-11161
ohnen	-11162
ometr	-11163
opter	-11164
organ	-11165
pfern	-11166
riebe	-11167
rüsen	-11168
ugend	-11169
usste	-11170
▁Benj	-11171
▁Clin	-11172
▁Delf	-11173
▁Eric	-11174
▁Funk	-11175
▁Hell	-11176
▁Mühe	-11177
▁Nick	-11178
▁Prog	-11179
▁Sech	-11180
▁Sich	-11181
▁böse	-11182
▁ewig	-11183
▁warf	-11184
Modell	-11185
bricht	-11186
iftung	-11187
männer	-11188
ragend	-11189
ächter	-11190
▁3.000	-11191
▁Baumk	-11192
▁Brian	-11193
▁Erwei	-11194
▁Inder	-11195
▁Minen	-11196
▁Power	-11197
▁Schad	-11198
▁greif	-11199
▁jenes	-11200
▁klare	-11201
▁lehrt	-11202
▁lokal	-11203
▁teilt	-11204
▁wette	-11205
▁überl	-11206
kreisen	-11207
ühungen	-11208
▁Briefe	-11209
▁Filmem	-11210
▁Lichts	-11211
▁Pferde	-11212
▁Raumes	-11213
▁Wander	-11214
▁freuen	-11215
▁geschl	-11216
▁grauen	-11217
▁landet	-11218
▁objekt	-11219
▁person	-11220
▁spirit	-11221
atienten	-11222
basierte	-11223
euchtung	-11224
faktoren	-11225
gebildet	-11226
gesteuer	-11227
ographic	-11228
springen	-11229
▁Anderen	-11230
▁Branche	-11231
▁Einzige	-11232
▁Insulin	-11233
▁Kollege	-11234
▁Märkten	-11235
▁Schreib	-11236
▁aggress	-11237
▁verteid	-11238
▁wartete	-11239
▁zuhause	-11240
ungskette	-11241
▁Arbeitsk	-11242
▁Beobacht	-11243
▁Drittens	-11244
▁Frequenz	-11245
▁Kolonien	-11246
▁Rauschen	-11247
▁fürchten	-11248
▁größeres	-11249
▁indische	-11250
▁pflanzen	-11251
▁Alexander	-11252
▁Bakterium	-11253
▁Besonders	-11254
▁Gemeinsam	-11255
▁Irgendwie	-11256
▁Schlangen	-11257
▁Verbrauch	-11258
▁Vergewalt	-11259
▁angewandt	-11260
▁anspruchs	-11261
▁benötigte	-11262
▁einführen	-11263
▁empfangen	-11264
▁kleinsten	-11265
▁kritische	-11266
▁verknüpft	-11267
▁verletzen	-11268
▁vertreten	-11269
▁wichtiges	-11270
▁Äthiopien	-11271
übergreifen	-11272
▁Durchbruch	-11273
▁Fotografie	-11274
▁Interviews	-11275
▁Kandidaten	-11276
▁Polizisten	-11277
▁Rückenmark	-11278
▁Wohnzimmer	-11279
▁aufregende	-11280
▁einbringen	-11281
▁konvention	-11282
▁motivieren	-11283
▁restlichen	-11284
▁verdoppeln	-11285
▁beherrschen	-11286
▁natürlicher	-11287
▁ausgestorben	-11288
▁entsprechend	-11289
▁Interessantes	-11290
▁Interpretation	-11291
▁technologische	-11292
▁Einschränkungen	-11293
.'	-11294
DA	-11295
De	-11296
IS	-11297
bä	-11298
sw	-11299
Fil	-11300
Ihr	-11301
Mit	-11302
Rob	-11303
ets	-11304
ink	-11305
kod	-11306
mte	-11307
ova	-11308
pul	-11309
rif	-11310
ror	-11311
zel	-11312
änz	-11313
▁DV	-11314
▁JH	-11315
▁No	-11316
▁Sn	-11317
aner	-11318
hlst	-11319
iser	-11320
komm	-11321
kund	-11322
leid	-11323
ruhe	-11324
uert	-11325
zone	-11326
▁Amy	-11327
▁Ert	-11328
▁Tar	-11329
▁flu	-11330
▁hom	-11331
asten	-11332
genda	-11333
ostet	-11334
stamm	-11335
wechs	-11336
öpfen	-11337
öscht	-11338
▁Arkt	-11339
▁Bell	-11340
▁Enzy	-11341
▁Feyn	-11342
▁Hang	-11343
▁Hass	-11344
▁Leit	-11345
▁Leon	-11346
▁News	-11347
▁Pest	-11348
▁Raub	-11349
▁Sper	-11350
▁allm	-11351
▁farb	-11352
▁verp	-11353
achter	-11354
cherch	-11355
derten	-11356
gender	-11357
ilemma	-11358
itären	-11359
kunden	-11360
setzte	-11361
ündete	-11362
▁Algen	-11363
▁Arist	-11364
▁Blind	-11365
▁Detro	-11366
▁Ernte	-11367
▁Ethik	-11368
▁Korea	-11369
▁Miner	-11370
▁Pizza	-11371
▁Stolz	-11372
▁Zehen	-11373
▁baten	-11374
▁gehst	-11375
▁gesen	-11376
▁kraft	-11377
▁sorgt	-11378
▁Ärger	-11379
ristall	-11380
örungen	-11381
▁Fangen	-11382
▁Flagge	-11383
▁Formel	-11384
▁Hektar	-11385
▁Schein	-11386
▁Second	-11387
▁Stufen	-11388
▁Termin	-11389
▁Vermut	-11390
▁Weisen	-11391
▁bringe	-11392
▁deprim	-11393
▁folgte	-11394
geworfen	-11395
heimlich	-11396
ibilität	-11397
▁Konzert	-11398
▁Unfälle	-11399
▁Wörtern	-11400
▁Zivilis	-11401
▁anschau	-11402
▁geplant	-11403
▁geringe	-11404
▁lächeln	-11405
▁präzise	-11406
▁willkür	-11407
strahlung	-11408
▁Hardware	-11409
▁Projekts	-11410
▁anderswo	-11411
▁durchaus	-11412
▁entschul	-11413
▁fossilen	-11414
▁hingegen	-11415
▁schenken	-11416
▁schweren	-11417
▁universe	-11418
▁versorgt	-11419
▁Absichten	-11420
▁Angesicht	-11421
▁Kapazität	-11422
▁aufhalten	-11423
▁beschrieb	-11424
▁betrachte	-11425
▁erkannten	-11426
▁hinterher	-11427
▁klinische	-11428
▁leistungs	-11429
▁moralisch	-11430
▁motiviert	-11431
▁zustimmen	-11432
▁Elektroden	-11433
▁Erkrankung	-11434
▁menschlich	-11435
▁übernommen	-11436
▁Bestandteil	-11437
▁Bürgerkrieg	-11438
▁architekton	-11439
▁finanzielle	-11440
▁gefährliche	-11441
▁kollektiven	-11442
▁politischer	-11443
▁vorschlagen	-11444
▁Landschaften	-11445
▁programmiert	-11446
▁Schizophrenie	-11447
▁einzigartigen	-11448
▁transportiert	-11449
▁Transformation	-11450
▁interpretieren	-11451
▁zusammenfassen	-11452
.:	-11453
Qu	-11454
Met	-11455
aks	-11456
bem	-11457
mil	-11458
äge	-11459
▁46	-11460
▁Fi	-11461
▁Hä	-11462
▁LG	-11463
▁SO	-11464
▁SW	-11465
▁Wi	-11466
▁Yo	-11467
Netz	-11468
aste	-11469
atar	-11470
bran	-11471
code	-11472
hern	-11473
izit	-11474
onym	-11475
trän	-11476
▁350	-11477
▁Amb	-11478
▁Ego	-11479
▁Jur	-11480
▁Kos	-11481
▁Kri	-11482
▁McD	-11483
▁Mer	-11484
▁Mur	-11485
▁Sav	-11486
▁Som	-11487
▁Sud	-11488
▁ann	-11489
▁med	-11490
ansas	-11491
arden	-11492
arent	-11493
digte	-11494
ester	-11495
ichts	-11496
irurg	-11497
oresz	-11498
zahlt	-11499
ärten	-11500
ühren	-11501
▁2011	-11502
▁Bern	-11503
▁Cola	-11504
▁Grös	-11505
▁Kühe	-11506
▁März	-11507
▁Nano	-11508
▁Rick	-11509
▁Töne	-11510
▁Vent	-11511
▁Zelt	-11512
▁hebt	-11513
▁prim	-11514
▁stol	-11515
atives	-11516
füllen	-11517
indern	-11518
presse	-11519
steigt	-11520
ördert	-11521
▁Berat	-11522
▁Bogen	-11523
▁Fried	-11524
▁Geben	-11525
▁Lange	-11526
▁Moder	-11527
▁Motto	-11528
▁Tafel	-11529
▁drast	-11530
▁exter	-11531
▁formt	-11532
▁gestr	-11533
▁missb	-11534
▁solle	-11535
Problem	-11536
ampagne	-11537
atschen	-11538
berecht	-11539
itution	-11540
viertel	-11541
▁Berlin	-11542
▁Beteil	-11543
▁Brookl	-11544
▁County	-11545
▁Erklär	-11546
▁Feucht	-11547
▁Genome	-11548
▁Küchen	-11549
▁Räumen	-11550
▁Urlaub	-11551
▁abends	-11552
▁absolu	-11553
▁graben	-11554
▁riecht	-11555
▁schmal	-11556
altungen	-11557
behalten	-11558
schlägen	-11559
▁Abraham	-11560
▁Antrieb	-11561
▁Anwälte	-11562
▁Distanz	-11563
▁Haltung	-11564
▁Irgendw	-11565
▁Sterben	-11566
▁anhören	-11567
▁bislang	-11568
▁entsetz	-11569
▁geformt	-11570
▁gemeint	-11571
▁gewohnt	-11572
▁hierbei	-11573
▁logisch	-11574
▁massive	-11575
▁schufen	-11576
▁vierten	-11577
Industrie	-11578
irtschaft	-11579
▁Eigentum	-11580
▁Merkmale	-11581
▁Parteien	-11582
▁Schalter	-11583
▁Shanghai	-11584
▁anfingen	-11585
▁anziehen	-11586
▁erstmals	-11587
▁geglaubt	-11588
▁gesunken	-11589
▁jegliche	-11590
▁national	-11591
▁rational	-11592
▁recherch	-11593
▁Berührung	-11594
▁Rückseite	-11595
▁Schwellen	-11596
▁Zeichnung	-11597
▁begleitet	-11598
▁britische	-11599
▁erreichte	-11600
▁führenden	-11601
▁negativen	-11602
▁verborgen	-11603
▁verleihen	-11604
▁wiederhol	-11605
▁wohlhaben	-11606
formationen	-11607
▁Ausschnitt	-11608
▁Verwandten	-11609
▁existierte	-11610
▁festhalten	-11611
▁integriert	-11612
▁klinischen	-11613
▁männlichen	-11614
▁willkommen	-11615
▁Ökosysteme	-11616
▁Antibiotika	-11617
▁Naturschutz	-11618
▁aufgestellt	-11619
▁ausprobiert	-11620
▁beeindruckt	-11621
▁gewöhnliche	-11622
▁schmerzhaft	-11623
▁umgewandelt	-11624
▁unabhängige	-11625
▁Andererseits	-11626
▁Experimenten	-11627
▁Hausaufgaben	-11628
▁allgegenwärt	-11629
▁historischen	-11630
▁Entwicklungen	-11631
▁durcheinander	-11632
▁faszinierende	-11633
▁festzustellen	-11634
▁fotografieren	-11635
▁industriellen	-11636
▁intelligenten	-11637
▁verwirklichen	-11638
▁Premierminister	-11639
4,	-11640
Me	-11641
ibr	-11642
not	-11643
que	-11644
▁42	-11645
▁NG	-11646
▁Ti	-11647
'000	-11648
AIDS	-11649
lers	-11650
opäd	-11651
orea	-11652
rief	-11653
rümm	-11654
tech	-11655
wege	-11656
▁Dür	-11657
▁fix	-11658
ialen	-11659
minen	-11660
onach	-11661
steri	-11662
union	-11663
uther	-11664
äusen	-11665
▁Gall	-11666
▁Gefä	-11667
▁Hilf	-11668
▁Hong	-11669
▁Kalk	-11670
▁Pack	-11671
▁Panz	-11672
▁Strö	-11673
▁Tony	-11674
▁brut	-11675
▁fuer	-11676
▁hing	-11677
▁isst	-11678
▁kart	-11679
▁sech	-11680
▁skal	-11681
alente	-11682
rechts	-11683
renzen	-11684
schrau	-11685
sslich	-11686
▁Amate	-11687
▁Brown	-11688
▁Earth	-11689
▁Henry	-11690
▁South	-11691
▁Sucht	-11692
▁Warte	-11693
▁Wohin	-11694
▁einig	-11695
▁eurem	-11696
▁gefil	-11697
▁müsst	-11698
▁recyc	-11699
büchern	-11700
fahrung	-11701
schafts	-11702
▁Balken	-11703
▁Frosch	-11704
▁Gandhi	-11705
▁Matrix	-11706
▁Meiner	-11707
▁Monter	-11708
▁Newton	-11709
▁Plätze	-11710
▁Portra	-11711
▁ausgel	-11712
▁befrie	-11713
▁halbes	-11714
▁riesig	-11715
▁wohnen	-11716
lichsten	-11717
olumines	-11718
periment	-11719
standard	-11720
ventuell	-11721
ästhesie	-11722
▁Cricket	-11723
▁Feynman	-11724
▁Körpern	-11725
▁Mandela	-11726
▁Meeting	-11727
▁Prostat	-11728
▁Rituale	-11729
▁Robotik	-11730
▁gelähmt	-11731
▁kontinu	-11732
▁sammelt	-11733
▁stehlen	-11734
▁steuert	-11735
▁verdeut	-11736
▁verwirr	-11737
▁weitaus	-11738
gebrochen	-11739
kontrolle	-11740
leitungen	-11741
sprechend	-11742
▁Abwasser	-11743
▁Annahmen	-11744
▁Atlantik	-11745
▁Behörden	-11746
▁Glaubens	-11747
▁Haushalt	-11748
▁Strassen	-11749
▁Wahnsinn	-11750
▁aufwuchs	-11751
▁drittens	-11752
▁geflogen	-11753
▁gelaufen	-11754
▁liebsten	-11755
▁physisch	-11756
▁sicheren	-11757
▁vermuten	-11758
▁Antarktis	-11759
▁Automobil	-11760
▁Geometrie	-11761
▁Kategorie	-11762
▁Probanden	-11763
▁Wohnungen	-11764
▁ansonsten	-11765
▁bestätigt	-11766
▁erschafft	-11767
▁gestiegen	-11768
▁jederzeit	-11769
▁möglichst	-11770
▁umgesetzt	-11771
▁wachsende	-11772
▁zuzuhören	-11773
▁Grundstück	-11774
▁Netzwerken	-11775
▁Völkermord	-11776
▁angewendet	-11777
▁bedeutende	-11778
▁bestätigen	-11779
▁generieren	-11780
▁unheimlich	-11781
▁überdenken	-11782
▁Anwesenheit	-11783
▁integrieren	-11784
▁konstruiert	-11785
▁unmittelbar	-11786
▁Alternativen	-11787
▁ausgestattet	-11788
▁muslimischen	-11789
▁verpflichtet	-11790
▁wesentlichen	-11791
▁Artenvielfalt	-11792
▁untereinander	-11793
▁auszuprobieren	-11794
▁physikalischen	-11795
▁Verletzlichkeit	-11796
▁experimentieren	-11797
:"	-11798
na	-11799
ETI	-11800
hur	-11801
irm	-11802
lös	-11803
▁48	-11804
▁BM	-11805
▁Ec	-11806
▁ah	-11807
Tech	-11808
Zahl	-11809
auch	-11810
aßen	-11811
enke	-11812
haut	-11813
ible	-11814
iche	-11815
last	-11816
weiß	-11817
ypen	-11818
▁10.	-11819
▁Agr	-11820
▁Bin	-11821
▁DVD	-11822
▁Rem	-11823
▁Roy	-11824
▁Sat	-11825
▁anz	-11826
▁bot	-11827
▁ele	-11828
▁här	-11829
▁mod	-11830
Weißt	-11831
brett	-11832
dungs	-11833
jahre	-11834
reckt	-11835
▁Affe	-11836
▁Just	-11837
▁Kell	-11838
▁Neue	-11839
▁Prie	-11840
▁Ring	-11841
▁Skiz	-11842
▁Visu	-11843
▁bahn	-11844
▁iron	-11845
▁nimm	-11846
▁ruft	-11847
esseln	-11848
griffe	-11849
ikalen	-11850
proben	-11851
schern	-11852
volles	-11853
würdig	-11854
▁Engel	-11855
▁Graph	-11856
▁Magen	-11857
▁North	-11858
▁Repar	-11859
▁Skala	-11860
▁Sprit	-11861
▁Texte	-11862
▁Zunge	-11863
▁ankam	-11864
▁fange	-11865
▁fügen	-11866
▁gelei	-11867
▁popul	-11868
▁sinkt	-11869
▁toten	-11870
auschen	-11871
digungs	-11872
euchten	-11873
▁30.000	-11874
▁Filmen	-11875
▁Finden	-11876
▁Hauses	-11877
▁Histor	-11878
▁Hühner	-11879
▁Ironie	-11880
▁Ozeans	-11881
▁Phasen	-11882
▁Tiefen	-11883
▁Tunnel	-11884
▁bedroh	-11885
▁fehlen	-11886
▁korrig	-11887
▁kurzes	-11888
▁magnet	-11889
▁untere	-11890
gebieten	-11891
gewiesen	-11892
ianische	-11893
ilometer	-11894
produkte	-11895
romagnet	-11896
schaltet	-11897
stellbar	-11898
zutragen	-11899
▁Abweich	-11900
▁Anzeige	-11901
▁Ausgabe	-11902
▁Delfine	-11903
▁Detroit	-11904
▁Dörfern	-11905
▁Genetik	-11906
▁Himmels	-11907
▁Hungers	-11908
▁Indones	-11909
▁Origami	-11910
▁Zuhören	-11911
▁agieren	-11912
▁erstmal	-11913
▁solches	-11914
▁sowieso	-11915
▁streben	-11916
▁teilten	-11917
Regierung	-11918
gerichtet	-11919
schätzung	-11920
▁Benjamin	-11921
▁Halluzin	-11922
▁Kliniken	-11923
▁Leinwand	-11924
▁Mögliche	-11925
▁Pyramide	-11926
▁Streifen	-11927
▁gelungen	-11928
▁generell	-11929
▁handelte	-11930
▁negative	-11931
▁verläuft	-11932
▁versetzt	-11933
▁verwirrt	-11934
▁ältesten	-11935
bewegungen	-11936
▁Anpassung	-11937
▁Disziplin	-11938
▁Unternehm	-11939
▁Vergessen	-11940
▁angezogen	-11941
▁emotional	-11942
▁englische	-11943
▁furchtbar	-11944
▁kommenden	-11945
▁schwanger	-11946
▁wenigsten	-11947
▁örtlichen	-11948
entwicklung	-11949
▁Einführung	-11950
▁Journalist	-11951
▁Kategorien	-11952
▁Unterdrück	-11953
▁Vorhersage	-11954
▁beseitigen	-11955
▁eineinhalb	-11956
▁entfernten	-11957
▁kontinuier	-11958
▁schlimmste	-11959
▁wachsenden	-11960
stechnologie	-11961
▁Heimatstadt	-11962
▁Lebensunter	-11963
▁ausgedrückt	-11964
▁institution	-11965
▁transparent	-11966
▁verschaffen	-11967
▁Republikaner	-11968
▁fundamentale	-11969
▁größtenteils	-11970
▁langfristige	-11971
amerikanischen	-11972
▁Zufriedenheit	-11973
▁demokratische	-11974
▁identifiziert	-11975
▁Überzeugungen	-11976
▁Führungskräfte	-11977
▁berücksichtigt	-11978
▁veröffentlichte	-11979
"?	-11980
He	-11981
▁?	-11982
Ste	-11983
Vor	-11984
ads	-11985
bry	-11986
bus	-11987
ody	-11988
ufe	-11989
übt	-11990
▁29	-11991
▁31	-11992
▁JA	-11993
▁Os	-11994
Boot	-11995
Stud	-11996
ader	-11997
bard	-11998
bart	-11999
etro	-12000
etts	-12001
gets	-12002
ials	-12003
ockt	-12004
otte	-12005
vort	-12006
zehn	-12007
▁2,5	-12008
▁Gig	-12009
▁Kro	-12010
▁Sag	-12011
▁Vin	-12012
▁gra	-12013
▁kan	-12014
ablen	-12015
atsch	-12016
azier	-12017
eiler	-12018
herum	-12019
ignen	-12020
kespe	-12021
masse	-12022
reuen	-12023
rüger	-12024
ämmer	-12025
ündet	-12026
▁Dein	-12027
▁Dunk	-12028
▁Mord	-12029
▁Pion	-12030
▁Rate	-12031
▁Riff	-12032
▁Spir	-12033
▁Tenn	-12034
▁Ufer	-12035
▁bild	-12036
▁grös	-12037
▁vari	-12038
▁zert	-12039
apital	-12040
dichte	-12041
kommun	-12042
reiber	-12043
rollen	-12044
rungen	-12045
teilte	-12046
ökonom	-12047
ützten	-12048
▁Blitz	-12049
▁Blume	-12050
▁Dampf	-12051
▁Davon	-12052
▁Dicht	-12053
▁Fahrt	-12054
▁Ideal	-12055
▁Juden	-12056
▁Klass	-12057
▁Saudi	-12058
▁Seide	-12059
▁angel	-12060
▁enthü	-12061
▁eurer	-12062
▁hinab	-12063
▁raten	-12064
▁stamm	-12065
▁stieß	-12066
bestand	-12067
füllung	-12068
produkt	-12069
wichtig	-12070
zession	-12071
ämpfung	-12072
äuschen	-12073
▁Archiv	-12074
▁Chinas	-12075
▁Comics	-12076
▁Erdgas	-12077
▁Feinde	-12078
▁Herbst	-12079
▁Mythos	-12080
▁Schafe	-12081
▁Schöne	-12082
▁Singap	-12083
▁Teller	-12084
▁Würfel	-12085
▁Zeitra	-12086
▁frisch	-12087
▁griech	-12088
▁konkre	-12089
▁nutzte	-12090
▁orient	-12091
▁packen	-12092
▁teurer	-12093
▁trugen	-12094
aschinen	-12095
breitung	-12096
ituation	-12097
steuropa	-12098
versicht	-12099
▁Applaus	-12100
▁Fingern	-12101
▁Herzinf	-12102
▁Häusern	-12103
▁Mitleid	-12104
▁Schweiz	-12105
▁Steuern	-12106
▁Stärken	-12107
▁Welches	-12108
▁Zugriff	-12109
▁Zuhörer	-12110
▁dunkler	-12111
▁geschei	-12112
▁gewaltt	-12113
▁herkömm	-12114
▁herumzu	-12115
▁rechnen	-12116
▁riechen	-12117
▁schätze	-12118
eisterung	-12119
maßnahmen	-12120
stelligen	-12121
▁Autobahn	-12122
▁Beginnen	-12123
▁Kritiker	-12124
▁Schulden	-12125
▁kopieren	-12126
▁normaler	-12127
▁vielfält	-12128
▁Beschleun	-12129
▁Einladung	-12130
▁Frühstück	-12131
▁Infektion	-12132
▁ausgelöst	-12133
▁begriffen	-12134
▁charakter	-12135
▁ergreifen	-12136
▁seltsamen	-12137
▁Überfluss	-12138
▁übersehen	-12139
Unternehmen	-12140
▁Beispielen	-12141
▁Diejenigen	-12142
▁Expedition	-12143
▁Hersteller	-12144
▁Innenstadt	-12145
▁Irgendwann	-12146
▁analysiert	-12147
▁anzufangen	-12148
▁diskutiert	-12149
▁finanziell	-12150
▁garantiert	-12151
▁psychische	-12152
▁verschwand	-12153
▁weiblichen	-12154
▁Erzählungen	-12155
▁Fledermäuse	-12156
▁Hoffentlich	-12157
▁verschieben	-12158
▁veränderten	-12159
▁Arzneimittel	-12160
▁Quadratmeter	-12161
▁untersuchten	-12162
▁Gelegenheiten	-12163
▁Konzentration	-12164
▁Treibhausgase	-12165
▁nebeneinander	-12166
▁Zivilisationen	-12167
SP	-12168
Zu	-12169
ny	-12170
yd	-12171
Ent	-12172
ado	-12173
cel	-12174
ibl	-12175
log	-12176
mie	-12177
▁38	-12178
▁po	-12179
▁wa	-12180
,000	-12181
Gott	-12182
arer	-12183
eife	-12184
ican	-12185
iode	-12186
malt	-12187
pril	-12188
umpe	-12189
öden	-12190
ürme	-12191
▁192	-12192
▁Fra	-12193
▁Gän	-12194
▁Hum	-12195
▁IBM	-12196
▁kün	-12197
▁seh	-12198
DUMMY	-12199
aisen	-12200
atent	-12201
auben	-12202
igste	-12203
ritts	-12204
samer	-12205
splan	-12206
thent	-12207
ächte	-12208
▁Darf	-12209
▁Erbe	-12210
▁Grau	-12211
▁Kreb	-12212
▁Meme	-12213
▁Rohr	-12214
▁SETI	-12215
▁Snow	-12216
▁Tabe	-12217
▁Vaku	-12218
▁Wats	-12219
▁Wett	-12220
▁drän	-12221
▁inne	-12222
▁käme	-12223
▁müde	-12224
▁post	-12225
ammern	-12226
anfall	-12227
etzung	-12228
gefügt	-12229
halter	-12230
kreise	-12231
langen	-12232
porter	-12233
produz	-12234
wollen	-12235
▁Bronx	-12236
▁Chile	-12237
▁DUMMY	-12238
▁Elend	-12239
▁Ethan	-12240
▁Genie	-12241
▁Kanal	-12242
▁Kurse	-12243
▁Liban	-12244
▁Nebel	-12245
▁Pilze	-12246
▁Still	-12247
▁Tinte	-12248
▁Veget	-12249
▁auton	-12250
▁ehren	-12251
▁gelbe	-12252
▁suche	-12253
bleiben	-12254
branche	-12255
euerung	-12256
glicher	-12257
orische	-12258
▁Andrew	-12259
▁Gegner	-12260
▁Sender	-12261
▁Sonder	-12262
▁Tänzer	-12263
▁Umfang	-12264
▁Versch	-12265
▁begrün	-12266
▁kalten	-12267
▁reiche	-12268
▁schwei	-12269
▁unterr	-12270
▁wärmer	-12271
eigerung	-12272
frequenz	-12273
menschen	-12274
örderung	-12275
▁Charlie	-12276
▁Mitteln	-12277
▁Rechten	-12278
▁Redwood	-12279
▁Schwein	-12280
▁Störung	-12281
▁Truppen	-12282
▁Zutaten	-12283
▁aktiven	-12284
▁authent	-12285
▁benannt	-12286
▁entschl	-12287
▁erheben	-12288
▁erlebte	-12289
▁geprägt	-12290
▁gerufen	-12291
▁meinten	-12292
▁oftmals	-12293
▁veranst	-12294
▁wünsche	-12295
▁zwanzig	-12296
ordnungen	-12297
▁Behälter	-12298
▁Brooklyn	-12299
▁Christen	-12300
▁Erzähler	-12301
▁Führungs	-12302
▁Gedichte	-12303
▁Shakespe	-12304
▁absolute	-12305
▁befanden	-12306
▁forschen	-12307
▁gestoßen	-12308
▁globales	-12309
▁isoliert	-12310
▁kleinste	-12311
▁verwandt	-12312
▁vorkommt	-12313
ologisches	-12314
▁Biosphäre	-12315
▁Künstlern	-12316
▁Leistungs	-12317
▁Schwimmen	-12318
▁Wichtiges	-12319
▁erschwing	-12320
▁eventuell	-12321
▁gefährdet	-12322
▁jahrelang	-12323
▁nirgendwo	-12324
▁starteten	-12325
verständnis	-12326
▁DUMMYDUMMY	-12327
▁Indonesien	-12328
▁erschienen	-12329
▁freiwillig	-12330
▁vergrößert	-12331
▁Botschaften	-12332
▁Ergebnissen	-12333
▁Erschaffung	-12334
▁Forschungen	-12335
▁Gleichungen	-12336
▁Gravitation	-12337
▁Sowjetunion	-12338
▁entscheidet	-12339
▁ermöglichte	-12340
▁Begeisterung	-12341
▁Finanzierung	-12342
▁Jahrhunderte	-12343
▁Jugendlichen	-12344
▁beschäftigte	-12345
▁Demonstration	-12346
▁Verschmutzung	-12347
▁interessierte	-12348
▁konzentrierte	-12349
▁unglaubliches	-12350
▁diagnostiziert	-12351
▁herausgestellt	-12352
▁mathematischen	-12353
▁Lebensunterhalt	-12354
Fi	-12355
Ne	-12356
uv	-12357
ble	-12358
hes	-12359
kar	-12360
ket	-12361
ows	-12362
pra	-12363
öss	-12364
ürt	-12365
▁2:	-12366
▁4.	-12367
▁EM	-12368
▁li	-12369
Hier	-12370
alog	-12371
amie	-12372
erkt	-12373
esst	-12374
höhe	-12375
itor	-12376
ness	-12377
rebs	-12378
sehe	-12379
stad	-12380
öcke	-12381
▁12.	-12382
▁Bol	-12383
▁Bor	-12384
▁Dra	-12385
▁Emm	-12386
▁Hab	-12387
▁Las	-12388
▁Moz	-12389
▁Reh	-12390
▁Tas	-12391
Bitte	-12392
Schau	-12393
arter	-12394
halle	-12395
liebe	-12396
mitte	-12397
reden	-12398
szeit	-12399
▁2020	-12400
▁Angi	-12401
▁Blei	-12402
▁Comp	-12403
▁Doug	-12404
▁Fang	-12405
▁Kino	-12406
▁besp	-12407
▁dünn	-12408
▁harm	-12409
ativer	-12410
genöss	-12411
haftet	-12412
holung	-12413
legung	-12414
linder	-12415
wendig	-12416
zyklus	-12417
ätigen	-12418
ättern	-12419
▁Antik	-12420
▁Elite	-12421
▁Erden	-12422
▁Franz	-12423
▁Gange	-12424
▁Grand	-12425
▁Jäger	-12426
▁Nukle	-12427
▁Prakt	-12428
▁Rente	-12429
▁Risik	-12430
▁Scott	-12431
▁absor	-12432
▁quant	-12433
▁ueber	-12434
▁unber	-12435
aufgabe	-12436
eistern	-12437
erkrank	-12438
fertigt	-12439
förmige	-12440
issheit	-12441
nutzung	-12442
osphäre	-12443
portion	-12444
▁Faszin	-12445
▁Flüsse	-12446
▁Lippen	-12447
▁Mentor	-12448
▁Minder	-12449
▁Nieren	-12450
▁Profil	-12451
▁Redner	-12452
▁Sahara	-12453
▁Schätz	-12454
▁Umlauf	-12455
▁austau	-12456
▁drückt	-12457
▁elegan	-12458
▁leidet	-12459
▁liefen	-12460
▁toller	-12461
▁treffe	-12462
fertigen	-12463
grenzung	-12464
ähnliche	-12465
▁Erfolge	-12466
▁Experte	-12467
▁Hundert	-12468
▁Neuseel	-12469
▁Notfall	-12470
▁Prüfung	-12471
▁Smartph	-12472
▁Sondern	-12473
▁Stipend	-12474
▁Tsunami	-12475
▁anrufen	-12476
▁drucken	-12477
▁erstens	-12478
▁gereist	-12479
▁hungrig	-12480
▁italien	-12481
▁mischen	-12482
▁symmetr	-12483
▁vereint	-12484
▁zusehen	-12485
▁zweiter	-12486
ifikation	-12487
istisches	-12488
riminelle	-12489
▁Carolina	-12490
▁McDonald	-12491
▁Singapur	-12492
▁Stimmung	-12493
▁annähern	-12494
▁ermutigt	-12495
▁fluoresz	-12496
▁synchron	-12497
▁tauschen	-12498
mitglieder	-12499
▁Aristotel	-12500
▁Bausteine	-12501
▁Kunstwerk	-12502
▁Ressource	-12503
▁Trainings	-12504
▁Versicher	-12505
▁aufweisen	-12506
▁genannten	-12507
▁ignoriert	-12508
▁komplexes	-12509
▁philosoph	-12510
▁stärksten	-12511
▁umwandeln	-12512
▁versetzen	-12513
▁zeichnete	-12514
geschrieben	-12515
▁Aktivisten	-12516
▁Hierarchie	-12517
▁Lebensstil	-12518
▁Schlussfol	-12519
▁Transplant	-12520
▁aufstellen	-12521
▁beurteilen	-12522
▁einfachste	-12523
▁engagieren	-12524
▁merkwürdig	-12525
▁Beleuchtung	-12526
▁Flüchtlinge	-12527
▁Prioritäten	-12528
▁Variationen	-12529
▁angegriffen	-12530
▁irgendeinen	-12531
▁körperliche	-12532
▁künstlichen	-12533
▁spezifische	-12534
▁verarbeitet	-12535
▁Überwachung	-12536
amerikanische	-12537
dimensionalen	-12538
▁Umweltschutz	-12539
▁andererseits	-12540
▁gewöhnlichen	-12541
▁herausfanden	-12542
▁herausstellt	-12543
▁manipulieren	-12544
▁aufgezeichnet	-12545
▁Geschäftsmodell	-12546
BC	-12547
Em	-12548
fa	-12549
lö	-12550
box	-12551
eiß	-12552
ila	-12553
seg	-12554
set	-12555
stü	-12556
üht	-12557
üre	-12558
▁%.	-12559
▁Up	-12560
▁Ze	-12561
▁sk	-12562
Eine	-12563
Plan	-12564
Vort	-12565
bett	-12566
fell	-12567
ites	-12568
izon	-12569
real	-12570
ript	-12571
senz	-12572
verw	-12573
ögen	-12574
öten	-12575
ütze	-12576
▁16.	-12577
▁193	-12578
▁Cre	-12579
▁Lib	-12580
▁Mau	-12581
▁Nav	-12582
▁Out	-12583
▁Que	-12584
▁unn	-12585
▁urb	-12586
azine	-12587
brach	-12588
igere	-12589
lauch	-12590
nosen	-12591
posit	-12592
regel	-12593
räder	-12594
sonst	-12595
thalb	-12596
weren	-12597
äuben	-12598
▁100-	-12599
▁1900	-12600
▁Beam	-12601
▁Beat	-12602
▁Chor	-12603
▁Darm	-12604
▁Hack	-12605
▁Mike	-12606
▁Mini	-12607
▁Pfad	-12608
▁anre	-12609
▁impl	-12610
▁pack	-12611
eichen	-12612
gewinn	-12613
himmel	-12614
mäßige	-12615
region	-12616
sehbar	-12617
sprech	-12618
städte	-12619
swerte	-12620
wander	-12621
▁Anten	-12622
▁Bewer	-12623
▁Ecken	-12624
▁Femin	-12625
▁Gross	-12626
▁Herrn	-12627
▁Human	-12628
▁Hütte	-12629
▁Jones	-12630
▁Lunge	-12631
▁Orbit	-12632
▁Parks	-12633
▁Raums	-12634
▁Recyc	-12635
▁Roten	-12636
▁Stirn	-12637
▁abgel	-12638
▁euren	-12639
▁lohnt	-12640
▁obere	-12641
▁rasch	-12642
▁sitze	-12643
▁zuver	-12644
alteten	-12645
analyse	-12646
bewegen	-12647
digkeit	-12648
dlicher	-12649
kennung	-12650
wiegend	-12651
▁Agenda	-12652
▁Autoun	-12653
▁Daraus	-12654
▁Ebenso	-12655
▁Fremde	-12656
▁Gitter	-12657
▁Klänge	-12658
▁Kokain	-12659
▁Krähen	-12660
▁Lücken	-12661
▁Nachts	-12662
▁Square	-12663
▁beauft	-12664
▁einher	-12665
▁ernten	-12666
▁pflanz	-12667
▁raffin	-12668
▁redete	-12669
▁result	-12670
Institut	-12671
passungs	-12672
▁Denkens	-12673
▁Fischen	-12674
▁Nordpol	-12675
▁Stephen	-12676
▁Tausend	-12677
▁Wildnis	-12678
▁eingesp	-12679
▁endgült	-12680
▁kauften	-12681
▁typisch	-12682
▁vernetz	-12683
▁wuchsen	-12684
ständigen	-12685
▁Alphabet	-12686
▁Anspruch	-12687
▁Einkaufs	-12688
▁Entweder	-12689
▁Gehirnen	-12690
▁Gewissen	-12691
▁Langzeit	-12692
▁November	-12693
▁Reformen	-12694
▁Verkehrs	-12695
▁antreibt	-12696
▁einladen	-12697
▁könntest	-12698
▁vergeben	-12699
▁vorlesen	-12700
▁Ökologie	-12701
▁Durchfall	-12702
▁Empfänger	-12703
▁Forschern	-12704
▁Metaphern	-12705
▁Techniker	-12706
▁abstrakte	-12707
▁gerichtet	-12708
▁kreativer	-12709
▁kurzfrist	-12710
▁niedrigen	-12711
▁rekonstru	-12712
▁tendieren	-12713
gehörigkeit	-12714
▁Charaktere	-12715
▁Demokraten	-12716
▁Fallschirm	-12717
▁Geographic	-12718
▁Nachdenken	-12719
▁Neuseeland	-12720
▁Zeitspanne	-12721
▁beinhalten	-12722
▁beliebigen	-12723
▁bestimmtes	-12724
▁gezeichnet	-12725
▁kognitiven	-12726
▁kritischen	-12727
▁verwendete	-12728
▁wahrhaftig	-12729
gemeinschaft	-12730
▁Anstrengung	-12731
▁Aristoteles	-12732
▁Kühlschrank	-12733
▁Solarzellen	-12734
▁absichtlich	-12735
▁gespeichert	-12736
▁historische	-12737
▁kooperieren	-12738
▁kostengünst	-12739
▁unglücklich	-12740
▁ökonomische	-12741
▁Bestandteile	-12742
▁Letztendlich	-12743
▁spezifischen	-12744
▁öffentlicher	-12745
▁Beschäftigung	-12746
▁Einstellungen	-12747
▁Korallenriffe	-12748
▁Meeresspiegel	-12749
▁angeschlossen	-12750
▁demonstrieren	-12751
▁Verbesserungen	-12752
▁wirtschaftlich	-12753
li	-12754
aka	-12755
bur	-12756
ktu	-12757
ypt	-12758
▁5.	-12759
▁8.	-12760
▁Ag	-12761
▁IQ	-12762
▁OP	-12763
▁SI	-12764
dose	-12765
eben	-12766
empl	-12767
heil	-12768
hema	-12769
klin	-12770
meer	-12771
stro	-12772
tein	-12773
west	-12774
ähle	-12775
▁15.	-12776
▁Dod	-12777
▁Ema	-12778
▁Erb	-12779
▁Fan	-12780
▁Frö	-12781
▁Jet	-12782
▁MRT	-12783
▁Max	-12784
▁Nic	-12785
▁Pir	-12786
▁gez	-12787
▁hyp	-12788
▁lud	-12789
▁ser	-12790
▁sim	-12791
▁sor	-12792
▁sur	-12793
▁öst	-12794
Beweg	-12795
abeth	-12796
attle	-12797
denen	-12798
diges	-12799
ering	-12800
farbe	-12801
iften	-12802
insel	-12803
kugel	-12804
mente	-12805
offen	-12806
üpfen	-12807
▁Brad	-12808
▁Coca	-12809
▁Geht	-12810
▁Grab	-12811
▁Guer	-12812
▁Harm	-12813
▁Kong	-12814
▁Krab	-12815
▁Mall	-12816
▁Mumb	-12817
▁Note	-12818
▁Renn	-12819
▁Wirk	-12820
▁tier	-12821
▁tote	-12822
Source	-12823
acheln	-12824
ameter	-12825
andten	-12826
drucks	-12827
effekt	-12828
fabrik	-12829
felder	-12830
frauen	-12831
gentin	-12832
gingen	-12833
inktiv	-12834
molekü	-12835
ordent	-12836
physik	-12837
ragten	-12838
school	-12839
schöpf	-12840
sprodu	-12841
▁Anzug	-12842
▁Biene	-12843
▁Bonob	-12844
▁Cloud	-12845
▁Deine	-12846
▁Draht	-12847
▁Glied	-12848
▁Kamel	-12849
▁Kathe	-12850
▁Lande	-12851
▁Meile	-12852
▁Tauch	-12853
▁Zwang	-12854
▁ergän	-12855
▁sagst	-12856
▁schuf	-12857
▁verdr	-12858
▁weise	-12859
▁wollt	-12860
artikel	-12861
energie	-12862
ragende	-12863
spunkte	-12864
urteile	-12865
▁Bildes	-12866
▁Choler	-12867
▁Denker	-12868
▁Dutzen	-12869
▁Ganzes	-12870
▁Helium	-12871
▁Keller	-12872
▁Kleine	-12873
▁Letzte	-12874
▁Pestiz	-12875
▁Portug	-12876
▁bedarf	-12877
▁beruht	-12878
▁klasse	-12879
▁leitet	-12880
▁nähern	-12881
▁rollen	-12882
▁teilte	-12883
▁weiten	-12884
istenten	-12885
omöglich	-12886
reaktion	-12887
strecken	-12888
tzündung	-12889
▁200.000	-12890
▁Anlagen	-12891
▁Eingang	-12892
▁Gewinne	-12893
▁Scheibe	-12894
▁Spender	-12895
▁Tomaten	-12896
▁Trocken	-12897
▁begehen	-12898
▁gefühlt	-12899
▁löschen	-12900
▁mysteri	-12901
▁optimal	-12902
▁schwamm	-12903
▁starkes	-12904
▁stunden	-12905
▁stärken	-12906
▁waschen	-12907
▁zurzeit	-12908
allererst	-12909
schmerzen	-12910
vertrauen	-12911
wertungen	-12912
zeichnete	-12913
▁Dasselbe	-12914
▁Einzelne	-12915
▁Errungen	-12916
▁Perspekt	-12917
▁Standort	-12918
▁Ursachen	-12919
▁auslösen	-12920
▁begraben	-12921
▁bereitet	-12922
▁gewaltig	-12923
▁markiert	-12924
▁möchtest	-12925
▁schweben	-12926
▁zerbrech	-12927
landschaft	-12928
ografische	-12929
ungsmittel	-12930
▁Ausnahmen	-12931
▁Erfüllung	-12932
▁Fußgänger	-12933
▁Lektionen	-12934
▁Parkinson	-12935
▁Rezession	-12936
▁Schachtel	-12937
▁Versionen	-12938
▁demselben	-12939
▁eintreten	-12940
▁einzelnes	-12941
▁markieren	-12942
▁stattfand	-12943
▁verhaftet	-12944
geschichten	-12945
▁Kilometern	-12946
▁Raumschiff	-12947
▁Zusätzlich	-12948
▁ausbreiten	-12949
▁auszusehen	-12950
▁beschaffen	-12951
▁regulieren	-12952
▁unangenehm	-12953
▁vergleicht	-12954
▁Erweiterung	-12955
▁Gesichtsaus	-12956
▁Richtlinien	-12957
▁langfristig	-12958
▁Übersetzung	-12959
▁Nationalpark	-12960
▁Verteidigung	-12961
▁gelegentlich	-12962
▁systematisch	-12963
▁dokumentieren	-12964
▁Krankenhäusern	-12965
▁folgendermaßen	-12966
▁berücksichtigen	-12967
5,	-12968
7.	-12969
Al	-12970
IA	-12971
Or	-12972
Um	-12973
▁x	-12974
aal	-12975
enh	-12976
esh	-12977
ids	-12978
old	-12979
sth	-12980
udd	-12981
wel	-12982
yer	-12983
öre	-12984
▁6.	-12985
▁72	-12986
frar	-12987
geiz	-12988
hole	-12989
ifik	-12990
irus	-12991
unen	-12992
uzen	-12993
ußer	-12994
Über	-12995
öhne	-12996
▁1,2	-12997
▁190	-12998
▁30-	-12999
▁Abt	-13000
▁Hof	-13001
▁Ori	-13002
▁Wes	-13003
▁klü	-13004
Achse	-13005
blase	-13006
denke	-13007
echte	-13008
famil	-13009
geist	-13010
heken	-13011
iefel	-13012
länge	-13013
ology	-13014
pidem	-13015
prech	-13016
useum	-13017
verse	-13018
äuren	-13019
▁100%	-13020
▁Abed	-13021
▁Data	-13022
▁Dich	-13023
▁Diät	-13024
▁Eint	-13025
▁Fass	-13026
▁Hans	-13027
▁Haup	-13028
▁Palm	-13029
▁Plat	-13030
▁Quer	-13031
▁Tans	-13032
▁Taxi	-13033
▁Wolf	-13034
▁bekl	-13035
▁dopp	-13036
▁litt	-13037
▁nord	-13038
▁reag	-13039
▁subt	-13040
▁treu	-13041
▁visu	-13042
Effekt	-13043
dresse	-13044
entrum	-13045
etings	-13046
farben	-13047
grippe	-13048
märkte	-13049
ration	-13050
strafe	-13051
ächern	-13052
önland	-13053
▁Büros	-13054
▁Ferne	-13055
▁Grenz	-13056
▁Hawai	-13057
▁Kevin	-13058
▁Raubt	-13059
▁Schäd	-13060
▁Sorte	-13061
▁Unger	-13062
▁autor	-13063
▁beten	-13064
▁betrü	-13065
▁damal	-13066
▁dünne	-13067
▁gemäß	-13068
▁hohem	-13069
▁holte	-13070
▁hyper	-13071
▁klang	-13072
▁preis	-13073
▁volle	-13074
▁wegzu	-13075
bewusst	-13076
bindung	-13077
gefühls	-13078
gesehen	-13079
lsystem	-13080
methode	-13081
raktion	-13082
schenkt	-13083
teilten	-13084
▁Bühnen	-13085
▁Fusion	-13086
▁Geduld	-13087
▁Götter	-13088
▁Joseph	-13089
▁Mozart	-13090
▁Pharma	-13091
▁Prophe	-13092
▁Recher	-13093
▁Stapel	-13094
▁Strafe	-13095
▁Tasman	-13096
▁Trauer	-13097
▁Unsinn	-13098
▁Watson	-13099
▁bewerk	-13100
▁endete	-13101
▁fehler	-13102
▁greift	-13103
▁improv	-13104
▁langes	-13105
▁modell	-13106
▁rettet	-13107
▁ähnelt	-13108
bewohner	-13109
gerissen	-13110
hingegen	-13111
jähriges	-13112
ommunity	-13113
▁Bananen	-13114
▁Bindung	-13115
▁Cartoon	-13116
▁Dienste	-13117
▁Französ	-13118
▁Freitag	-13119
▁Geräten	-13120
▁Landwir	-13121
▁Monster	-13122
▁Mustern	-13123
▁Müttern	-13124
▁Protest	-13125
▁Rauchen	-13126
▁Verpack	-13127
▁Vertrau	-13128
▁Währung	-13129
▁Wünsche	-13130
▁beeintr	-13131
▁durften	-13132
▁entwarf	-13133
▁fördert	-13134
▁koennen	-13135
▁steckte	-13136
▁umsonst	-13137
▁verfolg	-13138
▁wechsel	-13139
programme	-13140
tschaften	-13141
▁Biomasse	-13142
▁Cartoons	-13143
▁Meinungs	-13144
▁Monterey	-13145
▁Priester	-13146
▁Republik	-13147
▁Rückgang	-13148
▁Schwelle	-13149
▁Tastatur	-13150
▁Virginia	-13151
▁beliebte	-13152
▁einfluss	-13153
▁intuitiv	-13154
▁niedrige	-13155
▁radikale	-13156
▁schreien	-13157
▁tägliche	-13158
▁ungleich	-13159
▁verlässt	-13160
▁wörtlich	-13161
Nullsummen	-13162
gesundheit	-13163
ikanischen	-13164
▁Parasiten	-13165
▁Recycling	-13166
▁Repräsent	-13167
▁Scheitern	-13168
▁Schwanger	-13169
▁Tatsachen	-13170
▁Therapien	-13171
▁angeblich	-13172
▁Aussterben	-13173
▁Besonderes	-13174
▁Elternteil	-13175
▁Konflikten	-13176
▁Meerwasser	-13177
▁Verletzung	-13178
▁Wochenende	-13179
▁Zigaretten	-13180
▁anderthalb	-13181
▁angewiesen	-13182
▁instinktiv	-13183
▁platzieren	-13184
▁simulieren	-13185
▁versteckte	-13186
▁verstärken	-13187
▁Angiogenese	-13188
▁Behandlungs	-13189
▁Erscheinung	-13190
▁Prozentsatz	-13191
▁Vermächtnis	-13192
▁klassischen	-13193
▁Behandlungen	-13194
▁Gleichzeitig	-13195
▁Griechenland	-13196
▁Kriminalität	-13197
▁Mobiltelefon	-13198
▁konkurrieren	-13199
▁unsichtbaren	-13200
▁ökonomischen	-13201
▁Behinderungen	-13202
▁Beobachtungen	-13203
▁Chemotherapie	-13204
▁International	-13205
▁Zeitschriften	-13206
▁Zusammenbruch	-13207
▁eingeschränkt	-13208
▁physikalische	-13209
▁Nebenwirkungen	-13210
▁demokratischen	-13211
▁Geschäftsführer	-13212
▁Halluzinationen	-13213
.-	-13214
Mo	-13215
Lie	-13216
act	-13217
ars	-13218
ave	-13219
bri	-13220
dio	-13221
dis	-13222
gur	-13223
hir	-13224
igh	-13225
ita	-13226
urb	-13227
zit	-13228
▁43	-13229
▁DP	-13230
▁IT	-13231
▁SP	-13232
Feld	-13233
Mann	-13234
Vers	-13235
ades	-13236
aida	-13237
amas	-13238
blog	-13239
brot	-13240
fass	-13241
itis	-13242
oche	-13243
reen	-13244
rüch	-13245
umin	-13246
unts	-13247
wies	-13248
ückt	-13249
ührt	-13250
ümer	-13251
▁Gru	-13252
▁Hür	-13253
▁Rap	-13254
▁Vom	-13255
▁elf	-13256
▁zug	-13257
Meine	-13258
abend	-13259
andte	-13260
appte	-13261
arium	-13262
eihen	-13263
kette	-13264
namen	-13265
orene	-13266
ottet	-13267
ruckt	-13268
ziell	-13269
örter	-13270
▁1998	-13271
▁Bald	-13272
▁Gelb	-13273
▁Habe	-13274
▁Hero	-13275
▁Horm	-13276
▁Inde	-13277
▁Koff	-13278
▁Kram	-13279
▁Prov	-13280
▁Sant	-13281
▁Seni	-13282
▁aßen	-13283
▁null	-13284
ameras	-13285
beding	-13286
flügel	-13287
gelenk	-13288
gesell	-13289
inseln	-13290
ischte	-13291
kaufen	-13292
ochten	-13293
perten	-13294
skrise	-13295
zähler	-13296
▁April	-13297
▁Astro	-13298
▁Busch	-13299
▁Netze	-13300
▁Paare	-13301
▁Route	-13302
▁Rover	-13303
▁Sarah	-13304
▁Veter	-13305
▁ansah	-13306
▁bösen	-13307
▁gewün	-13308
▁glaub	-13309
▁liber	-13310
▁malte	-13311
▁merkt	-13312
▁nutze	-13313
▁tätig	-13314
▁unbeh	-13315
einheit	-13316
enhagen	-13317
medizin	-13318
mäßigen	-13319
prozent	-13320
stunden	-13321
zahlung	-13322
▁Action	-13323
▁Aktien	-13324
▁Arthur	-13325
▁Erstes	-13326
▁Essens	-13327
▁Exempl	-13328
▁Farmer	-13329
▁Flucht	-13330
▁Master	-13331
▁Michel	-13332
▁Mumbai	-13333
▁Orient	-13334
▁Sprich	-13335
▁Zwecke	-13336
▁Zweite	-13337
▁deines	-13338
▁harten	-13339
▁jeweil	-13340
▁stimme	-13341
▁taucht	-13342
▁wander	-13343
▁weisen	-13344
▁zweier	-13345
Computer	-13346
handlung	-13347
sprojekt	-13348
strahlen	-13349
▁Ankunft	-13350
▁Blinden	-13351
▁Gründer	-13352
▁Kartoff	-13353
▁Koralle	-13354
▁Kreatur	-13355
▁Melodie	-13356
▁Perfekt	-13357
▁Pinguin	-13358
▁Strasse	-13359
▁abgeben	-13360
▁dringen	-13361
▁fordern	-13362
abschluss	-13363
absichtig	-13364
arbeitern	-13365
möglichen	-13366
scheidung	-13367
sterreich	-13368
verfahren	-13369
▁Angriffe	-13370
▁Betriebs	-13371
▁Grönland	-13372
▁Hühnchen	-13373
▁Meistens	-13374
▁Rückmeld	-13375
▁Schaffen	-13376
▁Tansania	-13377
▁Trennung	-13378
▁Versuchs	-13379
▁Vollzeit	-13380
▁erwischt	-13381
▁peinlich	-13382
▁phänomen	-13383
▁schieben	-13384
▁weiterzu	-13385
▁überlegt	-13386
▁Interface	-13387
▁Rohstoffe	-13388
▁Schwarzen	-13389
▁Teilnahme	-13390
▁Universen	-13391
▁entlassen	-13392
▁glamourös	-13393
▁gründeten	-13394
▁identisch	-13395
▁schnellen	-13396
▁verstärkt	-13397
▁wertvolle	-13398
▁womöglich	-13399
▁Aufklärung	-13400
▁Betrachter	-13401
▁Hoffnungen	-13402
▁Komponente	-13403
▁Kopenhagen	-13404
▁Skulpturen	-13405
▁Videospiel	-13406
▁angebracht	-13407
▁anzupassen	-13408
▁bearbeiten	-13409
▁enttäuscht	-13410
▁verkauften	-13411
▁verringert	-13412
▁versichern	-13413
▁wahnsinnig	-13414
▁zeitgenöss	-13415
▁Angestellte	-13416
▁Auseinander	-13417
▁Betrachtung	-13418
▁Erklärungen	-13419
▁Herzinfarkt	-13420
▁Meeresboden	-13421
▁Studierende	-13422
▁austauschen	-13423
▁beigetragen	-13424
▁islamischen	-13425
▁realisieren	-13426
▁untersuchte	-13427
▁Übertragung	-13428
▁hinterfragen	-13429
▁konstruieren	-13430
▁teilzunehmen	-13431
▁vergleichbar	-13432
▁verschmelzen	-13433
▁zusätzlichen	-13434
gesellschaften	-13435
▁Anstrengungen	-13436
▁ausgesprochen	-13437
▁Vorgehensweise	-13438
▁Weltwirtschaft	-13439
▁amerikanischer	-13440
▁psychologische	-13441
▁Voraussetzungen	-13442
▁zusammengefasst	-13443
10	-13444
6.	-13445
NG	-13446
OL	-13447
hä	-13448
jo	-13449
App	-13450
Gem	-13451
ays	-13452
bon	-13453
bro	-13454
ela	-13455
hod	-13456
wan	-13457
wis	-13458
wor	-13459
zog	-13460
▁44	-13461
▁Mi	-13462
▁aß	-13463
Team	-13464
ilzt	-13465
inte	-13466
korn	-13467
krut	-13468
lade	-13469
luft	-13470
merk	-13471
mpor	-13472
phin	-13473
rede	-13474
schü	-13475
sius	-13476
sper	-13477
ärer	-13478
▁130	-13479
▁Acc	-13480
▁Amt	-13481
▁Gor	-13482
▁Kas	-13483
▁Nam	-13484
▁Tok	-13485
▁eis	-13486
▁ero	-13487
▁inj	-13488
▁inn	-13489
▁jun	-13490
Krieg	-13491
akult	-13492
anzug	-13493
dreht	-13494
fangs	-13495
freie	-13496
gerte	-13497
heits	-13498
level	-13499
motor	-13500
opard	-13501
ssinn	-13502
zählt	-13503
▁3000	-13504
▁Cany	-13505
▁Diam	-13506
▁Foie	-13507
▁Isol	-13508
▁Jagd	-13509
▁Link	-13510
▁Oben	-13511
▁Rund	-13512
▁Tatt	-13513
▁gäng	-13514
▁jetz	-13515
▁läng	-13516
▁strö	-13517
▁trop	-13518
echten	-13519
ehrten	-13520
einern	-13521
emonie	-13522
faktor	-13523
grenze	-13524
schuhe	-13525
werben	-13526
zieren	-13527
ämpfer	-13528
▁Brett	-13529
▁Comic	-13530
▁Erdöl	-13531
▁Harry	-13532
▁Hebel	-13533
▁Indus	-13534
▁Jemen	-13535
▁Linse	-13536
▁Polar	-13537
▁Sieht	-13538
▁Suppe	-13539
▁Söhne	-13540
▁besaß	-13541
▁natur	-13542
▁traum	-13543
▁Äußer	-13544
achläss	-13545
flossen	-13546
ingenie	-13547
izierte	-13548
otische	-13549
schulen	-13550
▁Bestes	-13551
▁Briten	-13552
▁Campus	-13553
▁Daniel	-13554
▁Delfin	-13555
▁Essenz	-13556
▁Falten	-13557
▁Folien	-13558
▁Frustr	-13559
▁Gewehr	-13560
▁Kannst	-13561
▁Kontro	-13562
▁Künste	-13563
▁Raster	-13564
▁Schaut	-13565
▁Sollte	-13566
▁Vakuum	-13567
▁Vögeln	-13568
▁Waisen	-13569
▁Winden	-13570
▁Wright	-13571
▁aktive	-13572
▁bewohn	-13573
▁schrit	-13574
▁siehst	-13575
▁ungehe	-13576
▁unterm	-13577
▁vorder	-13578
derweise	-13579
endungen	-13580
mechanik	-13581
▁Celsius	-13582
▁Cholera	-13583
▁Clinton	-13584
▁Dilemma	-13585
▁Dollars	-13586
▁Fiktion	-13587
▁Geister	-13588
▁Sonntag	-13589
▁Steinen	-13590
▁Träumen	-13591
▁Verschl	-13592
▁aktuell	-13593
▁anstren	-13594
▁atember	-13595
▁ausgeht	-13596
▁belohnt	-13597
▁bemühen	-13598
▁beschul	-13599
▁erholen	-13600
▁erkläre	-13601
▁kontakt	-13602
▁multipl	-13603
▁schlage	-13604
▁sichere	-13605
▁unbesch	-13606
▁visuell	-13607
▁Übungen	-13608
▁Auslöser	-13609
▁Beschrän	-13610
▁Eingriff	-13611
▁Einsicht	-13612
▁Freundes	-13613
▁Harmonie	-13614
▁Leonardo	-13615
▁Motorrad	-13616
▁Partikel	-13617
▁Rückkehr	-13618
▁Szenario	-13619
▁abnehmen	-13620
▁bereiten	-13621
▁komische	-13622
▁reproduz	-13623
▁vereinen	-13624
▁versagen	-13625
▁versehen	-13626
▁üblichen	-13627
▁Argumente	-13628
▁Aufregung	-13629
▁Batterien	-13630
▁Einnahmen	-13631
▁Mobilität	-13632
▁Schweizer	-13633
▁Umsetzung	-13634
▁aussuchen	-13635
▁bekannter	-13636
▁bemerkten	-13637
▁beruhigen	-13638
▁einzelner	-13639
▁entkommen	-13640
▁errichtet	-13641
▁geleistet	-13642
▁hinweisen	-13643
▁loswerden	-13644
▁umbringen	-13645
wasserstoff	-13646
▁Bemühungen	-13647
▁Kompromiss	-13648
▁Konsequenz	-13649
▁Millimeter	-13650
▁Mitgefühls	-13651
▁Weihnachts	-13652
▁bevorzugen	-13653
▁gebrauchen	-13654
▁gesundheit	-13655
▁kostenlose	-13656
▁weitgehend	-13657
verarbeitung	-13658
▁Brennstoffe	-13659
▁Freiwillige	-13660
▁befriedigen	-13661
▁glücklichen	-13662
▁wunderbares	-13663
▁Perspektiven	-13664
▁Temperaturen	-13665
▁Verarbeitung	-13666
▁überwältigen	-13667
▁Jahrhunderten	-13668
▁Veranstaltung	-13669
▁Verhandlungen	-13670
▁Verteidigungs	-13671
▁argumentieren	-13672
▁weitergegeben	-13673
sorganisationen	-13674
▁elektronischen	-13675
▁zusammenkommen	-13676
▁Angelegenheiten	-13677
60	-13678
NC	-13679
RA	-13680
hh	-13681
▁]	-13682
Aut	-13683
ata	-13684
mor	-13685
nie	-13686
ols	-13687
pel	-13688
rey	-13689
tum	-13690
via	-13691
üll	-13692
▁34	-13693
▁AM	-13694
▁IM	-13695
▁Ig	-13696
▁Lü	-13697
▁SS	-13698
Groß	-13699
Show	-13700
akat	-13701
ares	-13702
chem	-13703
eley	-13704
etze	-13705
gers	-13706
hamm	-13707
hent	-13708
impf	-13709
kter	-13710
sern	-13711
ädag	-13712
öpft	-13713
▁20,	-13714
▁20-	-13715
▁Caf	-13716
▁Cor	-13717
▁Dal	-13718
▁Ess	-13719
▁Int	-13720
▁Nah	-13721
▁Off	-13722
▁Rab	-13723
▁Twe	-13724
▁blö	-13725
apfen	-13726
dehnt	-13727
istik	-13728
korea	-13729
kunde	-13730
ocker	-13731
rasil	-13732
rohen	-13733
seits	-13734
unker	-13735
wirft	-13736
ätige	-13737
ützer	-13738
▁2012	-13739
▁2030	-13740
▁Ekel	-13741
▁Fuss	-13742
▁Gebe	-13743
▁Hind	-13744
▁Logo	-13745
▁Sach	-13746
▁Sier	-13747
▁Spag	-13748
▁Woll	-13749
▁blut	-13750
▁fert	-13751
▁gelb	-13752
▁grob	-13753
▁gänz	-13754
▁proj	-13755
▁Ästh	-13756
Moment	-13757
bertät	-13758
ehntel	-13759
fungen	-13760
gängig	-13761
ittern	-13762
letter	-13763
locken	-13764
ologin	-13765
omaten	-13766
packen	-13767
sender	-13768
usalem	-13769
zenden	-13770
▁Agrar	-13771
▁Altru	-13772
▁Atomb	-13773
▁Bruno	-13774
▁Favor	-13775
▁Feier	-13776
▁Fleck	-13777
▁Kunde	-13778
▁Kyros	-13779
▁Myzel	-13780
▁Rasse	-13781
▁River	-13782
▁Ruder	-13783
▁Symph	-13784
▁Tolle	-13785
▁Winde	-13786
▁Witze	-13787
▁dumme	-13788
▁führe	-13789
▁hasse	-13790
▁nette	-13791
▁neutr	-13792
▁reine	-13793
▁unkon	-13794
▁verär	-13795
▁wilde	-13796
▁worin	-13797
Syndrom	-13798
artiger	-13799
hielten	-13800
ichtung	-13801
inieren	-13802
planung	-13803
platten	-13804
zurufen	-13805
▁Disney	-13806
▁Fertig	-13807
▁Furcht	-13808
▁Grösse	-13809
▁Hawaii	-13810
▁Hormon	-13811
▁Innere	-13812
▁Irland	-13813
▁Kämpfe	-13814
▁Linken	-13815
▁Misser	-13816
▁Mosche	-13817
▁Mücken	-13818
▁Normen	-13819
▁Regime	-13820
▁Strich	-13821
▁Supern	-13822
▁Säulen	-13823
▁Tinten	-13824
▁allmäh	-13825
▁brasil	-13826
▁breite	-13827
▁düster	-13828
▁fällen	-13829
▁gefiel	-13830
▁israel	-13831
▁jugend	-13832
▁klaren	-13833
▁schrum	-13834
▁talent	-13835
▁unzähl	-13836
▁veranl	-13837
▁wonach	-13838
▁Ängste	-13839
▁ähneln	-13840
Menschen	-13841
ifferenz	-13842
irdische	-13843
personen	-13844
regionen	-13845
streifen	-13846
stritten	-13847
▁Alltags	-13848
▁Atlanta	-13849
▁Aufwand	-13850
▁Bestech	-13851
▁Bürgern	-13852
▁Digital	-13853
▁Everest	-13854
▁Kondome	-13855
▁Museums	-13856
▁Neigung	-13857
▁Ozeanen	-13858
▁Project	-13859
▁Schwimm	-13860
▁Seattle	-13861
▁Service	-13862
▁Spazier	-13863
▁begeben	-13864
▁begriff	-13865
▁element	-13866
▁gefilmt	-13867
▁günstig	-13868
▁kopiert	-13869
▁redeten	-13870
▁saubere	-13871
▁starker	-13872
▁vorherr	-13873
hältnisse	-13874
irdischen	-13875
liegenden	-13876
schichten	-13877
▁Arbeitsm	-13878
▁Besucher	-13879
▁Gefühlen	-13880
▁Pandemie	-13881
▁Pubertät	-13882
▁Reporter	-13883
▁abhängen	-13884
▁gelandet	-13885
▁geradezu	-13886
▁geringen	-13887
▁gespannt	-13888
▁gewissem	-13889
▁jüngeren	-13890
▁klettern	-13891
▁schrittw	-13892
▁Ästhetik	-13893
▁Ökonomie	-13894
Amerikaner	-13895
▁Bedingung	-13896
▁Dokumente	-13897
▁Intellekt	-13898
▁Messungen	-13899
▁Schöpfung	-13900
▁annähernd	-13901
▁antreiben	-13902
▁aufgehört	-13903
▁bestanden	-13904
▁drastisch	-13905
▁dynamisch	-13906
▁entnehmen	-13907
▁erwartete	-13908
▁geschenkt	-13909
▁hunderten	-13910
▁verpassen	-13911
▁übernimmt	-13912
▁Baumkronen	-13913
▁Fotografen	-13914
▁Künstlerin	-13915
▁Mahlzeiten	-13916
▁Schlimmste	-13917
▁Tageslicht	-13918
▁Verfassung	-13919
▁anzubieten	-13920
▁aufgegeben	-13921
▁aufzugeben	-13922
▁effiziente	-13923
▁frustriert	-13924
▁geschossen	-13925
▁informiert	-13926
▁körperlich	-13927
▁ordentlich	-13928
▁praktische	-13929
▁schockiert	-13930
▁ultimative	-13931
▁verbleiben	-13932
▁Dankbarkeit	-13933
▁Filmemacher	-13934
▁Genauigkeit	-13935
▁Infektionen	-13936
▁Philosophen	-13937
▁Relativität	-13938
▁Sehvermögen	-13939
▁aufgefallen	-13940
▁dreieinhalb	-13941
▁informieren	-13942
▁präsentiert	-13943
▁unsichtbare	-13944
▁weitergeben	-13945
▁Kindergarten	-13946
▁Konversation	-13947
▁Lautsprecher	-13948
▁alltäglichen	-13949
▁angesprochen	-13950
▁französische	-13951
▁herauskommen	-13952
▁körperlichen	-13953
▁persönliches	-13954
▁unterbrochen	-13955
▁verständlich	-13956
▁zehntausende	-13957
▁ökologischen	-13958
organisationen	-13959
▁Mobiltelefone	-13960
▁organisierten	-13961
▁üblicherweise	-13962
▁entscheidenden	-13963
▁Herzkrankheiten	-13964
▁offensichtliche	-13965
1,	-13966
3,	-13967
6,	-13968
Po	-13969
ba	-13970
da	-13971
oy	-13972
Per	-13973
bod	-13974
bär	-13975
eme	-13976
fle	-13977
hut	-13978
llo	-13979
nik	-13980
ußt	-13981
zed	-13982
▁UV	-13983
Dies	-13984
alie	-13985
aute	-13986
bast	-13987
enix	-13988
eres	-13989
igan	-13990
imit	-13991
ippt	-13992
konz	-13993
loss	-13994
ppel	-13995
prei	-13996
tent	-13997
uana	-13998
▁Bün	-13999
▁Gir	-14000
▁McC	-14001
▁Non	-14002
▁Oma	-14003
▁Pix	-14004
▁Syl	-14005
▁bös	-14006
▁kod	-14007
▁leb	-14008
▁wuß	-14009
gemäß	-14010
ideos	-14011
idmet	-14012
ählte	-14013
▁Back	-14014
▁Bade	-14015
▁Berk	-14016
▁Clip	-14017
▁Dumm	-14018
▁Foot	-14019
▁Hamb	-14020
▁Ikon	-14021
▁Mand	-14022
▁Rass	-14023
▁Sche	-14024
▁Takt	-14025
▁Zero	-14026
▁bege	-14027
▁lege	-14028
▁orig	-14029
▁rauf	-14030
▁witz	-14031
Gemein	-14032
bedarf	-14033
bürger	-14034
flucht	-14035
frarot	-14036
gesagt	-14037
größte	-14038
hieren	-14039
iarden	-14040
lauben	-14041
ombard	-14042
reuung	-14043
sparen	-14044
spitze	-14045
uverne	-14046
zettel	-14047
zeugte	-14048
ächtig	-14049
äglich	-14050
üsselt	-14051
▁4.000	-14052
▁Asthm	-14053
▁Blüte	-14054
▁Bösen	-14055
▁Craig	-14056
▁Darin	-14057
▁Erder	-14058
▁Haken	-14059
▁Helik	-14060
▁Himal	-14061
▁Hülle	-14062
▁Kälte	-14063
▁Larry	-14064
▁Louis	-14065
▁Moore	-14066
▁Union	-14067
▁engag	-14068
▁legal	-14069
▁stört	-14070
▁zehnt	-14071
▁ängst	-14072
Theorie	-14073
altungs	-14074
erische	-14075
händler	-14076
okratie	-14077
sprüche	-14078
verlust	-14079
zeugung	-14080
▁40.000	-14081
▁Bäcker	-14082
▁Drohne	-14083
▁Geträn	-14084
▁Kompon	-14085
▁Lehren	-14086
▁Luther	-14087
▁Marath	-14088
▁Mauern	-14089
▁Montag	-14090
▁Panzer	-14091
▁Romant	-14092
▁Soldat	-14093
▁Syrien	-14094
▁Südpol	-14095
▁Untert	-14096
▁Wunden	-14097
▁auszut	-14098
▁bewaff	-14099
▁bewahr	-14100
▁filmen	-14101
▁geschw	-14102
▁klappt	-14103
▁kollab	-14104
▁kommst	-14105
▁scharf	-14106
Maschine	-14107
formance	-14108
spolitik	-14109
ssysteme	-14110
▁Elefant	-14111
▁Patente	-14112
▁Talente	-14113
▁abläuft	-14114
▁anfühlt	-14115
▁aufhört	-14116
▁befreit	-14117
▁beraten	-14118
▁breiten	-14119
▁eigener	-14120
▁fesseln	-14121
▁folgten	-14122
▁geliebt	-14123
▁gemerkt	-14124
▁hiermit	-14125
▁klicken	-14126
▁koordin	-14127
▁maximal	-14128
▁pflegen	-14129
▁richtet	-14130
▁schickt	-14131
▁spenden	-14132
▁springt	-14133
▁stimmte	-14134
▁südlich	-14135
▁vorüber	-14136
kilometer	-14137
reibungen	-14138
ähnlichen	-14139
▁Aussicht	-14140
▁Intensiv	-14141
▁Kontrast	-14142
▁Rechnung	-14143
▁Referenz	-14144
▁Schleimp	-14145
▁Zustände	-14146
▁auftritt	-14147
▁bedecken	-14148
▁benennen	-14149
▁besiegen	-14150
▁gedauert	-14151
▁heiligen	-14152
▁horizont	-14153
▁schlauer	-14154
▁tiefgrün	-14155
▁wieviele	-14156
▁zeichnet	-14157
▁zutrifft	-14158
▁überholt	-14159
haftigkeit	-14160
krankungen	-14161
vollziehen	-14162
änderungen	-14163
▁Haushalts	-14164
▁Hindernis	-14165
▁Jerusalem	-14166
▁Paradigma	-14167
▁Parkplatz	-14168
▁Supernova	-14169
▁bewundern	-14170
▁dauerhaft	-14171
▁erheblich	-14172
▁gesteuert	-14173
▁herkommen	-14174
▁mitmachen	-14175
▁platziert	-14176
▁schmelzen	-14177
▁schönsten	-14178
▁spazieren	-14179
▁vornehmen	-14180
herstellung	-14181
möglichkeit	-14182
▁Hinterkopf	-14183
▁Schauspiel	-14184
▁anerkennen	-14185
▁beunruhigt	-14186
▁erreichten	-14187
▁herzlichen	-14188
▁ineinander	-14189
▁potentiell	-14190
▁unendliche	-14191
▁verknüpfen	-14192
katastrophen	-14193
unterschiede	-14194
▁Grundschule	-14195
▁Jugendliche	-14196
▁Krebszellen	-14197
▁Weihnachten	-14198
▁Zeitschrift	-14199
▁alternative	-14200
▁anschließen	-14201
▁hinzugefügt	-14202
▁japanischen	-14203
▁natürliches	-14204
▁stundenlang	-14205
▁unbekannten	-14206
▁unternommen	-14207
▁Gewohnheiten	-14208
▁Rechenschaft	-14209
▁Wiederaufbau	-14210
▁anschließend	-14211
▁betrachteten	-14212
▁gefährlichen	-14213
▁militärische	-14214
▁nachhaltigen	-14215
▁respektieren	-14216
▁Lateinamerika	-14217
▁Wissenschafts	-14218
▁existierenden	-14219
▁hervorbringen	-14220
▁vorgeschlagen	-14221
▁Funktionsweise	-14222
▁intellektuelle	-14223
▁hunderttausende	-14224
ES	-14225
IN	-14226
Stu	-14227
Wel	-14228
ano	-14229
bal	-14230
bor	-14231
cer	-14232
red	-14233
sbe	-14234
wal	-14235
▁Hi	-14236
▁MS	-14237
▁zo	-14238
Bild	-14239
Kann	-14240
alth	-14241
auce	-14242
auto	-14243
eher	-14244
ftel	-14245
glas	-14246
haie	-14247
icke	-14248
ipel	-14249
ithm	-14250
ival	-14251
kürz	-14252
länd	-14253
mass	-14254
onto	-14255
räte	-14256
urce	-14257
uver	-14258
ßten	-14259
▁15-	-14260
▁450	-14261
▁50%	-14262
▁Por	-14263
▁Sue	-14264
▁Tha	-14265
▁Tät	-14266
▁abt	-14267
▁ehe	-14268
▁rut	-14269
aurus	-14270
bauer	-14271
bären	-14272
erken	-14273
etenz	-14274
loses	-14275
mmert	-14276
neter	-14277
okoll	-14278
opath	-14279
tiere	-14280
ungel	-14281
urger	-14282
ärmen	-14283
ärzte	-14284
äumen	-14285
üstet	-14286
▁2002	-14287
▁5000	-14288
▁Bach	-14289
▁Finn	-14290
▁Lehm	-14291
▁Obst	-14292
▁Sied	-14293
▁Spar	-14294
▁Supr	-14295
▁Ware	-14296
▁grat	-14297
▁quad	-14298
▁unzu	-14299
anntes	-14300
bahnen	-14301
banken	-14302
deutet	-14303
etiker	-14304
igment	-14305
inchen	-14306
mungen	-14307
opädie	-14308
ratete	-14309
regeln	-14310
spuren	-14311
stream	-14312
zessen	-14313
▁Alice	-14314
▁Bälle	-14315
▁Domin	-14316
▁Ehren	-14317
▁Feder	-14318
▁Fäden	-14319
▁Kolon	-14320
▁Kommt	-14321
▁Kosov	-14322
▁Lobby	-14323
▁Maler	-14324
▁Pille	-14325
▁Runde	-14326
▁Synap	-14327
▁Traur	-14328
▁Venus	-14329
▁absur	-14330
▁kürze	-14331
▁leere	-14332
▁minus	-14333
▁skept	-14334
▁verhe	-14335
▁warte	-14336
▁weite	-14337
▁änder	-14338
alisten	-14339
brecher	-14340
flasche	-14341
rottung	-14342
steiger	-14343
uminium	-14344
▁Abholz	-14345
▁Betrag	-14346
▁Columb	-14347
▁Fahren	-14348
▁Falsch	-14349
▁Gesten	-14350
▁Improv	-14351
▁Kasten	-14352
▁Ladung	-14353
▁Lampen	-14354
▁Linsen	-14355
▁Macher	-14356
▁Maßstä	-14357
▁Monats	-14358
▁Mäusen	-14359
▁Reflex	-14360
▁Reform	-14361
▁Schaff	-14362
▁Server	-14363
▁Sierra	-14364
▁Stellt	-14365
▁beacht	-14366
▁freier	-14367
▁gemalt	-14368
▁geschm	-14369
▁kehrte	-14370
▁landes	-14371
▁netten	-14372
▁riefen	-14373
▁vorant	-14374
▁wachte	-14375
ammelten	-14376
ineering	-14377
▁Abfolge	-14378
▁Homosex	-14379
▁Membran	-14380
▁Schiffe	-14381
▁Schlamm	-14382
▁Stewart	-14383
▁Unsicht	-14384
▁Verzerr	-14385
▁Wassers	-14386
▁anbauen	-14387
▁anlegen	-14388
▁chirurg	-14389
▁extreme	-14390
▁implant	-14391
▁lautete	-14392
▁registr	-14393
▁verdamm	-14394
▁wählten	-14395
▁älteste	-14396
chnologie	-14397
regierung	-14398
schiebung	-14399
schrecken	-14400
sprobleme	-14401
twörtlich	-14402
▁Beachten	-14403
▁Berkeley	-14404
▁Chemiker	-14405
▁Kreation	-14406
▁Magazine	-14407
▁Momenten	-14408
▁Nervenze	-14409
▁Optionen	-14410
▁Spaghett	-14411
▁Variante	-14412
▁Verluste	-14413
▁angenehm	-14414
▁befolgen	-14415
▁beiseite	-14416
▁eingebet	-14417
▁erwecken	-14418
▁flexibel	-14419
▁massiven	-14420
▁probiert	-14421
▁schienen	-14422
▁verpasst	-14423
▁warteten	-14424
▁wiederzu	-14425
▁zustande	-14426
▁Abschnitt	-14427
▁Eigentums	-14428
▁Endeffekt	-14429
▁Geschehen	-14430
▁Phänomene	-14431
▁Raumfahrt	-14432
▁Reduktion	-14433
▁Schultern	-14434
▁Thunfisch	-14435
▁Varianten	-14436
▁abspielen	-14437
▁behauptet	-14438
▁generiert	-14439
▁katastrop	-14440
[...]
