<unk>	0
<s>	0
</s>	0
[PAD]	0
[BOS]	0
[EOS]	0
[CLS]	0
[SEP]	0
[MASK]	0
[UNK0]	0
[UNK1]	0
[UNK2]	0
[UNK3]	0
[UNK4]	0
[UNK5]	0
[UNK6]	0
[UNK7]	0
[UNK8]	0
[UNK9]	0
en	-0
er	-1
ch	-2
▁d	-3
ei	-4
un	-5
ie	-6
st	-7
in	-8
an	-9
es	-10
ich	-11
on	-12
▁un	-13
▁die	-14
ein	-15
▁w	-16
▁s	-17
▁a	-18
ung	-19
ge	-20
▁S	-21
▁der	-22
sch	-23
▁und	-24
te	-25
ti	-26
▁v	-27
or	-28
▁ein	-29
ll	-30
ar	-31
ten	-32
as	-33
▁b	-34
▁A	-35
▁z	-36
▁m	-37
it	-38
ur	-39
▁D	-40
▁E	-41
▁i	-42
gen	-43
▁B	-44
us	-45
em	-46
▁in	-47
den	-48
al	-49
hr	-50
▁n	-51
der	-52
▁M	-53
▁f	-54
ir	-55
ter	-56
▁h	-57
▁P	-58
ra	-59
▁zu	-60
lich	-61
▁K	-62
uf	-63
▁F	-64
▁I	-65
▁W	-66
et	-67
ür	-68
el	-69
▁G	-70
mm	-71
at	-72
▁k	-73
▁V	-74
▁das	-75
eit	-76
is	-77
▁den	-78
▁H	-79
▁R	-80
ber	-81
▁g	-82
ro	-83
▁von	-84
isch	-85
ier	-86
de	-87
▁ge	-88
icht	-89
▁wir	-90
▁an	-91
▁T	-92
ent	-93
ben	-94
tion	-95
▁er	-96
▁ist	-97
um	-98
re	-99
▁L	-100
▁auf	-101
▁für	-102
ol	-103
uch	-104
ach	-105
▁mit	-106
eh	-107
sen	-108
am	-109
▁ver	-110
ck	-111
▁U	-112
ig	-113
▁Z	-114
▁des	-115
se	-116
▁Ver	-117
ser	-118
▁be	-119
and	-120
ell	-121
ungen	-122
nen	-123
ut	-124
le	-125
si	-126
▁N	-127
eich	-128
▁Die	-129
ft	-130
▁o	-131
▁eine	-132
▁Sie	-133
▁In	-134
▁so	-135
▁im	-136
▁wer	-137
op	-138
▁l	-139
ind	-140
▁nicht	-141
sp	-142
il	-143
über	-144
ischen	-145
omm	-146
kt	-147
▁sich	-148
▁werden	-149
än	-150
ff	-151
▁dem	-152
ah	-153
▁p	-154
om	-155
▁dass	-156
▁St	-157
ls	-158
ation	-159
▁An	-160
▁aus	-161
▁t	-162
la	-163
▁Un	-164
ann	-165
▁über	-166
▁es	-167
ahr	-168
ri	-169
ehr	-170
▁C	-171
▁Re	-172
eu	-173
▁auch	-174
urop	-175
▁da	-176
▁st	-177
ien	-178
sten	-179
be	-180
etz	-181
gt	-182
▁J	-183
rei	-184
▁1	-185
ungs	-186
men	-187
▁um	-188
▁ha	-189
▁Sch	-190
▁sind	-191
och	-192
lle	-193
▁(	-194
rä	-195
▁vor	-196
▁wird	-197
scha	-198
ern	-199
esch	-200
hal	-201
wei	-202
▁Be	-203
▁j	-204
ön	-205
▁sch	-206
▁als	-207
▁bei	-208
ver	-209
▁2	-210
end	-211
lie	-212
▁Pro	-213
▁wie	-214
iel	-215
▁Er	-216
ort	-217
▁ich	-218
tig	-219
▁Ein	-220
enn	-221
au	-222
▁En	-223
eil	-224
▁hat	-225
▁oder	-226
▁Europ	-227
▁O	-228
▁sein	-229
▁dies	-230
▁e	-231
▁Aus	-232
▁zur	-233
err	-234
ät	-235
tel	-236
▁-	-237
he	-238
schaft	-239
tern	-240
urch	-241
zu	-242
aus	-243
imm	-244
▁haben	-245
▁Ber	-246
▁Mit	-247
und	-248
stell	-249
ing	-250
lichen	-251
sion	-252
▁sie	-253
00	-254
▁ent	-255
▁einer	-256
▁kön	-257
ion	-258
▁unser	-259
rü	-260
ische	-261
ab	-262
tet	-263
for	-264
▁ihr	-265
ot	-266
▁Ar	-267
▁Wir	-268
ul	-269
fü	-270
ger	-271
aten	-272
cht	-273
ick	-274
sta	-275
dern	-276
eiten	-277
os	-278
zen	-279
▁nach	-280
▁Komm	-281
▁einen	-282
schen	-283
▁unter	-284
llen	-285
heit	-286
▁Das	-287
ik	-288
keit	-289
ang	-290
▁Par	-291
ru	-292
ed	-293
uss	-294
är	-295
igen	-296
▁Ich	-297
ste	-298
▁Fra	-299
elt	-300
▁durch	-301
iti	-302
▁können	-303
▁Herr	-304
wer	-305
▁wur	-306
tiv	-307
▁Kommis	-308
liche	-309
oh	-310
▁Ge	-311
▁dar	-312
▁mö	-313
anz	-314
▁Vor	-315
ommen	-316
ant	-317
ne	-318
bl	-319
ehen	-320
ag	-321
rie	-322
▁zum	-323
ör	-324
ad	-325
▁Jahr	-326
▁einem	-327
beit	-328
▁Europä	-329
▁Sp	-330
▁Ent	-331
chte	-332
eine	-333
glich	-334
▁Ab	-335
uß	-336
▁uns	-337
ieren	-338
pf	-339
iert	-340
ktion	-341
▁kann	-342
chen	-343
üs	-344
reich	-345
▁all	-346
est	-347
▁Ihr	-348
▁diese	-349
▁nur	-350
du	-351
bar	-352
ige	-353
ken	-354
▁Auf	-355
all	-356
▁ander	-357
räsi	-358
ün	-359
▁ab	-360
eiter	-361
▁Der	-362
▁Kommission	-363
räsiden	-364
amm	-365
ist	-366
ges	-367
ffen	-368
geb	-369
ahl	-370
che	-371
▁Ho	-372
oliti	-373
ok	-374
▁dieser	-375
bt	-376
auf	-377
▁daß	-378
▁Es	-379
▁Kon	-380
ehmen	-381
▁neu	-382
▁war	-383
tra	-384
▁ber	-385
▁"	-386
og	-387
hen	-388
rit	-389
fen	-390
ers	-391
räsident	-392
üt	-393
rund	-394
zi	-395
▁sp	-396
ähr	-397
▁re	-398
▁noch	-399
lei	-400
utz	-401
ierung	-402
ic	-403
ück	-404
nis	-405
lam	-406
eren	-407
ran	-408
▁wurde	-409
▁am	-410
ität	-411
glie	-412
alen	-413
▁soll	-414
▁Ma	-415
gel	-416
▁mehr	-417
ug	-418
▁müs	-419
age	-420
▁aber	-421
ner	-422
form	-423
▁Um	-424
stimm	-425
oll	-426
äh	-427
ess	-428
wick	-429
tigen	-430
▁sehr	-431
▁wenn	-432
▁de	-433
▁c	-434
ord	-435
▁Präsident	-436
lament	-437
▁müssen	-438
ze	-439
▁man	-440
leich	-441
wie	-442
ert	-443
assen	-444
pp	-445
ht	-446
lin	-447
nah	-448
▁Parlament	-449
ma	-450
ill	-451
etzt	-452
fahr	-453
▁bis	-454
me	-455
▁Mitglie	-456
▁zw	-457
ekt	-458
▁bes	-459
ak	-460
ammen	-461
eg	-462
▁r	-463
führ	-464
▁200	-465
▁ges	-466
qu	-467
▁Union	-468
iz	-469
▁diesem	-470
usammen	-471
ek	-472
ale	-473
▁Europäischen	-474
▁hin	-475
ßen	-476
wend	-477
ob	-478
atz	-479
mit	-480
ass	-481
unden	-482
▁was	-483
▁gen	-484
▁weiter	-485
▁.	-486
sam	-487
▁Arbeit	-488
hnen	-489
lung	-490
▁Men	-491
änd	-492
onder	-493
▁alle	-494
olle	-495
▁gegen	-496
fol	-497
▁Unter	-498
schie	-499
▁möchte	-500
ech	-501
gra	-502
▁gew	-503
tschaft	-504
acht	-505
vor	-506
▁bet	-507
pl	-508
ationen	-509
▁gro	-510
▁gem	-511
di	-512
art	-513
▁Mitglied	-514
stem	-515
lä	-516
▁3	-517
▁Rat	-518
▁Ü	-519
▁kon	-520
halten	-521
alt	-522
▁Reg	-523
halt	-524
eb	-525
äl	-526
▁kl	-527
ellen	-528
ichtig	-529
▁hier	-530
ystem	-531
eigen	-532
rin	-533
▁Zeit	-534
▁Zu	-535
▁Hotel	-536
uropä	-537
sche	-538
dem	-539
kommen	-540
▁Ges	-541
▁Über	-542
ibt	-543
▁Frau	-544
▁eines	-545
▁vom	-546
▁je	-547
tige	-548
▁EU	-549
gan	-550
nung	-551
stüt	-552
▁19	-553
mal	-554
ast	-555
her	-556
▁sowie	-557
▁For	-558
ho	-559
ühr	-560
inden	-561
erk	-562
▁Bericht	-563
ha	-564
zie	-565
ren	-566
▁lie	-567
bes	-568
▁So	-569
▁europä	-570
land	-571
▁dieses	-572
pro	-573
pt	-574
▁zwei	-575
▁her	-576
▁Menschen	-577
▁jed	-578
teil	-579
▁gibt	-580
eben	-581
icher	-582
igkeit	-583
ub	-584
staaten	-585
▁ihre	-586
äch	-587
▁wo	-588
halb	-589
▁et	-590
ild	-591
ap	-592
▁Bei	-593
▁Mar	-594
ließ	-595
kl	-596
▁best	-597
mmer	-598
ften	-599
blem	-600
olitik	-601
▁Im	-602
öglich	-603
iele	-604
▁viel	-605
änder	-606
ohl	-607
▁zwischen	-608
wir	-609
lan	-610
▁Land	-611
▁unsere	-612
▁–	-613
ati	-614
▁Entwick	-615
▁Ihnen	-616
▁Nach	-617
▁muss	-618
amit	-619
▁bie	-620
einen	-621
setz	-622
bst	-623
war	-624
gramm	-625
los	-626
ss	-627
▁bereit	-628
agen	-629
▁ausge	-630
stat	-631
eschä	-632
rauch	-633
▁keine	-634
▁beg	-635
▁the	-636
▁ange	-637
bei	-638
ank	-639
gung	-640
▁Recht	-641
▁Mitgliedstaaten	-642
eute	-643
andel	-644
our	-645
sicht	-646
▁Or	-647
achen	-648
legen	-649
ett	-650
▁son	-651
▁Grund	-652
zeu	-653
ativ	-654
id	-655
▁pro	-656
öff	-657
eht	-658
▁anderen	-659
ster	-660
▁Zusammen	-661
▁Haus	-662
▁Ä	-663
ße	-664
▁bef	-665
ere	-666
▁De	-667
ternehmen	-668
ov	-669
ate	-670
forder	-671
geben	-672
immer	-673
iv	-674
▁Produ	-675
keiten	-676
▁Europa	-677
entr	-678
▁Ch	-679
ga	-680
itu	-681
fe	-682
issen	-683
gesch	-684
stellen	-685
▁Vorsch	-686
chten	-687
amen	-688
▁Fl	-689
rö	-690
▁dann	-691
..	-692
unkt	-693
▁,	-694
ischer	-695
ußer	-696
▁immer	-697
▁Problem	-698
▁Wenn	-699
▁Inform	-700
len	-701
ständ	-702
elbst	-703
omp	-704
gend	-705
▁5	-706
lo	-707
weise	-708
trag	-709
od	-710
kte	-711
▁diesen	-712
ler	-713
▁Bereich	-714
▁ins	-715
ce	-716
▁Bür	-717
▁4	-718
▁damit	-719
▁ganz	-720
eid	-721
ritt	-722
arbeit	-723
stellt	-724
nahmen	-725
▁einz	-726
gie	-727
▁Al	-728
innen	-729
iger	-730
▁wieder	-731
ard	-732
▁gesch	-733
▁Q	-734
▁Her	-735
▁wurden	-736
fer	-737
ös	-738
▁le	-739
zung	-740
▁eigen	-741
▁Verb	-742
zeich	-743
▁unserer	-744
enden	-745
▁Kl	-746
inanz	-747
rag	-748
lag	-749
▁Ihre	-750
schieden	-751
▁Dies	-752
ternation	-753
ia	-754
icherheit	-755
▁mein	-756
▁Diese	-757
▁wichtig	-758
per	-759
äm	-760
rün	-761
▁habe	-762
rechen	-763
ding	-764
▁„	-765
▁neue	-766
we	-767
richt	-768
▁Geb	-769
tur	-770
fahren	-771
▁Th	-772
zeit	-773
wort	-774
elle	-775
▁Europäische	-776
sel	-777
einsam	-778
erson	-779
▁Gem	-780
▁Welt	-781
▁Qu	-782
▁Ste	-783
hne	-784
ment	-785
▁sondern	-786
olog	-787
inder	-788
ändern	-789
net	-790
▁jedoch	-791
▁Bet	-792
satz	-793
tik	-794
mittel	-795
ust	-796
zt	-797
schließ	-798
).	-799
ragen	-800
reichen	-801
stand	-802
nder	-803
▁Kolle	-804
▁and	-805
luss	-806
inn	-807
fach	-808
ruck	-809
sk	-810
alis	-811
erv	-812
▁Änder	-813
▁heute	-814
▁seine	-815
lagen	-816
▁ger	-817
für	-818
min	-819
▁gleich	-820
▁etw	-821
lau	-822
zei	-823
ats	-824
ont	-825
▁mich	-826
uten	-827
ow	-828
▁bereits	-829
osten	-830
▁ob	-831
ßnahmen	-832
▁Unternehmen	-833
...	-834
▁Was	-835
such	-836
chn	-837
kehr	-838
att	-839
▁wel	-840
alität	-841
▁en	-842
lage	-843
▁unterstüt	-844
eist	-845
essen	-846
eite	-847
▁Teil	-848
▁politi	-849
fall	-850
ke	-851
▁Entwicklung	-852
▁europäischen	-853
▁Wie	-854
▁wen	-855
äre	-856
indet	-857
▁ho	-858
▁Frage	-859
ehm	-860
▁selbst	-861
orden	-862
▁wür	-863
▁Daten	-864
▁neuen	-865
stellung	-866
▁20	-867
im	-868
▁sollte	-869
ktiv	-870
▁Stra	-871
▁Hin	-872
▁ex	-873
▁Stad	-874
licher	-875
▁verb	-876
▁ohne	-877
▁denn	-878
▁Leben	-879
▁ihrer	-880
fern	-881
▁fest	-882
▁führ	-883
tionen	-884
▁Richt	-885
gem	-886
▁Sta	-887
▁finden	-888
okra	-889
ält	-890
io	-891
▁verschieden	-892
eld	-893
▁Min	-894
cken	-895
ierte	-896
öffent	-897
▁andere	-898
atur	-899
▁denen	-900
▁gemeinsam	-901
tre	-902
ex	-903
nahme	-904
▁Inter	-905
▁Jahren	-906
▁möglich	-907
▁for	-908
▁Bürger	-909
▁bietet	-910
ondere	-911
▁sollten	-912
▁internation	-913
nisse	-914
esse	-915
▁Des	-916
▁Stadt	-917
▁Bes	-918
mus	-919
arb	-920
leist	-921
▁Sicherheit	-922
),	-923
▁Am	-924
ffe	-925
▁Tag	-926
tigt	-927
rupp	-928
wohl	-929
oren	-930
ele	-931
ktur	-932
▁sol	-933
osi	-934
unktion	-935
▁entsp	-936
sar	-937
fl	-938
zahl	-939
▁of	-940
unft	-941
▁allen	-942
hn	-943
▁Kont	-944
▁liegt	-945
tieren	-946
▁Se	-947
ade	-948
ahmen	-949
röß	-950
▁Person	-951
welt	-952
isk	-953
hör	-954
ünf	-955
▁Möglich	-956
▁machen	-957
ährend	-958
ial	-959
▁bek	-960
▁dazu	-961
ierten	-962
ichte	-963
ander	-964
ice	-965
▁Mittel	-966
hin	-967
ker	-968
▁weil	-969
▁ben	-970
wor	-971
ienst	-972
äng	-973
eise	-974
igung	-975
▁viele	-976
▁Them	-977
wert	-978
▁Rahmen	-979
▁jetzt	-980
▁Web	-981
▁darauf	-982
str	-983
▁sicher	-984
zug	-985
aupt	-986
▁aller	-987
iss	-988
under	-989
aher	-990
▁einge	-991
▁Informationen	-992
▁voll	-993
▁Programm	-994
mar	-995
äß	-996
umen	-997
▁Li	-998
reis	-999
ungsant	-1000
ay	-1001
▁Lage	-1002
alten	-1003
lungen	-1004
▁Herrn	-1005
eiden	-1006
▁beh	-1007
ultur	-1008
▁geht	-1009
nte	-1010
ganis	-1011
▁letz	-1012
▁6	-1013
▁Maßnahmen	-1014
annt	-1015
▁seiner	-1016
▁Part	-1017
▁Stand	-1018
▁geb	-1019
▁schon	-1020
▁wirk	-1021
▁Zimmer	-1022
▁Kommissar	-1023
atür	-1024
▁kein	-1025
▁Mein	-1026
▁einfach	-1027
ud	-1028
ringen	-1029
einschaft	-1030
lossen	-1031
▁einige	-1032
▁Aussch	-1033
▁Wirtschaft	-1034
zial	-1035
▁eben	-1036
iet	-1037
▁gef	-1038
▁gut	-1039
▁größ	-1040
▁System	-1041
kunft	-1042
▁Ger	-1043
▁dafür	-1044
spiel	-1045
▁Gen	-1046
oten	-1047
tiert	-1048
▁ar	-1049
ute	-1050
ac	-1051
hält	-1052
▁meine	-1053
▁Verein	-1054
otwend	-1055
itz	-1056
ionen	-1057
▁to	-1058
eln	-1059
▁Fall	-1060
bau	-1061
ine	-1062
esen	-1063
▁allem	-1064
gar	-1065
▁te	-1066
▁bin	-1067
heiten	-1068
▁Ex	-1069
▁mir	-1070
▁Man	-1071
setzung	-1072
besser	-1073
ite	-1074
▁Ziel	-1075
folg	-1076
▁dir	-1077
ks	-1078
▁unseren	-1079
▁Mon	-1080
äten	-1081
öl	-1082
tischen	-1083
▁zurück	-1084
besondere	-1085
klär	-1086
so	-1087
grund	-1088
affen	-1089
üh	-1090
▁besonder	-1091
rän	-1092
genommen	-1093
▁Jahre	-1094
▁zusammen	-1095
lichkeit	-1096
▁Da	-1097
▁Für	-1098
▁wollen	-1099
reu	-1100
punkt	-1101
gang	-1102
▁nun	-1103
▁deut	-1104
▁ihren	-1105
ven	-1106
nt	-1107
ichten	-1108
▁Gew	-1109
▁Parlaments	-1110
▁verfü	-1111
führt	-1112
▁mo	-1113
▁Bl	-1114
aler	-1115
ichter	-1116
ts	-1117
antwort	-1118
scheid	-1119
▁..	-1120
anden	-1121
ogen	-1122
ations	-1123
▁Pl	-1124
itte	-1125
▁besch	-1126
eicht	-1127
▁Ha	-1128
▁Eur	-1129
aren	-1130
▁Vorschlag	-1131
▁Finanz	-1132
▁al	-1133
ange	-1134
▁sagen	-1135
ruktur	-1136
unde	-1137
uer	-1138
recht	-1139
licht	-1140
▁Aut	-1141
ergie	-1142
stimmung	-1143
ahn	-1144
ordnung	-1145
ode	-1146
spro	-1147
linie	-1148
ond	-1149
▁All	-1150
gr	-1151
aum	-1152
▁Eine	-1153
dig	-1154
▁stehen	-1155
rache	-1156
gleich	-1157
ris	-1158
▁etwas	-1159
▁Gesch	-1160
ekte	-1161
▁Rechts	-1162
▁wissen	-1163
riv	-1164
deut	-1165
▁Bild	-1166
▁7	-1167
▁Unser	-1168
yp	-1169
sto	-1170
▁bestimm	-1171
▁seit	-1172
werb	-1173
▁Geschä	-1174
▁doch	-1175
▁Namen	-1176
zw	-1177
▁ersten	-1178
räge	-1179
▁insbesondere	-1180
stitu	-1181
▁fol	-1182
fft	-1183
▁erm	-1184
▁erhalten	-1185
▁Kunden	-1186
▁199	-1187
▁Verfü	-1188
▁Ö	-1189
▁Bar	-1190
▁drei	-1191
▁8	-1192
eiß	-1193
gangen	-1194
▁Frei	-1195
fte	-1196
▁während	-1197
amil	-1198
hand	-1199
▁Durch	-1200
ark	-1201
▁kommen	-1202
▁schn	-1203
atürlich	-1204
agt	-1205
▁Proj	-1206
▁[	-1207
tels	-1208
fra	-1209
▁10	-1210
▁Umwelt	-1211
▁Unterstüt	-1212
▁einmal	-1213
▁Lös	-1214
rem	-1215
▁komm	-1216
assung	-1217
▁würde	-1218
zü	-1219
utzen	-1220
falls	-1221
▁Änderungsant	-1222
▁außer	-1223
▁Und	-1224
ätz	-1225
▁spe	-1226
▁Zusammenarbeit	-1227
▁beim	-1228
ilfe	-1229
ron	-1230
▁Form	-1231
schaften	-1232
ohn	-1233
arten	-1234
▁Beh	-1235
▁Ur	-1236
gabe	-1237
itäten	-1238
000	-1239
hol	-1240
kon	-1241
▁Dem	-1242
anken	-1243
ende	-1244
lungs	-1245
▁Gemeinschaft	-1246
legt	-1247
▁Haushalt	-1248
▁verst	-1249
▁Me	-1250
ost	-1251
ware	-1252
▁la	-1253
ellschaft	-1254
▁verw	-1255
rank	-1256
▁geben	-1257
▁öffent	-1258
▁Markt	-1259
akt	-1260
raum	-1261
altung	-1262
▁Unterstützung	-1263
▁Arbeits	-1264
ign	-1265
▁Wer	-1266
vers	-1267
▁nie	-1268
ian	-1269
ache	-1270
▁lassen	-1271
▁Flug	-1272
▁Art	-1273
▁Bo	-1274
▁groß	-1275
▁sehen	-1276
orgen	-1277
▁Zug	-1278
von	-1279
▁umf	-1280
führung	-1281
wendung	-1282
▁also	-1283
gehen	-1284
uchen	-1285
örder	-1286
isten	-1287
▁bede	-1288
ald	-1289
▁waren	-1290
▁US	-1291
▁nation	-1292
▁Mus	-1293
druck	-1294
▁Energie	-1295
10	-1296
ichterstat	-1297
▁...	-1298
▁Haupt	-1299
▁Kollegen	-1300
▁besteht	-1301
▁Tran	-1302
▁The	-1303
▁%	-1304
▁Spiel	-1305
▁letzten	-1306
uft	-1307
▁Fragen	-1308
▁entwick	-1309
hö	-1310
tier	-1311
▁Intern	-1312
echn	-1313
▁besser	-1314
▁inter	-1315
rieb	-1316
raft	-1317
▁Besch	-1318
fort	-1319
▁muß	-1320
lex	-1321
etzen	-1322
glichen	-1323
▁Sti	-1324
▁Länder	-1325
▁steht	-1326
▁gel	-1327
schied	-1328
nehmen	-1329
nehm	-1330
av	-1331
▁du	-1332
ative	-1333
▁Mill	-1334
▁tun	-1335
▁9	-1336
gri	-1337
staur	-1338
▁statt	-1339
bereich	-1340
kten	-1341
ktu	-1342
sf	-1343
▁Dienst	-1344
▁wich	-1345
▁wirtschaft	-1346
arte	-1347
▁Als	-1348
▁gehör	-1349
man	-1350
ismus	-1351
▁Lin	-1352
▁Beit	-1353
blick	-1354
ettbe	-1355
▁seinen	-1356
▁Deut	-1357
entrum	-1358
rechte	-1359
gaben	-1360
ack	-1361
ichts	-1362
zieh	-1363
▁per	-1364
tisch	-1365
ument	-1366
▁Kom	-1367
fri	-1368
▁qu	-1369
andelt	-1370
markt	-1371
▁worden	-1372
▁Geschäft	-1373
tigung	-1374
ätze	-1375
▁Em	-1376
ail	-1377
▁Verfügung	-1378
▁frei	-1379
are	-1380
▁dabei	-1381
▁Politik	-1382
▁Rei	-1383
eschäf	-1384
eile	-1385
ib	-1386
iell	-1387
▁welche	-1388
▁recht	-1389
▁Bedeut	-1390
urz	-1391
▁we	-1392
▁Handel	-1393
dingungen	-1394
▁Euro	-1395
fiz	-1396
az	-1397
▁gest	-1398
eig	-1399
häng	-1400
rech	-1401
EN	-1402
▁Hier	-1403
nten	-1404
gew	-1405
▁Seite	-1406
racht	-1407
undheit	-1408
weit	-1409
zess	-1410
▁Ländern	-1411
▁Hand	-1412
▁Bedeutung	-1413
eien	-1414
▁bed	-1415
▁Berichterstat	-1416
asse	-1417
▁Ant	-1418
rüh	-1419
ielen	-1420
feren	-1421
▁Möglichkeit	-1422
▁sozi	-1423
▁Dar	-1424
▁jeder	-1425
▁em	-1426
ruch	-1427
ER	-1428
▁deren	-1429
▁Schutz	-1430
▁wäre	-1431
ücks	-1432
▁erst	-1433
ettbewerb	-1434
▁or	-1435
▁große	-1436
ater	-1437
▁inner	-1438
▁großen	-1439
rück	-1440
▁Ergeb	-1441
rot	-1442
wirtschaft	-1443
kauf	-1444
lt	-1445
▁zahl	-1446
aut	-1447
▁Vertrag	-1448
gestellt	-1449
ünst	-1450
▁hö	-1451
ou	-1452
schutz	-1453
ies	-1454
▁Kinder	-1455
▁kom	-1456
▁entfern	-1457
▁Tex	-1458
▁bieten	-1459
▁15	-1460
▁Internet	-1461
▁el	-1462
▁Gä	-1463
eisten	-1464
reffen	-1465
▁Thema	-1466
rak	-1467
ktionen	-1468
rift	-1469
bild	-1470
staurant	-1471
▁Entscheid	-1472
▁ch	-1473
unter	-1474
▁notwend	-1475
▁Schw	-1476
tikel	-1477
▁Lebens	-1478
▁Regel	-1479
▁hervor	-1480
beh	-1481
▁Fahr	-1482
▁get	-1483
laub	-1484
ium	-1485
gl	-1486
rat	-1487
▁Auch	-1488
dr	-1489
org	-1490
weg	-1491
▁darüber	-1492
hang	-1493
▁Ihrer	-1494
amt	-1495
▁befindet	-1496
gesetzt	-1497
tische	-1498
▁Lie	-1499
▁will	-1500
wirk	-1501
▁glau	-1502
▁erforder	-1503
ide	-1504
▁blei	-1505
▁El	-1506
▁Eben	-1507
▁meiner	-1508
iels	-1509
äd	-1510
ielt	-1511
zep	-1512
ierungs	-1513
stra	-1514
zuf	-1515
geord	-1516
▁stellen	-1517
genden	-1518
▁offen	-1519
▁alles	-1520
euer	-1521
weiter	-1522
▁Fol	-1523
▁Zahl	-1524
▁Ausschuss	-1525
▁Zukunft	-1526
▁schnell	-1527
riften	-1528
▁daher	-1529
▁Gro	-1530
neten	-1531
▁Techn	-1532
ritte	-1533
▁Qualität	-1534
hof	-1535
▁brauch	-1536
ina	-1537
politik	-1538
zeug	-1539
ufen	-1540
▁entsch	-1541
tigkeit	-1542
ämpf	-1543
▁18	-1544
▁natürlich	-1545
▁schw	-1546
▁Ben	-1547
▁Beispiel	-1548
ennt	-1549
▁stell	-1550
▁davon	-1551
ffiz	-1552
treten	-1553
▁Vol	-1554
one	-1555
▁sowohl	-1556
ilität	-1557
▁Probleme	-1558
▁Frauen	-1559
▁Bed	-1560
▁unterstützen	-1561
▁erreichen	-1562
▁Weise	-1563
▁weitere	-1564
▁eigenen	-1565
ima	-1566
inde	-1567
▁verschiedenen	-1568
▁Ro	-1569
▁wirklich	-1570
▁teil	-1571
▁entfernt	-1572
▁Seiten	-1573
In	-1574
▁näch	-1575
ölker	-1576
▁besonders	-1577
ec	-1578
▁is	-1579
▁Famil	-1580
▁Regierung	-1581
achten	-1582
tem	-1583
▁Weg	-1584
▁aufge	-1585
rieden	-1586
ip	-1587
▁gesam	-1588
▁gegenüber	-1589
▁At	-1590
▁Situ	-1591
rifft	-1592
ubl	-1593
▁Serv	-1594
▁bew	-1595
bung	-1596
▁Forsch	-1597
rieben	-1598
▁La	-1599
▁Deb	-1600
erien	-1601
▁Mehr	-1602
▁Ende	-1603
▁verl	-1604
reund	-1605
▁12	-1606
wäh	-1607
weisen	-1608
▁dort	-1609
▁Richtlinie	-1610
▁Kam	-1611
▁möchten	-1612
ftware	-1613
inen	-1614
▁Tra	-1615
rand	-1616
sprache	-1617
▁lang	-1618
tive	-1619
ph	-1620
werk	-1621
ersön	-1622
dust	-1623
ichtet	-1624
▁Ihren	-1625
▁hatte	-1626
▁Sol	-1627
hm	-1628
ital	-1629
▁Ne	-1630
vest	-1631
indung	-1632
▁vielen	-1633
▁innerhalb	-1634
▁ihnen	-1635
▁Uhr	-1636
▁Aber	-1637
iff	-1638
▁Gegen	-1639
▁ro	-1640
▁Wasser	-1641
▁Gl	-1642
▁genau	-1643
▁hoch	-1644
raucher	-1645
esent	-1646
▁Su	-1647
eim	-1648
▁direkt	-1649
äu	-1650
reise	-1651
▁aktu	-1652
zeitig	-1653
▁Ph	-1654
▁Nutz	-1655
tie	-1656
▁zwar	-1657
urg	-1658
▁Res	-1659
▁politischen	-1660
▁Med	-1661
▁Woch	-1662
rise	-1663
▁Grün	-1664
▁Rolle	-1665
ider	-1666
zimmer	-1667
zip	-1668
▁Wahl	-1669
▁Funktion	-1670
system	-1671
ux	-1672
eint	-1673
▁Region	-1674
▁internationalen	-1675
ive	-1676
▁techn	-1677
▁Artikel	-1678
▁Le	-1679
▁Disk	-1680
▁gewähr	-1681
oc	-1682
▁bel	-1683
ruppe	-1684
▁dür	-1685
reifen	-1686
▁Alle	-1687
ucht	-1688
▁Zwei	-1689
ister	-1690
▁Staaten	-1691
ym	-1692
▁Au	-1693
▁Fort	-1694
▁hinaus	-1695
spolitik	-1696
St	-1697
▁weit	-1698
stall	-1699
haus	-1700
üd	-1701
▁y	-1702
stens	-1703
gän	-1704
▁Wettbewerb	-1705
]]	-1706
▁ern	-1707
▁Meinung	-1708
▁welt	-1709
▁Abgeord	-1710
leg	-1711
cher	-1712
com	-1713
▁europäische	-1714
▁erste	-1715
▁Deutsch	-1716
ool	-1717
aff	-1718
reicht	-1719
merk	-1720
ilt	-1721
▁klar	-1722
▁Ap	-1723
opp	-1724
mäß	-1725
dition	-1726
▁führen	-1727
▁reg	-1728
anischen	-1729
▁einzel	-1730
▁Restaurant	-1731
atte	-1732
onen	-1733
sst	-1734
▁unserem	-1735
cen	-1736
▁Entschließ	-1737
▁Pf	-1738
▁Zusammenhang	-1739
▁Geschäfts	-1740
ax	-1741
tegie	-1742
voll	-1743
▁Personen	-1744
els	-1745
▁Sk	-1746
frei	-1747
▁'	-1748
▁Präsidentin	-1749
▁on	-1750
▁Rück	-1751
beiten	-1752
wär	-1753
igt	-1754
dustrie	-1755
ase	-1756
▁könnte	-1757
dings	-1758
▁Mo	-1759
sichtlich	-1760
rach	-1761
ären	-1762
▁Gäste	-1763
uter	-1764
▁We	-1765
uen	-1766
zogen	-1767
dt	-1768
agement	-1769
▁entsprechen	-1770
res	-1771
ve	-1772
bet	-1773
▁Vert	-1774
▁Gesundheit	-1775
▁Situation	-1776
prä	-1777
prü	-1778
igten	-1779
▁begrü	-1780
▁Fest	-1781
reiche	-1782
line	-1783
läge	-1784
▁Gleich	-1785
▁Hilfe	-1786
asst	-1787
▁Kultur	-1788
▁[[	-1789
weis	-1790
ferenz	-1791
▁Schluss	-1792
usätz	-1793
▁kommt	-1794
ity	-1795
▁Terr	-1796
vorsch	-1797
▁gar	-1798
▁Fir	-1799
▁Hotels	-1800
▁ä	-1801
▁empf	-1802
ußen	-1803
▁0	-1804
ome	-1805
ieten	-1806
tlich	-1807
ologie	-1808
▁Dieses	-1809
ativen	-1810
▁di	-1811
fassung	-1812
Pro	-1813
▁bzw	-1814
angen	-1815
▁Natur	-1816
1.	-1817
▁Wor	-1818
nit	-1819
▁Verantwort	-1820
immt	-1821
fang	-1822
▁bestehen	-1823
▁Fraktion	-1824
ächst	-1825
ain	-1826
▁Deshalb	-1827
▁anges	-1828
teilung	-1829
roffen	-1830
▁bitte	-1831
▁beiden	-1832
baren	-1833
▁Ort	-1834
▁Kontro	-1835
▁stellt	-1836
▁Demokra	-1837
▁Ob	-1838
erik	-1839
▁Ko	-1840
unehmen	-1841
arbei	-1842
urs	-1843
▁Dienstleist	-1844
▁gesagt	-1845
▁tra	-1846
▁Preis	-1847
annten	-1848
▁Lösung	-1849
eitung	-1850
ruppen	-1851
▁Gesetz	-1852
▁Rates	-1853
▁Dat	-1854
▁verbesser	-1855
▁Partner	-1856
▁daran	-1857
▁gilt	-1858
▁jeden	-1859
▁ra	-1860
▁Kü	-1861
äuf	-1862
ließen	-1863
reiben	-1864
mo	-1865
unst	-1866
▁kosten	-1867
setzen	-1868
ämlich	-1869
alisierung	-1870
▁u	-1871
co	-1872
▁ja	-1873
sw	-1874
▁finanz	-1875
forderungen	-1876
▁persön	-1877
▁bringen	-1878
stimmt	-1879
üb	-1880
ände	-1881
obil	-1882
▁Ange	-1883
▁nämlich	-1884
▁Produkte	-1885
stehen	-1886
▁hät	-1887
200	-1888
eits	-1889
rom	-1890
▁gute	-1891
wendet	-1892
▁Son	-1893
verkehr	-1894
liches	-1895
gegen	-1896
stadt	-1897
spl	-1898
icken	-1899
sor	-1900
ritten	-1901
▁Erfahr	-1902
als	-1903
anst	-1904
▁Pol	-1905
amp	-1906
▁Y	-1907
▁versuch	-1908
sol	-1909
▁Weiter	-1910
lüs	-1911
▁Di	-1912
▁abge	-1913
▁Dank	-1914
▁gerade	-1915
▁Te	-1916
arm	-1917
▁Punkt	-1918
▁Kosten	-1919
yn	-1920
einander	-1921
igkeiten	-1922
ennen	-1923
▁nehmen	-1924
frage	-1925
▁Op	-1926
▁stär	-1927
ember	-1928
▁Unsere	-1929
ore	-1930
▁Verfahren	-1931
abhäng	-1932
ring	-1933
arbeiten	-1934
staat	-1935
ierungen	-1936
ure	-1937
ock	-1938
site	-1939
▁verm	-1940
▁Zugang	-1941
änger	-1942
▁darf	-1943
▁Europas	-1944
▁Verw	-1945
▁2009	-1946
▁ebenfalls	-1947
▁ersch	-1948
▁Früh	-1949
▁Met	-1950
▁entscheiden	-1951
▁indem	-1952
ans	-1953
▁erwar	-1954
rigen	-1955
ote	-1956
▁erfolg	-1957
gebung	-1958
rachten	-1959
vi	-1960
▁Projekt	-1961
▁unver	-1962
osition	-1963
▁Bezug	-1964
▁unterschied	-1965
▁verbunden	-1966
▁gemacht	-1967
▁unterstützt	-1968
20	-1969
▁ihn	-1970
sver	-1971
prochen	-1972
▁th	-1973
▁Gren	-1974
▁gl	-1975
▁Deutschland	-1976
zustellen	-1977
▁glaube	-1978
▁Software	-1979
burg	-1980
tragen	-1981
▁Dieser	-1982
▁Klima	-1983
▁etwa	-1984
ette	-1985
▁ak	-1986
▁Transp	-1987
▁Institu	-1988
▁aut	-1989
▁Mal	-1990
anzen	-1991
▁ihm	-1992
fä	-1993
▁wahr	-1994
istor	-1995
▁Millionen	-1996
▁kurz	-1997
nete	-1998
▁Komp	-1999
▁Verkehr	-2000
▁wesent	-2001
ys	-2002
▁Rechte	-2003
▁gern	-2004
▁allgem	-2005
▁dürfen	-2006
ka	-2007
▁Kolleg	-2008
hunder	-2009
isches	-2010
▁gehen	-2011
onds	-2012
▁Du	-2013
▁seinem	-2014
ielleicht	-2015
utet	-2016
▁Tür	-2017
▁dessen	-2018
▁Aussprache	-2019
▁&	-2020
▁Nicht	-2021
▁Eigen	-2022
▁hoh	-2023
sionen	-2024
▁weniger	-2025
raf	-2026
ets	-2027
▁sogar	-2028
▁Sozial	-2029
▁/	-2030
▁versch	-2031
anten	-2032
ähe	-2033
▁Meer	-2034
▁Bau	-2035
▁ir	-2036
▁Jahres	-2037
omati	-2038
▁Neu	-2039
fin	-2040
alte	-2041
gor	-2042
gebot	-2043
▁erz	-2044
kung	-2045
llt	-2046
ame	-2047
▁Verhand	-2048
nov	-2049
duz	-2050
rotz	-2051
▁Organis	-2052
▁Bel	-2053
itzen	-2054
▁einigen	-2055
▁darin	-2056
▁Verbraucher	-2057
öst	-2058
▁Initi	-2059
▁modern	-2060
ühren	-2061
▁nah	-2062
▁spezie	-2063
nehmer	-2064
▁Ad	-2065
ator	-2066
unkte	-2067
▁30	-2068
▁Abstimmung	-2069
völker	-2070
▁Produktion	-2071
▁brauchen	-2072
tim	-2073
leben	-2074
▁Beschäf	-2075
▁sollen	-2076
▁Fil	-2077
▁anzu	-2078
utzt	-2079
▁betrifft	-2080
▁schaffen	-2081
iere	-2082
ret	-2083
▁handelt	-2084
▁op	-2085
ott	-2086
▁Geld	-2087
▁posi	-2088
wahl	-2089
möglich	-2090
▁öffentlichen	-2091
▁bekannt	-2092
schließlich	-2093
▁San	-2094
eider	-2095
Ver	-2096
▁nichts	-2097
ari	-2098
wiesen	-2099
▁Hö	-2100
unächst	-2101
eigt	-2102
▁Fischer	-2103
▁Gebiet	-2104
auer	-2105
▁zusätz	-2106
emen	-2107
achst	-2108
▁Buch	-2109
▁meisten	-2110
▁Ebene	-2111
▁nationalen	-2112
tis	-2113
▁Tour	-2114
▁ihrem	-2115
▁keinen	-2116
bare	-2117
bend	-2118
▁aktiv	-2119
det	-2120
ziehen	-2121
▁Gesellschaft	-2122
AN	-2123
ählen	-2124
▁einger	-2125
▁Pal	-2126
▁Produkt	-2127
spruch	-2128
züglich	-2129
▁Service	-2130
durch	-2131
gelegt	-2132
▁Herren	-2133
zus	-2134
▁Sa	-2135
▁deshalb	-2136
▁benö	-2137
zeichnet	-2138
stück	-2139
▁Mär	-2140
liegen	-2141
▁umfassen	-2142
li	-2143
▁Dok	-2144
▁Website	-2145
ähigkeit	-2146
▁Industrie	-2147
spiels	-2148
▁Entwicklungs	-2149
▁interess	-2150
▁tä	-2151
allen	-2152
▁Instr	-2153
ile	-2154
äter	-2155
▁Ser	-2156
ance	-2157
▁Fortsch	-2158
▁Besuch	-2159
▁1.	-2160
▁Bus	-2161
▁weiterhin	-2162
▁Werk	-2163
▁Fot	-2164
▁Netz	-2165
ächlich	-2166
▁politische	-2167
▁besten	-2168
handel	-2169
▁14	-2170
▁Invest	-2171
▁Tats	-2172
schluss	-2173
▁schön	-2174
▁Je	-2175
▁Wissen	-2176
▁findet	-2177
geschlagen	-2178
▁heraus	-2179
▁Bas	-2180
▁Umsetzung	-2181
▁macht	-2182
drück	-2183
mals	-2184
ue	-2185
▁deutlich	-2186
wach	-2187
▁solche	-2188
▁wichtige	-2189
▁Menschenrechte	-2190
▁Jahrhunder	-2191
ichtigen	-2192
reg	-2193
▁bedeutet	-2194
iges	-2195
▁25	-2196
ckt	-2197
▁Bem	-2198
▁end	-2199
▁Asp	-2200
vent	-2201
port	-2202
▁Nähe	-2203
sehen	-2204
▁Kap	-2205
bel	-2206
zept	-2207
▁Benutz	-2208
reiten	-2209
▁Leist	-2210
▁schwer	-2211
▁eh	-2212
ums	-2213
▁16	-2214
▁nutzen	-2215
spielsweise	-2216
▁klein	-2217
▁Verbesser	-2218
▁erklär	-2219
▁hoffe	-2220
▁Von	-2221
▁konk	-2222
▁sei	-2223
▁unbe	-2224
▁Ansicht	-2225
schein	-2226
▁at	-2227
▁fr	-2228
▁Abkommen	-2229
örderung	-2230
bo	-2231
haltung	-2232
örden	-2233
▁Ergebnis	-2234
rinzip	-2235
zer	-2236
rop	-2237
ublik	-2238
zlich	-2239
aden	-2240
▁|	-2241
▁Anwendung	-2242
cke	-2243
umente	-2244
▁Kunst	-2245
platz	-2246
scht	-2247
▁hel	-2248
▁Insel	-2249
▁USA	-2250
▁17	-2251
▁Park	-2252
▁prä	-2253
richtung	-2254
▁Empf	-2255
▁Co	-2256
able	-2257
eten	-2258
▁wenig	-2259
dung	-2260
ziehungen	-2261
▁oft	-2262
CH	-2263
▁nächsten	-2264
▁Vorschläge	-2265
▁Beg	-2266
▁stimm	-2267
▁Ihrem	-2268
▁Richtung	-2269
▁Groß	-2270
▁Frank	-2271
▁üb	-2272
aussch	-2273
▁Verantwortung	-2274
verständ	-2275
▁con	-2276
▁Raum	-2277
▁par	-2278
ffizien	-2279
▁gegeben	-2280
lauf	-2281
▁gehört	-2282
▁grund	-2283
▁dank	-2284
▁Damen	-2285
▁Schul	-2286
▁Struktur	-2287
▁lä	-2288
▁enthalten	-2289
linien	-2290
▁inform	-2291
folgt	-2292
▁X	-2293
▁gemeinsamen	-2294
por	-2295
▁Haushalts	-2296
▁Bedingungen	-2297
▁Musik	-2298
▁verwendet	-2299
ategor	-2300
▁Standard	-2301
alien	-2302
▁notwendig	-2303
▁Tages	-2304
merksam	-2305
▁Ide	-2306
▁Ju	-2307
▁jewei	-2308
▁priv	-2309
jen	-2310
▁kleinen	-2311
ante	-2312
▁Wort	-2313
▁Viel	-2314
▁inte	-2315
▁vier	-2316
▁It	-2317
▁aufgrund	-2318
▁Feh	-2319
erst	-2320
▁ide	-2321
ali	-2322
▁fort	-2323
zent	-2324
▁Text	-2325
IN	-2326
ül	-2327
▁arbeiten	-2328
iten	-2329
arbeitung	-2330
▁sprechen	-2331
▁Einz	-2332
▁Angelegen	-2333
llung	-2334
ließlich	-2335
▁Bek	-2336
▁histor	-2337
laden	-2338
▁sozialen	-2339
▁Fern	-2340
▁Gol	-2341
▁Grundlage	-2342
▁Interesse	-2343
▁kont	-2344
▁ermöglich	-2345
▁werde	-2346
▁Ziele	-2347
ienen	-2348
▁Inte	-2349
pflicht	-2350
ES	-2351
▁berücks	-2352
red	-2353
▁zie	-2354
▁Port	-2355
ith	-2356
gern	-2357
sph	-2358
▁Bevölker	-2359
up	-2360
▁Daher	-2361
▁zentr	-2362
▁Comp	-2363
▁übern	-2364
▁us	-2365
▁Reihe	-2366
llig	-2367
▁Gener	-2368
▁Entscheidung	-2369
ekten	-2370
greifen	-2371
▁Außen	-2372
ement	-2373
▁Einsatz	-2374
▁Per	-2375
ilit	-2376
▁Vers	-2377
▁Kat	-2378
▁erfü	-2379
▁beispielsweise	-2380
▁Möglichkeiten	-2381
▁Erweiter	-2382
▁13	-2383
▁kompl	-2384
stellungen	-2385
▁würden	-2386
▁Blick	-2387
▁leben	-2388
▁Druck	-2389
▁erreicht	-2390
▁Demokratie	-2391
wirkungen	-2392
fung	-2393
▁prof	-2394
arf	-2395
teilt	-2396
▁vorgeschlagen	-2397
▁Pri	-2398
▁verschiedene	-2399
mitt	-2400
▁Wert	-2401
▁schrift	-2402
▁Minuten	-2403
▁Debatte	-2404
stimmungen	-2405
▁Br	-2406
▁Erfolg	-2407
assi	-2408
elegen	-2409
▁Änderungsantrag	-2410
arbeiter	-2411
zeigt	-2412
▁Außer	-2413
reten	-2414
ätzen	-2415
▁wohl	-2416
geln	-2417
▁Kön	-2418
▁Aktiv	-2419
▁ru	-2420
orm	-2421
▁km	-2422
▁Erklär	-2423
bildung	-2424
▁Con	-2425
läss	-2426
mitteln	-2427
unik	-2428
des	-2429
▁Hinblick	-2430
stattet	-2431
▁Luft	-2432
▁bevor	-2433
▁ermöglicht	-2434
atten	-2435
terial	-2436
gesehen	-2437
▁Selbst	-2438
▁Forschung	-2439
-,	-2440
▁Wieder	-2441
▁Kolleginnen	-2442
▁vielleicht	-2443
folgen	-2444
zif	-2445
struktur	-2446
ivers	-2447
▁Einw	-2448
ungsver	-2449
lassen	-2450
▁2010	-2451
▁danken	-2452
▁verfügt	-2453
▁Abgeordneten	-2454
▁Sport	-2455
statt	-2456
ult	-2457
▁halten	-2458
▁höch	-2459
▁gelten	-2460
▁gemeinsame	-2461
▁50	-2462
▁Vort	-2463
ly	-2464
▁Diskus	-2465
par	-2466
▁Steuer	-2467
▁Zentrum	-2468
▁Den	-2469
▁Hoch	-2470
▁Bil	-2471
▁demokra	-2472
▁Prä	-2473
▁Öff	-2474
rieg	-2475
wegen	-2476
produ	-2477
inge	-2478
▁allerdings	-2479
äum	-2480
▁vollständ	-2481
ino	-2482
tiven	-2483
▁Geschichte	-2484
▁Voraus	-2485
met	-2486
aß	-2487
▁Ausdruck	-2488
mer	-2489
ight	-2490
ca	-2491
ober	-2492
▁jen	-2493
annte	-2494
▁Plan	-2495
ünschen	-2496
▁Heraus	-2497
ings	-2498
▁erforderlich	-2499
▁fünf	-2500
▁Kraft	-2501
▁komp	-2502
▁On	-2503
▁2008	-2504
▁bleiben	-2505
▁Dial	-2506
scher	-2507
verb	-2508
▁funktion	-2509
▁heiß	-2510
rimin	-2511
▁Regionen	-2512
▁zeigt	-2513
ingen	-2514
▁einzelnen	-2515
ters	-2516
▁tran	-2517
▁100	-2518
ix	-2519
urf	-2520
▁weltweit	-2521
gien	-2522
ktor	-2523
ollen	-2524
▁Strategie	-2525
▁Binnen	-2526
▁denke	-2527
▁Platz	-2528
divi	-2529
ws	-2530
ektor	-2531
▁gesamten	-2532
▁angenommen	-2533
▁darum	-2534
▁Arbeitspl	-2535
▁“	-2536
langen	-2537
▁schwier	-2538
▁Frieden	-2539
dividu	-2540
auber	-2541
▁Wohn	-2542
usst	-2543
▁App	-2544
▁Familien	-2545
ition	-2546
bahn	-2547
▁erwäh	-2548
▁bem	-2549
th	-2550
▁gleichzeitig	-2551
▁Fre	-2552
barkeit	-2553
öglichen	-2554
sbe	-2555
▁führt	-2556
▁Gar	-2557
▁Tatsache	-2558
▁Gra	-2559
▁Priv	-2560
arbeitet	-2561
▁Schritt	-2562
▁Prozess	-2563
ämpfung	-2564
▁bisher	-2565
frist	-2566
own	-2567
ress	-2568
geschlossen	-2569
▁Institutionen	-2570
▁Seit	-2571
▁entwickelt	-2572
iken	-2573
jenigen	-2574
▁angeb	-2575
▁weiß	-2576
hl	-2577
fon	-2578
▁Jun	-2579
ehn	-2580
jähr	-2581
abilität	-2582
ießen	-2583
▁Wind	-2584
▁äußer	-2585
elten	-2586
▁ne	-2587
▁Auswirkungen	-2588
▁24	-2589
▁lange	-2590
abel	-2591
▁tats	-2592
▁Ta	-2593
▁verein	-2594
ügen	-2595
An	-2596
▁disk	-2597
▁Spe	-2598
▁befinden	-2599
isierung	-2600
arität	-2601
▁jedem	-2602
▁Antwort	-2603
steller	-2604
inter	-2605
▁Version	-2606
▁Bereichen	-2607
▁Gelegen	-2608
istischen	-2609
▁Einzel	-2610
ches	-2611
zentrum	-2612
tu	-2613
▁hatten	-2614
ändert	-2615
▁Mitglieder	-2616
▁UN	-2617
▁Is	-2618
▁Verhandlungen	-2619
▁später	-2620
programm	-2621
▁Cl	-2622
reisen	-2623
▁neben	-2624
AT	-2625
ordin	-2626
▁Außerdem	-2627
Mail	-2628
air	-2629
aly	-2630
▁ebenso	-2631
sitz	-2632
ession	-2633
▁Schlussel	-2634
",	-2635
ommer	-2636
▁Interessen	-2637
▁Stimm	-2638
▁setzen	-2639
ösen	-2640
ens	-2641
▁Fä	-2642
asser	-2643
▁Zum	-2644
▁Betrieb	-2645
▁einzu	-2646
▁heißt	-2647
▁res	-2648
▁2007	-2649
▁Webs	-2650
▁liegen	-2651
alb	-2652
richtungen	-2653
▁(1	-2654
▁richtig	-2655
iellen	-2656
▁Fr	-2657
nitt	-2658
echsel	-2659
enthalt	-2660
▁Nation	-2661
▁fast	-2662
ichtigt	-2663
na	-2664
▁folgen	-2665
▁weiteren	-2666
renz	-2667
▁Beitrag	-2668
▁Liste	-2669
fel	-2670
▁Denn	-2671
▁Prof	-2672
▁Sh	-2673
andlung	-2674
▁gestimmt	-2675
▁Themen	-2676
▁unseres	-2677
achstum	-2678
▁Verl	-2679
ipf	-2680
▁Ausschusses	-2681
orn	-2682
▁konnte	-2683
griff	-2684
▁Erweiterung	-2685
▁Dialog	-2686
▁meinen	-2687
▁könnten	-2688
▁Nie	-2689
ose	-2690
▁:	-2691
isse	-2692
▁Verordnung	-2693
▁vö	-2694
▁Förderung	-2695
▁Entschließung	-2696
▁vorh	-2697
▁Aufgabe	-2698
▁jede	-2699
▁se	-2700
▁Verpflicht	-2701
stru	-2702
▁wichtigen	-2703
RO	-2704
ländern	-2705
▁Fuß	-2706
jahr	-2707
etten	-2708
▁kleine	-2709
flä	-2710
▁rund	-2711
▁Türk	-2712
▁ur	-2713
trauen	-2714
▁Wirtschafts	-2715
▁eff	-2716
▁bedeuten	-2717
inner	-2718
▁freu	-2719
andeln	-2720
▁Reise	-2721
▁gestellt	-2722
▁Verbindung	-2723
affung	-2724
alle	-2725
▁Vide	-2726
teilen	-2727
▁erhe	-2728
▁helfen	-2729
tember	-2730
▁Angebot	-2731
hafen	-2732
spräsident	-2733
▁erf	-2734
▁Stu	-2735
abon	-2736
tens	-2737
▁Mode	-2738
worten	-2739
▁Süd	-2740
▁vers	-2741
dien	-2742
▁Char	-2743
▁internationale	-2744
rachen	-2745
▁Beziehungen	-2746
▁beit	-2747
halte	-2748
lay	-2749
denken	-2750
▁Strand	-2751
▁Bevölkerung	-2752
ontro	-2753
▁star	-2754
▁War	-2755
▁automati	-2756
▁wunder	-2757
▁Internation	-2758
▁Mitarbeiter	-2759
▁Best	-2760
▁-,	-2761
räsidenten	-2762
▁Nutzung	-2763
äus	-2764
issabon	-2765
▁gerne	-2766
eichen	-2767
▁hätte	-2768
fahrt	-2769
▁jedes	-2770
echs	-2771
zunehmen	-2772
▁prak	-2773
▁Volk	-2774
▁Vereinigten	-2775
fragen	-2776
tex	-2777
grün	-2778
▁hinter	-2779
▁Landes	-2780
▁Lissabon	-2781
folge	-2782
ct	-2783
ehlen	-2784
▁organis	-2785
▁wegen	-2786
▁erhö	-2787
anien	-2788
50	-2789
▁gegenwär	-2790
▁Kontrolle	-2791
▁Univers	-2792
▁Urlaub	-2793
erreich	-2794
▁durchge	-2795
▁angem	-2796
▁Bitte	-2797
▁gelegen	-2798
eller	-2799
pflich	-2800
stag	-2801
▁bekommen	-2802
▁enthält	-2803
▁Türkei	-2804
▁Behörden	-2805
gangenen	-2806
▁Sicherheits	-2807
fäl	-2808
▁Damit	-2809
terne	-2810
▁Auswahl	-2811
igar	-2812
unt	-2813
▁Kampf	-2814
Fra	-2815
▁glob	-2816
anzös	-2817
haft	-2818
▁Geh	-2819
▁Fischerei	-2820
▁Notwend	-2821
▁auszu	-2822
▁Veranst	-2823
▁Binnenmarkt	-2824
▁Nord	-2825
IT	-2826
ennung	-2827
rägt	-2828
▁Kir	-2829
▁mehrere	-2830
30	-2831
kan	-2832
▁Eng	-2833
▁Information	-2834
obei	-2835
▁Verbesserung	-2836
▁Jan	-2837
gliche	-2838
ünd	-2839
▁Ru	-2840
▁Wochen	-2841
alter	-2842
enten	-2843
▁Pak	-2844
▁Augen	-2845
▁wichtigsten	-2846
onnen	-2847
▁ganze	-2848
nissen	-2849
nern	-2850
ördern	-2851
schließend	-2852
stoff	-2853
ssystem	-2854
▁Juni	-2855
▁geeig	-2856
▁lok	-2857
▁gab	-2858
▁Chr	-2859
zeugen	-2860
▁Sub	-2861
".	-2862
▁Forder	-2863
▁sag	-2864
▁nahe	-2865
▁Beitritt	-2866
▁kultur	-2867
▁region	-2868
vorschriften	-2869
▁akzep	-2870
▁Kop	-2871
gration	-2872
gesamt	-2873
▁verantwort	-2874
▁Aufenthalt	-2875
▁ermöglichen	-2876
▁Bef	-2877
wertungen	-2878
▁Berlin	-2879
sa	-2880
▁Ferien	-2881
▁Kar	-2882
zentr	-2883
rechend	-2884
▁ganzen	-2885
▁ruh	-2886
▁Währ	-2887
▁gere	-2888
AR	-2889
▁Prot	-2890
stelle	-2891
▁Hol	-2892
▁erlau	-2893
▁with	-2894
leistet	-2895
▁Rom	-2896
▁wobei	-2897
▁unabhäng	-2898
wurf	-2899
▁Zur	-2900
ilf	-2901
▁belie	-2902
splan	-2903
▁Verwendung	-2904
▁Gelegenheit	-2905
▁Gruppe	-2906
▁bleibt	-2907
inne	-2908
sy	-2909
berg	-2910
vention	-2911
▁Terror	-2912
ness	-2913
▁nachhal	-2914
▁garan	-2915
▁Fach	-2916
änden	-2917
oper	-2918
geh	-2919
ona	-2920
IS	-2921
techn	-2922
standen	-2923
einer	-2924
ausch	-2925
▁hinsichtlich	-2926
▁Herzen	-2927
rate	-2928
▁herr	-2929
▁Ris	-2930
▁Air	-2931
▁Russ	-2932
▁Arch	-2933
publik	-2934
▁2.	-2935
ments	-2936
▁abzu	-2937
ielle	-2938
feld	-2939
▁Design	-2940
▁Nov	-2941
▁Nacht	-2942
fordert	-2943
serv	-2944
öhn	-2945
▁Schaffung	-2946
za	-2947
formen	-2948
ution	-2949
ringt	-2950
aufen	-2951
▁Gast	-2952
▁verwenden	-2953
länder	-2954
ätigkeit	-2955
▁bil	-2956
bringen	-2957
wür	-2958
ingt	-2959
▁Aktion	-2960
▁individu	-2961
klus	-2962
▁zeigen	-2963
wand	-2964
tiger	-2965
▁völlig	-2966
▁integr	-2967
▁Far	-2968
▁Staats	-2969
▁Anfang	-2970
▁Gu	-2971
bin	-2972
▁Team	-2973
▁Such	-2974
▁Landwirtschaft	-2975
▁meinem	-2976
cl	-2977
▁Ergebnisse	-2978
▁Wein	-2979
deu	-2980
ürf	-2981
▁geschlossen	-2982
▁Vertre	-2983
ales	-2984
▁rel	-2985
tliche	-2986
▁2000	-2987
▁Schwei	-2988
▁Notwendigkeit	-2989
▁Darüber	-2990
▁spielen	-2991
▁Ka	-2992
▁Woche	-2993
▁Dir	-2994
▁verbessern	-2995
▁künf	-2996
▁Bal	-2997
sphäre	-2998
itel	-2999
▁guten	-3000
▁schriftlich	-3001
führen	-3002
▁Prior	-3003
▁derzeit	-3004
ählt	-3005
schinen	-3006
▁heu	-3007
prom	-3008
▁Liefer	-3009
▁Pra	-3010
▁tradition	-3011
▁gesp	-3012
terin	-3013
örper	-3014
reibung	-3015
▁Jugend	-3016
▁Anzahl	-3017
sei	-3018
künf	-3019
▁Zwe	-3020
▁disku	-3021
▁Zeitpunkt	-3022
▁Lösungen	-3023
-0	-3024
▁Kern	-3025
▁verfüg	-3026
▁Vis	-3027
▁Anst	-3028
▁Änderungen	-3029
stitution	-3030
ützen	-3031
▁Tage	-3032
ON	-3033
▁verfügen	-3034
griffen	-3035
▁zunächst	-3036
orf	-3037
sprogramm	-3038
▁erk	-3039
▁soziale	-3040
▁irgend	-3041
▁gehören	-3042
▁Beschäftigung	-3043
ausschuss	-3044
ows	-3045
.000	-3046
ood	-3047
sprechen	-3048
▁Rad	-3049
▁Schl	-3050
▁Les	-3051
öffnet	-3052
▁großer	-3053
▁Sit	-3054
bedingungen	-3055
AS	-3056
▁König	-3057
gef	-3058
▁eigene	-3059
▁stark	-3060
verständlich	-3061
▁trotz	-3062
kennen	-3063
▁Konferenz	-3064
▁gesamte	-3065
▁Integration	-3066
▁Mai	-3067
▁Stellung	-3068
▁vorhanden	-3069
part	-3070
ernen	-3071
uld	-3072
itionen	-3073
▁gleichen	-3074
aar	-3075
▁angemessen	-3076
äte	-3077
leisten	-3078
mäßig	-3079
▁Ter	-3080
▁hotel	-3081
▁Neben	-3082
▁ständ	-3083
okoll	-3084
eister	-3085
buch	-3086
▁Italien	-3087
▁Reform	-3088
▁lässt	-3089
oppel	-3090
akter	-3091
▁fördern	-3092
eilen	-3093
cc	-3094
▁absol	-3095
▁Fehler	-3096
▁Frankreich	-3097
abei	-3098
▁Erfahrung	-3099
▁Kommissarin	-3100
ichtige	-3101
▁Gewalt	-3102
here	-3103
stimmen	-3104
▁Umgebung	-3105
▁bas	-3106
▁11	-3107
ission	-3108
▁Maß	-3109
lang	-3110
▁äußerst	-3111
gn	-3112
erseits	-3113
▁Führ	-3114
▁Einführung	-3115
ry	-3116
zeugt	-3117
▁Dabei	-3118
▁Sal	-3119
tifiz	-3120
äude	-3121
▁mus	-3122
ied	-3123
▁grundlegen	-3124
▁veröffent	-3125
mb	-3126
▁Erachten	-3127
▁sorgen	-3128
▁Online	-3129
▁Erachtens	-3130
urt	-3131
mut	-3132
▁Män	-3133
▁2006	-3134
▁elekt	-3135
▁Staat	-3136
▁Hinter	-3137
▁gra	-3138
unsch	-3139
sent	-3140
▁Standpunkt	-3141
erweise	-3142
▁eindeu	-3143
▁meines	-3144
▁Jul	-3145
itten	-3146
lüssel	-3147
maßnahmen	-3148
▁Sep	-3149
quen	-3150
armon	-3151
▁Gemeinsam	-3152
▁gewährleisten	-3153
ühm	-3154
annen	-3155
▁ausgestattet	-3156
▁häuf	-3157
▁somit	-3158
ana	-3159
▁gefähr	-3160
▁Vereinbar	-3161
sb	-3162
▁vert	-3163
bie	-3164
son	-3165
ular	-3166
dio	-3167
uar	-3168
hilfe	-3169
▁Lauf	-3170
▁Kor	-3171
▁Berg	-3172
tete	-3173
ourcen	-3174
stre	-3175
Fraktion	-3176
▁verstehen	-3177
▁Flughafen	-3178
2.	-3179
pfer	-3180
schließen	-3181
▁pl	-3182
▁Kommunik	-3183
▁Zw	-3184
ungsk	-3185
▁Familie	-3186
▁Sprache	-3187
▁beteil	-3188
▁verpflich	-3189
indust	-3190
▁verstär	-3191
▁vorgesehen	-3192
▁bestimmte	-3193
▁geführt	-3194
ivil	-3195
▁Mehrheit	-3196
▁zahlreiche	-3197
▁entwickeln	-3198
▁Material	-3199
daten	-3200
▁Inhalt	-3201
▁Abend	-3202
richten	-3203
▁Komprom	-3204
gessen	-3205
▁Benutzer	-3206
▁Position	-3207
ähn	-3208
▁Diskussion	-3209
▁bestimmten	-3210
▁tragen	-3211
▁room	-3212
vis	-3213
▁Bekämpfung	-3214
▁tatsächlich	-3215
dienst	-3216
uren	-3217
▁Krise	-3218
▁erhält	-3219
▁Ak	-3220
ule	-3221
spart	-3222
reng	-3223
▁leicht	-3224
▁Nieder	-3225
ilitär	-3226
▁del	-3227
-1	-3228
▁ca	-3229
▁Doch	-3230
▁gebracht	-3231
▁Imm	-3232
zeuge	-3233
▁Tele	-3234
undes	-3235
▁entde	-3236
▁Folgen	-3237
ahren	-3238
▁Kontakt	-3239
ßt	-3240
▁men	-3241
jekt	-3242
▁stattf	-3243
▁Stud	-3244
▁China	-3245
▁Öffent	-3246
hil	-3247
▁Dinge	-3248
▁Dez	-3249
▁erfolgreich	-3250
cker	-3251
▁Aktivitäten	-3252
▁ernst	-3253
▁Sicht	-3254
sprün	-3255
rägen	-3256
▁hohen	-3257
▁Wahr	-3258
▁Bestimmungen	-3259
▁198	-3260
▁Gesamt	-3261
▁He	-3262
ategorien	-3263
Sp	-3264
▁wider	-3265
▁zweite	-3266
▁Stunden	-3267
▁Überein	-3268
xis	-3269
▁Sor	-3270
▁sagte	-3271
anische	-3272
▁Wachstum	-3273
lose	-3274
lexib	-3275
▁Bad	-3276
▁Punkte	-3277
industrie	-3278
legung	-3279
▁Initiative	-3280
▁Höhe	-3281
ril	-3282
▁Fortschritte	-3283
ons	-3284
▁Tat	-3285
önen	-3286
▁)	-3287
▁Russland	-3288
bewertungen	-3289
ta	-3290
▁außerdem	-3291
pen	-3292
gren	-3293
anlage	-3294
▁Dezember	-3295
ziehung	-3296
▁Kn	-3297
mehr	-3298
▁Computer	-3299
▁vern	-3300
last	-3301
▁bein	-3302
▁Bi	-3303
▁Dokument	-3304
▁anderer	-3305
▁Minister	-3306
möglichkeiten	-3307
diglich	-3308
▁erster	-3309
▁aufgenommen	-3310
▁größten	-3311
▁bestä	-3312
▁September	-3313
reib	-3314
▁Volks	-3315
▁gemäß	-3316
▁Stelle	-3317
▁lediglich	-3318
istr	-3319
▁regel	-3320
▁betroffen	-3321
volle	-3322
▁Okt	-3323
▁Während	-3324
▁woll	-3325
▁wirksam	-3326
▁Präsidentschaft	-3327
▁Absch	-3328
▁Sommer	-3329
que	-3330
gerung	-3331
▁Stabilität	-3332
hältnis	-3333
▁genießen	-3334
▁Personal	-3335
▁Car	-3336
ration	-3337
Re	-3338
▁Agr	-3339
▁Freiheit	-3340
▁Informations	-3341
EL	-3342
▁Eis	-3343
▁solchen	-3344
haupt	-3345
▁Sc	-3346
▁Innov	-3347
▁Küche	-3348
hung	-3349
arenz	-3350
▁Ratspräsident	-3351
etter	-3352
▁versuchen	-3353
▁Ober	-3354
▁Del	-3355
▁Medien	-3356
▁he	-3357
▁einzigar	-3358
use	-3359
▁su	-3360
gesellschaft	-3361
▁neuer	-3362
Sch	-3363
▁Anforderungen	-3364
wertung	-3365
▁Gruppen	-3366
▁zweiten	-3367
tensi	-3368
altet	-3369
▁Muse	-3370
▁Frühstück	-3371
▁Jahrhundert	-3372
▁Basis	-3373
entwick	-3374
▁Anwend	-3375
▁40	-3376
▁Erklärung	-3377
▁Vorschriften	-3378
ande	-3379
▁morgen	-3380
▁insgesamt	-3381
▁jeweil	-3382
▁dadurch	-3383
▁Pe	-3384
▁Aufmerksam	-3385
sektor	-3386
▁Anfrage	-3387
unternehmen	-3388
▁Prü	-3389
utter	-3390
▁Preise	-3391
▁erfahren	-3392
▁vertreten	-3393
▁Test	-3394
geber	-3395
riterien	-3396
räum	-3397
▁Wi	-3398
▁März	-3399
▁Metho	-3400
▁obwohl	-3401
▁Apart	-3402
▁vorge	-3403
▁Nur	-3404
uman	-3405
▁Solid	-3406
ief	-3407
▁Host	-3408
ogra	-3409
▁Auto	-3410
▁Tagesordnung	-3411
gesetz	-3412
▁lin	-3413
▁leider	-3414
▁Aufmerksamkeit	-3415
abkommen	-3416
▁Bereiche	-3417
plan	-3418
▁Konfl	-3419
▁alten	-3420
ulti	-3421
istische	-3422
falt	-3423
▁Pass	-3424
▁See	-3425
▁Film	-3426
▁erheb	-3427
▁hohe	-3428
▁allein	-3429
▁Dien	-3430
zuführen	-3431
▁Transparenz	-3432
reit	-3433
▁schle	-3434
alisiert	-3435
▁Bro	-3436
▁beschäf	-3437
▁Arbeitnehmer	-3438
▁Berichts	-3439
▁schließlich	-3440
chter	-3441
▁Bilder	-3442
▁Bildung	-3443
neut	-3444
▁Nor	-3445
minister	-3446
▁ändern	-3447
schw	-3448
▁Handels	-3449
▁Instrument	-3450
oment	-3451
▁keiner	-3452
▁einzige	-3453
▁Macht	-3454
▁Einf	-3455
▁Empfeh	-3456
▁einschließlich	-3457
ath	-3458
▁Bew	-3459
▁forder	-3460
▁eigentlich	-3461
▁it	-3462
die	-3463
▁Gefahr	-3464
▁Sen	-3465
ologien	-3466
▁eingesetzt	-3467
▁min	-3468
▁Oktober	-3469
▁2005	-3470
▁wirtschaftliche	-3471
▁vergangenen	-3472
altungs	-3473
▁kannst	-3474
▁durchgeführt	-3475
▁Gipf	-3476
▁kri	-3477
enntnis	-3478
▁Aust	-3479
freund	-3480
rang	-3481
▁Red	-3482
▁Ress	-3483
iko	-3484
▁Brü	-3485
▁benötigen	-3486
▁Januar	-3487
sprü	-3488
illa	-3489
▁Mont	-3490
▁bri	-3491
AD	-3492
▁Vertrauen	-3493
▁ö	-3494
▁Auftrag	-3495
iete	-3496
▁berühm	-3497
▁Programme	-3498
get	-3499
▁Entscheidungen	-3500
ierter	-3501
▁Mark	-3502
▁betreffen	-3503
▁Tod	-3504
drücklich	-3505
üge	-3506
▁genommen	-3507
ähl	-3508
▁halte	-3509
to	-3510
▁französ	-3511
▁bezüglich	-3512
▁gek	-3513
▁europäischer	-3514
▁effek	-3515
TO	-3516
▁Firma	-3517
lös	-3518
▁Städ	-3519
▁erwarten	-3520
▁Meine	-3521
▁Install	-3522
AL	-3523
▁Auffassung	-3524
▁leg	-3525
cel	-3526
zeichnung	-3527
▁Sinne	-3528
mbH	-3529
sätze	-3530
▁kennen	-3531
▁wenige	-3532
▁Wirk	-3533
fik	-3534
▁suchen	-3535
wortern	-3536
▁begrüße	-3537
ützt	-3538
sprozess	-3539
▁Ele	-3540
▁Ca	-3541
Mit	-3542
▁Kan	-3543
rad	-3544
▁Stär	-3545
▁Wohl	-3546
▁Lehr	-3547
tierung	-3548
▁Verkehrs	-3549
▁Ol	-3550
▁defin	-3551
▁AG	-3552
▁Innen	-3553
▁Regierungen	-3554
▁Untersuch	-3555
▁med	-3556
▁ähn	-3557
▁leisten	-3558
wen	-3559
ull	-3560
▁Po	-3561
unge	-3562
erung	-3563
lichkeiten	-3564
▁freund	-3565
▁Krieg	-3566
dam	-3567
▁Straßen	-3568
▁Stre	-3569
▁gefunden	-3570
▁Projekte	-3571
▁Gründen	-3572
▁Kri	-3573
▁serv	-3574
äst	-3575
▁konzentr	-3576
▁Bank	-3577
achsen	-3578
stellten	-3579
astrop	-3580
bank	-3581
▁konnten	-3582
▁Gemeinschafts	-3583
ograf	-3584
▁Nr	-3585
▁GmbH	-3586
ängt	-3587
▁überprü	-3588
fordern	-3589
▁Agrar	-3590
▁unmittel	-3591
abil	-3592
.0	-3593
▁sofort	-3594
hoben	-3595
▁23	-3596
▁Bedürf	-3597
dat	-3598
ungsf	-3599
amb	-3600
rib	-3601
▁Prinzip	-3602
▁Ged	-3603
mosphäre	-3604
▁ursprün	-3605
▁Log	-3606
▁Dritt	-3607
▁kor	-3608
▁Öffentlichkeit	-3609
▁Juli	-3610
ammlung	-3611
▁Alt	-3612
▁scheint	-3613
▁entsprechenden	-3614
trem	-3615
▁frü	-3616
ünstler	-3617
▁treffen	-3618
▁übrigen	-3619
▁sonst	-3620
indest	-3621
ieht	-3622
US	-3623
▁belieb	-3624
▁hinzu	-3625
▁Grenzen	-3626
ace	-3627
mann	-3628
nungen	-3629
▁Vi	-3630
igur	-3631
▁2004	-3632
▁Ansatz	-3633
▁Rede	-3634
▁Sitz	-3635
▁Liber	-3636
▁by	-3637
▁Tem	-3638
▁Privat	-3639
▁Republik	-3640
▁Verf	-3641
▁Cas	-3642
▁Änderung	-3643
icherung	-3644
▁ausgezeich	-3645
▁vorzu	-3646
leitet	-3647
▁wichtiger	-3648
▁überw	-3649
achtung	-3650
▁Fe	-3651
▁erneut	-3652
tien	-3653
▁Schwier	-3654
▁install	-3655
▁Sitzung	-3656
▁Solidarität	-3657
▁häufig	-3658
▁vergessen	-3659
era	-3660
▁Stat	-3661
▁Aufgaben	-3662
▁Sache	-3663
▁geschaffen	-3664
itor	-3665
ehe	-3666
▁Ir	-3667
▁Nationen	-3668
▁zuge	-3669
vol	-3670
▁Gemein	-3671
besch	-3672
kraft	-3673
les	-3674
▁geworden	-3675
ried	-3676
schlag	-3677
ada	-3678
▁entsprechend	-3679
ummer	-3680
▁Spanien	-3681
▁Beteil	-3682
izin	-3683
ünsche	-3684
▁weder	-3685
forderung	-3686
iden	-3687
zusetzen	-3688
▁aktuellen	-3689
AP	-3690
ühungen	-3691
oy	-3692
▁erfolgt	-3693
stein	-3694
rah	-3695
▁bringt	-3696
▁eng	-3697
teten	-3698
▁Windows	-3699
vel	-3700
otor	-3701
▁beein	-3702
▁kur	-3703
ören	-3704
▁Wunsch	-3705
▁aufzu	-3706
▁Bürgerinnen	-3707
tag	-3708
▁Wider	-3709
svor	-3710
▁begrüßen	-3711
eisen	-3712
▁Beruf	-3713
▁Bürgern	-3714
tit	-3715
setzt	-3716
▁sieht	-3717
reig	-3718
▁wiederhol	-3719
iar	-3720
▁Tr	-3721
rist	-3722
▁beant	-3723
▁Linie	-3724
▁Regeln	-3725
▁behandelt	-3726
▁com	-3727
/200	-3728
▁Agen	-3729
▁Aller	-3730
▁Sektor	-3731
▁Koh	-3732
▁Bahn	-3733
▁Garten	-3734
izi	-3735
räfte	-3736
leb	-3737
▁Gott	-3738
▁beitragen	-3739
▁ad	-3740
▁Schla	-3741
stände	-3742
ssi	-3743
▁Tagen	-3744
▁diejenigen	-3745
▁anderem	-3746
▁Vertrags	-3747
▁zeit	-3748
▁besondere	-3749
▁Gr	-3750
ierenden	-3751
dresse	-3752
rechts	-3753
zeiten	-3754
bien	-3755
redit	-3756
gelt	-3757
ong	-3758
▁moder	-3759
schlagen	-3760
▁Bundes	-3761
anc	-3762
ins	-3763
Die	-3764
out	-3765
▁ihres	-3766
▁genannten	-3767
▁Zentr	-3768
▁National	-3769
▁Ereig	-3770
▁very	-3771
▁Heute	-3772
▁getan	-3773
rael	-3774
▁EUR	-3775
▁Restaurants	-3776
▁Gebäude	-3777
▁Fällen	-3778
▁Zus	-3779
▁West	-3780
▁Home	-3781
ürger	-3782
▁Monaten	-3783
▁Protokoll	-3784
▁Tab	-3785
▁Unternehmens	-3786
▁Kur	-3787
▁Golf	-3788
▁Behandlung	-3789
länd	-3790
▁Ist	-3791
▁Lassen	-3792
▁Atmosphäre	-3793
▁wissenschaft	-3794
lleg	-3795
ikt	-3796
setzungen	-3797
▁ziehen	-3798
▁angesichts	-3799
▁usw	-3800
▁jün	-3801
System	-3802
▁zahlreichen	-3803
hindern	-3804
OR	-3805
▁berücksichtigt	-3806
unk	-3807
▁unterb	-3808
▁nimmt	-3809
losen	-3810
▁optim	-3811
ologischen	-3812
innern	-3813
etail	-3814
▁fordern	-3815
schung	-3816
▁Koordin	-3817
▁November	-3818
▁drin	-3819
▁Analy	-3820
bol	-3821
▁vorher	-3822
ous	-3823
▁Veränder	-3824
▁New	-3825
▁Doppel	-3826
▁Folge	-3827
▁berech	-3828
▁länger	-3829
tiges	-3830
verfahren	-3831
gebiet	-3832
▁Erfahrungen	-3833
▁erfüllen	-3834
▁günst	-3835
▁stimmen	-3836
iness	-3837
heim	-3838
▁Aspekte	-3839
ork	-3840
▁April	-3841
▁welches	-3842
riff	-3843
▁Organisation	-3844
▁Erw	-3845
komm	-3846
▁Rech	-3847
amerik	-3848
sport	-3849
▁II	-3850
ieg	-3851
lass	-3852
igin	-3853
▁are	-3854
▁Kre	-3855
▁sozial	-3856
▁Nachbar	-3857
frastruktur	-3858
▁säm	-3859
▁mitt	-3860
hafte	-3861
altungen	-3862
▁Grö	-3863
▁000	-3864
▁Präsidenten	-3865
iveau	-3866
▁Telefon	-3867
omen	-3868
▁erklärt	-3869
▁Gerichts	-3870
indern	-3871
bezogen	-3872
wasser	-3873
DE	-3874
▁beste	-3875
italien	-3876
▁Beginn	-3877
▁perf	-3878
ament	-3879
▁Post	-3880
▁stets	-3881
ownlo	-3882
schau	-3883
▁Praxis	-3884
▁Finanzierung	-3885
je	-3886
▁zuständ	-3887
▁Bemühungen	-3888
▁wünschen	-3889
▁richtige	-3890
gruppe	-3891
▁einheit	-3892
▁Spieler	-3893
▁arbei	-3894
▁Pap	-3895
▁Tur	-3896
▁versucht	-3897
▁Transport	-3898
▁typ	-3899
ütz	-3900
▁Fisch	-3901
▁wählen	-3902
▁gerecht	-3903
▁Gel	-3904
▁Datei	-3905
▁jeweiligen	-3906
auen	-3907
ox	-3908
til	-3909
▁öffentliche	-3910
▁äl	-3911
vollen	-3912
▁sechs	-3913
▁ko	-3914
haben	-3915
▁eher	-3916
fert	-3917
▁Öst	-3918
▁verpflichtet	-3919
▁Investitionen	-3920
▁speziell	-3921
eitet	-3922
wesen	-3923
ction	-3924
aktion	-3925
fläche	-3926
▁getroffen	-3927
▁Mag	-3928
▁Waren	-3929
▁Minder	-3930
uff	-3931
▁Paris	-3932
▁verd	-3933
ffizienz	-3934
▁Rel	-3935
▁Ressourcen	-3936
▁etc	-3937
▁historischen	-3938
▁folgt	-3939
▁eingeb	-3940
bauen	-3941
legten	-3942
ellschaften	-3943
▁Werte	-3944
▁hei	-3945
rid	-3946
▁Angelegenheit	-3947
änge	-3948
▁prü	-3949
▁paar	-3950
umenten	-3951
▁Armut	-3952
▁verhindern	-3953
▁gewesen	-3954
▁Bot	-3955
gere	-3956
mö	-3957
dingt	-3958
dlich	-3959
▁2003	-3960
utt	-3961
▁Go	-3962
“,	-3963
▁Ihres	-3964
▁Bestand	-3965
ämpfen	-3966
▁spezif	-3967
tert	-3968
emente	-3969
▁technischen	-3970
▁Ander	-3971
oder	-3972
▁persönlichen	-3973
meer	-3974
▁hätten	-3975
▁erlaubt	-3976
▁Angelegenheiten	-3977
▁Zweitens	-3978
▁from	-3979
▁Unterk	-3980
▁Versuch	-3981
frika	-3982
▁Glob	-3983
▁vollständig	-3984
▁Schritte	-3985
▁befür	-3986
▁überhaupt	-3987
ipp	-3988
:00	-3989
ld	-3990
fter	-3991
▁konkre	-3992
▁Bü	-3993
akte	-3994
kur	-3995
▁schützen	-3996
▁ren	-3997
▁automatisch	-3998
▁folgenden	-3999
glied	-4000
roll	-4001
ynam	-4002
▁Technologie	-4003
▁Dazu	-4004
▁hervorragen	-4005
ssen	-4006
▁innov	-4007
▁Rot	-4008
▁modernen	-4009
▁Aug	-4010
▁Einrichtung	-4011
orgt	-4012
reut	-4013
▁beginnen	-4014
▁erinnern	-4015
tes	-4016
▁außerhalb	-4017
fonds	-4018
▁not	-4019
sfähigkeit	-4020
▁angen	-4021
barer	-4022
▁neues	-4023
con	-4024
▁zunehmen	-4025
ränkt	-4026
sitzen	-4027
▁ausschließlich	-4028
▁Sehen	-4029
by	-4030
gül	-4031
▁grün	-4032
iß	-4033
erkennung	-4034
▁60	-4035
▁uner	-4036
▁Server	-4037
▁ter	-4038
▁Leit	-4039
hilfen	-4040
▁Dann	-4041
zur	-4042
tiver	-4043
▁Vertreter	-4044
▁Vergangen	-4045
OM	-4046
▁Gef	-4047
bieten	-4048
▁Terrorismus	-4049
▁verab	-4050
▁Voll	-4051
▁Annahme	-4052
▁Verwaltung	-4053
gruppen	-4054
▁gering	-4055
▁verz	-4056
▁größer	-4057
▁mensch	-4058
▁verh	-4059
▁Berat	-4060
▁Stellen	-4061
ehnt	-4062
▁bitten	-4063
▁größte	-4064
hop	-4065
▁Vergleich	-4066
▁ehr	-4067
gest	-4068
▁offiz	-4069
liegenden	-4070
ano	-4071
uhr	-4072
▁Lux	-4073
▁que	-4074
▁Natürlich	-4075
▁you	-4076
uk	-4077
othe	-4078
▁verantwortlich	-4079
▁Schwer	-4080
▁fal	-4081
▁Sonder	-4082
▁deine	-4083
▁verkauf	-4084
▁anerk	-4085
OS	-4086
▁Antrag	-4087
▁Opfer	-4088
achtet	-4089
immern	-4090
▁zehn	-4091
▁bald	-4092
▁illeg	-4093
▁Verteid	-4094
nungs	-4095
▁Ost	-4096
gerungen	-4097
ja	-4098
▁allgemeinen	-4099
▁heutigen	-4100
▁Bade	-4101
▁Winter	-4102
▁angeboten	-4103
▁präsen	-4104
▁Klein	-4105
rateg	-4106
▁erwartet	-4107
▁Spezial	-4108
▁italien	-4109
▁Acht	-4110
▁Tier	-4111
IP	-4112
▁form	-4113
▁Hinsicht	-4114
▁Wel	-4115
▁unten	-4116
etzung	-4117
▁deutschen	-4118
▁bessere	-4119
▁Einwander	-4120
▁person	-4121
▁Video	-4122
ison	-4123
▁Ausschuß	-4124
▁Wissenschaft	-4125
▁Schwierigkeiten	-4126
heben	-4127
anach	-4128
▁à	-4129
ash	-4130
▁gesetz	-4131
▁erweiter	-4132
▁warum	-4133
▁Vergangenheit	-4134
Ho	-4135
ört	-4136
▁Firmen	-4137
▁verk	-4138
▁Mil	-4139
gehend	-4140
Ber	-4141
spe	-4142
rengungen	-4143
▁€	-4144
ines	-4145
seh	-4146
▁Österreich	-4147
▁Nun	-4148
▁Wann	-4149
▁früh	-4150
▁Tätigkeit	-4151
▁Zivil	-4152
11	-4153
▁Mann	-4154
zut	-4155
TM	-4156
▁endlich	-4157
zeugung	-4158
▁Schiff	-4159
▁darstellt	-4160
organis	-4161
▁27	-4162
frieden	-4163
▁gesehen	-4164
▁kam	-4165
▁länd	-4166
tritt	-4167
ire	-4168
▁Zeichen	-4169
▁kür	-4170
ica	-4171
▁komfort	-4172
▁ausger	-4173
ary	-4174
ci	-4175
▁Ausgang	-4176
▁langfrist	-4177
▁Eigent	-4178
indungen	-4179
▁seines	-4180
▁setzt	-4181
sser	-4182
▁benutzt	-4183
▁Soll	-4184
resse	-4185
▁Gesprä	-4186
ildet	-4187
ördert	-4188
zenz	-4189
▁begl	-4190
▁zumindest	-4191
▁übernehmen	-4192
dete	-4193
.)	-4194
▁Management	-4195
▁strateg	-4196
itieren	-4197
▁sta	-4198
▁reich	-4199
▁Pan	-4200
ftung	-4201
▁Modell	-4202
▁Schlüssel	-4203
▁Detail	-4204
▁Versch	-4205
ai	-4206
▁genannt	-4207
▁Erd	-4208
▁vorgelegt	-4209
▁Zustimmung	-4210
▁Get	-4211
zeichen	-4212
ink	-4213
▁bemü	-4214
zeigen	-4215
▁Viele	-4216
▁Dis	-4217
▁dringend	-4218
▁Allerdings	-4219
werte	-4220
page	-4221
▁1,	-4222
▁eingehen	-4223
▁mal	-4224
▁beschlossen	-4225
▁Sign	-4226
▁zudem	-4227
▁Verkauf	-4228
▁genug	-4229
innt	-4230
▁rie	-4231
▁genutzt	-4232
endet	-4233
▁ph	-4234
▁letzte	-4235
▁Verpflichtungen	-4236
▁profession	-4237
▁Einige	-4238
▁Arbeitsplätze	-4239
▁umfang	-4240
▁natür	-4241
arch	-4242
emal	-4243
▁Archite	-4244
▁Parteien	-4245
▁Wei	-4246
lichung	-4247
▁Hause	-4248
reite	-4249
ierende	-4250
losigkeit	-4251
▁Falls	-4252
▁oben	-4253
oph	-4254
▁Gest	-4255
▁beru	-4256
tt	-4257
reiber	-4258
ohnung	-4259
▁Sym	-4260
schreiten	-4261
▁Nachfol	-4262
▁Durchführung	-4263
lock	-4264
▁angegeben	-4265
▁Forschungs	-4266
▁entgegen	-4267
▁Agentur	-4268
▁Kommunikation	-4269
▁Anstrengungen	-4270
stattung	-4271
▁Kos	-4272
▁eindeutig	-4273
▁untern	-4274
roso	-4275
▁Erstens	-4276
ites	-4277
weder	-4278
ängen	-4279
▁unbedingt	-4280
▁Cor	-4281
▁Exper	-4282
▁danke	-4283
▁elektron	-4284
EG	-4285
▁sel	-4286
▁Leute	-4287
▁Heim	-4288
▁Besonder	-4289
oben	-4290
Ar	-4291
gewiesen	-4292
ückw	-4293
▁Mitteilung	-4294
stoffe	-4295
▁Mitgliedstaat	-4296
▁stärker	-4297
▁197	-4298
züg	-4299
▁Verfassung	-4300
spunkt	-4301
▁zusätzliche	-4302
▁berücksichtigen	-4303
▁Ed	-4304
▁Anerkennung	-4305
tere	-4306
▁Kriterien	-4307
▁verurs	-4308
▁Prozent	-4309
▁*	-4310
▁intensi	-4311
wind	-4312
▁Falle	-4313
▁hinweisen	-4314
▁Produkten	-4315
ologische	-4316
▁Vereinbarung	-4317
IC	-4318
ehrte	-4319
▁entspricht	-4320
▁gesetzt	-4321
▁überzeugt	-4322
▁Club	-4323
liefer	-4324
zeichnen	-4325
▁Don	-4326
figur	-4327
schine	-4328
ise	-4329
▁zukünf	-4330
▁fe	-4331
alismus	-4332
▁zufrieden	-4333
▁herunter	-4334
▁stand	-4335
scheinlich	-4336
▁sinn	-4337
▁bilden	-4338
▁Organisationen	-4339
▁Eind	-4340
ulieren	-4341
▁Überwach	-4342
▁produz	-4343
99	-4344
▁Gesundheits	-4345
oking	-4346
▁hochwer	-4347
digt	-4348
gebote	-4349
▁Karte	-4350
preis	-4351
karte	-4352
anlagen	-4353
▁verfügbar	-4354
.00	-4355
▁voraus	-4356
▁moderne	-4357
rug	-4358
SE	-4359
sätz	-4360
▁Beschäftig	-4361
▁privaten	-4362
▁Holz	-4363
▁Mitte	-4364
▁minde	-4365
▁Völker	-4366
seite	-4367
▁entschieden	-4368
ript	-4369
▁erwähnt	-4370
▁Sprachen	-4371
▁angesprochen	-4372
ownload	-4373
zeption	-4374
ko	-4375
ars	-4376
▁Einsch	-4377
▁Licht	-4378
▁entsprechende	-4379
▁jüng	-4380
wenden	-4381
▁Bis	-4382
▁sen	-4383
itzt	-4384
▁jähr	-4385
▁Termin	-4386
..."	-4387
▁gesprochen	-4388
▁Fer	-4389
▁euch	-4390
▁Besucher	-4391
fil	-4392
▁Ord	-4393
Programm	-4394
swür	-4395
lern	-4396
tic	-4397
quem	-4398
▁Abschluss	-4399
▁entstehen	-4400
service	-4401
▁Inhalte	-4402
▁mehreren	-4403
fälle	-4404
ständen	-4405
▁Konzept	-4406
▁exist	-4407
ards	-4408
will	-4409
NG	-4410
▁effizien	-4411
mack	-4412
▁besonderen	-4413
ots	-4414
▁amerik	-4415
▁Erk	-4416
ruf	-4417
pack	-4418
▁Mün	-4419
▁mittel	-4420
▁80	-4421
▁Trans	-4422
▁benutzen	-4423
uropa	-4424
▁beide	-4425
▁Komfort	-4426
▁Sw	-4427
ager	-4428
ices	-4429
alk	-4430
wachsen	-4431
▁Kompromiss	-4432
▁gegrün	-4433
▁Regierungs	-4434
alit	-4435
▁mindestens	-4436
ball	-4437
▁Ins	-4438
▁Mio	-4439
▁Ausbildung	-4440
▁Site	-4441
▁eingerichtet	-4442
▁größere	-4443
eiz	-4444
▁jem	-4445
▁online	-4446
▁Anspruch	-4447
ara	-4448
ET	-4449
ect	-4450
▁dig	-4451
äne	-4452
▁Bemerk	-4453
zieht	-4454
▁Dom	-4455
sse	-4456
▁Rechn	-4457
how	-4458
▁Hintergrund	-4459
fühl	-4460
▁wundersch	-4461
▁geeignet	-4462
wirken	-4463
▁Beweg	-4464
▁Boden	-4465
▁freuen	-4466
unkten	-4467
▁Körper	-4468
▁Unterkategorien	-4469
▁Vorber	-4470
▁Idee	-4471
▁Kons	-4472
▁ehemal	-4473
▁prüfen	-4474
mel	-4475
▁Einkauf	-4476
▁Tre	-4477
▁Kauf	-4478
▁legen	-4479
▁max	-4480
▁dra	-4481
ungsantrag	-4482
▁sicherzustellen	-4483
▁erreich	-4484
dest	-4485
ichtigung	-4486
letzt	-4487
▁Schlaf	-4488
▁ergreifen	-4489
▁Flü	-4490
▁gezeigt	-4491
▁Kenntnis	-4492
▁bezahl	-4493
Un	-4494
▁Lond	-4495
stechn	-4496
▁festgelegt	-4497
▁Verhalten	-4498
achte	-4499
▁Homepage	-4500
▁Hoff	-4501
▁neg	-4502
▁erzielt	-4503
▁Aufnahme	-4504
läuf	-4505
▁Zwischen	-4506
▁Lebensmittel	-4507
▁wert	-4508
▁transp	-4509
▁Elekt	-4510
▁loc	-4511
ors	-4512
▁human	-4513
gewöhn	-4514
▁bewusst	-4515
see	-4516
ini	-4517
▁Krank	-4518
▁Sü	-4519
rien	-4520
▁Feb	-4521
▁reag	-4522
▁wesentlich	-4523
▁Sto	-4524
deten	-4525
haften	-4526
▁derzei	-4527
▁bestehenden	-4528
ograph	-4529
▁eleg	-4530
eta	-4531
▁Zunächst	-4532
▁notwendigen	-4533
▁Milliar	-4534
▁Engl	-4535
reibt	-4536
▁zuletzt	-4537
▁Systems	-4538
▁beziehen	-4539
▁Funktionen	-4540
iew	-4541
▁Grie	-4542
atik	-4543
▁Schaden	-4544
▁Mod	-4545
▁Reserv	-4546
▁Zeitraum	-4547
▁Trotz	-4548
langt	-4549
mär	-4550
▁zug	-4551
▁erkennen	-4552
mand	-4553
ake	-4554
aktiv	-4555
▁Barcel	-4556
▁Richtlinien	-4557
spiele	-4558
▁August	-4559
▁Pati	-4560
▁geändert	-4561
jekte	-4562
▁akzeptieren	-4563
▁Up	-4564
▁no	-4565
reichend	-4566
una	-4567
▁erfüllt	-4568
afft	-4569
▁Start	-4570
▁Dateien	-4571
auern	-4572
▁Kooper	-4573
ünsch	-4574
▁PC	-4575
kra	-4576
andid	-4577
▁Altern	-4578
▁umgesetzt	-4579
▁Dro	-4580
swert	-4581
räger	-4582
iertel	-4583
▁Kredit	-4584
▁Engagement	-4585
▁fahren	-4586
▁jederzeit	-4587
▁aktuelle	-4588
▁Leg	-4589
laufen	-4590
bad	-4591
irm	-4592
▁Sonnen	-4593
rahmen	-4594
▁staat	-4595
old	-4596
▁as	-4597
▁3.	-4598
▁Anp	-4599
▁ind	-4600
▁positiv	-4601
ränk	-4602
▁kontroll	-4603
▁Zweck	-4604
▁reduz	-4605
▁Freu	-4606
ime	-4607
werke	-4608
rig	-4609
▁lesen	-4610
▁Jed	-4611
▁demokratischen	-4612
▁gener	-4613
▁gemüt	-4614
verkehrs	-4615
▁hoffen	-4616
äden	-4617
▁Partnerschaft	-4618
flug	-4619
führer	-4620
rücken	-4621
▁Vorteile	-4622
izei	-4623
laus	-4624
▁Organ	-4625
▁kaum	-4626
ón	-4627
▁angezeigt	-4628
etzungen	-4629
▁extrem	-4630
ischem	-4631
▁nö	-4632
▁Ven	-4633
▁mag	-4634
▁Meter	-4635
▁Vielfalt	-4636
test	-4637
minist	-4638
igh	-4639
leisch	-4640
▁Entsch	-4641
▁do	-4642
▁2002	-4643
▁And	-4644
▁sicherlich	-4645
seits	-4646
▁Grundsatz	-4647
▁übernachten	-4648
▁Ern	-4649
▁CD	-4650
▁bl	-4651
oss	-4652
▁leich	-4653
ancen	-4654
▁Bud	-4655
luß	-4656
meld	-4657
▁Immobil	-4658
▁Will	-4659
ester	-4660
▁dienen	-4661
▁Konz	-4662
▁Waffen	-4663
politi	-4664
▁anderes	-4665
▁Et	-4666
▁Abschließend	-4667
▁nachdem	-4668
pft	-4669
alls	-4670
▁land	-4671
12	-4672
tischer	-4673
▁Allgem	-4674
▁empfehlen	-4675
▁bestimmt	-4676
▁finanziellen	-4677
▁+	-4678
▁Währung	-4679
▁Einfluss	-4680
▁Nutzen	-4681
▁Kind	-4682
▁gleiche	-4683
▁Tel	-4684
▁Einrichtungen	-4685
▁verf	-4686
▁Nahr	-4687
▁196	-4688
▁Charakter	-4689
▁dam	-4690
▁Haltung	-4691
▁Mensch	-4692
▁Arbeiten	-4693
bew	-4694
▁politisch	-4695
▁vereinbar	-4696
ppen	-4697
ava	-4698
aust	-4699
▁Fran	-4700
plätze	-4701
sein	-4702
▁Monate	-4703
▁Lu	-4704
▁Stil	-4705
räume	-4706
▁stimme	-4707
po	-4708
▁Febru	-4709
sicherheit	-4710
▁Sil	-4711
▁Kindern	-4712
▁Partei	-4713
▁Kritik	-4714
▁Well	-4715
ption	-4716
ärm	-4717
▁Christ	-4718
rik	-4719
if	-4720
▁London	-4721
▁Suche	-4722
ling	-4723
▁nationale	-4724
▁My	-4725
▁ausdrücklich	-4726
systeme	-4727
▁stattfinden	-4728
▁that	-4729
tigkeiten	-4730
äuser	-4731
bil	-4732
ssel	-4733
▁Obwohl	-4734
▁besuchen	-4735
▁füh	-4736
ohlen	-4737
▁Zudem	-4738
▁gelangen	-4739
▁freien	-4740
▁Netzwerk	-4741
räf	-4742
▁erstellt	-4743
▁glauben	-4744
▁Schließlich	-4745
▁ergän	-4746
▁lösen	-4747
▁Entwurf	-4748
werten	-4749
▁Wahlen	-4750
▁feh	-4751
▁Straße	-4752
▁Technologien	-4753
▁Hafen	-4754
▁TV	-4755
▁aufmerksam	-4756
▁Abgeordnete	-4757
▁Alb	-4758
fachen	-4759
▁technische	-4760
▁Camp	-4761
▁süd	-4762
▁Fortschritt	-4763
ungsverfahren	-4764
vin	-4765
▁näh	-4766
▁Dritten	-4767
▁Mad	-4768
▁jeweils	-4769
han	-4770
ama	-4771
gangs	-4772
▁Forderung	-4773
▁informieren	-4774
▁Lo	-4775
▁betonen	-4776
▁1999	-4777
▁pass	-4778
glieder	-4779
spoliti	-4780
öpf	-4781
▁Stimme	-4782
▁verbessert	-4783
▁Arten	-4784
ohner	-4785
▁Absatz	-4786
Ab	-4787
▁welcher	-4788
▁ged	-4789
alifiz	-4790
▁Plen	-4791
istan	-4792
▁vermeiden	-4793
demokra	-4794
▁Anti	-4795
▁Frem	-4796
AC	-4797
ish	-4798
qualität	-4799
▁Just	-4800
tierten	-4801
eicher	-4802
▁erzielen	-4803
▁ständig	-4804
▁liebe	-4805
▁Wege	-4806
swürdig	-4807
▁Webseite	-4808
▁Februar	-4809
gert	-4810
▁absolut	-4811
AM	-4812
▁Berichte	-4813
leistungen	-4814
▁Tro	-4815
▁IS	-4816
suchen	-4817
▁Motor	-4818
▁Chance	-4819
▁Mich	-4820
leistung	-4821
▁Menge	-4822
▁To	-4823
atist	-4824
▁Tor	-4825
▁konkrete	-4826
▁Ratsvor	-4827
enter	-4828
▁pol	-4829
pool	-4830
▁Vielen	-4831
▁Instrumente	-4832
issionen	-4833
haber	-4834
prüfung	-4835
▁Freund	-4836
peratur	-4837
▁Vorgehen	-4838
▁Dienste	-4839
konom	-4840
▁Schn	-4841
▁Osten	-4842
tierte	-4843
mension	-4844
▁Business	-4845
▁Ruhe	-4846
▁Sam	-4847
▁sagt	-4848
13	-4849
▁End	-4850
echan	-4851
▁Infrastruktur	-4852
▁Schweiz	-4853
▁freue	-4854
▁gefordert	-4855
▁2001	-4856
VD	-4857
ständigkeit	-4858
atisch	-4859
▁Griechen	-4860
▁darunter	-4861
int	-4862
▁Herz	-4863
▁Herstellung	-4864
artige	-4865
▁Titel	-4866
▁Initiativen	-4867
wagen	-4868
▁Moment	-4869
▁Tsch	-4870
▁Mor	-4871
▁komplett	-4872
▁nieder	-4873
EC	-4874
▁Phil	-4875
▁Angaben	-4876
ovo	-4877
▁entweder	-4878
▁braucht	-4879
▁Hauses	-4880
lands	-4881
▁Oper	-4882
▁hinzuf	-4883
▁22	-4884
▁wei	-4885
▁fragen	-4886
ähig	-4887
▁schwierig	-4888
▁gewährleistet	-4889
▁Flexib	-4890
▁Nah	-4891
▁Stellungnahme	-4892
▁28	-4893
way	-4894
▁gekommen	-4895
sh	-4896
/9	-4897
ziel	-4898
schul	-4899
sterdam	-4900
▁wollte	-4901
▁Maschinen	-4902
▁verwende	-4903
low	-4904
▁!	-4905
wandel	-4906
▁Entsp	-4907
lanzen	-4908
▁Sinn	-4909
▁Klicken	-4910
▁Verz	-4911
▁erfolgen	-4912
indert	-4913
▁Iden	-4914
▁Auss	-4915
▁Dr	-4916
▁Begriff	-4917
ulierung	-4918
▁Schön	-4919
▁anders	-4920
▁Wander	-4921
▁Ganz	-4922
▁kostenlos	-4923
alisieren	-4924
▁Konflikt	-4925
▁Vereinten	-4926
▁Fakt	-4927
sweise	-4928
▁Autom	-4929
▁lau	-4930
atoren	-4931
Dat	-4932
▁Bran	-4933
▁Gipfel	-4934
▁Super	-4935
ällt	-4936
eting	-4937
▁Regelung	-4938
▁Ass	-4939
▁klicken	-4940
▁Ther	-4941
▁unternehmen	-4942
▁funktioniert	-4943
öffnen	-4944
▁Eisen	-4945
▁lernen	-4946
▁Mö	-4947
bericht	-4948
▁Heil	-4949
▁Worte	-4950
▁Leistungen	-4951
ED	-4952
swürdigkeiten	-4953
▁Gut	-4954
▁Ausgaben	-4955
▁Sy	-4956
va	-4957
▁Gewähr	-4958
▁einiger	-4959
▁Achtung	-4960
▁Amsterdam	-4961
loss	-4962
▁wenigen	-4963
teren	-4964
▁sauber	-4965
▁Band	-4966
▁Formen	-4967
bed	-4968
weiten	-4969
▁kommenden	-4970
▁26	-4971
statten	-4972
▁darstellen	-4973
▁Innovation	-4974
▁jene	-4975
tiken	-4976
▁Tradition	-4977
▁Sand	-4978
▁erleben	-4979
▁möglichst	-4980
▁Nachfolgend	-4981
▁abgeschlossen	-4982
▁erstellen	-4983
ated	-4984
▁klare	-4985
▁Königreich	-4986
▁Bereit	-4987
▁veröffentlicht	-4988
chmal	-4989
Hotel	-4990
▁Einhaltung	-4991
▁Teile	-4992
▁handeln	-4993
reak	-4994
▁sorg	-4995
▁Systeme	-4996
▁Aufbau	-4997
▁Lesung	-4998
▁Jetzt	-4999
itt	-5000
▁Rechnung	-5001
Aus	-5002
punkte	-5003
▁möglicherweise	-5004
▁Prioritäten	-5005
alog	-5006
.,	-5007
▁militär	-5008
▁Leider	-5009
▁teilweise	-5010
▁Gebieten	-5011
▁Gemeinsamen	-5012
▁Grenz	-5013
▁Asy	-5014
▁Wien	-5015
▁Verständ	-5016
▁lokalen	-5017
anen	-5018
▁500	-5019
ala	-5020
▁institution	-5021
▁Download	-5022
▁Unterkunft	-5023
▁21	-5024
riebe	-5025
▁Fel	-5026
▁Brüssel	-5027
▁Landwir	-5028
▁Terrasse	-5029
deck	-5030
▁Milliarden	-5031
▁IT	-5032
aup	-5033
▁Mob	-5034
▁bequem	-5035
▁Ac	-5036
kosten	-5037
▁Einigung	-5038
aner	-5039
▁Comm	-5040
▁trägt	-5041
jek	-5042
ppe	-5043
▁öst	-5044
▁ober	-5045
go	-5046
▁komplex	-5047
▁Mittelmeer	-5048
▁persönlich	-5049
▁Fen	-5050
▁wachsen	-5051
▁stärk	-5052
netz	-5053
eck	-5054
▁Barcelona	-5055
führten	-5056
▁benötigt	-5057
▁zuvor	-5058
▁ging	-5059
▁Bon	-5060
▁Can	-5061
iter	-5062
▁nor	-5063
fs	-5064
umm	-5065
▁geleistet	-5066
▁Fin	-5067
▁Meeres	-5068
nü	-5069
asen	-5070
▁Menschenrecht	-5071
gegeben	-5072
steht	-5073
▁Leistung	-5074
▁Ra	-5075
▁Texte	-5076
iven	-5077
▁dagegen	-5078
▁schönen	-5079
äck	-5080
▁Kirche	-5081
▁erhöhen	-5082
würd	-5083
▁Geist	-5084
▁Analyse	-5085
▁Technik	-5086
▁Installation	-5087
▁Hy	-5088
ller	-5089
arischen	-5090
licherweise	-5091
park	-5092
▁los	-5093
▁diskutieren	-5094
▁stärken	-5095
OL	-5096
▁gegründet	-5097
▁Universität	-5098
lägen	-5099
eils	-5100
▁Mic	-5101
▁leist	-5102
▁Inst	-5103
gebaut	-5104
nach	-5105
ID	-5106
▁Aspekt	-5107
spek	-5108
örde	-5109
ohnen	-5110
umän	-5111
▁Portug	-5112
▁Anwendungen	-5113
▁täglich	-5114
▁Not	-5115
▁Paket	-5116
uern	-5117
▁übertragen	-5118
ritann	-5119
▁Zweifel	-5120
mail	-5121
▁Pla	-5122
▁co	-5123
inent	-5124
ane	-5125
▁Mess	-5126
▁Kompeten	-5127
▁Ja	-5128
▁hält	-5129
bef	-5130
▁voran	-5131
▁umfasst	-5132
▁Play	-5133
▁Debian	-5134
regel	-5135
▁nennen	-5136
üsse	-5137
▁endgül	-5138
▁Besitz	-5139
▁Fonds	-5140
▁Hersteller	-5141
hre	-5142
▁allgemein	-5143
▁feststellen	-5144
40	-5145
▁humanit	-5146
management	-5147
▁Zer	-5148
▁dennoch	-5149
,5	-5150
▁11.	-5151
▁Mig	-5152
▁alte	-5153
maßen	-5154
“.	-5155
zesse	-5156
▁Reformen	-5157
▁überprüfen	-5158
▁Pen	-5159
▁verur	-5160
▁Verpflichtung	-5161
▁digit	-5162
▁erscheint	-5163
▁Flücht	-5164
▁hingewiesen	-5165
▁Israel	-5166
▁erforderlichen	-5167
▁grat	-5168
▁Verk	-5169
roh	-5170
▁durchaus	-5171
bli	-5172
Innen	-5173
▁tätig	-5174
▁90	-5175
▁erklären	-5176
▁Forderungen	-5177
IM	-5178
bett	-5179
▁garantiert	-5180
enk	-5181
versor	-5182
▁geh	-5183
▁pri	-5184
▁Unabhäng	-5185
▁arbeitet	-5186
iens	-5187
▁ausgewäh	-5188
▁Vielzahl	-5189
mode	-5190
▁spielt	-5191
▁gegensei	-5192
ella	-5193
rüst	-5194
▁Harmon	-5195
▁gepl	-5196
▁Messe	-5197
auftrag	-5198
▁Erzeug	-5199
instr	-5200
▁nächste	-5201
▁Zeiten	-5202
▁positive	-5203
reitet	-5204
gewicht	-5205
▁fer	-5206
lüsse	-5207
▁wahrscheinlich	-5208
▁Wa	-5209
führungen	-5210
fast	-5211
▁Landschaft	-5212
▁Dorf	-5213
maß	-5214
▁erleich	-5215
Kon	-5216
▁hören	-5217
▁Künstler	-5218
ranken	-5219
inu	-5220
oto	-5221
▁Veränderungen	-5222
haltet	-5223
▁wor	-5224
▁unabhängig	-5225
▁links	-5226
▁Klimawandel	-5227
▁Sehr	-5228
▁kulturellen	-5229
▁Kil	-5230
▁vertra	-5231
zin	-5232
hotel	-5233
steuer	-5234
▁Aussicht	-5235
▁ausreichend	-5236
▁dritten	-5237
▁Standards	-5238
▁Status	-5239
▁passen	-5240
▁konzentrieren	-5241
ickt	-5242
▁les	-5243
▁Ratsvorsitz	-5244
▁Kurz	-5245
▁Tourismus	-5246
do	-5247
rachtet	-5248
▁denken	-5249
▁ww	-5250
▁au	-5251
schnitt	-5252
ij	-5253
▁Flexibilität	-5254
▁www	-5255
uffet	-5256
testen	-5257
▁verfolgen	-5258
''	-5259
konferenz	-5260
▁Verwaltungs	-5261
▁unterstütze	-5262
▁vorliegenden	-5263
▁Sorge	-5264
▁Name	-5265
▁Mer	-5266
lligen	-5267
ces	-5268
bindung	-5269
▁Villa	-5270
ränken	-5271
entwicklung	-5272
text	-5273
▁Stück	-5274
▁resp	-5275
▁Stärkung	-5276
oo	-5277
weite	-5278
▁finanzielle	-5279
▁Miss	-5280
▁ausführ	-5281
oom	-5282
passen	-5283
▁seiten	-5284
abl	-5285
▁Paten	-5286
▁Wellness	-5287
▁Arg	-5288
▁app	-5289
bieter	-5290
▁schl	-5291
▁Bedarf	-5292
▁Lang	-5293
▁Warum	-5294
rünen	-5295
▁70	-5296
▁Hostels	-5297
▁verloren	-5298
ausschusses	-5299
▁grenz	-5300
sequen	-5301
▁Bedürfnisse	-5302
ike	-5303
spr	-5304
▁Rechnungs	-5305
lösung	-5306
▁ausgew	-5307
▁Beschreibung	-5308
▁Hel	-5309
▁Bewertung	-5310
▁richtigen	-5311
▁Überwachung	-5312
▁Gleichzeitig	-5313
▁engl	-5314
▁verlassen	-5315
britann	-5316
ästinen	-5317
▁Altstadt	-5318
▁comp	-5319
▁Mass	-5320
▁av	-5321
endes	-5322
liegt	-5323
▁Mail	-5324
▁Verbrauch	-5325
bas	-5326
▁Ideen	-5327
▁Ang	-5328
▁Meiner	-5329
▁Immobilien	-5330
▁konstru	-5331
▁Dennoch	-5332
▁»	-5333
bert	-5334
▁Diskrimin	-5335
komp	-5336
▁Stock	-5337
▁Risiko	-5338
▁Katastrop	-5339
▁Erst	-5340
▁Stein	-5341
▁wären	-5342
▁Umfang	-5343
eschäft	-5344
▁Eff	-5345
▁ti	-5346
▁Willen	-5347
ragt	-5348
▁vorber	-5349
jährigen	-5350
▁Teilnehmer	-5351
▁zerst	-5352
terp	-5353
▁Che	-5354
▁4.	-5355
▁Straf	-5356
Er	-5357
weist	-5358
és	-5359
▁Deleg	-5360
▁erinner	-5361
▁Patienten	-5362
▁zuver	-5363
bus	-5364
viel	-5365
ometer	-5366
▁festge	-5367
▁eingeführt	-5368
stücks	-5369
▁besitzt	-5370
▁Elemente	-5371
▁sämtliche	-5372
mittag	-5373
▁Dist	-5374
äsion	-5375
behalten	-5376
▁300	-5377
▁Herausforderung	-5378
RE	-5379
▁Heimat	-5380
▁Museum	-5381
wser	-5382
▁folgende	-5383
▁bezeichnet	-5384
15	-5385
▁Jeder	-5386
▁Gas	-5387
▁beginnt	-5388
wortet	-5389
▁Mutter	-5390
▁miteinander	-5391
▁Entwicklungen	-5392
pport	-5393
▁bestätigt	-5394
verstanden	-5395
zwischen	-5396
▁(2	-5397
▁grenzüber	-5398
▁Priorität	-5399
▁spezielle	-5400
no	-5401
▁geschützt	-5402
▁Anlagen	-5403
wa	-5404
versorgung	-5405
▁Irland	-5406
▁zweif	-5407
bene	-5408
▁klass	-5409
▁einsetzen	-5410
▁li	-5411
IL	-5412
windigkeit	-5413
▁gelin	-5414
▁ausges	-5415
▁ideal	-5416
▁Lab	-5417
ehnen	-5418
isiert	-5419
▁Problemen	-5420
▁Sant	-5421
▁Jap	-5422
üben	-5423
▁vernünf	-5424
▁Karten	-5425
9.	-5426
rachte	-5427
▁keinerlei	-5428
▁geschehen	-5429
▁garantieren	-5430
upt	-5431
▁zahlen	-5432
ulgar	-5433
▁Fotos	-5434
▁beinhaltet	-5435
▁ök	-5436
igte	-5437
ourn	-5438
▁entstanden	-5439
hren	-5440
▁weiterer	-5441
▁Prem	-5442
▁sob	-5443
▁fair	-5444
▁untersch	-5445
▁Stadtzentrum	-5446
▁Regelungen	-5447
▁Gerichtshof	-5448
IE	-5449
▁Justiz	-5450
▁Foto	-5451
▁Polen	-5452
▁gestalten	-5453
▁Sim	-5454
▁danach	-5455
ente	-5456
▁beteiligt	-5457
▁19.	-5458
schrift	-5459
▁Nutzer	-5460
▁Presse	-5461
Sterne	-5462
ST	-5463
atell	-5464
attform	-5465
▁verring	-5466
▁gegenwärtig	-5467
▁betrachtet	-5468
fallen	-5469
bruch	-5470
▁west	-5471
▁Verteidigung	-5472
▁Rein	-5473
▁haupt	-5474
▁großes	-5475
▁beglückw	-5476
vorschlag	-5477
▁Großbritann	-5478
▁Mand	-5479
klusive	-5480
▁WTO	-5481
ICH	-5482
▁einfache	-5483
gibt	-5484
▁Tisch	-5485
eichert	-5486
▁News	-5487
▁vollkommen	-5488
hören	-5489
▁fern	-5490
▁Marken	-5491
▁Kol	-5492
▁Sek	-5493
▁Wald	-5494
▁Gebrauch	-5495
▁vorliegen	-5496
dient	-5497
▁Drogen	-5498
▁Kohäsion	-5499
▁verbundenen	-5500
▁erle	-5501
▁globalen	-5502
▁regionalen	-5503
uell	-5504
rochen	-5505
▁Schwe	-5506
▁wesentlichen	-5507
,00	-5508
freiheit	-5509
▁Beteiligung	-5510
▁Öl	-5511
▁gutes	-5512
pe	-5513
elte	-5514
▁verfolgt	-5515
brauch	-5516
▁Halb	-5517
▁were	-5518
▁renov	-5519
▁stren	-5520
▁profitieren	-5521
▁Booking	-5522
▁zentrale	-5523
tegien	-5524
▁warten	-5525
▁Jahrhunderts	-5526
äfen	-5527
sprach	-5528
▁off	-5529
rum	-5530
▁Kenn	-5531
▁fl	-5532
union	-5533
▁gemeinschaft	-5534
öse	-5535
tlichen	-5536
▁Amerik	-5537
▁Anges	-5538
▁teilnehmen	-5539
▁riesi	-5540
▁sogen	-5541
▁Kapital	-5542
▁zusätzlich	-5543
orte	-5544
tigten	-5545
elev	-5546
▁General	-5547
arta	-5548
▁Kommissions	-5549
zy	-5550
▁Eindruck	-5551
zone	-5552
abs	-5553
▁falls	-5554
▁Treffen	-5555
▁Lizenz	-5556
▁vergleich	-5557
▁Sach	-5558
▁ergeben	-5559
▁Erklärungen	-5560
▁meist	-5561
▁Wichtig	-5562
▁Modern	-5563
▁Vermitt	-5564
▁ausgewogen	-5565
vo	-5566
▁umfassende	-5567
Das	-5568
▁Worten	-5569
▁speziellen	-5570
iegel	-5571
▁grundsätz	-5572
lägt	-5573
▁Exp	-5574
▁this	-5575
▁Typ	-5576
ternehm	-5577
▁erh	-5578
▁IN	-5579
▁Chancen	-5580
mittelt	-5581
nahm	-5582
▁solcher	-5583
stellte	-5584
bliothe	-5585
▁Tal	-5586
▁Verständnis	-5587
Ein	-5588
istisch	-5589
▁Verhältnis	-5590
▁Train	-5591
onenten	-5592
▁Vorsitzen	-5593
uster	-5594
▁mar	-5595
▁event	-5596
▁beachten	-5597
▁umwelt	-5598
▁Übereinkommen	-5599
▁Maße	-5600
▁Kombin	-5601
▁Fraktionen	-5602
▁informiert	-5603
ses	-5604
▁international	-5605
▁offensichtlich	-5606
▁Seine	-5607
richtlinie	-5608
ternen	-5609
▁äuß	-5610
▁dient	-5611
▁Beschluss	-5612
ole	-5613
agne	-5614
▁Hinweis	-5615
▁Datenschutz	-5616
60	-5617
▁korre	-5618
▁gewinnen	-5619
▁Defin	-5620
▁me	-5621
▁Investition	-5622
▁Mechan	-5623
ürk	-5624
▁geöffnet	-5625
inform	-5626
▁Mobil	-5627
▁bi	-5628
▁Ukra	-5629
▁5.	-5630
▁Reisen	-5631
▁Farben	-5632
▁schöne	-5633
▁Beihilfen	-5634
▁haupts	-5635
wä	-5636
selben	-5637
▁höher	-5638
äufer	-5639
enntnisse	-5640
reitung	-5641
ato	-5642
▁Ener	-5643
▁invest	-5644
▁Empfehlungen	-5645
▁wh	-5646
▁Option	-5647
▁überall	-5648
▁Offen	-5649
▁einverstanden	-5650
worfen	-5651
▁1998	-5652
▁Polizei	-5653
▁herzlich	-5654
▁französischen	-5655
▁Pa	-5656
ungsmittel	-5657
▁attra	-5658
▁Architektur	-5659
▁Kosovo	-5660
▁21.	-5661
2-	-5662
▁Erhö	-5663
▁char	-5664
entlich	-5665
▁Aktionen	-5666
▁Größe	-5667
itut	-5668
ellos	-5669
▁Strom	-5670
▁gelungen	-5671
imal	-5672
▁verlei	-5673
kam	-5674
vert	-5675
antie	-5676
schaffen	-5677
▁Ind	-5678
roati	-5679
sichten	-5680
▁Weitere	-5681
▁behaup	-5682
▁gegenwärtigen	-5683
TV	-5684
▁Fit	-5685
▁Anlage	-5686
klang	-5687
▁acht	-5688
▁Grundrechte	-5689
uert	-5690
▁internationaler	-5691
▁lux	-5692
▁Links	-5693
ungsbereich	-5694
linge	-5695
▁Städte	-5696
▁ideale	-5697
▁Programms	-5698
▁Beim	-5699
▁Mindest	-5700
▁kostenfrei	-5701
▁Monat	-5702
reakfast	-5703
▁Do	-5704
iertes	-5705
andidaten	-5706
▁Kontroll	-5707
oker	-5708
▁dauer	-5709
▁Inn	-5710
stands	-5711
▁International	-5712
da	-5713
▁überein	-5714
▁Bahnhof	-5715
PL	-5716
▁Schrift	-5717
gesellschaften	-5718
▁Gesetzgebung	-5719
▁mon	-5720
▁kost	-5721
▁Grunde	-5722
ep	-5723
emin	-5724
▁Erde	-5725
sprech	-5726
▁Str	-5727
▁Gedanken	-5728
▁größeren	-5729
utzer	-5730
▁Hilf	-5731
▁außerorden	-5732
ikro	-5733
▁vorgeschlagenen	-5734
uchten	-5735
▁mittl	-5736
▁langen	-5737
▁Ku	-5738
▁est	-5739
ategorie	-5740
▁festgestellt	-5741
▁sorgfäl	-5742
▁Todes	-5743
▁Frühstücks	-5744
annung	-5745
▁EC	-5746
aket	-5747
▁Irak	-5748
gebracht	-5749
▁sage	-5750
fr	-5751
FR	-5752
Stra	-5753
▁rein	-5754
▁=	-5755
ichtete	-5756
ey	-5757
ktive	-5758
schiede	-5759
▁Mitteln	-5760
▁Asyl	-5761
▁Voraussetzungen	-5762
handels	-5763
▁«	-5764
▁Zahlen	-5765
▁Zugriff	-5766
EM	-5767
▁Wh	-5768
▁Gebiete	-5769
▁mittels	-5770
▁Touristen	-5771
anger	-5772
▁Linux	-5773
▁World	-5774
wes	-5775
äumen	-5776
▁Gründe	-5777
terprise	-5778
funktion	-5779
elles	-5780
▁guter	-5781
ymp	-5782
▁Nichtraucher	-5783
▁Süden	-5784
itze	-5785
zellen	-5786
erne	-5787
▁vorschlagen	-5788
leitung	-5789
▁Griechenland	-5790
▁Wiederauf	-5791
ates	-5792
▁Zoll	-5793
▁This	-5794
ba	-5795
ally	-5796
▁lauf	-5797
üter	-5798
inger	-5799
▁fallen	-5800
▁geschieht	-5801
tent	-5802
▁niedr	-5803
▁sobald	-5804
▁Afrika	-5805
▁problem	-5806
▁nachhaltige	-5807
uelle	-5808
utzung	-5809
▁Kopf	-5810
▁praktisch	-5811
▁Klimaanlage	-5812
80	-5813
bek	-5814
▁Prüfung	-5815
▁siehe	-5816
▁spricht	-5817
▁Europäer	-5818
angebot	-5819
▁normal	-5820
▁Botschaft	-5821
▁Vir	-5822
▁gewünsch	-5823
▁Wirkung	-5824
karten	-5825
▁Realität	-5826
ervice	-5827
technik	-5828
▁have	-5829
▁treten	-5830
eshalb	-5831
▁Vom	-5832
▁Open	-5833
▁einsch	-5834
öder	-5835
strategie	-5836
▁Wür	-5837
▁Ferienw	-5838
▁allgemeine	-5839
▁Ereignisse	-5840
▁Sprach	-5841
produktion	-5842
▁unterst	-5843
▁früher	-5844
▁x	-5845
ames	-5846
▁übernommen	-5847
▁Liberalisierung	-5848
▁Globalisierung	-5849
▁Verfüg	-5850
▁Großbritannien	-5851
▁Verbrechen	-5852
▁famil	-5853
▁anbieten	-5854
▁betroffenen	-5855
▁Ausland	-5856
▁unternommen	-5857
2,	-5858
▁Mart	-5859
▁Hauptstadt	-5860
▁Koordinierung	-5861
lebnis	-5862
▁Mir	-5863
▁Ren	-5864
isieren	-5865
rige	-5866
▁Studien	-5867
▁Fernseh	-5868
PS	-5869
leun	-5870
▁persönliche	-5871
▁tief	-5872
▁Urs	-5873
▁rechts	-5874
zn	-5875
▁Tri	-5876
▁Feld	-5877
preise	-5878
▁Vorbereitung	-5879
ble	-5880
▁Zimmern	-5881
▁Bra	-5882
▁Anteil	-5883
▁Angesichts	-5884
▁teilen	-5885
▁Studen	-5886
▁Kaffe	-5887
ulation	-5888
▁betrachten	-5889
▁Teilnahme	-5890
▁zählen	-5891
▁britischen	-5892
▁Üb	-5893
▁Ziff	-5894
▁regelmäßig	-5895
▁Rand	-5896
▁registr	-5897
▁möglichen	-5898
ese	-5899
▁Star	-5900
▁daraus	-5901
lichem	-5902
▁Überprüfung	-5903
▁Übern	-5904
SS	-5905
▁Bestandteil	-5906
▁Minderheiten	-5907
▁Niveau	-5908
sucht	-5909
▁Pflicht	-5910
▁einzigen	-5911
igi	-5912
So	-5913
genda	-5914
▁gehalten	-5915
▁erhöht	-5916
▁Gästen	-5917
▁Origin	-5918
▁Apparte	-5919
▁Schi	-5920
zeß	-5921
▁gebe	-5922
▁hauptsächlich	-5923
iode	-5924
▁Ham	-5925
auso	-5926
▁spezi	-5927
▁trans	-5928
▁Ziels	-5929
▁Nachdem	-5930
cia	-5931
textu	-5932
▁Ukraine	-5933
):	-5934
PE	-5935
▁andererseits	-5936
▁Welche	-5937
▁Mitgliedern	-5938
spar	-5939
öt	-5940
▁35	-5941
ival	-5942
agn	-5943
aul	-5944
▁letzt	-5945
▁Java	-5946
fügt	-5947
▁Prak	-5948
▁bekannte	-5949
▁abl	-5950
▁Veranstaltungen	-5951
wissen	-5952
▁Pat	-5953
▁hergestellt	-5954
rd	-5955
metho	-5956
▁Gold	-5957
▁finde	-5958
Sc	-5959
▁Wettbewerbs	-5960
lege	-5961
▁Liebe	-5962
▁York	-5963
▁Arbeitsmarkt	-5964
▁politischer	-5965
▁Unabhängigkeit	-5966
▁relativ	-5967
▁Kür	-5968
▁russ	-5969
alys	-5970
ablen	-5971
▁Morgen	-5972
▁Verst	-5973
▁beschäftigt	-5974
gänglich	-5975
70	-5976
ungsst	-5977
wechsel	-5978
▁20.	-5979
itter	-5980
volution	-5981
ola	-5982
▁nationaler	-5983
▁diskutiert	-5984
▁Berücks	-5985
ktiven	-5986
riend	-5987
25	-5988
▁Publik	-5989
▁Effizienz	-5990
▁Niederlan	-5991
val	-5992
chem	-5993
▁Inseln	-5994
▁kontextu	-5995
▁Austausch	-5996
olz	-5997
reen	-5998
▁beob	-5999
▁jungen	-6000
▁schneller	-6001
▁Off	-6002
▁DVD	-6003
▁weg	-6004
▁erneuer	-6005
dium	-6006
eichern	-6007
▁manchmal	-6008
▁nochmals	-6009
ismen	-6010
▁türk	-6011
▁Apartments	-6012
räch	-6013
▁Aktu	-6014
▁real	-6015
▁Fenster	-6016
hebung	-6017
▁starke	-6018
▁Vorteil	-6019
Ser	-6020
▁vielfäl	-6021
▁Experten	-6022
igungs	-6023
▁Diskriminierung	-6024
kor	-6025
▁sieben	-6026
mlich	-6027
problem	-6028
strich	-6029
ree	-6030
yr	-6031
▁kaufen	-6032
▁niemand	-6033
▁Freizeit	-6034
isla	-6035
▁willkommen	-6036
▁Erwart	-6037
▁diesbe	-6038
▁Vertrieb	-6039
ordnungs	-6040
▁Absicht	-6041
▁staff	-6042
gelassen	-6043
▁Wechsel	-6044
▁Dimension	-6045
▁Veröffent	-6046
▁qualifiz	-6047
tigte	-6048
ositionen	-6049
▁Beob	-6050
wegs	-6051
▁Rumän	-6052
älfte	-6053
▁Fitness	-6054
einrichtungen	-6055
ehme	-6056
▁selten	-6057
▁Gegenteil	-6058
gut	-6059
▁Pflanzen	-6060
▁besseren	-6061
▁erfordert	-6062
ski	-6063
▁seitens	-6064
▁ste	-6065
▁sichern	-6066
spartner	-6067
▁Anpassung	-6068
ogle	-6069
▁abgel	-6070
▁kleiner	-6071
▁Ton	-6072
sprüche	-6073
▁Anliegen	-6074
gefähr	-6075
ages	-6076
▁berühmten	-6077
asil	-6078
▁Wegen	-6079
▁angep	-6080
▁betont	-6081
hy	-6082
▁jeg	-6083
▁medizin	-6084
▁Politi	-6085
▁Pil	-6086
straße	-6087
ausende	-6088
MU	-6089
▁Laufe	-6090
▁gewählt	-6091
En	-6092
▁einzelne	-6093
orien	-6094
▁fehlen	-6095
LAN	-6096
▁hilf	-6097
grundlage	-6098
▁Kollege	-6099
▁umgeben	-6100
flüge	-6101
essi	-6102
enken	-6103
▁Mehrwert	-6104
▁Top	-6105
▁zugleich	-6106
▁Mac	-6107
▁Eltern	-6108
▁entspannen	-6109
▁Methode	-6110
haf	-6111
▁Tiere	-6112
▁akzeptiert	-6113
▁behandeln	-6114
▁lo	-6115
▁traditionellen	-6116
rosoft	-6117
▁No	-6118
verse	-6119
▁Rund	-6120
▁Teilen	-6121
fizierung	-6122
folgerungen	-6123
riech	-6124
adem	-6125
material	-6126
holung	-6127
▁Gegensatz	-6128
Der	-6129
▁echte	-6130
ielten	-6131
▁weiteres	-6132
griffe	-6133
▁Haut	-6134
▁Männer	-6135
▁Reaktion	-6136
ori	-6137
▁system	-6138
ohnt	-6139
▁ländlichen	-6140
▁Alter	-6141
▁abhäng	-6142
ps	-6143
▁Methoden	-6144
▁positiven	-6145
▁genü	-6146
▁fällt	-6147
▁beruf	-6148
▁Japan	-6149
wo	-6150
▁sicherstellen	-6151
▁AK	-6152
zahlung	-6153
▁Adresse	-6154
▁sinnvoll	-6155
meldung	-6156
angs	-6157
▁Kurs	-6158
▁vorgenommen	-6159
sych	-6160
▁Stunde	-6161
ffend	-6162
▁Flä	-6163
▁Erhöhung	-6164
▁City	-6165
▁Haushaltsplan	-6166
▁Bu	-6167
üst	-6168
▁vieler	-6169
▁Zuf	-6170
▁sur	-6171
▁Formular	-6172
▁Dort	-6173
▁Freude	-6174
olf	-6175
4.	-6176
berech	-6177
erken	-6178
▁Vater	-6179
its	-6180
▁näher	-6181
cy	-6182
▁Norden	-6183
▁befassen	-6184
▁konkreten	-6185
omit	-6186
▁damals	-6187
▁Abl	-6188
▁Reich	-6189
▁Poten	-6190
▁CO	-6191
▁Ausnahme	-6192
▁Iran	-6193
▁1997	-6194
▁zustimmen	-6195
▁Hoffnung	-6196
▁Graf	-6197
▁Fluss	-6198
▁Zustand	-6199
▁verteid	-6200
▁Beweis	-6201
maschinen	-6202
Mitglied	-6203
assungs	-6204
▁jemand	-6205
▁anerkannt	-6206
▁Internationalen	-6207
▁Kunde	-6208
▁gesellschaft	-6209
▁Einklang	-6210
▁beschrieben	-6211
▁Angebote	-6212
ahnen	-6213
▁ergriffen	-6214
▁Märkte	-6215
fg	-6216
▁Dig	-6217
▁Gran	-6218
▁beige	-6219
▁Banken	-6220
ränkungen	-6221
▁tut	-6222
▁Schweden	-6223
▁wichtigste	-6224
▁Untersuchung	-6225
19	-6226
▁Verfügbarkeit	-6227
▁Dad	-6228
ormen	-6229
warz	-6230
uri	-6231
▁Multi	-6232
zahlt	-6233
▁van	-6234
entre	-6235
▁Akte	-6236
mes	-6237
nehmern	-6238
▁Fü	-6239
▁Gal	-6240
▁Einwanderung	-6241
üste	-6242
▁deutsche	-6243
une	-6244
▁Phase	-6245
▁beeindruck	-6246
▁Glas	-6247
▁''	-6248
ehl	-6249
heber	-6250
jährige	-6251
person	-6252
füllung	-6253
▁deiner	-6254
geht	-6255
▁dynam	-6256
▁Direkt	-6257
▁Autob	-6258
iums	-6259
▁Grundsätze	-6260
▁Hei	-6261
▁Gesetze	-6262
▁derzeitigen	-6263
tität	-6264
▁Kooperation	-6265
▁Schäden	-6266
▁Mini	-6267
▁bildet	-6268
▁Portugal	-6269
▁fordert	-6270
▁Fälle	-6271
▁but	-6272
▁Kris	-6273
▁Leitlinien	-6274
▁Essen	-6275
▁unge	-6276
unsten	-6277
fertigt	-6278
krieg	-6279
Bahn	-6280
▁junge	-6281
▁Produktions	-6282
osoph	-6283
▁gestern	-6284
liste	-6285
▁erscheinen	-6286
lechter	-6287
▁PH	-6288
▁dah	-6289
▁Dokumente	-6290
▁Einkaufs	-6291
stehenden	-6292
päck	-6293
▁bewegen	-6294
uellen	-6295
▁basiert	-6296
▁fand	-6297
▁Datenbank	-6298
stu	-6299
geschrieben	-6300
▁Kompl	-6301
gende	-6302
▁Eigenschaften	-6303
▁Dol	-6304
▁rei	-6305
stä	-6306
grenzen	-6307
ontrolle	-6308
▁Erwachsen	-6309
eier	-6310
▁unterschiedlich	-6311
gener	-6312
mögen	-6313
▁bezieht	-6314
▁Diskussionen	-6315
kat	-6316
▁begonnen	-6317
stoffen	-6318
▁beeinfl	-6319
▁welchen	-6320
▁Farb	-6321
▁reagieren	-6322
äume	-6323
▁Pool	-6324
IA	-6325
ufe	-6326
lieben	-6327
▁Aufgrund	-6328
▁Empfehlung	-6329
lauben	-6330
lichten	-6331
frik	-6332
wicklung	-6333
▁Microsoft	-6334
▁Roh	-6335
ierend	-6336
▁Englisch	-6337
▁Strukturfonds	-6338
akten	-6339
▁Perspek	-6340
▁Zusatz	-6341
▁Dadurch	-6342
▁kürzlich	-6343
ient	-6344
▁Verm	-6345
▁angeht	-6346
▁freie	-6347
ohen	-6348
ichern	-6349
▁gewisse	-6350
▁Freunde	-6351
▁Antworten	-6352
nummer	-6353
orgnis	-6354
▁norm	-6355
▁ser	-6356
▁begann	-6357
▁jüngsten	-6358
▁Com	-6359
▁läuft	-6360
▁Herk	-6361
▁wodurch	-6362
heits	-6363
▁höchste	-6364
▁ant	-6365
▁bill	-6366
sichts	-6367
koh	-6368
▁sub	-6369
▁führenden	-6370
zwungen	-6371
▁steigen	-6372
▁Genehm	-6373
▁senden	-6374
▁Handeln	-6375
▁erhältlich	-6376
Be	-6377
▁hand	-6378
▁verstärkt	-6379
ümm	-6380
▁wichtiges	-6381
▁Bio	-6382
▁Drei	-6383
▁Link	-6384
▁Theater	-6385
▁private	-6386
▁Kombination	-6387
aßt	-6388
▁landwirtschaft	-6389
schn	-6390
▁Mos	-6391
▁Dafür	-6392
▁Spiele	-6393
▁Services	-6394
ted	-6395
▁entlang	-6396
▁Voraussetzung	-6397
▁Agenda	-6398
▁Salz	-6399
Pl	-6400
onom	-6401
▁ac	-6402
▁Fremden	-6403
ässer	-6404
uche	-6405
günst	-6406
▁vielmehr	-6407
▁erb	-6408
legte	-6409
▁interessante	-6410
zig	-6411
biente	-6412
▁zeich	-6413
geiz	-6414
renn	-6415
▁Ordnung	-6416
bereiche	-6417
reuung	-6418
▁Küste	-6419
▁Schwerpunkt	-6420
etaill	-6421
3.	-6422
▁Element	-6423
tragung	-6424
▁Landwirte	-6425
▁18.	-6426
▁Bedenken	-6427
räumen	-6428
▁Nachrichten	-6429
ährt	-6430
▁Hard	-6431
▁Tool	-6432
▁respek	-6433
▁eig	-6434
▁Lob	-6435
gänge	-6436
▁Symbol	-6437
▁griech	-6438
▁Relig	-6439
▁Frankf	-6440
▁keines	-6441
▁künftig	-6442
zo	-6443
apital	-6444
▁Ferner	-6445
▁geschrieben	-6446
lässi	-6447
▁6.	-6448
▁italienischen	-6449
▁laufen	-6450
aj	-6451
▁Maßnahme	-6452
▁schließen	-6453
▁Papier	-6454
ländischen	-6455
geg	-6456
▁Grenze	-6457
▁good	-6458
fest	-6459
▁Gesicht	-6460
▁Bulgar	-6461
beziehung	-6462
▁Umständen	-6463
▁unein	-6464
▁engag	-6465
uropäischen	-6466
mech	-6467
▁Hälfte	-6468
▁tour	-6469
▁amerikanischen	-6470
▁demokratische	-6471
▁Badezimmer	-6472
rechten	-6473
▁Umweltschutz	-6474
▁entdecken	-6475
▁bekannten	-6476
ournal	-6477
▁sprach	-6478
▁gül	-6479
vision	-6480
rüstung	-6481
aser	-6482
▁Lei	-6483
▁Provin	-6484
▁amtieren	-6485
DF	-6486
▁liefern	-6487
▁acc	-6488
▁Unterschiede	-6489
gress	-6490
▁Registr	-6491
▁Führung	-6492
▁qualit	-6493
▁eröffnet	-6494
▁Unterschied	-6495
▁Angriff	-6496
▁geprü	-6497
zulegen	-6498
lässig	-6499
▁Allgemeinen	-6500
▁Materialien	-6501
▁Details	-6502
ms	-6503
▁schönsten	-6504
ata	-6505
▁vors	-6506
▁wenden	-6507
▁verlangen	-6508
▁Autor	-6509
▁ag	-6510
▁kompliz	-6511
▁Komment	-6512
ügel	-6513
üch	-6514
▁reicht	-6515
▁Beratung	-6516
▁struktur	-6517
▁Sicher	-6518
nitten	-6519
▁Qualitäts	-6520
LA	-6521
▁Ebenso	-6522
▁zugänglich	-6523
ero	-6524
▁Google	-6525
gendes	-6526
▁umfassenden	-6527
▁Übersetzung	-6528
▁Dre	-6529
fangen	-6530
richtet	-6531
log	-6532
ammer	-6533
bür	-6534
rab	-6535
▁unmittelbar	-6536
▁München	-6537
partner	-6538
▁ziemlich	-6539
schirm	-6540
uliert	-6541
▁Bedien	-6542
ichteten	-6543
▁Fahrzeug	-6544
UR	-6545
▁Signal	-6546
▁Generation	-6547
▁ausgezeichnete	-6548
med	-6549
ektoren	-6550
▁Verträge	-6551
▁Agrarpolitik	-6552
▁my	-6553
▁weshalb	-6554
▁hervorragende	-6555
▁Zyp	-6556
▁Militär	-6557
▁Definition	-6558
▁Herkunft	-6559
CO	-6560
▁maß	-6561
dienste	-6562
▁Lager	-6563
▁Indien	-6564
blei	-6565
flächen	-6566
▁beraten	-6567
▁oper	-6568
gal	-6569
▁Dach	-6570
azität	-6571
▁Anfragen	-6572
▁genauso	-6573
▁Beschäftigungs	-6574
▁sex	-6575
ozi	-6576
▁nötig	-6577
neter	-6578
▁Ski	-6579
▁geist	-6580
▁verlieren	-6581
angt	-6582
▁Verh	-6583
▁leiden	-6584
▁Vorsitz	-6585
▁Ambiente	-6586
tition	-6587
▁wesentliche	-6588
45	-6589
▁Gefühl	-6590
▁bedarf	-6591
▁ausgezeichneten	-6592
▁Schm	-6593
bereit	-6594
▁Har	-6595
sens	-6596
▁alt	-6597
▁1996	-6598
▁wiederum	-6599
fo	-6600
fällen	-6601
▁Risiken	-6602
▁einerseits	-6603
▁iden	-6604
▁Kategorie	-6605
▁rasch	-6606
▁historische	-6607
▁außergewöhn	-6608
ischung	-6609
▁ruhigen	-6610
kün	-6611
▁neuesten	-6612
▁High	-6613
cks	-6614
gi	-6615
ader	-6616
▁German	-6617
dessen	-6618
▁sicht	-6619
ochen	-6620
▁voller	-6621
gesundheit	-6622
▁zusätzlichen	-6623
liefert	-6624
spruchs	-6625
▁ehemaligen	-6626
ilft	-6627
▁installiert	-6628
▁Regional	-6629
▁Rest	-6630
▁erweitert	-6631
▁Temperatur	-6632
wel	-6633
▁koordin	-6634
▁hoher	-6635
▁kombin	-6636
5-0	-6637
größ	-6638
▁poten	-6639
▁gefördert	-6640
▁schwierigen	-6641
▁interessiert	-6642
künfte	-6643
mechan	-6644
ätzung	-6645
▁Dauer	-6646
▁Blog	-6647
▁besitzen	-6648
▁Mitglieds	-6649
▁öffnen	-6650
▁Eisenbahn	-6651
▁Var	-6652
quellen	-6653
▁chines	-6654
▁Veranstaltung	-6655
wander	-6656
▁trotzdem	-6657
mmen	-6658
▁Dam	-6659
▁modi	-6660
▁port	-6661
▁Balkon	-6662
behörden	-6663
▁eingesch	-6664
ähigkeiten	-6665
IG	-6666
ward	-6667
▁sofern	-6668
1,	-6669
TE	-6670
fa	-6671
elbe	-6672
hlen	-6673
▁Tagung	-6674
weisung	-6675
▁Mittelpunkt	-6676
▁langsam	-6677
wendungen	-6678
▁Mikro	-6679
ollar	-6680
ée	-6681
zeichnis	-6682
▁seien	-6683
▁Küsten	-6684
▁spanischen	-6685
▁Kranken	-6686
▁Mel	-6687
▁multi	-6688
▁Schule	-6689
▁überra	-6690
▁schreiben	-6691
▁Mü	-6692
teile	-6693
pa	-6694
Reg	-6695
▁bo	-6696
▁zuerst	-6697
ungssystem	-6698
▁Institution	-6699
▁é	-6700
▁hilft	-6701
▁starken	-6702
▁dis	-6703
dass	-6704
▁Unternehm	-6705
▁betreffenden	-6706
▁eigenes	-6707
▁abhängig	-6708
▁Fähigkeit	-6709
▁Wo	-6710
▁beträgt	-6711
23	-6712
mitten	-6713
oler	-6714
▁breite	-6715
▁Inner	-6716
ula	-6717
/0	-6718
▁$	-6719
▁laden	-6720
▁Sanktionen	-6721
CD	-6722
▁Event	-6723
▁schlecht	-6724
▁Kann	-6725
handlungen	-6726
▁Standort	-6727
▁fried	-6728
▁Bewegung	-6729
dorf	-6730
▁direkte	-6731
omin	-6732
▁altern	-6733
▁Vo	-6734
▁Parlam	-6735
▁vis	-6736
▁reden	-6737
bahnhof	-6738
▁Vielleicht	-6739
▁regionale	-6740
lient	-6741
ema	-6742
Adresse	-6743
▁Browser	-6744
▁Befug	-6745
▁gratulieren	-6746
▁Harmonisierung	-6747
rücke	-6748
▁Geräte	-6749
▁ursprünglichen	-6750
QL	-6751
▁2,	-6752
▁ans	-6753
▁starten	-6754
▁Konsequen	-6755
oth	-6756
▁bemüht	-6757
gemäß	-6758
spezif	-6759
zte	-6760
werber	-6761
quis	-6762
ora	-6763
▁7.	-6764
decken	-6765
▁Ausgangspunkt	-6766
▁Dienstleistungs	-6767
act	-6768
ändler	-6769
▁achten	-6770
iste	-6771
▁hal	-6772
MS	-6773
▁Mc	-6774
▁Asi	-6775
▁Verbesserungen	-6776
anda	-6777
▁zweifellos	-6778
kommt	-6779
▁Jahrz	-6780
hend	-6781
▁gleicher	-6782
lastung	-6783
▁laut	-6784
▁reichen	-6785
pres	-6786
▁richten	-6787
▁harmon	-6788
▁detaill	-6789
▁Ausstattung	-6790
▁Ri	-6791
▁verändert	-6792
▁gelegt	-6793
▁Drit	-6794
▁your	-6795
▁Studenten	-6796
ado	-6797
▁Weiß	-6798
▁natürlichen	-6799
samkeit	-6800
▁Marketing	-6801
▁künftigen	-6802
▁präsentiert	-6803
▁17.	-6804
verw	-6805
▁Bucht	-6806
▁schließ	-6807
▁Wirklichkeit	-6808
leiten	-6809
otte	-6810
schm	-6811
▁kommer	-6812
▁Erinner	-6813
legungen	-6814
▁Bla	-6815
▁bezug	-6816
▁Punkten	-6817
▁Geschmack	-6818
▁überzeugen	-6819
▁Blut	-6820
▁fordere	-6821
▁Beispiele	-6822
▁Festlegung	-6823
▁Drittländern	-6824
steh	-6825
üren	-6826
▁Tick	-6827
▁buchen	-6828
▁Lö	-6829
▁entschlossen	-6830
ahrt	-6831
▁Einstellung	-6832
▁Code	-6833
▁Ausführungen	-6834
▁Garantie	-6835
▁Übereinstimmung	-6836
ichert	-6837
ugen	-6838
▁Wik	-6839
▁sorgt	-6840
osen	-6841
▁195	-6842
▁Col	-6843
wirkung	-6844
▁Erwartungen	-6845
▁Krimin	-6846
▁Studie	-6847
▁Jedes	-6848
pel	-6849
▁zer	-6850
modell	-6851
▁Kroati	-6852
▁Bett	-6853
▁Normen	-6854
▁Hindern	-6855
▁hervorheben	-6856
▁chem	-6857
▁Mobilität	-6858
▁Grand	-6859
▁Spa	-6860
▁Abschnitt	-6861
ones	-6862
täu	-6863
meister	-6864
▁begren	-6865
▁abgelehnt	-6866
azier	-6867
▁mark	-6868
▁Tä	-6869
▁Überzeugung	-6870
▁grundlegenden	-6871
▁Ban	-6872
▁organisiert	-6873
iegen	-6874
eind	-6875
▁pre	-6876
▁Zusätz	-6877
▁Vorschlägen	-6878
▁che	-6879
▁Europe	-6880
wender	-6881
organisationen	-6882
sidi	-6883
▁Bay	-6884
▁Behinder	-6885
uver	-6886
▁Farbe	-6887
zwe	-6888
▁aufzunehmen	-6889
▁Ag	-6890
▁Strän	-6891
▁4-	-6892
▁kurze	-6893
▁Ausstellung	-6894
▁Zuständigkeit	-6895
▁ausgesprochen	-6896
▁Prüf	-6897
antast	-6898
▁anwes	-6899
▁Massen	-6900
euern	-6901
▁Wahrheit	-6902
▁beglückwünschen	-6903
▁stabil	-6904
▁soweit	-6905
▁einfachen	-6906
▁fü	-6907
▁Gegend	-6908
reat	-6909
▁Bri	-6910
▁erör	-6911
unn	-6912
▁Ungar	-6913
gas	-6914
▁15.	-6915
▁falsch	-6916
▁übernimmt	-6917
▁mm	-6918
▁verschiedener	-6919
▁Satell	-6920
reichung	-6921
▁industrie	-6922
ausend	-6923
▁erlauben	-6924
▁einzigartige	-6925
emm	-6926
inuier	-6927
▁niemals	-6928
af	-6929
▁10.	-6930
▁150	-6931
▁Einheit	-6932
▁trifft	-6933
berge	-6934
▁durchzuführen	-6935
▁Statist	-6936
▁geräum	-6937
euerung	-6938
rennen	-6939
-/	-6940
einbar	-6941
ugh	-6942
▁fra	-6943
arbeitern	-6944
▁wid	-6945
▁fühlen	-6946
▁Bestellung	-6947
▁Baum	-6948
ferenzen	-6949
▁zuständigen	-6950
rufen	-6951
▁Planung	-6952
▁sehe	-6953
schule	-6954
ussen	-6955
▁Ausführung	-6956
IF	-6957
ieh	-6958
ando	-6959
minuten	-6960
▁offenen	-6961
Bei	-6962
▁aufgefordert	-6963
1)	-6964
▁kommerzie	-6965
▁Gestaltung	-6966
▁kulturelle	-6967
▁zählt	-6968
AG	-6969
▁Strukturen	-6970
yl	-6971
betrieb	-6972
▁höchsten	-6973
▁Kilometer	-6974
ias	-6975
▁Max	-6976
maschine	-6977
reffend	-6978
lefon	-6979
▁perfekt	-6980
▁Delegation	-6981
▁uneingesch	-6982
▁Rumänien	-6983
Al	-6984
▁Last	-6985
▁erlä	-6986
Ent	-6987
ziele	-6988
reck	-6989
vid	-6990
grei	-6991
ory	-6992
▁wettbewerb	-6993
züge	-6994
▁jährlich	-6995
▁riesigen	-6996
▁Roma	-6997
onn	-6998
▁Stahl	-6999
ifferen	-7000
sc	-7001
▁auftreten	-7002
▁KMU	-7003
▁stimmt	-7004
▁Tschech	-7005
▁location	-7006
igungen	-7007
▁kurzem	-7008
▁effektiv	-7009
....	-7010
▁kurzen	-7011
▁Währungs	-7012
▁anschließen	-7013
{{	-7014
▁sh	-7015
▁nachzu	-7016
▁Enterprise	-7017
gä	-7018
holen	-7019
▁verändern	-7020
▁entscheidend	-7021
▁pr	-7022
▁ausgestat	-7023
▁mitten	-7024
rächt	-7025
mme	-7026
▁dritte	-7027
▁verbringen	-7028
tifik	-7029
▁Buchung	-7030
▁Kontinent	-7031
16	-7032
▁Gepäck	-7033
▁Plenum	-7034
▁kommun	-7035
▁annehmen	-7036
▁Projekten	-7037
▁umzusetzen	-7038
▁präz	-7039
▁geboren	-7040
▁ausgeschlossen	-7041
lik	-7042
▁Dusche	-7043
▁flexib	-7044
▁Ep	-7045
zwei	-7046
istenz	-7047
▁gelöst	-7048
▁zentral	-7049
standards	-7050
▁durchführen	-7051
▁Fla	-7052
▁gezogen	-7053
▁vorange	-7054
▁Glück	-7055
station	-7056
▁Meinungs	-7057
ione	-7058
▁beabs	-7059
▁gewähl	-7060
▁Schatten	-7061
//	-7062
räften	-7063
▁Strategien	-7064
▁AL	-7065
▁Fund	-7066
14	-7067
▁Sn	-7068
oni	-7069
▁tie	-7070
istik	-7071
▁Ausgabe	-7072
▁Schloss	-7073
▁Redner	-7074
▁unent	-7075
ais	-7076
▁Ohne	-7077
ünscht	-7078
18	-7079
handelt	-7080
PT	-7081
iews	-7082
▁schwed	-7083
▁kontinuier	-7084
napp	-7085
▁Zuge	-7086
forschung	-7087
lowak	-7088
▁Schlafzimmer	-7089
▁serviert	-7090
▁Krisen	-7091
IV	-7092
pfen	-7093
▁log	-7094
▁veran	-7095
▁verlangt	-7096
▁anspruchs	-7097
▁menschlichen	-7098
▁met	-7099
atein	-7100
▁bekomm	-7101
schaff	-7102
▁tot	-7103
ühl	-7104
▁Bur	-7105
mäßige	-7106
▁außen	-7107
▁geprüft	-7108
beauftrag	-7109
▁Val	-7110
▁verehrte	-7111
rischen	-7112
▁Schen	-7113
▁Center	-7114
geräte	-7115
▁Schwimm	-7116
▁bestätigen	-7117
ästinens	-7118
▁schafft	-7119
ua	-7120
artet	-7121
▁Resp	-7122
schiedet	-7123
▁Konvent	-7124
atischen	-7125
▁schnelle	-7126
▁dich	-7127
▁gewonnen	-7128
▁Hohen	-7129
▁verabschiedet	-7130
laubwürd	-7131
▁münd	-7132
▁Urspr	-7133
▁nachhaltigen	-7134
▁Einkommen	-7135
▁Panor	-7136
▁Casino	-7137
▁zugunsten	-7138
▁ausgezeichnet	-7139
träge	-7140
beu	-7141
▁mögliche	-7142
▁Kandidaten	-7143
▁beträcht	-7144
▁parlament	-7145
5.	-7146
macht	-7147
▁Forum	-7148
▁Ziffer	-7149
▁12.	-7150
insel	-7151
▁Sonne	-7152
▁Chem	-7153
▁besei	-7154
▁Bauern	-7155
▁bekämpfen	-7156
trages	-7157
hörigen	-7158
▁zentralen	-7159
anne	-7160
▁Dan	-7161
üssen	-7162
behörde	-7163
teuer	-7164
▁Anbieter	-7165
▁notwendige	-7166
▁sk	-7167
▁Mitt	-7168
▁volle	-7169
lässigkeit	-7170
bliothek	-7171
ditionen	-7172
▁österreich	-7173
club	-7174
▁musste	-7175
▁Costa	-7176
▁Merk	-7177
spir	-7178
▁Haft	-7179
haushalt	-7180
pal	-7181
▁Feuer	-7182
amerika	-7183
▁Identität	-7184
▁Einbeziehung	-7185
▁entdeck	-7186
▁jetz	-7187
▁ehrgeiz	-7188
▁verstanden	-7189
90	-7190
ausschuß	-7191
▁verursacht	-7192
▁).	-7193
▁Kamera	-7194
▁Klar	-7195
▁abgestimmt	-7196
nimmt	-7197
▁Menü	-7198
▁Haftung	-7199
▁bar	-7200
▁Also	-7201
stande	-7202
▁verständ	-7203
▁Sauna	-7204
achstums	-7205
lässlich	-7206
▁Partnern	-7207
▁angenehm	-7208
▁Kamp	-7209
▁16.	-7210
▁sodass	-7211
▁geltenden	-7212
▁Kapitel	-7213
▁Automobil	-7214
▁erreichbar	-7215
zehn	-7216
▁geboten	-7217
▁Deswegen	-7218
▁Bemerkungen	-7219
kultur	-7220
▁lautet	-7221
uh	-7222
▁mitge	-7223
24	-7224
▁Zentralb	-7225
▁funktionieren	-7226
án	-7227
▁Himm	-7228
sorgung	-7229
▁führte	-7230
▁einzus	-7231
stellungs	-7232
▁Rezeption	-7233
▁höhere	-7234
ams	-7235
date	-7236
▁Zusammenhalt	-7237
eitag	-7238
▁Konflik	-7239
▁grundlegende	-7240
ico	-7241
▁ausgeführt	-7242
band	-7243
▁Drittens	-7244
▁hinzufügen	-7245
SP	-7246
▁vollständige	-7247
führte	-7248
▁Ankunft	-7249
▁abw	-7250
kohol	-7251
kehren	-7252
▁Förder	-7253
isser	-7254
üler	-7255
▁Vorschlags	-7256
▁Geschäfte	-7257
▁produziert	-7258
▁po	-7259
iker	-7260
▁Ersatz	-7261
▁einzuf	-7262
▁ferner	-7263
▁8.	-7264
▁can	-7265
reuz	-7266
▁Spazier	-7267
▁erheblich	-7268
▁Net	-7269
▁Verbot	-7270
▁Gewicht	-7271
izient	-7272
▁gespeichert	-7273
▁inzwischen	-7274
▁Wünsche	-7275
sprachen	-7276
ley	-7277
mäßigen	-7278
▁Kontext	-7279
▁anstatt	-7280
://	-7281
produkte	-7282
▁Milch	-7283
▁freiwill	-7284
gro	-7285
▁Bru	-7286
örung	-7287
▁vorlegen	-7288
▁Freiheiten	-7289
▁Aktionsplan	-7290
▁begrüßt	-7291
▁zuzu	-7292
ribution	-7293
▁Gemeinde	-7294
▁Besonders	-7295
▁(3	-7296
bur	-7297
▁geprä	-7298
denk	-7299
Produ	-7300
lecht	-7301
▁gebaut	-7302
tifiziert	-7303
▁45	-7304
▁Ann	-7305
ziplin	-7306
ago	-7307
ältigen	-7308
▁geä	-7309
▁produ	-7310
▁sorgfältig	-7311
▁Arbeitsplätzen	-7312
▁Pre	-7313
onien	-7314
pliz	-7315
▁Poker	-7316
▁hervorge	-7317
▁kre	-7318
▁our	-7319
▁angesehen	-7320
ical	-7321
▁spezifischen	-7322
gerufen	-7323
aktieren	-7324
ameter	-7325
▁Fleisch	-7326
ita	-7327
▁entsteht	-7328
▁Beiträge	-7329
▁Gi	-7330
▁Gerichte	-7331
artigen	-7332
▁Szen	-7333
▁wechsel	-7334
▁aufnehmen	-7335
▁Umgang	-7336
ventionen	-7337
▁Sound	-7338
ded	-7339
ochter	-7340
▁Werbung	-7341
sidiarität	-7342
▁Politiker	-7343
▁Webseiten	-7344
▁WLAN	-7345
▁Berufs	-7346
kom	-7347
ntag	-7348
▁verleihen	-7349
▁ordnungs	-7350
herap	-7351
▁Gleichgewicht	-7352
▁welchem	-7353
dauer	-7354
▁übrigens	-7355
lieb	-7356
▁erleichtern	-7357
ossen	-7358
▁preis	-7359
zum	-7360
▁exklus	-7361
einträch	-7362
▁Fähigkeiten	-7363
▁direkten	-7364
Ch	-7365
▁weltweiten	-7366
▁up	-7367
timal	-7368
lean	-7369
▁13.	-7370
zonen	-7371
▁breit	-7372
▁Subsidiarität	-7373
▁Live	-7374
arische	-7375
▁Gewinn	-7376
▁religi	-7377
austausch	-7378
▁Anmerk	-7379
▁Journal	-7380
stes	-7381
▁rück	-7382
gemeinschaft	-7383
▁Mut	-7384
stieg	-7385
▁intensiv	-7386
ric	-7387
▁kostet	-7388
▁plan	-7389
▁Friedens	-7390
▁out	-7391
law	-7392
opf	-7393
oli	-7394
▁Zypern	-7395
fghan	-7396
▁Verring	-7397
▁Fax	-7398
▁jegliche	-7399
▁zurückzu	-7400
▁Prin	-7401
entwurf	-7402
▁Vereinbarungen	-7403
▁Gründung	-7404
▁Schnitt	-7405
▁Websites	-7406
Strategie	-7407
▁Arbeitsplatz	-7408
ype	-7409
2)	-7410
▁Kompetenz	-7411
ete	-7412
sper	-7413
}}	-7414
▁zurückge	-7415
buffet	-7416
▁Religion	-7417
▁Trag	-7418
▁Bildungs	-7419
▁Politiken	-7420
▁Umfeld	-7421
▁definiert	-7422
▁Boot	-7423
▁arch	-7424
plemen	-7425
▁ungefähr	-7426
znei	-7427
ilder	-7428
▁Noch	-7429
▁part	-7430
▁Glauben	-7431
▁Krankheiten	-7432
▁verhindert	-7433
17	-7434
▁Versand	-7435
▁Wird	-7436
fahrer	-7437
machen	-7438
riendly	-7439
erkennen	-7440
▁gegebenen	-7441
ras	-7442
ammeln	-7443
zentren	-7444
▁zufolge	-7445
▁EG	-7446
eitungen	-7447
▁verbind	-7448
spf	-7449
▁pe	-7450
▁Bab	-7451
▁MP	-7452
▁gewissen	-7453
undert	-7454
echtigkeit	-7455
aint	-7456
sverl	-7457
rief	-7458
▁iP	-7459
iner	-7460
▁Sein	-7461
▁Genau	-7462
▁Jede	-7463
▁bemühen	-7464
▁ruhig	-7465
▁EAD	-7466
ysi	-7467
usstsein	-7468
▁Luxus	-7469
▁Straß	-7470
▁wollten	-7471
euten	-7472
▁angemessene	-7473
▁berechtigt	-7474
tä	-7475
▁Ba	-7476
arn	-7477
▁Real	-7478
scheidet	-7479
▁Viertel	-7480
struktion	-7481
▁Einwohner	-7482
▁Regen	-7483
▁Verpack	-7484
▁bezahlen	-7485
▁Ungarn	-7486
▁früheren	-7487
wege	-7488
▁Wart	-7489
▁außerordentlich	-7490
olo	-7491
▁fertig	-7492
▁IP	-7493
▁Büro	-7494
▁hängt	-7495
▁öffentlich	-7496
▁Fo	-7497
▁tatsäch	-7498
▁hoff	-7499
UNG	-7500
schriften	-7501
▁Komponenten	-7502
▁?	-7503
▁fac	-7504
▁dein	-7505
▁Tari	-7506
▁Betriebs	-7507
▁interessant	-7508
sorge	-7509
▁Ware	-7510
▁wunderschön	-7511
▁installieren	-7512
▁pal	-7513
▁Persön	-7514
▁heutige	-7515
▁beschränkt	-7516
das	-7517
▁nunmehr	-7518
▁legt	-7519
teilungen	-7520
▁Rechnungshof	-7521
zeptabel	-7522
▁Nachfrage	-7523
präsent	-7524
▁Afghan	-7525
irtu	-7526
▁ermu	-7527
bürger	-7528
▁einheitlichen	-7529
▁passiert	-7530
▁gewährt	-7531
allel	-7532
märkte	-7533
werben	-7534
▁Vorhaben	-7535
gs	-7536
rich	-7537
▁Ank	-7538
ielte	-7539
sätzen	-7540
avig	-7541
3,	-7542
Ben	-7543
gess	-7544
▁organisieren	-7545
▁begrün	-7546
fähigkeit	-7547
▁Anschluss	-7548
▁grundsätzlich	-7549
▁John	-7550
emburg	-7551
zügigkeit	-7552
▁unverzüglich	-7553
Ex	-7554
▁bestehende	-7555
▁Radio	-7556
▁maxim	-7557
pposition	-7558
▁erinnert	-7559
▁beschäftigen	-7560
finanz	-7561
▁Deutschen	-7562
▁ausgesetzt	-7563
▁Wesent	-7564
▁Verringerung	-7565
▁Group	-7566
▁Original	-7567
roht	-7568
▁echten	-7569
▁Mrd	-7570
orten	-7571
ulen	-7572
kreis	-7573
▁mu	-7574
▁Prinzipien	-7575
stät	-7576
▁Sec	-7577
ährung	-7578
▁Zwecke	-7579
Mar	-7580
▁Betrug	-7581
▁Erzeugnisse	-7582
schaffung	-7583
▁nutz	-7584
wertet	-7585
▁Sollten	-7586
center	-7587
▁rechtlichen	-7588
mod	-7589
▁Grad	-7590
▁Alternative	-7591
▁Bemerkung	-7592
▁zunehmend	-7593
iser	-7594
▁angegebenen	-7595
▁2020	-7596
▁Studio	-7597
heren	-7598
▁luxuri	-7599
▁aussprechen	-7600
nö	-7601
oral	-7602
örter	-7603
weile	-7604
▁Imp	-7605
▁verbinden	-7606
▁eingereicht	-7607
enkt	-7608
▁Zielen	-7609
▁kümm	-7610
▁Steuern	-7611
▁gespielt	-7612
▁individuellen	-7613
▁Nahrungsmittel	-7614
app	-7615
▁analys	-7616
behandlung	-7617
▁Cha	-7618
zeuger	-7619
▁Donner	-7620
▁aktuell	-7621
▁betreffend	-7622
▁Schweizer	-7623
enha	-7624
urlaub	-7625
▁vorhandenen	-7626
wart	-7627
▁Bord	-7628
ssysteme	-7629
ause	-7630
▁solange	-7631
▁gestaltet	-7632
▁400	-7633
▁Urheber	-7634
▁Spaß	-7635
▁Werke	-7636
▁optimal	-7637
▁verwirk	-7638
▁Ros	-7639
▁Bill	-7640
▁wann	-7641
▁Untersuchungen	-7642
▁Är	-7643
▁pla	-7644
▁Semin	-7645
▁bekräf	-7646
▁niedrig	-7647
samen	-7648
▁Migration	-7649
▁individuelle	-7650
▁Serie	-7651
prinzip	-7652
▁Sorgen	-7653
sie	-7654
▁mü	-7655
Datei	-7656
▁Problems	-7657
▁just	-7658
lingen	-7659
▁Freunden	-7660
▁1995	-7661
etzten	-7662
spakt	-7663
▁Tabak	-7664
▁Insbesondere	-7665
tif	-7666
▁mobil	-7667
▁Rechtsstaat	-7668
OT	-7669
▁Geheim	-7670
häuser	-7671
▁Übergang	-7672
▁vorstellen	-7673
IR	-7674
/2	-7675
▁Gefahren	-7676
▁Abhäng	-7677
▁Provinz	-7678
▁behalten	-7679
acher	-7680
▁ausreichen	-7681
iers	-7682
6.	-7683
▁Genehmigung	-7684
far	-7685
▁Streit	-7686
ael	-7687
▁Werkzeug	-7688
▁weite	-7689
▁page	-7690
▁Verbindungen	-7691
wählen	-7692
▁NAT	-7693
▁Rechtsgrundlage	-7694
▁Schluß	-7695
ision	-7696
▁wiederholen	-7697
▁Mitarbeitern	-7698
öm	-7699
▁Abkommens	-7700
▁Krie	-7701
▁bestimmter	-7702
▁kämpfen	-7703
ror	-7704
▁verdient	-7705
▁Besorgnis	-7706
▁stehenden	-7707
▁Alles	-7708
▁Beziehung	-7709
▁Gerät	-7710
▁htt	-7711
▁Betrag	-7712
▁Freitag	-7713
▁Parkplatz	-7714
▁Preisen	-7715
▁Support	-7716
▁einfacher	-7717
▁ersetzt	-7718
▁Export	-7719
▁innovative	-7720
informationen	-7721
gänger	-7722
▁vorbei	-7723
▁Dek	-7724
ics	-7725
ura	-7726
▁individuell	-7727
9,	-7728
ya	-7729
▁klaren	-7730
▁Zahlung	-7731
▁Kontrollen	-7732
duzierung	-7733
▁globale	-7734
▁Ungleich	-7735
▁PHP	-7736
▁Gegenstand	-7737
▁Sozialdemokra	-7738
▁beschleun	-7739
steigen	-7740
▁nahezu	-7741
▁Gesetzes	-7742
▁empfohlen	-7743
▁Charta	-7744
▁schlägt	-7745
ban	-7746
▁ergänzen	-7747
▁Arme	-7748
ommunik	-7749
▁Frankfurt	-7750
oriz	-7751
▁separ	-7752
▁angewand	-7753
▁trag	-7754
stoß	-7755
▁unmöglich	-7756
▁wunderschönen	-7757
▁—	-7758
▁anwesend	-7759
▁fuer	-7760
▁Programmen	-7761
▁pour	-7762
äss	-7763
▁ISO	-7764
ehnung	-7765
ohnungen	-7766
▁Wohnung	-7767
▁Back	-7768
▁Know	-7769
▁Pack	-7770
▁Energien	-7771
Techn	-7772
br	-7773
▁Amts	-7774
▁stil	-7775
▁Olymp	-7776
▁Westen	-7777
2010	-7778
off	-7779
▁ausgewähl	-7780
▁eingehalten	-7781
▁;	-7782
▁Eigentum	-7783
▁äußern	-7784
assungen	-7785
ituation	-7786
▁Erstellung	-7787
pap	-7788
▁Tochter	-7789
▁Trend	-7790
▁Konsult	-7791
tran	-7792
▁vieles	-7793
▁mittler	-7794
▁empfangen	-7795
▁relev	-7796
▁Faktoren	-7797
▁verurteilt	-7798
piel	-7799
▁unvergess	-7800
▁Speicher	-7801
gten	-7802
▁Fa	-7803
ela	-7804
wirkt	-7805
bs	-7806
▁Satz	-7807
ille	-7808
kern	-7809
▁Optionen	-7810
▁bestimmen	-7811
▁gezwungen	-7812
werken	-7813
▁Schönheit	-7814
▁bilater	-7815
▁ursprünglich	-7816
▁Bars	-7817
▁Finn	-7818
▁last	-7819
▁Sollte	-7820
▁Konsens	-7821
▁Ky	-7822
▁Erwä	-7823
▁Gespräche	-7824
▁Zul	-7825
▁miss	-7826
▁Schne	-7827
▁Digital	-7828
▁abgesch	-7829
▁aktivieren	-7830
▁erfolgreiche	-7831
▁Mat	-7832
▁Willkommen	-7833
▁elektronischen	-7834
II	-7835
▁komme	-7836
ehnten	-7837
▁Georg	-7838
▁Satelliten	-7839
▁Lieferung	-7840
▁9.	-7841
▁intern	-7842
Sta	-7843
usion	-7844
▁Fahrt	-7845
▁anbel	-7846
▁Zusätzlich	-7847
▁Bereitstellung	-7848
▁Verfahrens	-7849
▁Tauch	-7850
scheidung	-7851
icks	-7852
▁nied	-7853
edia	-7854
mark	-7855
wald	-7856
▁tro	-7857
ump	-7858
gebiete	-7859
▁Marktes	-7860
▁Kommunikations	-7861
▁Autobahn	-7862
▁Sektoren	-7863
▁Bern	-7864
▁vorbereitet	-7865
▁Gewährleistung	-7866
▁Sl	-7867
aszin	-7868
ativer	-7869
▁Optim	-7870
angem	-7871
▁Beam	-7872
▁Sing	-7873
region	-7874
▁Verlust	-7875
▁vorrang	-7876
▁anbelangt	-7877
cor	-7878
▁EADS	-7879
rucht	-7880
▁stre	-7881
▁Alpen	-7882
▁Beschlüsse	-7883
8.	-7884
▁3-	-7885
▁one	-7886
strafe	-7887
▁neun	-7888
Or	-7889
▁prop	-7890
▁Apartment	-7891
▁Verlauf	-7892
▁bedauer	-7893
Wir	-7894
▁Rob	-7895
▁Out	-7896
▁Resort	-7897
▁Kollegin	-7898
▁14.	-7899
▁had	-7900
effizienz	-7901
▁Betracht	-7902
▁einzigartigen	-7903
digen	-7904
▁erhielt	-7905
▁vermitteln	-7906
▁Verbreitung	-7907
▁sah	-7908
ikal	-7909
SL	-7910
▁Männern	-7911
▁transparen	-7912
rau	-7913
▁inklusive	-7914
▁hochwertige	-7915
mon	-7916
atis	-7917
▁http	-7918
ontroll	-7919
▁Vorder	-7920
▁193	-7921
▁gearbeitet	-7922
▁Auge	-7923
klärung	-7924
▁großzüg	-7925
teste	-7926
▁Bulgarien	-7927
ehrt	-7928
aller	-7929
▁Email	-7930
▁Kräfte	-7931
▁verschw	-7932
▁bereitgestellt	-7933
work	-7934
werks	-7935
regeln	-7936
▁Arznei	-7937
▁entwickelten	-7938
▁194	-7939
▁einig	-7940
ehrten	-7941
▁sensi	-7942
▁Eingang	-7943
▁erfolgreichen	-7944
▁großem	-7945
krise	-7946
▁Darum	-7947
zusammen	-7948
▁Übersetz	-7949
▁personen	-7950
▁Donnerstag	-7951
mittels	-7952
▁Verarbeitung	-7953
4-0	-7954
deckt	-7955
rasse	-7956
▁Kopenha	-7957
▁Sicherung	-7958
▁zuständig	-7959
reche	-7960
ssicherheit	-7961
▁beteiligen	-7962
lassung	-7963
▁kleines	-7964
▁sa	-7965
▁Angst	-7966
▁Nahen	-7967
-2	-7968
▁Festpl	-7969
▁gekenn	-7970
very	-7971
!!	-7972
▁SP	-7973
▁liefert	-7974
▁Kroatien	-7975
ibl	-7976
▁integriert	-7977
uchte	-7978
▁Telek	-7979
▁Entlastung	-7980
▁Opposition	-7981
▁Städten	-7982
▁verantwortungs	-7983
ior	-7984
iessen	-7985
▁stolz	-7986
▁zweit	-7987
gnor	-7988
▁erhebliche	-7989
4,	-7990
asy	-7991
ques	-7992
▁Wetter	-7993
▁Versicher	-7994
bran	-7995
▁Kabel	-7996
wirt	-7997
▁Caf	-7998
▁Verd	-7999
▁Übrigen	-8000
▁Konfigur	-8001
▁verbindet	-8002
sorganis	-8003
trags	-8004
▁Rub	-8005
▁vous	-8006
▁jenen	-8007
of	-8008
▁Neue	-8009
▁stamm	-8010
RA	-8011
van	-8012
▁Belgien	-8013
jekten	-8014
▁entscheidende	-8015
ef	-8016
▁Entfern	-8017
▁roman	-8018
▁Traum	-8019
▁höheren	-8020
▁beantworten	-8021
version	-8022
▁verstärken	-8023
▁Pfer	-8024
▁fehlt	-8025
▁Kommun	-8026
▁höchst	-8027
Vor	-8028
zir	-8029
▁Burg	-8030
▁Kaffee	-8031
▁Übernachtung	-8032
gyp	-8033
äusern	-8034
▁Stoffe	-8035
▁ausgerichtet	-8036
ordnungen	-8037
▁ausgeb	-8038
▁poln	-8039
▁vorzulegen	-8040
ruh	-8041
▁rooms	-8042
▁Verletzung	-8043
kret	-8044
▁effizient	-8045
▁überprüft	-8046
▁Block	-8047
itim	-8048
weilen	-8049
▁Wählen	-8050
▁beobachten	-8051
ual	-8052
amin	-8053
▁Erfüllung	-8054
▁breakfast	-8055
eira	-8056
▁Erholung	-8057
▁Zeu	-8058
▁konkret	-8059
▁Gehminuten	-8060
▁Überlegungen	-8061
▁konf	-8062
▁schicken	-8063
letter	-8064
▁Fußball	-8065
▁bemerken	-8066
▁wohnen	-8067
▁Residen	-8068
▁Mittag	-8069
▁Camping	-8070
▁verkaufen	-8071
▁AKP	-8072
▁Konto	-8073
▁Sterne	-8074
▁UNO	-8075
▁NATO	-8076
▁Mangel	-8077
▁erzeugt	-8078
▁origin	-8079
▁wettbewerbsf	-8080
äumt	-8081
▁gepf	-8082
vern	-8083
ral	-8084
▁Einstellungen	-8085
▁Grünen	-8086
▁Cook	-8087
▁Deutsche	-8088
▁westlichen	-8089
▁widersp	-8090
tiz	-8091
▁Erlebnis	-8092
▁verboten	-8093
▁Bos	-8094
▁Pop	-8095
▁stud	-8096
▁kamen	-8097
▁mittleren	-8098
▁Anwender	-8099
ida	-8100
▁Na	-8101
▁solches	-8102
▁auseinander	-8103
ränke	-8104
▁Gericht	-8105
▁Wäl	-8106
▁massi	-8107
▁kritis	-8108
Daten	-8109
▁super	-8110
ria	-8111
übt	-8112
▁rest	-8113
▁Vizep	-8114
▁Power	-8115
▁Schüler	-8116
▁Beschwer	-8117
▁beruht	-8118
alisierten	-8119
▁Renten	-8120
▁nör	-8121
▁Zahlungs	-8122
▁Madrid	-8123
▁Schulen	-8124
▁Orte	-8125
hängen	-8126
▁stammen	-8127
▁bislang	-8128
urteilung	-8129
▁Gesellschaften	-8130
rennt	-8131
▁Gleichstellung	-8132
porte	-8133
Beifall	-8134
▁inmitten	-8135
▁verkauft	-8136
▁Rati	-8137
▁Gerade	-8138
▁erwähnen	-8139
▁virtu	-8140
▁Krankheit	-8141
urm	-8142
▁Erf	-8143
viertel	-8144
▁letztendlich	-8145
▁Augenblick	-8146
aben	-8147
stoßen	-8148
gte	-8149
▁nahm	-8150
LE	-8151
bring	-8152
▁ethn	-8153
etzte	-8154
▁versichern	-8155
▁traditionelle	-8156
▁Verzö	-8157
▁Bör	-8158
kehrt	-8159
▁Sohn	-8160
▁Tenn	-8161
▁Mitgliedschaft	-8162
▁Uns	-8163
▁kontaktieren	-8164
▁optimale	-8165
▁Geschwindigkeit	-8166
schiff	-8167
▁hervorra	-8168
IB	-8169
▁Nachhal	-8170
schreiben	-8171
▁Vern	-8172
▁Aktien	-8173
▁Außenpolitik	-8174
utern	-8175
▁Schiffe	-8176
”.	-8177
agentur	-8178
▁lokale	-8179
▁hervorgehoben	-8180
eiert	-8181
▁Schon	-8182
▁Textil	-8183
▁breiten	-8184
▁Nachricht	-8185
spartei	-8186
▁Nein	-8187
▁Brenn	-8188
▁Belast	-8189
▁Kontakte	-8190
▁genügend	-8191
mente	-8192
liehen	-8193
▁mitteilen	-8194
Script	-8195
▁deswegen	-8196
▁vorgesehenen	-8197
▁Rh	-8198
▁Audio	-8199
▁Gottes	-8200
ION	-8201
senz	-8202
ähler	-8203
zenten	-8204
▁Zentral	-8205
▁jur	-8206
▁Medizin	-8207
▁Aben	-8208
▁weist	-8209
▁Sonntag	-8210
▁Oder	-8211
▁einbezogen	-8212
▁Erm	-8213
▁Saison	-8214
▁Tätigkeiten	-8215
mitglied	-8216
▁Station	-8217
Form	-8218
arus	-8219
▁Genießen	-8220
▁genannte	-8221
▁illegalen	-8222
▁reduzieren	-8223
The	-8224
▁Begl	-8225
▁Konkur	-8226
geschichte	-8227
▁britische	-8228
▁dest	-8229
amente	-8230
betten	-8231
ieden	-8232
▁einzur	-8233
▁staatlichen	-8234
▁Amt	-8235
folgung	-8236
▁Alltag	-8237
▁unterstreichen	-8238
▁günstig	-8239
▁hierbei	-8240
▁Weiteren	-8241
▁Videos	-8242
andt	-8243
▁Medik	-8244
▁Ausflüge	-8245
skon	-8246
▁Zentralbank	-8247
ymbol	-8248
▁Positionen	-8249
organisation	-8250
onto	-8251
▁verteidigen	-8252
▁Santa	-8253
▁teile	-8254
▁gewöhn	-8255
▁erstmals	-8256
▁betreiben	-8257
▁Freizügigkeit	-8258
▁Vorstellung	-8259
igner	-8260
▁Abfall	-8261
▁spezifische	-8262
▁ansprechen	-8263
▁Anlass	-8264
euert	-8265
gerät	-8266
hört	-8267
▁Joh	-8268
▁sozialer	-8269
▁Praktiken	-8270
öffnung	-8271
▁deutsch	-8272
strichen	-8273
▁angepasst	-8274
▁beigetragen	-8275
edig	-8276
sfonds	-8277
▁betrieben	-8278
▁Ul	-8279
hältnisse	-8280
frikanischen	-8281
▁aktive	-8282
▁entscheidender	-8283
▁Jo	-8284
▁Lok	-8285
▁Alli	-8286
▁which	-8287
▁Regime	-8288
▁Marke	-8289
▁glück	-8290
▁verringern	-8291
kür	-8292
cell	-8293
zepte	-8294
▁Verfasser	-8295
niveau	-8296
▁Anrei	-8297
sprinzip	-8298
ektrum	-8299
▁Ergän	-8300
achteil	-8301
atter	-8302
▁Afghanistan	-8303
▁0,	-8304
▁bele	-8305
▁Frist	-8306
▁abstimmen	-8307
▁Prag	-8308
▁Umsatz	-8309
▁weitgehend	-8310
▁Wirtschaftsw	-8311
▁bekommt	-8312
▁tritt	-8313
▁Brasil	-8314
▁Passwort	-8315
▁Vereinfach	-8316
ußt	-8317
view	-8318
ränkung	-8319
nien	-8320
▁Betten	-8321
▁Quellen	-8322
lowen	-8323
▁Plattform	-8324
tisches	-8325
▁könnt	-8326
▁Vision	-8327
▁künftige	-8328
▁herunterladen	-8329
izza	-8330
▁jener	-8331
arr	-8332
▁has	-8333
▁Ebenen	-8334
▁strategischen	-8335
ärten	-8336
▁Win	-8337
schafts	-8338
lager	-8339
▁personenbezogen	-8340
raten	-8341
▁verfügbaren	-8342
laubwürdigkeit	-8343
äßt	-8344
▁Kal	-8345
:0	-8346
weisungen	-8347
ammelt	-8348
▁Sachen	-8349
▁Premier	-8350
fernen	-8351
▁Institut	-8352
kund	-8353
▁letztlich	-8354
fällig	-8355
rip	-8356
ärkt	-8357
▁Liter	-8358
▁modif	-8359
wäl	-8360
leiste	-8361
▁Format	-8362
▁32	-8363
7.	-8364
TA	-8365
schefs	-8366
▁erstre	-8367
▁Kriminalität	-8368
▁Mul	-8369
▁Zuver	-8370
▁Situationen	-8371
skrise	-8372
▁Miß	-8373
▁vollen	-8374
▁Volksgesundheit	-8375
▁vorgeschlagene	-8376
jektiv	-8377
osophie	-8378
systems	-8379
▁gestattet	-8380
▁kurzfrist	-8381
▁Glaubwürdigkeit	-8382
▁Respekt	-8383
staatlichen	-8384
▁freundlich	-8385
uls	-8386
▁Sä	-8387
▁Konsequenzen	-8388
zahlen	-8389
▁beendet	-8390
bereichen	-8391
▁Fahrzeuge	-8392
▁Dokumenten	-8393
▁wiederholt	-8394
Te	-8395
▁grö	-8396
▁Gang	-8397
▁anzuzeigen	-8398
▁Stimmen	-8399
▁As	-8400
▁Sm	-8401
▁Klasse	-8402
▁Abendessen	-8403
woch	-8404
▁Wild	-8405
▁getragen	-8406
▁Ansichten	-8407
▁00	-8408
ICHT	-8409
ika	-8410
▁hinweg	-8411
▁behoben	-8412
ía	-8413
▁Cap	-8414
seiten	-8415
▁Suiten	-8416
sproblem	-8417
▁Präsent	-8418
eigerung	-8419
Über	-8420
andern	-8421
▁Bestä	-8422
▁Sammlung	-8423
▁größeres	-8424
▁dé	-8425
▁Objekt	-8426
grad	-8427
▁une	-8428
▁Pension	-8429
▁läßt	-8430
▁enthaltenen	-8431
ypen	-8432
rohung	-8433
▁Vorausschau	-8434
▁gelingt	-8435
▁Prozesse	-8436
.-	-8437
▁dürfte	-8438
▁Entspannung	-8439
▁PDF	-8440
▁Brand	-8441
▁verteilt	-8442
▁bisherigen	-8443
uste	-8444
▁unterliegen	-8445
▁umfassend	-8446
▁offiziellen	-8447
▁zus	-8448
ücher	-8449
iegelt	-8450
spielen	-8451
▁Lernen	-8452
▁unterzeichnet	-8453
garten	-8454
▁vorliegende	-8455
häfen	-8456
pol	-8457
▁Spitzen	-8458
▁Reduzierung	-8459
ww	-8460
▁Alex	-8461
▁Sind	-8462
Service	-8463
▁dans	-8464
▁Oliven	-8465
▁Hamburg	-8466
ights	-8467
▁Meines	-8468
▁erlebt	-8469
ähigen	-8470
▁–,	-8471
▁Montag	-8472
▁eingegangen	-8473
▁Arbeitsk	-8474
▁Herbst	-8475
arma	-8476
ios	-8477
lexibl	-8478
▁besonderer	-8479
▁Güter	-8480
▁abend	-8481
▁Kulturen	-8482
ugang	-8483
▁ignor	-8484
▁hervorragenden	-8485
▁entwickelte	-8486
rolle	-8487
rechter	-8488
ktivität	-8489
▁36	-8490
▁erhoben	-8491
ländische	-8492
abt	-8493
▁anschließend	-8494
verl	-8495
ruption	-8496
code	-8497
hnung	-8498
▁unterscheiden	-8499
▁Michael	-8500
▁offenbar	-8501
▁finanziell	-8502
inos	-8503
inien	-8504
lösungen	-8505
▁dankbar	-8506
▁herrscht	-8507
dy	-8508
▁reduziert	-8509
▁GN	-8510
chst	-8511
bedarf	-8512
ask	-8513
hel	-8514
▁mel	-8515
lernen	-8516
▁Widerspruch	-8517
▁(200	-8518
▁Beitritts	-8519
grö	-8520
alender	-8521
▁gebeten	-8522
beschreibung	-8523
▁Zucker	-8524
▁List	-8525
▁Wachstums	-8526
▁ersetzen	-8527
leidung	-8528
▁las	-8529
▁reserv	-8530
▁vereinbart	-8531
▁jahr	-8532
änglich	-8533
▁ernsthaft	-8534
▁Flugzeug	-8535
▁derartige	-8536
▁allzu	-8537
▁go	-8538
grenzung	-8539
▁gerichtet	-8540
▁Abschaffung	-8541
▁Plug	-8542
eigern	-8543
▁perfekte	-8544
▁ed	-8545
▁Wall	-8546
▁sogenannten	-8547
▁festzulegen	-8548
▁grosse	-8549
▁moment	-8550
▁fantast	-8551
▁umfangreiche	-8552
atische	-8553
urn	-8554
odex	-8555
ugos	-8556
▁bedeutende	-8557
initi	-8558
▁Versionen	-8559
▁einzusetzen	-8560
dienstleistungen	-8561
▁Geburt	-8562
▁mussten	-8563
▁Meister	-8564
▁begrenzt	-8565
▁fund	-8566
▁Leiden	-8567
▁nachdrücklich	-8568
www	-8569
▁Cre	-8570
politischen	-8571
EU	-8572
lav	-8573
technologie	-8574
▁Binnenmarktes	-8575
▁inn	-8576
▁letzter	-8577
▁gebrauch	-8578
▁präsentieren	-8579
▁Planeten	-8580
▁Betreiber	-8581
▁br	-8582
play	-8583
▁erfreut	-8584
▁jetzigen	-8585
CC	-8586
ührt	-8587
De	-8588
▁gewünschten	-8589
uck	-8590
▁Cro	-8591
▁Ref	-8592
▁eignet	-8593
▁lieber	-8594
ew	-8595
▁pf	-8596
male	-8597
weitern	-8598
▁rechten	-8599
pos	-8600
pre	-8601
dule	-8602
▁Abw	-8603
▁offene	-8604
▁bedanken	-8605
▁Vorlage	-8606
▁3,	-8607
▁herum	-8608
▁beeinträch	-8609
cial	-8610
▁begeg	-8611
beziehen	-8612
▁Kreis	-8613
▁machte	-8614
▁internen	-8615
enne	-8616
▁30.	-8617
▁Führer	-8618
▁Befugnisse	-8619
▁französische	-8620
aria	-8621
rink	-8622
▁Mex	-8623
▁Stamm	-8624
8,	-8625
annter	-8626
▁indir	-8627
▁Kirchen	-8628
▁Existenz	-8629
▁Euch	-8630
aub	-8631
alitäten	-8632
eitigung	-8633
ión	-8634
▁Patent	-8635
▁Update	-8636
▁zukünftigen	-8637
▁Atom	-8638
anspruch	-8639
▁Leitung	-8640
SV	-8641
sprozesses	-8642
▁31.	-8643
aturen	-8644
▁Balkan	-8645
Software	-8646
▁Aqu	-8647
▁führende	-8648
ipfel	-8649
uz	-8650
tifizierung	-8651
DA	-8652
EW	-8653
26	-8654
antien	-8655
▁ausser	-8656
▁behinder	-8657
ätzt	-8658
▁USB	-8659
▁Berichten	-8660
▁künstler	-8661
▁Bearbeitung	-8662
▁palästinens	-8663
lla	-8664
▁Metall	-8665
bildungs	-8666
onym	-8667
anisch	-8668
▁konfron	-8669
▁Dra	-8670
▁Nummer	-8671
herstellung	-8672
Mitgliedstaaten	-8673
▁OS	-8674
▁Barroso	-8675
sprogramme	-8676
▁Por	-8677
bleiben	-8678
Kl	-8679
▁Innenstadt	-8680
▁Ablehnung	-8681
5-	-8682
▁Attra	-8683
fleisch	-8684
▁Volkes	-8685
ängst	-8686
mitglieder	-8687
▁speichern	-8688
▁komplette	-8689
ugoslaw	-8690
▁Speisen	-8691
▁portug	-8692
▁Gerechtigkeit	-8693
▁una	-8694
▁sichere	-8695
▁leb	-8696
rats	-8697
rektur	-8698
▁praktische	-8699
pla	-8700
quent	-8701
▁Perspektive	-8702
üss	-8703
▁hart	-8704
alerie	-8705
▁lag	-8706
▁Denk	-8707
▁Hof	-8708
▁Himmel	-8709
▁Beteiligten	-8710
örp	-8711
senden	-8712
EA	-8713
mittlung	-8714
▁Nachhaltigkeit	-8715
▁Alp	-8716
iterr	-8717
▁angekün	-8718
▁Vermögen	-8719
auben	-8720
eiler	-8721
▁Katastrophe	-8722
▁stellte	-8723
auschen	-8724
▁benach	-8725
▁gefallen	-8726
▁Widerstand	-8727
▁Passag	-8728
▁ähnlich	-8729
▁Arb	-8730
▁Anwesen	-8731
▁geplant	-8732
▁Gespräch	-8733
tial	-8734
▁rec	-8735
programme	-8736
▁Parad	-8737
ove	-8738
zielt	-8739
endung	-8740
▁Organe	-8741
▁konzentriert	-8742
lösen	-8743
ußert	-8744
▁festgelegten	-8745
▁si	-8746
▁dargestellt	-8747
▁hoffentlich	-8748
solid	-8749
4-	-8750
erkt	-8751
schauen	-8752
▁infolge	-8753
▁korrekt	-8754
▁hingegen	-8755
▁intelligen	-8756
▁Menschenrechts	-8757
▁para	-8758
räglich	-8759
wiegend	-8760
▁clean	-8761
zed	-8762
▁gewähren	-8763
▁anhand	-8764
▁schlagen	-8765
orie	-8766
▁Tax	-8767
▁Schreiben	-8768
▁Katastrophen	-8769
▁stay	-8770
▁Konver	-8771
▁komfortable	-8772
▁Tom	-8773
▁>	-8774
▁kat	-8775
▁Korruption	-8776
hle	-8777
kel	-8778
▁Cast	-8779
▁Wohlstand	-8780
▁unzur	-8781
▁geprägt	-8782
analy	-8783
▁orien	-8784
▁erstkl	-8785
▁Heizung	-8786
Sh	-8787
▁Lam	-8788
▁lö	-8789
ynch	-8790
▁ergibt	-8791
▁Wochenende	-8792
Web	-8793
▁),	-8794
zähl	-8795
▁Prop	-8796
▁Museen	-8797
▁Gemeinsame	-8798
ury	-8799
ähige	-8800
swerte	-8801
jahres	-8802
dlichen	-8803
▁finanziert	-8804
▁Ve	-8805
ros	-8806
fuhr	-8807
zungen	-8808
▁Bürgerbeauftrag	-8809
▁•	-8810
▁Kreditkarte	-8811
uth	-8812
▁Inf	-8813
▁Tim	-8814
itar	-8815
▁Transa	-8816
▁ung	-8817
gefunden	-8818
instrument	-8819
▁umge	-8820
ietung	-8821
▁portugies	-8822
▁Erinnerung	-8823
uverän	-8824
▁flexibl	-8825
▁einheitliche	-8826
unger	-8827
▁dist	-8828
ichtung	-8829
▁wünsche	-8830
▁Eintritt	-8831
35	-8832
▁Av	-8833
▁rechtzeitig	-8834
lesen	-8835
▁plus	-8836
▁Dritte	-8837
ockt	-8838
itent	-8839
gefügt	-8840
ützlich	-8841
▁Leiter	-8842
▁investieren	-8843
7,	-8844
afe	-8845
gent	-8846
▁Hilfs	-8847
▁antworten	-8848
hops	-8849
▁Nik	-8850
▁sign	-8851
▁zieht	-8852
ranten	-8853
ökonom	-8854
▁Registrierung	-8855
▁Peter	-8856
▁grossen	-8857
gerecht	-8858
▁Tennis	-8859
▁Ball	-8860
ips	-8861
ublic	-8862
▁Vereinfachung	-8863
▁Laut	-8864
▁Solar	-8865
▁sichtbar	-8866
vorschläge	-8867
auspiel	-8868
▁Schlacht	-8869
▁Finanzierungs	-8870
▁Alkohol	-8871
▁externen	-8872
▁offiziell	-8873
bi	-8874
ki	-8875
kap	-8876
▁Kub	-8877
unruh	-8878
waffen	-8879
▁Ausmaß	-8880
ukle	-8881
▁Überblick	-8882
▁angewendet	-8883
▁Emission	-8884
Fl	-8885
▁sport	-8886
kräfte	-8887
▁mehrfach	-8888
▁froh	-8889
▁nütz	-8890
ücken	-8891
▁versp	-8892
▁Leistungs	-8893
▁erweitern	-8894
▁Flüchtlinge	-8895
▁Urlaubs	-8896
▁Ausblick	-8897
▁Ker	-8898
▁Weihn	-8899
▁hohem	-8900
▁unentgel	-8901
▁existiert	-8902
eff	-8903
plom	-8904
▁überaus	-8905
▁Veränderung	-8906
Ges	-8907
▁Kab	-8908
▁ökonom	-8909
▁Cop	-8910
iano	-8911
▁Straßburg	-8912
▁laufenden	-8913
▁heim	-8914
▁bedeutend	-8915
▁qualitativ	-8916
ädchen	-8917
▁Johann	-8918
▁modified	-8919
▁Pakete	-8920
azitäten	-8921
▁cl	-8922
▁sm	-8923
▁Lobby	-8924
▁stattfindet	-8925
▁75	-8926
▁extra	-8927
gestaltung	-8928
▁Konzert	-8929
▁humanitäre	-8930
▁Staates	-8931
dis	-8932
▁ta	-8933
prozess	-8934
freundliche	-8935
▁Darstellung	-8936
atch	-8937
▁menschliche	-8938
▁Los	-8939
▁Free	-8940
▁standard	-8941
▁vornehmen	-8942
gelöst	-8943
▁korrig	-8944
▁untersucht	-8945
▁kontrollieren	-8946
Staaten	-8947
▁genaue	-8948
Em	-8949
öch	-8950
▁enger	-8951
▁Lehrer	-8952
▁Hardware	-8953
▁Pläne	-8954
spräsidenten	-8955
▁Tausende	-8956
spolitischen	-8957
▁unabhängigen	-8958
▁22.	-8959
▁Ruf	-8960
▁Assozi	-8961
SQL	-8962
▁Zür	-8963
▁Festival	-8964
▁nützlich	-8965
DR	-8966
▁Pic	-8967
imming	-8968
▁Schuld	-8969
geschäft	-8970
ulin	-8971
▁Tun	-8972
▁san	-8973
illen	-8974
ämpft	-8975
UN	-8976
Server	-8977
methoden	-8978
▁Allianz	-8979
▁zugelassen	-8980
reicher	-8981
▁beur	-8982
▁wirksame	-8983
▁sichergestellt	-8984
▁Gefäng	-8985
führungs	-8986
▁Luxemburg	-8987
▁Parkplätze	-8988
▁frage	-8989
▁selber	-8990
uc	-8991
▁genehm	-8992
▁Grundlagen	-8993
▁angebracht	-8994
▁Zut	-8995
retung	-8996
▁Dynam	-8997
▁Floren	-8998
istischer	-8999
▁Zahlungen	-9000
▁Amerika	-9001
sur	-9002
steuropa	-9003
▁Schei	-9004
▁verdienen	-9005
eto	-9006
Le	-9007
drückt	-9008
▁natürliche	-9009
fluss	-9010
alifik	-9011
▁gewal	-9012
▁Manager	-9013
▁bestellen	-9014
▁Fein	-9015
▁umsetzen	-9016
▁konfrontiert	-9017
▁Ferienwohnung	-9018
rieren	-9019
▁Maria	-9020
▁avec	-9021
▁Fahrrad	-9022
▁Hauptbahnhof	-9023
▁Asien	-9024
▁knapp	-9025
▁PPE	-9026
▁beschränken	-9027
7)	-9028
tigungen	-9029
▁fördert	-9030
▁Technolog	-9031
DER	-9032
Tra	-9033
▁herrlichen	-9034
▁Frü	-9035
▁Fotograf	-9036
▁Verteilung	-9037
▁Handlungs	-9038
1⁄	-9039
▁Refer	-9040
▁leichter	-9041
▁Konzern	-9042
zeichnungen	-9043
▁Kanada	-9044
▁begleitet	-9045
ehren	-9046
▁House	-9047
▁rufen	-9048
einigung	-9049
institution	-9050
ador	-9051
▁zivil	-9052
▁Mängel	-9053
▁Fab	-9054
▁entdeckt	-9055
▁aufgebaut	-9056
▁Kategorien	-9057
▁geäußert	-9058
sonsten	-9059
TER	-9060
olen	-9061
hi	-9062
▁rech	-9063
grunde	-9064
▁Komplex	-9065
▁"...	-9066
▁digitalen	-9067
▁einst	-9068
▁heißen	-9069
▁Sob	-9070
▁Van	-9071
▁Steuerung	-9072
▁spezialisiert	-9073
▁Phot	-9074
▁Slowak	-9075
alisierte	-9076
▁unmittelbarer	-9077
ächer	-9078
riedenheit	-9079
Projekt	-9080
:30	-9081
▁hast	-9082
brechen	-9083
▁Belarus	-9084
▁Modelle	-9085
▁gesetzlichen	-9086
▁Ursachen	-9087
▁pop	-9088
▁geeignete	-9089
▁klassischen	-9090
TP	-9091
▁Cam	-9092
▁Dän	-9093
orgungs	-9094
schläge	-9095
▁gesundheit	-9096
▁einzuführen	-9097
gesp	-9098
▁maler	-9099
▁Äußer	-9100
▁Reihen	-9101
aktionen	-9102
▁Newsletter	-9103
▁AR	-9104
▁faszin	-9105
▁Bestimmung	-9106
▁russischen	-9107
▁Regierungschefs	-9108
▁Ministerp	-9109
▁Gri	-9110
▁bus	-9111
▁ungar	-9112
▁Wandel	-9113
▁keinem	-9114
cu	-9115
▁ergänzt	-9116
▁spreche	-9117
▁Trotzdem	-9118
▁unzureich	-9119
baus	-9120
anzig	-9121
ender	-9122
▁1990	-9123
▁Haben	-9124
▁Häuser	-9125
▁Französ	-9126
▁diesbezüglich	-9127
▁Linien	-9128
▁Verhandlungs	-9129
▁25.	-9130
▁Street	-9131
etto	-9132
ird	-9133
▁Zeitung	-9134
bungen	-9135
sträger	-9136
stanz	-9137
▁Parlamente	-9138
ès	-9139
werfen	-9140
▁langfristig	-9141
▁Ga	-9142
umin	-9143
▁Mission	-9144
▁sicheren	-9145
gestellten	-9146
▁Bildschirm	-9147
▁Abhängigkeit	-9148
▁na	-9149
▁Erhaltung	-9150
▁selben	-9151
▁ausgehen	-9152
▁kompeten	-9153
▁auffordern	-9154
schi	-9155
▁Rückkehr	-9156
▁behaupten	-9157
▁Flash	-9158
▁Branche	-9159
▁enttäu	-9160
▁Somit	-9161
wirklichung	-9162
ckung	-9163
▁klima	-9164
▁Benutzung	-9165
ümer	-9166
▁Profil	-9167
▁zweitens	-9168
ged	-9169
gemä	-9170
▁zugrunde	-9171
▁psych	-9172
igem	-9173
inkel	-9174
▁geraten	-9175
▁frag	-9176
bergen	-9177
▁Schnell	-9178
▁Fernsehen	-9179
TS	-9180
▁Nachbarschaft	-9181
irmen	-9182
▁spät	-9183
▁zukünftige	-9184
Stand	-9185
▁israel	-9186
▁veränder	-9187
▁eingestellt	-9188
riere	-9189
▁Dingen	-9190
▁ländliche	-9191
▁Wiederaufbau	-9192
ido	-9193
beweg	-9194
▁Vergn	-9195
▁Rechten	-9196
75	-9197
valu	-9198
▁EN	-9199
▁blo	-9200
änomen	-9201
▁Länge	-9202
änderungen	-9203
▁schnellen	-9204
▁Umweltfragen	-9205
()	-9206
veranst	-9207
▁unentgeltlich	-9208
▁.....	-9209
▁Martin	-9210
▁hierfür	-9211
any	-9212
aster	-9213
hrase	-9214
suche	-9215
▁vot	-9216
▁hierzu	-9217
▁Niederlanden	-9218
▁--	-9219
▁integrierten	-9220
same	-9221
eiger	-9222
gebieten	-9223
▁besucht	-9224
▁Öffnung	-9225
anter	-9226
▁Individu	-9227
▁Aufsichts	-9228
▁Parameter	-9229
▁п	-9230
▁via	-9231
▁begrenz	-9232
▁Maschine	-9233
▁them	-9234
▁konse	-9235
8)	-9236
▁gefragt	-9237
▁Berliner	-9238
▁Komplett	-9239
halle	-9240
▁there	-9241
▁Merc	-9242
▁gramm	-9243
▁Schauspiel	-9244
ärme	-9245
▁por	-9246
▁schm	-9247
▁Telekommunik	-9248
röm	-9249
▁Dass	-9250
▁nord	-9251
zentration	-9252
▁Bedrohung	-9253
▁won	-9254
▁jeglich	-9255
▁schäd	-9256
▁Samstag	-9257
▁Kongress	-9258
▁Generationen	-9259
äle	-9260
▁essen	-9261
▁Jugendlichen	-9262
▁zurückzuführen	-9263
▁Föder	-9264
▁leiten	-9265
▁reisen	-9266
▁Elektro	-9267
dex	-9268
lausel	-9269
onomie	-9270
▁verweisen	-9271
bat	-9272
▁Serbien	-9273
▁Debatten	-9274
▁Gent	-9275
▁besorgt	-9276
▁wirtschaftlich	-9277
▁Turn	-9278
gressi	-9279
okratie	-9280
later	-9281
achter	-9282
▁Lesen	-9283
▁Revision	-9284
▁etabl	-9285
▁Strecke	-9286
▁gestärkt	-9287
overn	-9288
staats	-9289
▁drama	-9290
▁Album	-9291
▁Tonnen	-9292
▁Todesstrafe	-9293
ides	-9294
▁müß	-9295
▁Paul	-9296
zusehen	-9297
86	-9298
worben	-9299
▁Versorgung	-9300
▁anzubieten	-9301
▁Andererseits	-9302
obile	-9303
utzut	-9304
95	-9305
eras	-9306
leute	-9307
▁Berge	-9308
▁Werbe	-9309
geboten	-9310
▁Würde	-9311
▁Zauber	-9312
utzutage	-9313
▁Kopenhagen	-9314
▁Schengen	-9315
zusp	-9316
▁Gefangen	-9317
▁Bö	-9318
sbek	-9319
▁24-	-9320
Stunden	-9321
verbrauch	-9322
▁Potenzial	-9323
Lin	-9324
ave	-9325
otten	-9326
▁manche	-9327
▁Argument	-9328
▁schweren	-9329
▁rechtliche	-9330
▁Mitent	-9331
▁maximal	-9332
▁Fahrer	-9333
▁Märkten	-9334
▁normalen	-9335
")	-9336
ernt	-9337
▁vorgestellt	-9338
blig	-9339
▁bez	-9340
▁Sied	-9341
entral	-9342
orizont	-9343
verwaltung	-9344
▁Bedürfnissen	-9345
▁2011	-9346
▁Vertrages	-9347
▁Verwirklichung	-9348
ologisch	-9349
Qu	-9350
ube	-9351
▁stammt	-9352
umb	-9353
▁Samm	-9354
ination	-9355
▁Dialogs	-9356
nam	-9357
uel	-9358
var	-9359
▁Bücher	-9360
▁Gewerk	-9361
anke	-9362
▁User	-9363
▁tsch	-9364
▁Commun	-9365
▁strategische	-9366
▁Ablauf	-9367
▁zerstört	-9368
▁AB	-9369
▁bauen	-9370
schieben	-9371
▁Nachmittag	-9372
▁Arbeitgeber	-9373
▁mittlerweile	-9374
irl	-9375
▁rad	-9376
▁vari	-9377
regelung	-9378
▁Beseitigung	-9379
▁("	-9380
▁unglaub	-9381
▁ähnliche	-9382
▁erfordern	-9383
▁Fuss	-9384
▁wahren	-9385
▁begeist	-9386
▁ausgewählt	-9387
PC	-9388
▁zulassen	-9389
aktivitäten	-9390
yer	-9391
▁Demon	-9392
ifferenz	-9393
▁beinhalten	-9394
was	-9395
▁Cal	-9396
oppelt	-9397
▁gekennzeichnet	-9398
▁Alters	-9399
▁errichtet	-9400
▁Andre	-9401
▁übersch	-9402
▁langfristige	-9403
▁Zuverlässigkeit	-9404
-3	-9405
▁Dollar	-9406
▁Anstieg	-9407
▁befasst	-9408
▁unabhängige	-9409
erkl	-9410
Bereich	-9411
▁Anhör	-9412
NL	-9413
erer	-9414
▁sim	-9415
▁Soft	-9416
▁Katalog	-9417
▁eventuell	-9418
▁Schwarz	-9419
▁schätzen	-9420
arbeitungs	-9421
▁Aufenthalts	-9422
▁untersuchen	-9423
▁incl	-9424
▁Auseinander	-9425
▁CH	-9426
emark	-9427
▁Venedig	-9428
▁comfort	-9429
ique	-9430
walt	-9431
▁realer	-9432
▁Ratifizierung	-9433
▁III	-9434
▁Autos	-9435
▁reichhal	-9436
ürzt	-9437
▁Fläche	-9438
ucher	-9439
▁renoviert	-9440
▁Branchen	-9441
▁Hall	-9442
▁Spielen	-9443
▁Übergangs	-9444
▁Pflege	-9445
▁Anreise	-9446
▁gewid	-9447
streben	-9448
▁Corpor	-9449
▁Lit	-9450
anner	-9451
deckung	-9452
regionen	-9453
▁überlassen	-9454
bares	-9455
▁Gelder	-9456
▁Spezialitäten	-9457
▁lebt	-9458
namen	-9459
▁Profession	-9460
▁Filter	-9461
▁Konzer	-9462
formance	-9463
▁Besuchen	-9464
▁Frühjahr	-9465
▁Appartements	-9466
städ	-9467
▁übert	-9468
▁Bereits	-9469
▁wirken	-9470
▁Gebühren	-9471
▁sc	-9472
eldet	-9473
ronom	-9474
▁soeben	-9475
▁türkischen	-9476
Part	-9477
▁Ausgleich	-9478
wn	-9479
▁Atlan	-9480
▁bewähr	-9481
▁geregelt	-9482
▁Acc	-9483
▁Media	-9484
reibungen	-9485
ious	-9486
▁derzeitige	-9487
omas	-9488
▁Obst	-9489
otoren	-9490
▁verletzt	-9491
tor	-9492
anforderungen	-9493
▁Vizepräsident	-9494
▁Shop	-9495
würdig	-9496
ynchron	-9497
zahlungen	-9498
▁Beachtung	-9499
▁Aufzug	-9500
▁Begrün	-9501
▁Airport	-9502
▁cm	-9503
irma	-9504
▁Käufer	-9505
▁(*	-9506
ronik	-9507
▁Fang	-9508
▁gross	-9509
stab	-9510
▁web	-9511
▁Brasilien	-9512
▁berechnet	-9513
▁typischen	-9514
gebnis	-9515
▁Kreuz	-9516
▁moral	-9517
▁handel	-9518
behalt	-9519
ZB	-9520
▁Immer	-9521
▁gu	-9522
▁1994	-9523
▁Spann	-9524
▁gedacht	-9525
▁angemessenen	-9526
▁Client	-9527
▁Adr	-9528
paket	-9529
▁Vari	-9530
▁Bereitschaft	-9531
96	-9532
EF	-9533
▁250	-9534
▁praktischen	-9535
▁SD	-9536
sekret	-9537
yd	-9538
ôtel	-9539
▁Höchst	-9540
▁Vertretern	-9541
hrt	-9542
▁Denken	-9543
▁überwinden	-9544
▁festzustellen	-9545
▁Ausbau	-9546
▁Systemen	-9547
▁JavaScript	-9548
▁fach	-9549
▁Strände	-9550
▁Wohnzimmer	-9551
▁Einfl	-9552
yle	-9553
▁aufs	-9554
▁inak	-9555
hafter	-9556
▁Verhandlung	-9557
ст	-9558
▁Beide	-9559
▁block	-9560
▁Nachbarn	-9561
▁Stärke	-9562
▁eigener	-9563
▁Beschluß	-9564
ena	-9565
rüne	-9566
▁einstimm	-9567
▁Andere	-9568
▁irischen	-9569
kal	-9570
▁freut	-9571
▁hinein	-9572
▁Abs	-9573
gäste	-9574
▁Annehm	-9575
▁integrierte	-9576
9)	-9577
▁190	-9578
▁Beach	-9579
▁griechischen	-9580
▁Brief	-9581
▁Franz	-9582
▁Betreuung	-9583
▁anzuwenden	-9584
otto	-9585
▁Roy	-9586
▁mak	-9587
▁Anmeldung	-9588
▁angewandt	-9589
▁bedau	-9590
isation	-9591
▁England	-9592
▁Wissens	-9593
▁gleichermaßen	-9594
▁richtet	-9595
▁Zerst	-9596
ez	-9597
ées	-9598
▁Datum	-9599
▁Wesentlichen	-9600
klar	-9601
▁Dikt	-9602
schreitenden	-9603
▁Übertragung	-9604
anischer	-9605
mittelsicherheit	-9606
eth	-9607
öhnen	-9608
▁wesentlicher	-9609
ktions	-9610
▁Währungsunion	-9611
ely	-9612
EO	-9613
over	-9614
eiern	-9615
▁schwar	-9616
▁Est	-9617
▁Bevölkerungs	-9618
ney	-9619
ple	-9620
pon	-9621
stechnik	-9622
▁kümmern	-9623
ni	-9624
uti	-9625
▁Köl	-9626
gemein	-9627
▁Verzeichnis	-9628
drücken	-9629
▁exzellen	-9630
▁potenzie	-9631
becken	-9632
▁appell	-9633
▁ot	-9634
gner	-9635
zten	-9636
▁Hohe	-9637
▁Errichtung	-9638
▁Vermittlungs	-9639
ING	-9640
▁helpf	-9641
▁resul	-9642
▁Sobald	-9643
atlan	-9644
▁bewältigen	-9645
▁Lieferanten	-9646
▁kontrolliert	-9647
▁militärischen	-9648
▁normalerweise	-9649
▁Vorrang	-9650
▁älteren	-9651
▁Ausarbeitung	-9652
▁kop	-9653
▁Hinweise	-9654
▁Bevor	-9655
▁wonach	-9656
lossenheit	-9657
▁Mall	-9658
▁Maus	-9659
▁ließ	-9660
recher	-9661
▁Arbeiter	-9662
▁Finnland	-9663
▁Fremdenverkehr	-9664
▁Jack	-9665
▁unnö	-9666
▁Oberfläche	-9667
▁Miet	-9668
▁Seg	-9669
▁Ereignis	-9670
▁Armee	-9671
▁Hindernisse	-9672
▁Mechanismen	-9673
▁vorzunehmen	-9674
▁Ansprüche	-9675
▁Ratschlag	-9676
alon	-9677
wärts	-9678
▁Dreh	-9679
cellent	-9680
▁stärkere	-9681
ova	-9682
▁Hat	-9683
afrika	-9684
▁Befür	-9685
▁aktiven	-9686
▁Bewusstsein	-9687
▁Räume	-9688
▁schlimm	-9689
▁Minute	-9690
▁Internationale	-9691
▁Sur	-9692
▁mod	-9693
arier	-9694
freie	-9695
▁Erfordern	-9696
▁Quelle	-9697
▁dauert	-9698
▁illegale	-9699
▁angenehmen	-9700
▁denjenigen	-9701
▁Benutzern	-9702
▁liber	-9703
▁Konflikte	-9704
asi	-9705
ited	-9706
▁anzunehmen	-9707
▁hervorragend	-9708
▁Angel	-9709
▁ersta	-9710
▁Florenz	-9711
▁festlegen	-9712
▁bedeutenden	-9713
▁IM	-9714
utung	-9715
▁Faktor	-9716
▁belg	-9717
▁Luftfahrt	-9718
▁Bibliothek	-9719
▁Entfernung	-9720
ão	-9721
▁23.	-9722
rates	-9723
▁elegante	-9724
▁erzeugen	-9725
▁effiziente	-9726
rock	-9727
▁Ergebnissen	-9728
▁Wirksamkeit	-9729
ütung	-9730
stellern	-9731
▁Latein	-9732
▁stelle	-9733
▁humanitären	-9734
box	-9735
▁Jose	-9736
▁wechseln	-9737
echten	-9738
▁Berech	-9739
▁Versammlung	-9740
▁Kühl	-9741
▁genie	-9742
stehende	-9743
▁bür	-9744
▁steuer	-9745
▁Interess	-9746
gu	-9747
▁behält	-9748
UM	-9749
orea	-9750
▁vertrauen	-9751
bit	-9752
Prozess	-9753
versammlung	-9754
kurs	-9755
▁Monte	-9756
▁zweck	-9757
handeln	-9758
▁Betriebe	-9759
▁gewisser	-9760
schulen	-9761
▁Territor	-9762
▁Veranstaltungs	-9763
▁Jedoch	-9764
▁AN	-9765
▁Dring	-9766
▁Press	-9767
Version	-9768
mögliche	-9769
stil	-9770
zeige	-9771
▁natur	-9772
▁ermutigen	-9773
Auf	-9774
▁24.	-9775
▁BM	-9776
schritt	-9777
xt	-9778
▁Dubl	-9779
▁Aussage	-9780
▁Flughäfen	-9781
▁Reservierung	-9782
▁́	-9783
burger	-9784
▁zeichnet	-9785
▁negativen	-9786
▁europäisches	-9787
▁ma	-9788
▁views	-9789
▁produzieren	-9790
▁ECU	-9791
▁bewe	-9792
▁Cat	-9793
ühlen	-9794
reiter	-9795
odes	-9796
▁vorn	-9797
betracht	-9798
etzugang	-9799
▁entfernen	-9800
▁jedenfalls	-9801
▁vorgelegten	-9802
▁Ehe	-9803
▁Applik	-9804
agd	-9805
▁Cont	-9806
angebote	-9807
▁Doppelzimmer	-9808
Haus	-9809
denkt	-9810
▁Mount	-9811
▁angeschlossen	-9812
▁Vier	-9813
▁abgegeben	-9814
▁il	-9815
▁enthalt	-9816
fre	-9817
▁Jes	-9818
▁streng	-9819
▁Jung	-9820
pass	-9821
▁GAP	-9822
schnit	-9823
zielen	-9824
▁Repar	-9825
▁Saint	-9826
▁geniessen	-9827
▁Koch	-9828
ementen	-9829
uro	-9830
▁Amer	-9831
▁Prozesses	-9832
hei	-9833
▁Def	-9834
▁ausüben	-9835
▁Unternehmer	-9836
▁erteilt	-9837
ossi	-9838
press	-9839
▁entscheidenden	-9840
▁sin	-9841
▁Show	-9842
ham	-9843
▁Wähler	-9844
▁beruhen	-9845
sverfahren	-9846
antes	-9847
▁service	-9848
ädt	-9849
▁WC	-9850
genz	-9851
mate	-9852
▁Mädchen	-9853
▁entdeckst	-9854
ektak	-9855
berichterstat	-9856
▁Arbeitnehmern	-9857
▁Dokumentation	-9858
ili	-9859
▁professionelle	-9860
übung	-9861
▁kontextuellen	-9862
▁Tieren	-9863
▁chinesischen	-9864
▁imm	-9865
institu	-9866
▁Konstruktion	-9867
boden	-9868
▁inhalt	-9869
▁sammeln	-9870
▁Loc	-9871
▁Via	-9872
▁Hunder	-9873
▁frühen	-9874
▁beenden	-9875
Bo	-9876
geld	-9877
ärung	-9878
▁Einen	-9879
▁Listings	-9880
▁Unterkünfte	-9881
ito	-9882
bieren	-9883
▁Handy	-9884
▁Mandat	-9885
▁wirkt	-9886
▁gegenwärtige	-9887
▁Schlag	-9888
ext	-9889
▁800	-9890
▁kennt	-9891
gehende	-9892
▁Zugangs	-9893
sches	-9894
phrase	-9895
swesen	-9896
▁ré	-9897
▁Schalt	-9898
▁Großteil	-9899
▁hinzufugen	-9900
▁grammatisch	-9901
▁kontextuell	-9902
▁48	-9903
Finde	-9904
▁Präsenz	-9905
▁bestand	-9906
,/	-9907
▁Erzeuger	-9908
ieß	-9909
ener	-9910
quenz	-9911
▁Weil	-9912
▁Training	-9913
▁beabsichtigt	-9914
▁dre	-9915
▁Sekunden	-9916
ölf	-9917
▁Dör	-9918
▁cont	-9919
Bericht	-9920
▁Volkspartei	-9921
tigungs	-9922
empf	-9923
urity	-9924
▁Suite	-9925
..."...	-9926
▁Schlusselwort	-9927
holt	-9928
▁verank	-9929
▁Schlusselphrase	-9930
▁great	-9931
▁aufgezahlt	-9932
1⁄4	-9933
count	-9934
▁legisla	-9935
▁effektive	-9936
▁bearbeiten	-9937
▁#	-9938
ahme	-9939
▁vollständigen	-9940
▁Modernisierung	-9941
ani	-9942
▁dur	-9943
▁Zürich	-9944
▁anwenden	-9945
▁eingebracht	-9946
▁Journalisten	-9947
dates	-9948
▁italienische	-9949
pg	-9950
Dateien	-9951
tisierung	-9952
▁militärische	-9953
▁Echt	-9954
▁täglichen	-9955
▁Bildern	-9956
▁verstehe	-9957
Des	-9958
▁Main	-9959
▁mater	-9960
einkommen	-9961
▁Qualifik	-9962
▁Rab	-9963
ährungs	-9964
▁Bor	-9965
azz	-9966
▁IC	-9967
▁Lohn	-9968
▁Bier	-9969
▁ansehen	-9970
Im	-9971
▁Airbus	-9972
▁Result	-9973
▁1000	-9974
bind	-9975
▁verknü	-9976
▁Vorstellungen	-9977
▁beizut	-9978
▁dringen	-9979
▁Traditionen	-9980
6,	-9981
▁frem	-9982
▁NICHT	-9983
▁beunruh	-9984
▁versteht	-9985
▁Spaziergang	-9986
utes	-9987
▁Modul	-9988
PA	-9989
lad	-9990
sum	-9991
▁gegebenenfalls	-9992
sthe	-9993
Lös	-9994
▁Rahmenprogramm	-9995
▁halb	-9996
▁Hü	-9997
hard	-9998
äder	-9999
▁Urteil	-10000
▁bezahlt	-10001
einigt	-10002
begriffen	-10003
▁friendly	-10004
gleichheit	-10005
▁Las	-10006
▁Roll	-10007
▁gewidmet	-10008
▁restaurant	-10009
Par	-10010
▁Nizza	-10011
▁Danach	-10012
▁Fassung	-10013
▁benachteil	-10014
▁überwachen	-10015
500	-10016
funk	-10017
▁Sar	-10018
▁Prozeß	-10019
▁Publikum	-10020
rechtlichen	-10021
▁verwendeten	-10022
▁schwierige	-10023
4)	-10024
instrumente	-10025
iaz	-10026
▁ID	-10027
back	-10028
▁600	-10029
Richt	-10030
▁Referend	-10031
iga	-10032
beln	-10033
itiert	-10034
▁Prodi	-10035
katastrop	-10036
zern	-10037
▁nice	-10038
ford	-10039
ource	-10040
▁stri	-10041
▁bedeut	-10042
▁konzip	-10043
TR	-10044
wärtige	-10045
ündigung	-10046
kop	-10047
▁lädt	-10048
▁Card	-10049
▁kostenlose	-10050
quip	-10051
genie	-10052
▁Agenturen	-10053
▁Ill	-10054
undern	-10055
▁beantwortet	-10056
datum	-10057
▁Etik	-10058
▁linken	-10059
▁bereitet	-10060
▁Navig	-10061
▁hinzugefügt	-10062
ton	-10063
real	-10064
▁gefährdet	-10065
▁в	-10066
zifik	-10067
▁Varian	-10068
▁Automati	-10069
▁wirkliche	-10070
ungsfähigkeit	-10071
▁Gemeinschaften	-10072
Ger	-10073
aute	-10074
ühen	-10075
▁Ram	-10076
▁aktiviert	-10077
▁Wohnungen	-10078
win	-10079
öss	-10080
▁29	-10081
▁Trek	-10082
▁Treib	-10083
▁entstand	-10084
asp	-10085
▁nächster	-10086
▁hochwertigen	-10087
tiere	-10088
▁Ägyp	-10089
▁verste	-10090
▁only	-10091
▁Orten	-10092
zimmern	-10093
én	-10094
▁Vordergrund	-10095
▁120	-10096
▁ausgegeben	-10097
▁gelesen	-10098
▁Bezeichnung	-10099
abe	-10100
▁herz	-10101
▁veranst	-10102
▁charakter	-10103
ileg	-10104
▁mäch	-10105
▁Senkung	-10106
▁Western	-10107
siehe	-10108
▁schließt	-10109
▁Anbetracht	-10110
▁Einfuhr	-10111
▁besonderes	-10112
▁Philosophie	-10113
ielsei	-10114
tifizieren	-10115
▁Übersicht	-10116
▁Kä	-10117
ilde	-10118
stern	-10119
ächte	-10120
▁müsste	-10121
▁post	-10122
opping	-10123
örungen	-10124
▁ärm	-10125
▁Rock	-10126
rische	-10127
▁staatliche	-10128
▁veröffentlichen	-10129
SA	-10130
zubringen	-10131
▁Appartement	-10132
▁gewiss	-10133
▁bewerten	-10134
-20	-10135
geführt	-10136
ues	-10137
mess	-10138
muse	-10139
▁jap	-10140
▁Reinigung	-10141
▁gewählten	-10142
▁südlichen	-10143
ktop	-10144
▁haus	-10145
▁tschech	-10146
Fil	-10147
erte	-10148
▁erkunden	-10149
iw	-10150
▁Tests	-10151
▁mögen	-10152
▁Rich	-10153
personen	-10154
alem	-10155
▁wiederher	-10156
▁Erwachsene	-10157
▁Intervention	-10158
▁blau	-10159
▁Wasch	-10160
völkerung	-10161
▁more	-10162
▁ruhige	-10163
▁gemeinsames	-10164
▁Innovationen	-10165
orme	-10166
▁eingeleitet	-10167
▁Inkraft	-10168
eidung	-10169
sorganisation	-10170
▁Dringlichkeit	-10171
▁Sat	-10172
ärer	-10173
▁helpful	-10174
▁offizielle	-10175
eige	-10176
▁Ehre	-10177
▁Statt	-10178
▁weisen	-10179
▁egal	-10180
▁innovativen	-10181
▁Skype	-10182
▁hundert	-10183
üg	-10184
▁Chin	-10185
▁abschließen	-10186
rans	-10187
▁Zeich	-10188
branche	-10189
▁Souverän	-10190
▁Bestätigung	-10191
▁Verab	-10192
▁Kreativ	-10193
▁Gibt	-10194
▁Erhalt	-10195
▁Phänomen	-10196
ield	-10197
ohnern	-10198
strand	-10199
▁Aspekten	-10200
▁Eigentums	-10201
▁scheinen	-10202
▁Montage	-10203
▁generell	-10204
geschwindigkeit	-10205
teils	-10206
▁unber	-10207
▁bezeichnen	-10208
▁röm	-10209
finden	-10210
▁Player	-10211
▁digitale	-10212
▁irgendwel	-10213
ünften	-10214
▁Archiv	-10215
geladen	-10216
▁professionellen	-10217
jet	-10218
ächt	-10219
▁brachte	-10220
skontrolle	-10221
bligator	-10222
antwortung	-10223
gy	-10224
▁Brem	-10225
▁erfreu	-10226
▁Stiftung	-10227
▁Vorsitzenden	-10228
▁europa	-10229
▁erworben	-10230
läufig	-10231
▁ster	-10232
formular	-10233
▁Ast	-10234
äuden	-10235
▁inspir	-10236
▁Empfang	-10237
ants	-10238
▁diver	-10239
▁oftmals	-10240
teln	-10241
klasse	-10242
▁Weltkrieg	-10243
▁Revolution	-10244
▁Lou	-10245
▁Tha	-10246
▁air	-10247
▁klin	-10248
itzung	-10249
▁Übernahme	-10250
▁Anmerkungen	-10251
arent	-10252
▁Kart	-10253
einheit	-10254
▁stattgefunden	-10255
▁Teams	-10256
▁Können	-10257
▁heil	-10258
▁Expl	-10259
▁Schicks	-10260
▁gemütliche	-10261
füllt	-10262
▁work	-10263
▁festen	-10264
▁Schulden	-10265
gäng	-10266
▁Bol	-10267
▁Mem	-10268
▁schwei	-10269
▁Entwickler	-10270
▁Rechen	-10271
▁Objekte	-10272
gesetzten	-10273
▁comm	-10274
▁beseitigen	-10275
▁existieren	-10276
▁Verbrauchern	-10277
▁SO	-10278
ischt	-10279
banken	-10280
▁bürger	-10281
▁erkannt	-10282
▁Mas	-10283
ouren	-10284
worte	-10285
▁well	-10286
verbindung	-10287
tung	-10288
▁enge	-10289
▁fassen	-10290
▁Kapazität	-10291
▁geliefert	-10292
▁beeinflussen	-10293
▁Champ	-10294
▁Master	-10295
▁bit	-10296
▁müssten	-10297
▁Projekts	-10298
▁auswählen	-10299
▁kostenlosen	-10300
▁Betriebssystem	-10301
sprodu	-10302
▁einsei	-10303
▁zustande	-10304
sprechend	-10305
',	-10306
▁atember	-10307
▁Kompetenzen	-10308
tiro	-10309
▁keineswegs	-10310
▁konsequent	-10311
▁kn	-10312
hows	-10313
▁Bonus	-10314
inderung	-10315
schl	-10316
▁tem	-10317
iegeln	-10318
▁Erreichung	-10319
▁Jean	-10320
▁nutzt	-10321
▁beherr	-10322
▁Nutzungs	-10323
▁Mechanismus	-10324
▁uneingeschränkt	-10325
imum	-10326
opol	-10327
uchs	-10328
▁schreck	-10329
▁Dänemark	-10330
▁mittelalter	-10331
ère	-10332
▁derer	-10333
▁Zeitplan	-10334
1-	-10335
Se	-10336
chester	-10337
plomati	-10338
▁ökologischen	-10339
▁zeig	-10340
gefühl	-10341
▁Werden	-10342
lässigen	-10343
▁geehrte	-10344
rent	-10345
sphase	-10346
▁schauen	-10347
▁politisches	-10348
ska	-10349
▁Wett	-10350
ummern	-10351
▁verwei	-10352
▁erstens	-10353
▁Umstruktur	-10354
hlung	-10355
VO	-10356
▁time	-10357
▁schritt	-10358
▁berühmte	-10359
▁umgehen	-10360
▁einladen	-10361
▁definieren	-10362
▁Ausrichtung	-10363
bem	-10364
okument	-10365
▁Auflösung	-10366
ralien	-10367
▁Einer	-10368
▁aufbauen	-10369
▁ou	-10370
▁Wand	-10371
drucks	-10372
▁Beste	-10373
▁situ	-10374
▁spannen	-10375
merz	-10376
▁Vill	-10377
lings	-10378
▁over	-10379
▁Green	-10380
▁orden	-10381
▁Grünbuch	-10382
▁schriftliche	-10383
ram	-10384
essor	-10385
▁Tenden	-10386
onie	-10387
▁Orien	-10388
▁Sektors	-10389
▁schwedischen	-10390
ience	-10391
▁Nehmen	-10392
▁Ticket	-10393
Abkommen	-10394
▁begleiten	-10395
▁Konkurrenz	-10396
timent	-10397
▁zuges	-10398
▁territ	-10399
▁ständigen	-10400
ye	-10401
▁5-	-10402
▁Weine	-10403
▁Slowakei	-10404
ception	-10405
▁gestatten	-10406
orca	-10407
ünden	-10408
▁Rotary	-10409
▁grünen	-10410
22	-10411
▁Rechner	-10412
For	-10413
aming	-10414
▁Gewässer	-10415
▁erarbeitet	-10416
▁aktualisiert	-10417
▁Wissenschaftler	-10418
zessen	-10419
▁befürworten	-10420
▁umzu	-10421
▁enorme	-10422
▁steigern	-10423
▁Kommentare	-10424
ays	-10425
▁new	-10426
▁Kampagne	-10427
bestimmungen	-10428
ehle	-10429
▁Ruß	-10430
▁Wünschen	-10431
▁Rie	-10432
▁Einfach	-10433
▁erheben	-10434
▁Empfänger	-10435
36	-10436
▁Jac	-10437
Leist	-10438
absch	-10439
▁Fünf	-10440
republik	-10441
▁berichtet	-10442
▁verpflichten	-10443
omet	-10444
▁Plaza	-10445
▁Betroffen	-10446
▁Spitze	-10447
▁erwerben	-10448
▁reagiert	-10449
▁Gelt	-10450
▁Tanz	-10451
▁Works	-10452
Benutzer	-10453
ony	-10454
▁Klarheit	-10455
Man	-10456
freien	-10457
3)	-10458
5,	-10459
cle	-10460
bern	-10461
▁city	-10462
▁Künst	-10463
schutzes	-10464
▁erteilen	-10465
Funktion	-10466
▁Getränke	-10467
▁ablehnen	-10468
▁Garantien	-10469
CS	-10470
▁Wä	-10471
▁Laden	-10472
▁MySQL	-10473
▁sucht	-10474
▁verbreitet	-10475
ji	-10476
▁famili	-10477
▁tö	-10478
▁Lounge	-10479
▁Vereinigte	-10480
▁Regulierung	-10481
udes	-10482
▁anhalten	-10483
ftet	-10484
kauft	-10485
▁Bestell	-10486
▁genauer	-10487
▁Ferienwohnungen	-10488
▁Jer	-10489
akete	-10490
▁Niederlande	-10491
waren	-10492
▁aust	-10493
hörige	-10494
▁erhöh	-10495
▁sitzen	-10496
▁schwere	-10497
mung	-10498
▁hilfreich	-10499
▁verurteilen	-10500
gebäude	-10501
lieferung	-10502
▁Swimming	-10503
▁Funktionieren	-10504
▁Malt	-10505
ographie	-10506
▁verschär	-10507
▁Argumente	-10508
▁Emissionen	-10509
▁Lim	-10510
gast	-10511
normen	-10512
▁erstes	-10513
▁senken	-10514
▁Wahrung	-10515
▁geblieben	-10516
reibungs	-10517
ektiv	-10518
lines	-10519
▁Abbau	-10520
▁Black	-10521
gebnisse	-10522
uis	-10523
üse	-10524
▁Seele	-10525
▁Ausrüstung	-10526
▁Souveränität	-10527
rung	-10528
▁EZB	-10529
▁GNU	-10530
▁Vorred	-10531
▁erklärte	-10532
▁erwiesen	-10533
cs	-10534
▁Mittwoch	-10535
▁anerkennen	-10536
▁elektronische	-10537
"-	-10538
▁Arm	-10539
▁Eines	-10540
▁Unterricht	-10541
▁Hil	-10542
▁Zwar	-10543
▁beibehalten	-10544
▁eingetragen	-10545
terrasse	-10546
▁Administ	-10547
▁Logistik	-10548
▁Nachdruck	-10549
▁Prävention	-10550
▁herzustellen	-10551
änen	-10552
▁Check	-10553
▁Inkrafttreten	-10554
kla	-10555
▁4,	-10556
kul	-10557
▁vo	-10558
▁eth	-10559
▁Servic	-10560
);	-10561
dehn	-10562
▁Front	-10563
▁Roman	-10564
▁Cookies	-10565
ettet	-10566
Ich	-10567
▁David	-10568
▁unzähl	-10569
▁effizienter	-10570
▁Div	-10571
schrank	-10572
▁Filme	-10573
▁Meilen	-10574
▁administ	-10575
▁vorliegt	-10576
beg	-10577
graben	-10578
▁langer	-10579
▁bereiten	-10580
TML	-10581
▁Tipp	-10582
▁Anzeige	-10583
jo	-10584
läuft	-10585
▁Akteure	-10586
▁Drittel	-10587
ängerung	-10588
▁erstklassi	-10589
KOM	-10590
▁dän	-10591
▁woh	-10592
üstet	-10593
ontrol	-10594
▁Insgesamt	-10595
AB	-10596
arat	-10597
herr	-10598
riter	-10599
▁Fehl	-10600
▁unab	-10601
▁geringer	-10602
▁Konzentration	-10603
Gruppe	-10604
sebene	-10605
▁schlechte	-10606
▁Armen	-10607
digungen	-10608
▁Bekannt	-10609
▁vertritt	-10610
▁umfangreich	-10611
▁Dienstleistung	-10612
▁Wärme	-10613
Chr	-10614
▁Bestre	-10615
▁kurzer	-10616
fertigen	-10617
stritten	-10618
▁Fass	-10619
▁Felder	-10620
▁Therap	-10621
ständigen	-10622
▁versehen	-10623
Гј	-10624
stunde	-10625
kre	-10626
▁Kein	-10627
▁Quad	-10628
▁Marok	-10629
▁Weiterhin	-10630
▁spanische	-10631
kampf	-10632
loser	-10633
▁29.	-10634
▁eins	-10635
▁Human	-10636
▁Diplom	-10637
▁widmen	-10638
bringung	-10639
▁Australien	-10640
lö	-10641
schöpf	-10642
fahrzeuge	-10643
las	-10644
unen	-10645
produkten	-10646
▁still	-10647
▁Quoten	-10648
▁Sowohl	-10649
▁gemütlichen	-10650
▁Bestellungen	-10651
▁körper	-10652
▁angenommenen	-10653
genöss	-10654
▁Wichtigkeit	-10655
stär	-10656
▁dahin	-10657
▁Erarbeitung	-10658
kir	-10659
zufügen	-10660
▁übermitteln	-10661
▁unterbrochen	-10662
▁Job	-10663
leger	-10664
ömm	-10665
▁MS	-10666
▁umgehend	-10667
VP	-10668
▁ten	-10669
agnen	-10670
voller	-10671
isierten	-10672
▁zweiter	-10673
▁Zielsetzungen	-10674
▁Bug	-10675
▁Tief	-10676
Intern	-10677
wäsche	-10678
▁Festplatte	-10679
sverletzungen	-10680
▁Durchsetzung	-10681
▁Liberalen	-10682
▁ausgestattete	-10683
rim	-10684
▁car	-10685
▁Häfen	-10686
▁erlassen	-10687
cal	-10688
▁kombiniert	-10689
▁Werten	-10690
▁Aussagen	-10691
fassen	-10692
weitung	-10693
▁vermittelt	-10694
▁26.	-10695
▁Behand	-10696
▁Betrifft	-10697
▁Unterhaltung	-10698
▁umfangreichen	-10699
▁1992	-10700
stitut	-10701
▁Puert	-10702
gerichts	-10703
▁Grem	-10704
▁wachsenden	-10705
▁Mittelmeerraum	-10706
▁Erschein	-10707
fle	-10708
▁Norm	-10709
▁Kürze	-10710
▁enorm	-10711
obe	-10712
▁straf	-10713
▁manchen	-10714
▁gegangen	-10715
mäch	-10716
quelle	-10717
▁dauern	-10718
▁vereint	-10719
DS	-10720
iehlt	-10721
uminium	-10722
▁centre	-10723
▁innere	-10724
▁Erfolge	-10725
sprozesse	-10726
▁Demokraten	-10727
fäll	-10728
▁bat	-10729
planung	-10730
▁mediterr	-10731
▁Frie	-10732
▁Holl	-10733
▁Wesen	-10734
▁Speich	-10735
▁Lad	-10736
▁hohes	-10737
▁solch	-10738
▁behinderten	-10739
▁fein	-10740
▁Plätze	-10741
▁wunderschöne	-10742
Men	-10743
film	-10744
▁Klo	-10745
▁Lärm	-10746
amilie	-10747
▁Late	-10748
▁bewußt	-10749
▁Eröffnung	-10750
▁Einzelheiten	-10751
TEN	-10752
▁Kernel	-10753
▁Korrektur	-10754
▁Hostelsclub	-10755
ku	-10756
▁Meg	-10757
eiste	-10758
▁Rent	-10759
aubern	-10760
▁kleinere	-10761
bab	-10762
▁GU	-10763
agra	-10764
ekter	-10765
▁freundliche	-10766
▁Effekt	-10767
▁eleganten	-10768
▁bevorzu	-10769
wanderung	-10770
ologischer	-10771
--	-10772
▁Fri	-10773
glück	-10774
▁Kyoto	-10775
▁maßgeb	-10776
▁station	-10777
▁bewahren	-10778
▁günstigen	-10779
▁endgültige	-10780
▁respektieren	-10781
sprozeß	-10782
▁Gemeinden	-10783
verständnis	-10784
verarbeitung	-10785
▁Außenminister	-10786
vertrag	-10787
portieren	-10788
▁empfängt	-10789
▁Aufhebung	-10790
ords	-10791
▁grei	-10792
▁Erwerb	-10793
▁beweisen	-10794
▁ER	-10795
dios	-10796
▁Hom	-10797
▁Steuerzahl	-10798
▁Zy	-10799
ault	-10800
▁Massage	-10801
▁aufzubauen	-10802
▁gefährlich	-10803
orge	-10804
▁realisiert	-10805
▁Kennzeichnung	-10806
▁Sieg	-10807
▁Behörde	-10808
▁getrennt	-10809
möglichkeit	-10810
▁any	-10811
schlie	-10812
▁Richter	-10813
GB	-10814
Um	-10815
▁multilater	-10816
▁verringert	-10817
▁Haar	-10818
▁diplomati	-10819
28	-10820
kunden	-10821
▁Buchsta	-10822
▁Bürokratie	-10823
▁Tu	-10824
▁Baby	-10825
▁Muster	-10826
▁negative	-10827
▁gestartet	-10828
gebühren	-10829
the	-10830
▁Brun	-10831
▁plöt	-10832
▁Referenz	-10833
▁Wunder	-10834
sekretär	-10835
▁umfassender	-10836
tist	-10837
▁BSE	-10838
landschaft	-10839
▁typisch	-10840
▁günstige	-10841
▁vorsieht	-10842
deb	-10843
uble	-10844
▁28.	-10845
▁Kaiser	-10846
▁Extrem	-10847
▁anzupassen	-10848
urer	-10849
▁close	-10850
▁späte	-10851
▁Futter	-10852
▁konfigur	-10853
▁ener	-10854
▁Designer	-10855
stätigkeit	-10856
▁Netze	-10857
▁Diesen	-10858
▁Wol	-10859
▁pra	-10860
▁would	-10861
▁Arzneimittel	-10862
▁erw	-10863
▁arab	-10864
beutung	-10865
▁diesbezü	-10866
▁Renn	-10867
▁drän	-10868
▁technisch	-10869
▁Ausweitung	-10870
lichte	-10871
sektors	-10872
▁finanzieren	-10873
IK	-10874
sm	-10875
-200	-10876
utive	-10877
▁erwähnten	-10878
▁wirklichen	-10879
▁ausführlich	-10880
▁effektiver	-10881
west	-10882
ränkte	-10883
▁Geschenk	-10884
▁33	-10885
ners	-10886
elben	-10887
▁Edel	-10888
gehenden	-10889
▁Transfer	-10890
▁Ök	-10891
▁erkennt	-10892
ichtigkeit	-10893
▁auswirken	-10894
rankungen	-10895
▁ehemalige	-10896
▁zugestimmt	-10897
ains	-10898
▁sho	-10899
▁chamb	-10900
▁flexibel	-10901
hedr	-10902
fertigung	-10903
▁obligator	-10904
▁erleichtert	-10905
iam	-10906
▁Mexiko	-10907
▁sparen	-10908
▁Kenntnisse	-10909
iance	-10910
▁städ	-10911
atures	-10912
▁Zahn	-10913
▁Dampf	-10914
zugreifen	-10915
▁erarbeiten	-10916
▁Verfassungs	-10917
▁Geschlechter	-10918
Geb	-10919
aux	-10920
▁komfortablen	-10921
▁interessanten	-10922
ulkan	-10923
▁walk	-10924
ders	-10925
▁Runde	-10926
▁islam	-10927
▁Normal	-10928
▁lenken	-10929
▁Petition	-10930
▁erforderliche	-10931
ideo	-10932
iment	-10933
▁Beamten	-10934
▁Inhalten	-10935
▁Statistiken	-10936
holz	-10937
▁Storn	-10938
▁Tie	-10939
▁beschä	-10940
▁Visa	-10941
▁planen	-10942
▁Sex	-10943
▁Award	-10944
▁Verstär	-10945
▁NRO	-10946
plätzen	-10947
▁Jahrzehnten	-10948
▁verabschieden	-10949
lässt	-10950
▁Ufer	-10951
▁entf	-10952
▁Grafik	-10953
book	-10954
▁erstreckt	-10955
▁Anf	-10956
▁Lag	-10957
▁100%	-10958
▁Direct	-10959
▁Risik	-10960
ius	-10961
disk	-10962
rus	-10963
▁Ehr	-10964
blatt	-10965
▁demon	-10966
▁weltweite	-10967
▁Missbrauch	-10968
MA	-10969
kau	-10970
▁zwölf	-10971
▁amerikanische	-10972
stücke	-10973
ysteme	-10974
▁Ausgrenzung	-10975
▁tatsächlichen	-10976
▁Klang	-10977
▁regul	-10978
ario	-10979
▁Visum	-10980
▁Edition	-10981
▁geschäft	-10982
▁Produktivität	-10983
▁Hände	-10984
▁chemische	-10985
▁Privatsphäre	-10986
но	-10987
ves	-10988
▁Fu	-10989
▁geschmack	-10990
▁Problematik	-10991
ags	-10992
▁angekündigt	-10993
werbe	-10994
ML	-10995
leid	-10996
ögern	-10997
illigt	-10998
▁Vorgehensweise	-10999
hab	-11000
▁Pir	-11001
▁lieben	-11002
▁perman	-11003
▁Ausflug	-11004
▁berichten	-11005
ungsanträge	-11006
на	-11007
alo	-11008
▁derselben	-11009
Mod	-11010
küste	-11011
▁leid	-11012
frikan	-11013
hersteller	-11014
rt	-11015
lässige	-11016
sendung	-11017
▁Sternen	-11018
izz	-11019
ühle	-11020
▁Anh	-11021
range	-11022
▁Taten	-11023
regierung	-11024
▁ursprüngliche	-11025
ene	-11026
ffer	-11027
behör	-11028
▁statist	-11029
▁sogenannte	-11030
verm	-11031
▁Poly	-11032
▁innen	-11033
▁Glückw	-11034
▁Marina	-11035
aw	-11036
eber	-11037
ours	-11038
üssel	-11039
betriebe	-11040
199	-11041
▁2.0	-11042
▁Gegner	-11043
schließt	-11044
del	-11045
▁free	-11046
▁Blumen	-11047
eltreffen	-11048
▁verwiesen	-11049
▁Zun	-11050
▁desto	-11051
▁Rennen	-11052
▁Klassen	-11053
acion	-11054
▁glaub	-11055
▁Slowen	-11056
▁christ	-11057
▁mangeln	-11058
▁Abenteuer	-11059
▁verursachen	-11060
▁5,	-11061
oleranz	-11062
▁Palette	-11063
geschnitten	-11064
▁Ausbeutung	-11065
▁gewünschte	-11066
USS	-11067
üre	-11068
▁Säu	-11069
▁grav	-11070
▁Arzt	-11071
▁eröffnen	-11072
▁zukommen	-11073
▁fortsetzen	-11074
▁musikal	-11075
▁jeglicher	-11076
▁eindeutige	-11077
▁beteiligten	-11078
▁Abgeordneter	-11079
▁Wen	-11080
▁1993	-11081
▁Wurz	-11082
eilung	-11083
▁administra	-11084
▁Drittstaaten	-11085
gelung	-11086
▁teuer	-11087
▁leistet	-11088
sbedingungen	-11089
äufe	-11090
▁Dublin	-11091
eir	-11092
ason	-11093
▁gene	-11094
▁geringen	-11095
fi	-11096
▁37	-11097
klärt	-11098
ju	-11099
atin	-11100
▁Thomas	-11101
amerikanischen	-11102
98	-11103
laut	-11104
▁Amb	-11105
bestand	-11106
▁Truppen	-11107
äußer	-11108
▁bewegt	-11109
▁sonstige	-11110
▁comfortable	-11111
▁about	-11112
▁Ausnahmen	-11113
▁Verordnungen	-11114
27	-11115
let	-11116
mas	-11117
▁Indust	-11118
verhalten	-11119
herapie	-11120
su	-11121
gier	-11122
▁Möbel	-11123
▁einheim	-11124
ures	-11125
KW	-11126
Res	-11127
▁falsche	-11128
fizit	-11129
▁Köln	-11130
▁Liebl	-11131
fahrten	-11132
▁genießt	-11133
▁Offenheit	-11134
sfrei	-11135
märkten	-11136
otograf	-11137
▁erläuter	-11138
▁vergeben	-11139
Su	-11140
ering	-11141
▁Präsi	-11142
▁bedroht	-11143
▁interne	-11144
▁Premierminister	-11145
▁27.	-11146
▁Lay	-11147
▁Bosnien	-11148
▁Begründung	-11149
▁geeigneten	-11150
zusammenarbeit	-11151
km	-11152
ores	-11153
▁sofor	-11154
▁ordnungsgemäß	-11155
▁MB	-11156
▁Pflichten	-11157
AV	-11158
▁Dynamik	-11159
▁Platten	-11160
▁Anwendungs	-11161
▁eingeladen	-11162
▁befürwortet	-11163
jpg	-11164
telefon	-11165
▁größter	-11166
▁präzise	-11167
▁herausragen	-11168
icke	-11169
▁Vic	-11170
gigen	-11171
▁Größen	-11172
▁Derzeit	-11173
▁Minibar	-11174
▁Jugendliche	-11175
ektakul	-11176
▁Küchen	-11177
▁Straft	-11178
▁löschen	-11179
▁basieren	-11180
schreitende	-11181
▁überrascht	-11182
Bar	-11183
▁bedauerlich	-11184
fähig	-11185
▁verzichten	-11186
lassungen	-11187
▁eigentliche	-11188
▁koh	-11189
tikeln	-11190
▁Gentoo	-11191
▁Formulierung	-11192
board	-11193
dliche	-11194
▁Ursache	-11195
▁Metro	-11196
▁Hostel	-11197
▁vorüber	-11198
▁Literatur	-11199
▁You	-11200
präsen	-11201
ging	-11202
▁Histor	-11203
▁Verabschied	-11204
Room	-11205
▁Besatz	-11206
achtungs	-11207
▁Anträge	-11208
echnet	-11209
▁Händen	-11210
▁renomm	-11211
▁Emissions	-11212
▁tr	-11213
erin	-11214
▁PRO	-11215
▁Saal	-11216
zeitraum	-11217
itra	-11218
▁Riv	-11219
▁Angabe	-11220
▁Händler	-11221
▁Fundament	-11222
▁DER	-11223
▁anpassen	-11224
▁Gute	-11225
▁Budap	-11226
▁schwerwie	-11227
▁gemeinsamer	-11228
▁verarbeitet	-11229
Ad	-11230
Her	-11231
▁Pr	-11232
parks	-11233
▁Reicht	-11234
▁Bewohner	-11235
▁üblichen	-11236
▁problemlos	-11237
▁Verabschiedung	-11238
▁900	-11239
vertre	-11240
änderung	-11241
ältigung	-11242
▁verliehen	-11243
▁Investoren	-11244
▁Wil	-11245
▁kolle	-11246
▁Klassi	-11247
▁beider	-11248
dingung	-11249
ausgaben	-11250
Mo	-11251
avi	-11252
▁design	-11253
▁weiterzu	-11254
SD	-11255
methode	-11256
▁begegnen	-11257
▁parallel	-11258
▁Konvergenz	-11259
▁beher	-11260
▁Mengen	-11261
▁AC	-11262
▁Vin	-11263
▁aufr	-11264
▁finn	-11265
schuss	-11266
AF	-11267
▁Charme	-11268
▁deutliche	-11269
▁Universitäten	-11270
▁Gefängnis	-11271
▁nachhaltig	-11272
▁fin	-11273
▁sec	-11274
▁Tragö	-11275
▁Gastfreund	-11276
mäh	-11277
▁Robert	-11278
▁Herkunfts	-11279
EB	-11280
side	-11281
▁Safe	-11282
▁anti	-11283
▁Seen	-11284
▁some	-11285
▁teilt	-11286
▁Mischung	-11287
▁Autonomie	-11288
arge	-11289
▁Statut	-11290
▁lebens	-11291
▁Legisla	-11292
▁Indik	-11293
treffen	-11294
▁Werkzeuge	-11295
▁Centre	-11296
▁Lasten	-11297
bereiten	-11298
▁mittlere	-11299
▁integrieren	-11300
ladung	-11301
▁angebotenen	-11302
▁langfristigen	-11303
”,	-11304
örm	-11305
zugs	-11306
▁Kas	-11307
▁Zone	-11308
▁bezogen	-11309
▁gelangt	-11310
▁gegenseitigen	-11311
▁Colle	-11312
▁Zustell	-11313
▁Handlungen	-11314
▁Arbeitszeit	-11315
ining	-11316
▁excellent	-11317
▁atemberauben	-11318
üm	-11319
▁gehabt	-11320
▁gebunden	-11321
▁Deutschlands	-11322
ächen	-11323
▁Inhaber	-11324
▁erheblichen	-11325
▁{{	-11326
▁Hekt	-11327
All	-11328
▁dien	-11329
▁Ingenie	-11330
▁Menschheit	-11331
▁transparent	-11332
▁they	-11333
▁formuliert	-11334
▁Pakistan	-11335
▁dieselben	-11336
NS	-11337
▁ST	-11338
▁Eth	-11339
▁Stern	-11340
ication	-11341
▁späteren	-11342
▁vermieden	-11343
beziehungen	-11344
ixel	-11345
▁Tee	-11346
izieren	-11347
verschm	-11348
▁Abschluß	-11349
▁endgültigen	-11350
▁institutionelle	-11351
▁Abt	-11352
ademie	-11353
bahnen	-11354
▁einiges	-11355
▁leichte	-11356
▁Welthandel	-11357
▁aufgestellt	-11358
3-	-11359
auten	-11360
▁Assi	-11361
▁Panorama	-11362
▁abgeben	-11363
▁Bewerber	-11364
▁34	-11365
▁Gemüse	-11366
▁aufgeführt	-11367
spunkte	-11368
▁zurzeit	-11369
eistungen	-11370
äuse	-11371
▁symbol	-11372
reisende	-11373
▁Heiligen	-11374
▁komplexe	-11375
▁Vermittlung	-11376
messer	-11377
▁12.00	-11378
ständig	-11379
▁bisschen	-11380
▁Erzeugung	-11381
▁Alternativen	-11382
▁Immun	-11383
politische	-11384
▁Ursprungs	-11385
▁Französisch	-11386
▁zusammenge	-11387
leiter	-11388
fenster	-11389
▁zugute	-11390
wahlen	-11391
▁Clubs	-11392
▁exper	-11393
▁Wälder	-11394
möglichen	-11395
MO	-11396
▁Kriegs	-11397
▁absolute	-11398
97	-11399
auch	-11400
▁Maast	-11401
▁Türen	-11402
▁Schreib	-11403
▁Präsentation	-11404
▁einher	-11405
▁vertraut	-11406
erzeug	-11407
▁Ergänzung	-11408
▁empfiehlt	-11409
▁Gipfeltreffen	-11410
ions	-11411
Ebene	-11412
ality	-11413
geräten	-11414
▁bewertet	-11415
▁einstimmig	-11416
▁Feststellung	-11417
pret	-11418
▁Lern	-11419
▁Bergen	-11420
▁Genuss	-11421
▁maximale	-11422
▁Kernkraft	-11423
ray	-11424
aufnahme	-11425
▁dargelegt	-11426
▁Finanzkrise	-11427
▁Verlängerung	-11428
füll	-11429
▁Rass	-11430
▁Schutzes	-11431
zusagen	-11432
▁Zurück	-11433
▁Soldaten	-11434
▁Vorstand	-11435
▁abgesehen	-11436
▁auss	-11437
▁Rollen	-11438
mechanismen	-11439
▁BIP	-11440
▁Rek	-11441
▁Govern	-11442
ommission	-11443
▁Gebäuden	-11444
▁Fortsetzung	-11445
▁AU	-11446
▁Hügel	-11447
▁behauptet	-11448
▁bal	-11449
datei	-11450
▁Office	-11451
▁nehme	-11452
▁Ausübung	-11453
85	-11454
▁Engine	-11455
▁verstärkte	-11456
▁Desktop	-11457
▁Umstände	-11458
▁zentraler	-11459
▁eingereich	-11460
▁leistungsf	-11461
pfern	-11462
punkten	-11463
▁Operation	-11464
▁Beratungen	-11465
▁Gefü	-11466
▁Schu	-11467
▁Treibhaus	-11468
▁Änderungs	-11469
▁Kunststoff	-11470
▁Zusammensetzung	-11471
▁gehe	-11472
▁höchster	-11473
▁öffentlicher	-11474
▁Swiss	-11475
▁moderner	-11476
ressourcen	-11477
▁Minderheit	-11478
wirtschaften	-11479
▁Brücke	-11480
▁Global	-11481
▁Versicherungs	-11482
saal	-11483
unch	-11484
▁Resol	-11485
▁arbeit	-11486
mechanismus	-11487
onte	-11488
melden	-11489
▁Nichts	-11490
▁Konvention	-11491
▁regionaler	-11492
▁Stabilitäts	-11493
▁Ägypten	-11494
Seite	-11495
▁Royal	-11496
▁vielsei	-11497
Format	-11498
▁damal	-11499
▁übergeben	-11500
wissenschaft	-11501
klen	-11502
▁herk	-11503
▁herbei	-11504
▁Meinungen	-11505
ación	-11506
▁füllen	-11507
▁wertvolle	-11508
Technologie	-11509
▁eigentlichen	-11510
zirk	-11511
asste	-11512
junkt	-11513
▁rechnen	-11514
▁Freihandels	-11515
▁organisierte	-11516
ни	-11517
▁motiv	-11518
isierte	-11519
▁Stufe	-11520
▁Stabil	-11521
riedigen	-11522
▁organisierten	-11523
aku	-11524
▁davor	-11525
ästinenser	-11526
▁Anwesenheit	-11527
▁Klin	-11528
▁langem	-11529
▁Marokko	-11530
bro	-11531
ways	-11532
▁sach	-11533
▁Pin	-11534
server	-11535
▁Repräsent	-11536
▁beschließen	-11537
vir	-11538
lebt	-11539
position	-11540
▁gesichert	-11541
▁komfortabel	-11542
Rezeption	-11543
▁Verfolgung	-11544
▁Fan	-11545
▁Hong	-11546
bestände	-11547
▁dieselbe	-11548
▁Palästinenser	-11549
hod	-11550
idad	-11551
▁Ferr	-11552
aufwand	-11553
▁weiterentwick	-11554
▁Erwägung	-11555
▁momentan	-11556
strom	-11557
▁Sozi	-11558
▁Schicksal	-11559
▁komplexen	-11560
▁einstellen	-11561
▁einzig	-11562
Unter	-11563
▁Fakten	-11564
▁Aluminium	-11565
▁mult	-11566
bereitung	-11567
▁Spektrum	-11568
▁Baut	-11569
▁Fans	-11570
▁Maler	-11571
▁Zerstörung	-11572
▁DE	-11573
bten	-11574
rungen	-11575
▁vergangen	-11576
▁technischer	-11577
blen	-11578
▁Pilot	-11579
▁Rhein	-11580
▁Verteidigungs	-11581
▁stärksten	-11582
▁fil	-11583
▁umso	-11584
termin	-11585
▁erhol	-11586
cis	-11587
▁Budget	-11588
▁Verletzungen	-11589
▁Sony	-11590
▁Autoren	-11591
ianischen	-11592
▁Unterhalt	-11593
wirtschaftung	-11594
▁vereinbarten	-11595
▁IV	-11596
▁vol	-11597
grenze	-11598
ating	-11599
sprüchen	-11600
▁Steigerung	-11601
▁beschreibt	-11602
Sti	-11603
▁Infl	-11604
analyse	-11605
▁Key	-11606
itzer	-11607
oppen	-11608
▁unbek	-11609
ätzungen	-11610
▁gelegenen	-11611
34	-11612
pfung	-11613
menade	-11614
▁vorbehalten	-11615
▁§	-11616
▁englischen	-11617
Spe	-11618
änn	-11619
antas	-11620
ziger	-11621
▁vorsch	-11622
▁negativ	-11623
▁aufeinander	-11624
Netz	-11625
▁Bom	-11626
▁Gärten	-11627
▁regeln	-11628
▁Private	-11629
▁spätestens	-11630
Dist	-11631
▁Gaz	-11632
▁spielte	-11633
▁reibungs	-11634
▁verschaffen	-11635
▁kleineren	-11636
▁sonstigen	-11637
▁Überleben	-11638
▁verwirklichen	-11639
▁Beschränkungen	-11640
OP	-11641
▁bu	-11642
orts	-11643
sive	-11644
▁Hans	-11645
▁Piaz	-11646
▁sagten	-11647
▁terror	-11648
▁Finanzen	-11649
▁Jugoslaw	-11650
▁Konsultation	-11651
▁Menschenrechten	-11652
rick	-11653
stant	-11654
▁Tabelle	-11655
▁aussehen	-11656
udan	-11657
▁Zin	-11658
▁Islam	-11659
▁könne	-11660
▁beruflichen	-11661
▁gerechtfertigt	-11662
gelegen	-11663
periode	-11664
▁Akt	-11665
Entwick	-11666
▁Europol	-11667
▁Reparatur	-11668
▁aufgerufen	-11669
▁Grundsätzen	-11670
]],	-11671
Mode	-11672
▁geplanten	-11673
▁geograf	-11674
▁gegenseitige	-11675
▁Geben	-11676
▁Express	-11677
ständige	-11678
sbekämpfung	-11679
▁Schwimmbad	-11680
SC	-11681
ohne	-11682
▁ehrlich	-11683
ift	-11684
▁95	-11685
▁did	-11686
velop	-11687
▁unterwegs	-11688
▁Föderation	-11689
andal	-11690
Play	-11691
▁Flächen	-11692
▁beliebigen	-11693
▁Beurteilung	-11694
▁unterbreiten	-11695
bis	-11696
fällt	-11697
▁trat	-11698
schuld	-11699
▁Anhang	-11700
▁eintreten	-11701
▁überwacht	-11702
▁Geschäften	-11703
amens	-11704
volles	-11705
▁domin	-11706
▁ausländischen	-11707
LT	-11708
▁38	-11709
ainer	-11710
▁inso	-11711
▁Evalu	-11712
▁Messen	-11713
▁greifen	-11714
ibr	-11715
▁Freuen	-11716
▁erbaut	-11717
▁eingeräumt	-11718
dens	-11719
▁Südtiro	-11720
▁Beschwerden	-11721
▁Eingabe	-11722
▁ruhiger	-11723
▁angelegt	-11724
▁Swimmingpool	-11725
▁Mehrwertsteuer	-11726
gels	-11727
hone	-11728
▁Zweiten	-11729
▁eigenem	-11730
▁insofern	-11731
▁Anbindung	-11732
▁Performance	-11733
▁unterscheidet	-11734
orth	-11735
▁zun	-11736
▁Image	-11737
projekt	-11738
▁Touren	-11739
▁Rubrik	-11740
▁passende	-11741
64	-11742
▁UND	-11743
▁Kuba	-11744
museum	-11745
▁schul	-11746
▁ausreichende	-11747
▁Vel	-11748
systemen	-11749
leitungen	-11750
▁Kalender	-11751
▁Heimatland	-11752
▁teilzunehmen	-11753
▁GB	-11754
▁NI	-11755
▁Raums	-11756
▁Island	-11757
▁bedauere	-11758
▁dasselbe	-11759
▁Kooperations	-11760
▁Keine	-11761
undation	-11762
▁Direktor	-11763
▁spektakul	-11764
dateien	-11765
▁Gebühr	-11766
▁Spiegel	-11767
▁Karriere	-11768
▁Demonstra	-11769
▁Südafrika	-11770
▁zeitgenöss	-11771
'.	-11772
▁2-	-11773
▁Wal	-11774
▁like	-11775
▁Erdbe	-11776
▁Labor	-11777
▁passt	-11778
gericht	-11779
▁Events	-11780
▁Verbind	-11781
▁kompati	-11782
▁medizinische	-11783
▁180	-11784
▁ausgedehn	-11785
▁territori	-11786
empl	-11787
itiv	-11788
▁Updates	-11789
▁folglich	-11790
zeichneten	-11791
ständigkeiten	-11792
aktor	-11793
▁Regul	-11794
▁Pay	-11795
menge	-11796
utsch	-11797
Mittel	-11798
ocktail	-11799
▁ständige	-11800
▁Regionalpolitik	-11801
▁è	-11802
▁Hor	-11803
▁gelang	-11804
▁Vertretung	-11805
▁zusammenzu	-11806
leichter	-11807
▁abschließend	-11808
strasse	-11809
▁herrschen	-11810
▁demokratisch	-11811
sinn	-11812
▁exp	-11813
▁bestens	-11814
▁Anhörung	-11815
▁Abstimm	-11816
▁Belastung	-11817
▁Rassismus	-11818
▁Rußland	-11819
▁gelassen	-11820
▁einnehmen	-11821
aire	-11822
brech	-11823
facht	-11824
feind	-11825
▁popul	-11826
▁Million	-11827
mäßigkeit	-11828
▁erörtert	-11829
▁Note	-11830
▁Summe	-11831
neu	-11832
iana	-11833
ietet	-11834
stige	-11835
▁öffnet	-11836
▁bedienen	-11837
▁Pet	-11838
nicht	-11839
▁Mold	-11840
▁Kapit	-11841
stätten	-11842
▁Breakfast	-11843
▁Unterlagen	-11844
▁durchzusetzen	-11845
▁Meld	-11846
▁Schließ	-11847
folgenden	-11848
▁geleitet	-11849
eher	-11850
ello	-11851
▁inakzeptabel	-11852
▁Rind	-11853
▁Strei	-11854
▁oberen	-11855
▁ungewöhn	-11856
▁vorgehen	-11857
▁ausgewählten	-11858
▁Inc	-11859
▁Budapest	-11860
amo	-11861
osa	-11862
▁Squ	-11863
▁Gebir	-11864
▁Laser	-11865
▁geograph	-11866
▁einführen	-11867
▁Energiequellen	-11868
Con	-11869
▁Os	-11870
speriode	-11871
nes	-11872
▁fa	-11873
▁Einblick	-11874
▁gelingen	-11875
grenz	-11876
abkommens	-11877
100	-11878
Raum	-11879
ough	-11880
geschä	-11881
▁Bühne	-11882
▁Logik	-11883
▁Quark	-11884
▁Work	-11885
▁respektiert	-11886
▁Stoff	-11887
▁vertie	-11888
▁University	-11889
▁Adobe	-11890
▁Börse	-11891
▁Fremd	-11892
▁ausdrück	-11893
okol	-11894
folio	-11895
Artikel	-11896
projekte	-11897
▁enormen	-11898
▁Gewinner	-11899
breite	-11900
▁minim	-11901
gründen	-11902
▁wächst	-11903
▁beliebt	-11904
heil	-11905
▁ann	-11906
▁Ordner	-11907
▁SE	-11908
gton	-11909
▁Legitim	-11910
▁übermittelt	-11911
aker	-11912
▁non	-11913
ebung	-11914
ierer	-11915
musik	-11916
▁ändert	-11917
▁55	-11918
▁DIE	-11919
betrag	-11920
listen	-11921
▁vollem	-11922
▁Abteilung	-11923
▁inbegriffen	-11924
oci	-11925
▁Bilanz	-11926
oche	-11927
▁Michel	-11928
▁Palace	-11929
▁fanden	-11930
meldungen	-11931
▁Ausschüsse	-11932
▁val	-11933
▁gestellten	-11934
▁if	-11935
ican	-11936
▁ört	-11937
▁telefon	-11938
▁bewiesen	-11939
▁angenehme	-11940
▁beschleunigen	-11941
▁kontinuierlich	-11942
▁künst	-11943
▁aufrecht	-11944
▁Funktionalität	-11945
▁HD	-11946
bach	-11947
▁bürokra	-11948
▁angestre	-11949
▁erneuerbaren	-11950
set	-11951
mach	-11952
▁ass	-11953
▁Finger	-11954
▁Aktivität	-11955
▁erschienen	-11956
▁EL	-11957
▁liegenden	-11958
▁polnischen	-11959
▁park	-11960
zeichnete	-11961
▁verbleiben	-11962
▁VER	-11963
ärenz	-11964
▁traum	-11965
aktoren	-11966
▁gewinnt	-11967
▁niedrigen	-11968
▁afrikanischen	-11969
▁Tos	-11970
▁been	-11971
▁Weißbuch	-11972
▁passieren	-11973
▁Ausbildungs	-11974
▁Wartung	-11975
▁Gerichten	-11976
▁Bouti	-11977
▁Vermarkt	-11978
Fi	-11979
produkt	-11980
geschoss	-11981
▁geringe	-11982
▁überlegen	-11983
▁heutzutage	-11984
tlicher	-11985
▁Instrumenten	-11986
▁engen	-11987
▁Vergnügen	-11988
▁gewünscht	-11989
sverhandlungen	-11990
▁Il	-11991
ädigung	-11992
▁Mountain	-11993
▁national	-11994
▁Hen	-11995
▁kan	-11996
▁Georgien	-11997
▁Unterdrück	-11998
▁Mazed	-11999
▁beruh	-12000
Team	-12001
geschn	-12002
▁gemein	-12003
▁verzeichnen	-12004
▁Leid	-12005
ahrung	-12006
▁Tatsächlich	-12007
sil	-12008
▁65	-12009
▁Tir	-12010
eugen	-12011
▁Mahl	-12012
bevölkerung	-12013
▁industriellen	-12014
▁UR	-12015
dring	-12016
▁Magaz	-12017
▁Unterzeichnung	-12018
▁absch	-12019
schafter	-12020
▁geistigen	-12021
▁Ausfuhr	-12022
▁Verkaufs	-12023
▁Bedienung	-12024
▁Beschäftigten	-12025
▁Mur	-12026
▁Implemen	-12027
▁Room	-12028
▁Serien	-12029
▁Gegenwart	-12030
▁Jur	-12031
▁Leuten	-12032
▁steigt	-12033
▁entworfen	-12034
▁Referendum	-12035
▁vorbereiten	-12036
▁automatische	-12037
6)	-12038
▁ums	-12039
ehnte	-12040
▁spür	-12041
▁other	-12042
▁Schwar	-12043
▁gültig	-12044
▁Zuständigkeiten	-12045
▁Ster	-12046
▁Konserv	-12047
▁unterbreitet	-12048
▁(„	-12049
ridge	-12050
▁erfasst	-12051
▁eindrucks	-12052
finanzierung	-12053
▁Einwanderer	-12054
▁pas	-12055
riz	-12056
▁Gül	-12057
▁lokaler	-12058
▁erwähnte	-12059
▁Einnahmen	-12060
▁Kreativität	-12061
▁beizutragen	-12062
wig	-12063
▁anf	-12064
▁Dritter	-12065
vort	-12066
ables	-12067
▁Stich	-12068
▁Tools	-12069
▁fortgesetzt	-12070
onente	-12071
▁Versprechen	-12072
▁q	-12073
▁с	-12074
▁Syn	-12075
▁kürz	-12076
etschen	-12077
lagerung	-12078
▁Bananen	-12079
▁Schiffs	-12080
▁Professor	-12081
▁Attraktionen	-12082
▁vorhin	-12083
▁inneren	-12084
▁Eigenschaft	-12085
ра	-12086
▁fährt	-12087
▁Kontra	-12088
achtungen	-12089
▁medizinischen	-12090
32	-12091
▁Ke	-12092
iera	-12093
round	-12094
▁organ	-12095
▁Zunahme	-12096
bilität	-12097
▁Antrieb	-12098
▁erörtern	-12099
▁schenken	-12100
Richtlinie	-12101
▁erweiterten	-12102
ritz	-12103
▁Fertigung	-12104
▁bearbeitet	-12105
alth	-12106
▁köst	-12107
▁Gelände	-12108
laß	-12109
▁HTML	-12110
▁Canon	-12111
▁Still	-12112
▁platz	-12113
häusern	-12114
▁aktualisieren	-12115
▁Wolf	-12116
▁melden	-12117
▁erläutern	-12118
▁wahre	-12119
▁Produzenten	-12120
▁dok	-12121
▁Versuche	-12122
▁Internetzugang	-12123
fügen	-12124
älter	-12125
▁Hann	-12126
▁Präm	-12127
händler	-12128
▁reform	-12129
▁verwalten	-12130
▁detaillierte	-12131
eis	-12132
gab	-12133
chtet	-12134
▁every	-12135
▁Entspannen	-12136
▁PS	-12137
▁Quell	-12138
▁Hochzeit	-12139
▁derjenigen	-12140
▁Konferenzen	-12141
▁Einschätzung	-12142
pr	-12143
▁Fac	-12144
▁Sorg	-12145
▁Miner	-12146
angehen	-12147
▁Wellen	-12148
okus	-12149
▁sech	-12150
▁fairen	-12151
▁located	-12152
irn	-12153
pend	-12154
wood	-12155
▁Flag	-12156
▁isol	-12157
▁transpor	-12158
▁Sitzungen	-12159
▁ohn	-12160
▁Auft	-12161
▁Rett	-12162
junktur	-12163
▁Weiterbildung	-12164
eres	-12165
▁Word	-12166
▁krimin	-12167
▁USD	-12168
rohen	-12169
disziplin	-12170
▁Arbeitsgruppe	-12171
▁Einschränkungen	-12172
room	-12173
wider	-12174
fektion	-12175
▁Rücken	-12176
▁sterben	-12177
▁Zertifik	-12178
lers	-12179
reserv	-12180
▁Büros	-12181
▁treiben	-12182
▁rob	-12183
▁gast	-12184
▁phys	-12185
▁Entsteh	-12186
DEN	-12187
cas	-12188
ighl	-12189
iverse	-12190
irlpool	-12191
regungen	-12192
▁Karl	-12193
▁Puerto	-12194
▁Nic	-12195
ities	-12196
▁begünst	-12197
▁weitaus	-12198
versicherung	-12199
▁Abstimmungen	-12200
marquis	-12201
▁kritischen	-12202
▁",	-12203
▁gelegene	-12204
▁SAP	-12205
▁geschütz	-12206
▁demonstr	-12207
▁kostengünst	-12208
ehler	-12209
▁herkömm	-12210
▁klimatis	-12211
▁Allein	-12212
▁Deck	-12213
▁Fron	-12214
lüssen	-12215
berichte	-12216
▁Inhalts	-12217
▁alleine	-12218
▁Vorredner	-12219
▁Optimierung	-12220
▁leistungsst	-12221
▁(4	-12222
▁Taxi	-12223
▁geziel	-12224
▁theore	-12225
▁externe	-12226
▁Merkmale	-12227
▁Innerhalb	-12228
▁exklusiven	-12229
▁Distribution	-12230
▁fur	-12231
▁vertrau	-12232
anschluss	-12233
ugt	-12234
ötet	-12235
▁Isol	-12236
ziehungs	-12237
▁Stockhol	-12238
bte	-12239
unkel	-12240
Vertrag	-12241
elemente	-12242
▁Klimawandels	-12243
▁Gö	-12244
izite	-12245
elease	-12246
▁Unfall	-12247
▁Alexander	-12248
▁eingerichtete	-12249
sult	-12250
▁enth	-12251
▁della	-12252
▁Realisierung	-12253
▁Besitzer	-12254
▁erinnere	-12255
▁ausführen	-12256
▁Ach	-12257
▁Hektar	-12258
▁Mallorca	-12259
▁bedauern	-12260
initiative	-12261
geschritten	-12262
▁eingebunden	-12263
Cl	-12264
ptain	-12265
▁Stutt	-12266
▁Berater	-12267
▁Foundation	-12268
face	-12269
▁European	-12270
▁gebildet	-12271
▁Kompromiß	-12272
▁Ministerrat	-12273
aka	-12274
eux	-12275
▁blieb	-12276
alteten	-12277
▁Entdecken	-12278
▁konstruktive	-12279
bal	-12280
weil	-12281
dh	-12282
üten	-12283
▁Box	-12284
▁Sow	-12285
hängt	-12286
▁Nahrungs	-12287
▁Oberflächen	-12288
▁registriert	-12289
▁kommerziellen	-12290
ahe	-12291
stö	-12292
drich	-12293
▁Prote	-12294
sweisen	-12295
▁Aktualisierung	-12296
▁Data	-12297
hedrale	-12298
▁endgültig	-12299
▁IB	-12300
▁geschickt	-12301
spezifische	-12302
verbindungen	-12303
▁PSE	-12304
Recht	-12305
▁Extra	-12306
höhe	-12307
▁einhalten	-12308
▁Spezialisten	-12309
ook	-12310
▁Kirk	-12311
▁Generald	-12312
▁Mak	-12313
onischen	-12314
kontrolle	-12315
▁Fähr	-12316
▁Präz	-12317
skosten	-12318
▁Vorgaben	-12319
▁Betroffenen	-12320
isst	-12321
hause	-12322
▁fehl	-12323
▁herrliche	-12324
▁Auftraggeber	-12325
oberfläche	-12326
▁vernünftig	-12327
▁Erbe	-12328
▁bist	-12329
▁repräsen	-12330
33	-12331
Bus	-12332
Prot	-12333
▁Pas	-12334
standard	-12335
▁Theorie	-12336
▁Aff	-12337
träger	-12338
▁Motto	-12339
▁Gestatten	-12340
▁mündlichen	-12341
▁Besteuerung	-12342
▁Nu	-12343
utlich	-12344
▁Motiv	-12345
gleichen	-12346
▁Aufwand	-12347
portiert	-12348
▁erweisen	-12349
▁modernes	-12350
arbeiteten	-12351
▁Gepäckraum	-12352
▁realisieren	-12353
▁technologische	-12354
▁Rem	-12355
gebühr	-12356
▁Metern	-12357
▁Arbeitslosen	-12358
ás	-12359
▁ü	-12360
▁vergröß	-12361
▁Kräften	-12362
▁Konzepte	-12363
▁Besuchern	-12364
▁beschreiben	-12365
oter	-12366
▁({{	-12367
zicht	-12368
▁Ausnahm	-12369
▁Anim	-12370
gewogen	-12371
▁mobile	-12372
▁verdeut	-12373
isierungs	-12374
▁Index	-12375
stanzen	-12376
▁interessieren	-12377
holfen	-12378
▁Porto	-12379
uropäische	-12380
▁Legislativ	-12381
▁could	-12382
▁Fehlen	-12383
▁Weihnacht	-12384
card	-12385
kette	-12386
usste	-12387
felder	-12388
▁ältere	-12389
▁gefährden	-12390
▁nachdenken	-12391
spläne	-12392
NE	-12393
dre	-12394
▁gesonder	-12395
ruhe	-12396
▁700	-12397
Mails	-12398
esien	-12399
▁expl	-12400
▁beauf	-12401
▁beiträgt	-12402
▁Osteuropa	-12403
▁Äußerungen	-12404
quote	-12405
▁Soweit	-12406
▁zwingen	-12407
▁transatlan	-12408
▁Mol	-12409
rüger	-12410
platten	-12411
▁erläutert	-12412
▁eingeschränkt	-12413
erre	-12414
konzept	-12415
▁Getrei	-12416
▁Eigentümer	-12417
▁amtierender	-12418
▁AV	-12419
▁Pres	-12420
▁Neuer	-12421
▁Großen	-12422
aufgaben	-12423
▁Content	-12424
▁Studium	-12425
))	-12426
rinken	-12427
funktionen	-12428
▁verwöhnen	-12429
▁konzipiert	-12430
▁Steuerzahler	-12431
▁Vit	-12432
▁top	-12433
▁armen	-12434
OW	-12435
▁zielt	-12436
▁teilgenommen	-12437
▁Set	-12438
▁Tit	-12439
▁Cour	-12440
▁area	-12441
▁befind	-12442
▁anzeigen	-12443
▁bewirken	-12444
▁Bezahlung	-12445
▁Diagn	-12446
▁Vorfeld	-12447
:5	-12448
AU	-12449
IER	-12450
▁kulin	-12451
▁zweier	-12452
▁Techniken	-12453
**	-12454
eland	-12455
▁Höhen	-12456
leister	-12457
▁Ostsee	-12458
▁Spezie	-12459
▁gratis	-12460
▁Beratungs	-12461
▁Energiepolitik	-12462
▁‚	-12463
▁BMW	-12464
▁typische	-12465
▁auswärtige	-12466
ZE	-12467
▁pa	-12468
ania	-12469
▁Protokolls	-12470
▁beeinflusst	-12471
▁Zufriedenheit	-12472
utr	-12473
▁Mes	-12474
▁Rec	-12475
▁Krieges	-12476
▁ratifiziert	-12477
▁schrittweise	-12478
▁vereinfachen	-12479
time	-12480
utton	-12481
▁Halte	-12482
▁derart	-12483
▁Cocktail	-12484
Ma	-12485
▁Dich	-12486
▁Jazz	-12487
▁Dolom	-12488
freundlich	-12489
▁gehandelt	-12490
▁gesammelt	-12491
▁Anregungen	-12492
▁mitgeteilt	-12493
▁schlechter	-12494
papier	-12495
▁Unionsb	-12496
▁idealer	-12497
echslungs	-12498
▁Hotelsafe	-12499
▁einzuhalten	-12500
▁Überarbeitung	-12501
erten	-12502
▁Strasse	-12503
▁Elektronik	-12504
▁Gü	-12505
gart	-12506
tika	-12507
▁Aufruf	-12508
▁testen	-12509
▁Drucker	-12510
▁zukunft	-12511
irst	-12512
spflicht	-12513
▁voneinander	-12514
iefer	-12515
▁zwanzig	-12516
▁investiert	-12517
]].	-12518
▁Darin	-12519
▁gutem	-12520
▁messen	-12521
▁Gesetzgeb	-12522
▁ähnlichen	-12523
geschneider	-12524
▁Lateinamerika	-12525
imes	-12526
8-	-12527
▁Erz	-12528
schla	-12529
▁Brot	-12530
▁Mauer	-12531
verteilung	-12532
IX	-12533
status	-12534
zenzen	-12535
▁drast	-12536
ontrollen	-12537
▁Interpret	-12538
▁bekräftigt	-12539
▁Terroristen	-12540
▁Kreditkarten	-12541
Plan	-12542
flanz	-12543
▁Tank	-12544
▁Segel	-12545
▁archite	-12546
▁zuverlässig	-12547
ро	-12548
gin	-12549
▁schließe	-12550
ungsmaßnahmen	-12551
▁gelö	-12552
▁Malta	-12553
▁jährlichen	-12554
▁stattdessen	-12555
39	-12556
ids	-12557
ängern	-12558
▁Thermal	-12559
▁Versorgungs	-12560
TC	-12561
sul	-12562
▁betrieb	-12563
▁Aufforderung	-12564
ín	-12565
▁Hal	-12566
▁Rod	-12567
▁Wille	-12568
▁Verkäufer	-12569
▁vielfältigen	-12570
▁EP	-12571
leih	-12572
▁amb	-12573
▁Shutt	-12574
▁Aufnahmen	-12575
endo	-12576
▁Freiwill	-12577
hor	-12578
ehend	-12579
villa	-12580
▁Spezi	-12581
▁kritisch	-12582
▁schreibt	-12583
baum	-12584
ople	-12585
▁mithilfe	-12586
▁Jugendher	-12587
▁unerlässlich	-12588
29	-12589
grit	-12590
grade	-12591
▁begründet	-12592
▁verehrten	-12593
▁Gerichtshofs	-12594
bedürf	-12595
▁dokumen	-12596
sparungen	-12597
▁Johannes	-12598
freiheiten	-12599
▁äußerster	-12600
befinden	-12601
▁Rö	-12602
▁Life	-12603
▁Feder	-12604
▁doppel	-12605
▁ansonsten	-12606
▁registrieren	-12607
▁Vogel	-12608
werbung	-12609
▁hiermit	-12610
▁irische	-12611
▁flexible	-12612
▁freundlichen	-12613
▁Lebensmitteln	-12614
craft	-12615
▁Diam	-12616
aterial	-12617
▁Solche	-12618
▁werfen	-12619
▁angeben	-12620
▁erfolgte	-12621
▁züg	-12622
▁ziel	-12623
▁Anbau	-12624
▁enttäuscht	-12625
▁asi	-12626
▁womit	-12627
▁vermutlich	-12628
▁multination	-12629
▁durchschnitt	-12630
▁Sau	-12631
▁Plus	-12632
▁allmäh	-12633
▁1991	-12634
▁Mund	-12635
sbereich	-12636
▁unterhalten	-12637
▁grundlegender	-12638
isen	-12639
▁Echtzeit	-12640
dia	-12641
▁Panoram	-12642
restaurant	-12643
▁ernsthafte	-12644
▁keinesfalls	-12645
Port	-12646
uage	-12647
lehen	-12648
▁Rang	-12649
▁echt	-12650
▁erzielten	-12651
▁vernünftige	-12652
▁Zimmerservice	-12653
▁Spuren	-12654
▁Wiener	-12655
▁trocken	-12656
▁tätigen	-12657
▁Gumm	-12658
hington	-12659
▁jüngste	-12660
▁verwaltet	-12661
49	-12662
andten	-12663
▁Albanien	-12664
▁Tschechischen	-12665
aal	-12666
orben	-12667
plant	-12668
▁Neues	-12669
▁begangen	-12670
▁Erwachsenen	-12671
ütter	-12672
ourismus	-12673
▁Auslegung	-12674
▁Konfiguration	-12675
▁Lande	-12676
ational	-12677
▁Kohärenz	-12678
La	-12679
▁6,	-12680
Code	-12681
unken	-12682
▁Mach	-12683
software	-12684
▁Litauen	-12685
▁Ausstellungen	-12686
fiziert	-12687
▁geleiste	-12688
▁Whirlpool	-12689
▁örtlichen	-12690
El	-12691
mor	-12692
block	-12693
▁Bünd	-12694
▁Kron	-12695
▁Gewinne	-12696
dernfalls	-12697
▁Ly	-12698
▁when	-12699
▁gewalt	-12700
ribut	-12701
altete	-12702
▁analysieren	-12703
▁Dor	-12704
greift	-12705
reform	-12706
schungen	-12707
37	-12708
▁TH	-12709
erischen	-12710
▁bedenken	-12711
rel	-12712
▁Hot	-12713
ätten	-12714
schend	-12715
▁einzugehen	-12716
▁Gemäß	-12717
▁inclu	-12718
▁restaur	-12719
▁Mazedonien	-12720
▁Bewältigung	-12721
berat	-12722
tiker	-12723
demokraten	-12724
gliederung	-12725
▁Initiativ	-12726
▁kritisiert	-12727
ulse	-12728
▁Spar	-12729
▁Ideal	-12730
▁Geschlecht	-12731
▁idealen	-12732
lüss	-12733
▁trop	-12734
lehnen	-12735
▁Portal	-12736
▁religiösen	-12737
▁Ratsvorsitzes	-12738
▁Schnee	-12739
▁nutzbar	-12740
verschmutzung	-12741
ful	-12742
▁%.	-12743
▁eure	-12744
▁Abstand	-12745
▁gebraucht	-12746
▁relevanten	-12747
▁Instruments	-12748
▁Übersetzungen	-12749
▁Zubehör	-12750
▁Verträgen	-12751
▁eingerichteten	-12752
förm	-12753
rint	-12754
▁USS	-12755
▁jeweilige	-12756
▁its	-12757
▁frisch	-12758
▁Atlantik	-12759
▁entscheidet	-12760
led	-12761
athem	-12762
rechnung	-12763
▁geschafft	-12764
▁bilateralen	-12765
▁Galerie	-12766
▁horizont	-12767
▁kompletten	-12768
ко	-12769
▁Py	-12770
▁1989	-12771
▁Fast	-12772
▁diskrimin	-12773
▁irgendwelche	-12774
▁Felsen	-12775
▁verschiedensten	-12776
würfe	-12777
▁Argent	-12778
▁deinen	-12779
▁Herberge	-12780
."	-12781
Es	-12782
▁unzureichend	-12783
isa	-12784
▁FA	-12785
büro	-12786
▁Gre	-12787
▁sonn	-12788
▁wöch	-12789
▁aufer	-12790
ush	-12791
▁Tib	-12792
▁Spir	-12793
▁Music	-12794
straßen	-12795
bles	-12796
▁Ring	-12797
▁Spanisch	-12798
▁begeistert	-12799
▁Eta	-12800
▁Kindes	-12801
▁fehler	-12802
65	-12803
katastrophen	-12804
▁Stabilitätspakt	-12805
flotte	-12806
▁Darauf	-12807
▁Dienstag	-12808
▁plötzlich	-12809
▁beurteilen	-12810
▁Einschränkung	-12811
asien	-12812
organ	-12813
▁klären	-12814
▁Maastricht	-12815
iland	-12816
▁Feed	-12817
iziert	-12818
▁benachr	-12819
▁Wohlbefinden	-12820
LAF	-12821
▁Zit	-12822
ändig	-12823
ausenden	-12824
▁exklusiv	-12825
schalter	-12826
▁praktiz	-12827
▁Randlage	-12828
▁Lebensqualität	-12829
21	-12830
gesprä	-12831
▁angehen	-12832
▁Verstärkung	-12833
▁schwieriger	-12834
▁hüb	-12835
öffnete	-12836
greifende	-12837
▁Jeden	-12838
▁nötigen	-12839
▁programm	-12840
rechtliche	-12841
▁verlänger	-12842
▁angefangen	-12843
▁verbesserte	-12844
▁Vorsitzender	-12845
mt	-12846
▁denk	-12847
sprachigen	-12848
ungskosten	-12849
wahr	-12850
▁2013	-12851
assten	-12852
▁Geräten	-12853
▁strenge	-12854
▁ärmsten	-12855
▁Café	-12856
▁Anton	-12857
inischen	-12858
▁südlich	-12859
▁exklusive	-12860
Ne	-12861
ößt	-12862
▁Hub	-12863
ilden	-12864
schauer	-12865
verkauf	-12866
▁gelernt	-12867
▁rechtfertigen	-12868
ui	-12869
▁technologischen	-12870
urce	-12871
▁Tarif	-12872
▁abwechslungs	-12873
▁(5	-12874
▁Fair	-12875
▁Leder	-12876
▁anwend	-12877
▁Flüge	-12878
▁erlangen	-12879
▁Fernseher	-12880
kri	-12881
▁Dres	-12882
▁Playa	-12883
▁Minist	-12884
▁getötet	-12885
hörigkeit	-12886
.“	-12887
EP	-12888
Bet	-12889
zel	-12890
ehin	-12891
▁Prei	-12892
alifor	-12893
verband	-12894
ektivität	-12895
tions	-12896
gängen	-12897
▁Gültigkeit	-12898
▁Multim	-12899
▁genehmigt	-12900
▁herstellen	-12901
▁Len	-12902
▁EURO	-12903
▁vorteil	-12904
ücke	-12905
▁Danke	-12906
▁Module	-12907
stützung	-12908
▁Sorgfalt	-12909
▁sämtlichen	-12910
Po	-12911
▁Hör	-12912
▁Import	-12913
▁Kra	-12914
Rooms	-12915
strecken	-12916
▁Bewertungen	-12917
▁eingereichten	-12918
▁Somm	-12919
▁graf	-12920
Länder	-12921
▁Party	-12922
▁night	-12923
ikalien	-12924
▁drücken	-12925
▁stützen	-12926
▁Snow	-12927
▁schützt	-12928
zusprechen	-12929
cess	-12930
steil	-12931
Commer	-12932
sslich	-12933
▁Aufsicht	-12934
▁bevorstehenden	-12935
▁Devis	-12936
▁Textes	-12937
▁einander	-12938
▁vorsichtig	-12939
sbeziehungen	-12940
▁nennt	-12941
▁Blan	-12942
▁iPhone	-12943
gekommen	-12944
▁31	-12945
▁Ernen	-12946
▁portugiesischen	-12947
ünde	-12948
▁Hon	-12949
▁endet	-12950
▁Schienen	-12951
gow	-12952
weiß	-12953
schrau	-12954
▁Rande	-12955
uchtung	-12956
▁Ursprung	-12957
▁übersetzt	-12958
▁Einwohnern	-12959
▁Rechtsrahmen	-12960
▁Haushaltsplans	-12961
Aut	-12962
innung	-12963
▁Beton	-12964
▁Psych	-12965
ransport	-12966
betreuung	-12967
lim	-12968
▁Chef	-12969
▁Taiw	-12970
▁namens	-12971
▁ausgesch	-12972
ng	-12973
▁Hyd	-12974
bietet	-12975
gerechte	-12976
▁Führungs	-12977
▁arbeitete	-12978
▁vorherige	-12979
bü	-12980
zon	-12981
urcht	-12982
▁Ecke	-12983
▁Corporate	-12984
ürzen	-12985
▁Gitar	-12986
ilities	-12987
sem	-12988
messe	-12989
▁begab	-12990
▁demokratischer	-12991
68	-12992
Welt	-12993
▁Batter	-12994
▁trennen	-12995
▁Slowenien	-12996
▁Fal	-12997
▁solide	-12998
▁deutscher	-12999
▁irgendein	-13000
▁Architekten	-13001
ESCO	-13002
warten	-13003
▁retten	-13004
▁Washington	-13005
▁ökologische	-13006
▁**	-13007
yright	-13008
▁Trink	-13009
bewegung	-13010
▁Monitor	-13011
spolitische	-13012
▁Kathedrale	-13013
bilden	-13014
gemäße	-13015
▁erkenn	-13016
einheiten	-13017
▁luxuriöse	-13018
▁bekanntesten	-13019
emit	-13020
ovis	-13021
▁Bele	-13022
▁Dein	-13023
▁Ehren	-13024
▁Doppelbett	-13025
▁Leidenschaft	-13026
tief	-13027
▁inwie	-13028
▁Mobile	-13029
iche	-13030
▁ohnehin	-13031
▁befürworte	-13032
hroom	-13033
▁Implementierung	-13034
▁Hit	-13035
▁wartet	-13036
▁einzubeziehen	-13037
CP	-13038
▁Anruf	-13039
▁Folter	-13040
▁Wikitra	-13041
▁Kapazitäten	-13042
▁Besonderheiten	-13043
tional	-13044
bekämpfung	-13045
▁Cy	-13046
▁lebend	-13047
alia	-13048
ierbar	-13049
▁größt	-13050
▁älter	-13051
▁Einfluß	-13052
ml	-13053
recken	-13054
▁objek	-13055
▁zeigte	-13056
▁Stadtteil	-13057
▁Fragestunde	-13058
put	-13059
▁PR	-13060
dere	-13061
arium	-13062
äußerung	-13063
▁falschen	-13064
▁Community	-13065
▁LateRooms	-13066
▁ausgebaut	-13067
▁Ernährungs	-13068
swerten	-13069
▁zahlreicher	-13070
bilder	-13071
kapital	-13072
▁Kloster	-13073
▁normale	-13074
strukturen	-13075
oir	-13076
olge	-13077
mengen	-13078
laubnis	-13079
▁Disziplin	-13080
▁Medikamente	-13081
▁durchgeführten	-13082
agon	-13083
▁Griff	-13084
▁James	-13085
▁Seminar	-13086
▁gewachsen	-13087
▁erneuerbare	-13088
▁Rats	-13089
▁Pharma	-13090
probleme	-13091
▁meistens	-13092
▁Apple	-13093
nehmbar	-13094
▁interak	-13095
▁Wikitravel	-13096
▁Komplettpreise	-13097
▁cor	-13098
/2000	-13099
▁gestiegen	-13100
▁alternative	-13101
▁kenn	-13102
▁apart	-13103
▁Mailand	-13104
▁Strecken	-13105
▁ältesten	-13106
Sicherheit	-13107
▁Entstehung	-13108
▁vorherigen	-13109
▁Vereinigung	-13110
röme	-13111
▁bir	-13112
▁far	-13113
ätter	-13114
sender	-13115
▁erstaun	-13116
▁Salzburg	-13117
▁Finanzmittel	-13118
sex	-13119
▁EM	-13120
menü	-13121
▁Sel	-13122
andte	-13123
essel	-13124
ssystems	-13125
▁schlage	-13126
▁einziges	-13127
spolitiken	-13128
kas	-13129
▁use	-13130
▁Einzelnen	-13131
▁Ernährung	-13132
▁Trainings	-13133
runde	-13134
▁stra	-13135
▁Gross	-13136
▁small	-13137
▁üblich	-13138
▁Anweisungen	-13139
▁Entschließungen	-13140
agung	-13141
▁live	-13142
▁Haust	-13143
▁Gesprächen	-13144
▁kauf	-13145
▁zeichnen	-13146
▁Flugzeuge	-13147
▁einzelner	-13148
▁wachsende	-13149
▁Kommissare	-13150
▁weib	-13151
▁their	-13152
▁werte	-13153
Politik	-13154
ampagne	-13155
beitrag	-13156
▁Ansprech	-13157
▁malerischen	-13158
Arch	-13159
▁Verg	-13160
rechtlich	-13161
steuerung	-13162
▁Ausfahrt	-13163
▁Statistik	-13164
NA	-13165
güter	-13166
ivals	-13167
atives	-13168
▁Vulkan	-13169
▁AD	-13170
▁Ib	-13171
▁EVP	-13172
▁lohnt	-13173
ordnet	-13174
▁spüren	-13175
▁Christen	-13176
▁Körp	-13177
▁grös	-13178
zukommen	-13179
▁gesunden	-13180
▁engagiert	-13181
▁angewiesen	-13182
▁vielfältige	-13183
ads	-13184
rön	-13185
lech	-13186
▁McC	-13187
design	-13188
▁feier	-13189
▁erreichte	-13190
▁aufrechter	-13191
denz	-13192
befug	-13193
greif	-13194
Bürger	-13195
▁Inneres	-13196
▁wirksamen	-13197
▁Rio	-13198
▁diff	-13199
rägern	-13200
▁Domain	-13201
▁gefällt	-13202
▁verstoßen	-13203
▁berufliche	-13204
Li	-13205
▁Sei	-13206
winkel	-13207
▁längst	-13208
▁aufgehoben	-13209
▁Internetseite	-13210
ehrter	-13211
▁Sensi	-13212
▁Golden	-13213
▁Silber	-13214
▁jemals	-13215
▁einzurichten	-13216
cer	-13217
Jahr	-13218
▁Alm	-13219
▁jüd	-13220
▁Eleg	-13221
▁Halle	-13222
Distribution	-13223
reien	-13224
▁Valen	-13225
▁autor	-13226
▁wenigstens	-13227
▁Verstö	-13228
▁bewundern	-13229
▁klassische	-13230
▁einzigartig	-13231
▁Arbeitsweise	-13232
mord	-13233
▁Wörter	-13234
▁schwarz	-13235
Au	-13236
▁Monats	-13237
riterium	-13238
▁gefährlichen	-13239
ENT	-13240
prüf	-13241
etenz	-13242
▁Bewegungen	-13243
▁unverzicht	-13244
▁vi	-13245
▁".	-13246
▁är	-13247
fisch	-13248
▁Simbab	-13249
phen	-13250
▁Stell	-13251
▁kritische	-13252
name	-13253
rain	-13254
Spiel	-13255
▁Erste	-13256
▁Juden	-13257
▁automatis	-13258
▁Perspektiven	-13259
ests	-13260
▁Premium	-13261
▁Wahrnehm	-13262
mens	-13263
▁cas	-13264
▁einschlä	-13265
.).	-13266
▁AP	-13267
iguren	-13268
▁Dekor	-13269
▁überd	-13270
▁Tickets	-13271
▁wirkungs	-13272
▁Zeug	-13273
pper	-13274
artig	-13275
▁unteren	-13276
attformen	-13277
▁Gegenstände	-13278
▁Vene	-13279
▁hell	-13280
▁Paläst	-13281
▁glücklich	-13282
▁Transaktionen	-13283
48	-13284
berger	-13285
alus	-13286
▁Luf	-13287
fahrts	-13288
▁übrig	-13289
▁resultieren	-13290
▁ausgewogenen	-13291
ktoren	-13292
Ländern	-13293
ecutive	-13294
▁Rückgang	-13295
▁7,	-13296
anwendungen	-13297
▁Herrschaft	-13298
▁traditionell	-13299
▁By	-13300
▁Ot	-13301
ichen	-13302
füllen	-13303
▁konkur	-13304
▁geladen	-13305
▁Tragödie	-13306
▁ausgelegt	-13307
▁Beobachter	-13308
▁Gir	-13309
grität	-13310
hauses	-13311
▁Formul	-13312
▁kooper	-13313
▁Überra	-13314
▁Hierbei	-13315
▁besticht	-13316
▁и	-13317
▁Blu	-13318
ließt	-13319
▁traur	-13320
▁denselben	-13321
nth	-13322
▁XP	-13323
orer	-13324
▁Kau	-13325
größe	-13326
umpen	-13327
▁Snack	-13328
▁Buchungs	-13329
▁Verzögerung	-13330
▁AM	-13331
▁Ansch	-13332
▁schlicht	-13333
▁beitreten	-13334
ré	-13335
▁Ähn	-13336
ements	-13337
▁vierten	-13338
▁Security	-13339
▁Stuttgart	-13340
EWG	-13341
ämm	-13342
apel	-13343
itektur	-13344
Haushalt	-13345
▁implemen	-13346
▁Erkenntnisse	-13347
▁Grundfreiheiten	-13348
47	-13349
▁ueber	-13350
▁wofür	-13351
▁Schott	-13352
▁akzeptabel	-13353
ardo	-13354
▁Hum	-13355
sions	-13356
▁Skla	-13357
▁mündliche	-13358
▁Gard	-13359
vereinbar	-13360
▁Anreize	-13361
olden	-13362
▁debat	-13363
sfragen	-13364
▁Piazza	-13365
ross	-13366
spreis	-13367
umping	-13368
▁nament	-13369
▁Erleben	-13370
▁Bedingung	-13371
▁unterliegt	-13372
▁Bruder	-13373
▁Report	-13374
▁Treiber	-13375
abteilung	-13376
▁Friedrich	-13377
alisierungs	-13378
aga	-13379
▁(0	-13380
▁Ze	-13381
▁gebilligt	-13382
sofern	-13383
▁UNESCO	-13384
sprochen	-13385
▁schlechten	-13386
▁Verzögerungen	-13387
aud	-13388
▁Quart	-13389
▁Km	-13390
iday	-13391
▁Verhältnisse	-13392
KT	-13393
▁Schau	-13394
▁ernste	-13395
▁überfl	-13396
▁anbietet	-13397
▁chambres	-13398
▁zurückkehren	-13399
▁qualifizierte	-13400
ktiver	-13401
▁Kanal	-13402
▁müßte	-13403
▁ignoriert	-13404
▁internationales	-13405
▁Sun	-13406
▁neueste	-13407
▁schönes	-13408
▁Hinzu	-13409
▁Kurse	-13410
vas	-13411
▁Vorh	-13412
▁Präsidium	-13413
▁Unsicherheit	-13414
▁Unterdrückung	-13415
ölkern	-13416
▁kunden	-13417
▁lebenden	-13418
gerichtshof	-13419
▁habt	-13420
▁Gebur	-13421
Systeme	-13422
▁Anzeigen	-13423
▁abgehalten	-13424
▁Sem	-13425
teilten	-13426
zustand	-13427
▁längere	-13428
▁belgischen	-13429
▁verarbeiten	-13430
nutzung	-13431
▁Lehren	-13432
▁Begriffe	-13433
▁Golfplatz	-13434
läß	-13435
unnel	-13436
▁authen	-13437
▁attraktiv	-13438
▁beliebten	-13439
räder	-13440
echselt	-13441
▁binden	-13442
endigung	-13443
Serie	-13444
▁Freien	-13445
▁Vorbild	-13446
▁interpre	-13447
regierungs	-13448
belast	-13449
▁hielt	-13450
▁Tagungs	-13451
▁breites	-13452
▁Reihenfolge	-13453
dert	-13454
▁Bang	-13455
▁Leon	-13456
▁Lust	-13457
▁Analysen	-13458
▁Beachten	-13459
▁beseitigt	-13460
▁analysiert	-13461
col	-13462
edes	-13463
▁Pest	-13464
artiger	-13465
zufinden	-13466
▁Vertriebs	-13467
▁Luftverkehrs	-13468
▁Temperaturen	-13469
▁Vorbereitungen	-13470
▁beeinträchtigt	-13471
▁hef	-13472
sters	-13473
▁Board	-13474
▁Zwecken	-13475
▁Zulassung	-13476
▁konstruktiven	-13477
▁Menschenhandel	-13478
oul	-13479
▁Ernst	-13480
▁getrenn	-13481
sprogramms	-13482
▁Weltmarkt	-13483
Ge	-13484
netze	-13485
▁Cle	-13486
abile	-13487
▁Genf	-13488
▁standen	-13489
▁vergleichen	-13490
▁systematisch	-13491
▁Cent	-13492
▁Dest	-13493
dungen	-13494
fahrung	-13495
▁Kohlen	-13496
▁Norwegen	-13497
äler	-13498
dustr	-13499
versi	-13500
eigenen	-13501
▁Angriffe	-13502
▁universe	-13503
▁aufweisen	-13504
▁sozusagen	-13505
▁Campingplatz	-13506
▁vorgeschrieben	-13507
▁bereitzustellen	-13508
▁unvergesslichen	-13509
INE	-13510
ouv	-13511
▁Mix	-13512
▁Spannungen	-13513
▁verhandeln	-13514
Up	-13515
äudes	-13516
▁Tempo	-13517
▁gekauft	-13518
▁dauerhaft	-13519
▁zukünftig	-13520
▁gefährliche	-13521
▁ausländische	-13522
kont	-13523
▁irre	-13524
▁Mitwirkung	-13525
▁Kle	-13526
spoten	-13527
▁hilfs	-13528
▁zumal	-13529
▁benannt	-13530
iza	-13531
▁Absichten	-13532
▁Straßenverkehr	-13533
38	-13534
ira	-13535
▁radik	-13536
▁Eintrag	-13537
▁gemessen	-13538
▁auszuüben	-13539
erbe	-13540
▁Oze	-13541
Inform	-13542
beteil	-13543
▁unters	-13544
▁Ereignissen	-13545
▁verständlich	-13546
▁Aro	-13547
▁Rüst	-13548
▁Bisher	-13549
▁verankert	-13550
OC	-13551
rive	-13552
▁Sky	-13553
volumen	-13554
▁minutes	-13555
inte	-13556
nergie	-13557
▁Deine	-13558
▁Erfolgs	-13559
▁startet	-13560
▁verhalten	-13561
▁Herangehen	-13562
bö	-13563
sts	-13564
▁Formel	-13565
▁zugeschnitten	-13566
▁Nichtregierungs	-13567
elen	-13568
▁May	-13569
▁Lehre	-13570
ächtnis	-13571
▁Düssel	-13572
▁warmen	-13573
▁schnelles	-13574
▁Ausnahmere	-13575
▁ungarischen	-13576
▁Binnenmarkts	-13577
1/	-13578
äbe	-13579
▁85	-13580
basis	-13581
▁familien	-13582
▁verschoben	-13583
▁vereinfacht	-13584
“)	-13585
▁kg	-13586
testet	-13587
▁Klaus	-13588
▁Staff	-13589
▁Sowjet	-13590
▁Standpunkte	-13591
▁irgendeiner	-13592
▁beträchtliche	-13593
fal	-13594
wal	-13595
▁1,5	-13596
▁Darf	-13597
▁Kino	-13598
ordnen	-13599
▁Vorwand	-13600
▁Gefangenen	-13601
▁verabschie	-13602
▁gegenseitig	-13603
▁Koordination	-13604
▁Gelegenheiten	-13605
ila	-13606
asis	-13607
ecial	-13608
▁Kamin	-13609
▁riesige	-13610
▁verleiht	-13611
verk	-13612
ämpfe	-13613
renzen	-13614
▁Vorsorge	-13615
▁Rindfleisch	-13616
aging	-13617
▁Siehe	-13618
gliedern	-13619
▁starkes	-13620
▁größerer	-13621
▁errichten	-13622
▁nördlichen	-13623
▁Haushaltsjahr	-13624
fab	-13625
list	-13626
▁Han	-13627
▁jahrel	-13628
anbieter	-13629
▁strengen	-13630
abstimmung	-13631
▁Tatsachen	-13632
▁Jugoslawien	-13633
conom	-13634
ffekt	-13635
entren	-13636
leiden	-13637
ronomie	-13638
▁Übereinkommens	-13639
▁Hu	-13640
atorium	-13641
▁Spiels	-13642
▁ermitteln	-13643
▁ungeachtet	-13644
seg	-13645
▁Opfern	-13646
▁einmalige	-13647
td	-13648
ßig	-13649
schte	-13650
▁Dolmet	-13651
▁mangel	-13652
▁Folglich	-13653
▁mehrmals	-13654
▁nachvoll	-13655
▁Unionsbürger	-13656
steuropäischen	-13657
WF	-13658
aste	-13659
▁tod	-13660
schei	-13661
▁unzu	-13662
schwemm	-13663
▁belegt	-13664
▁klarer	-13665
▁kurzfristig	-13666
ALE	-13667
luft	-13668
tele	-13669
▁unf	-13670
noten	-13671
▁Hierzu	-13672
▁who	-13673
▁most	-13674
▁geklärt	-13675
▁gerufen	-13676
▁Verluste	-13677
▁niedriger	-13678
▁Landwirtschafts	-13679
▁Mu	-13680
▁Quar	-13681
▁ereig	-13682
zeitige	-13683
▁Finanziellen	-13684
▁warm	-13685
lagert	-13686
Met	-13687
▁Räum	-13688
▁Fertig	-13689
überwach	-13690
▁stehende	-13691
▁Reaktionen	-13692
▁Zahlreiche	-13693
▁Jahresbericht	-13694
▁easy	-13695
▁Vista	-13696
▁worauf	-13697
▁schrieb	-13698
▁nützliche	-13699
▁offenkund	-13700
▁weitergegeben	-13701
Star	-13702
▁Reb	-13703
house	-13704
szeit	-13705
▁place	-13706
▁Ausser	-13707
▁Kernen	-13708
vielfalt	-13709
▁Grafiken	-13710
▁vorgegeben	-13711
▁Rechenschaft	-13712
lab	-13713
rio	-13714
▁don	-13715
▁1980	-13716
▁Steu	-13717
▁Central	-13718
versicher	-13719
▁gründlich	-13720
aya	-13721
▁dei	-13722
▁Leip	-13723
Design	-13724
stimmte	-13725
▁gewerb	-13726
▁legiti	-13727
jähriger	-13728
titionen	-13729
▁Beendigung	-13730
▁hinzuweisen	-13731
▁Jos	-13732
▁Song	-13733
▁Befrei	-13734
▁Abfälle	-13735
▁Erdbeben	-13736
▁frischen	-13737
▁Verpackung	-13738
▁Ratspräsidenten	-13739
EST	-13740
kar	-13741
▁abgeb	-13742
▁Moskau	-13743
lé	-13744
▁Esp	-13745
merzen	-13746
▁Kopie	-13747
▁Tabellen	-13748
▁Halbinsel	-13749
▁Governance	-13750
ture	-13751
stuhl	-13752
▁Lieb	-13753
▁brut	-13754
▁Organen	-13755
HR	-13756
ustom	-13757
▁wunderbare	-13758
UT	-13759
webe	-13760
ieter	-13761
▁Träger	-13762
▁frucht	-13763
▁ausgelöst	-13764
▁Gewerkschaften	-13765
bry	-13766
▁Bush	-13767
▁Viet	-13768
▁cour	-13769
▁gefangen	-13770
▁angehören	-13771
▁Partnerschaften	-13772
Mus	-13773
▁fo	-13774
Nach	-13775
▁Gay	-13776
▁Pfad	-13777
▁Diensten	-13778
▁bedeutendsten	-13779
Kam	-13780
▁benutz	-13781
▁Moderne	-13782
▁besetzt	-13783
assungsver	-13784
cts	-13785
fect	-13786
defin	-13787
▁Wagen	-13788
▁vorne	-13789
▁Copyright	-13790
▁dauerhafte	-13791
▁42	-13792
▁ve	-13793
▁int	-13794
annehm	-13795
▁train	-13796
▁Gründer	-13797
▁internet	-13798
▁sicherer	-13799
▁Besteller	-13800
▁ethnischen	-13801
▁zunehmende	-13802
▁Lot	-13803
Christ	-13804
▁Forst	-13805
▁bezaubern	-13806
▁Amerikaner	-13807
▁Vermarktung	-13808
▁friedlichen	-13809
▁biologischen	-13810
▁TR	-13811
▁Sav	-13812
▁hol	-13813
▁Mond	-13814
antrag	-13815
▁Schuh	-13816
▁initi	-13817
▁weißen	-13818
▁unabding	-13819
▁ausgearbeitet	-13820
stuf	-13821
▁Flor	-13822
▁Pakt	-13823
▁Annäh	-13824
▁Behaupt	-13825
▁verschieben	-13826
ae	-13827
ense	-13828
▁Bour	-13829
▁Consult	-13830
▁verfahren	-13831
▁Tschetschen	-13832
▁Säm	-13833
▁Gesam	-13834
▁Kommentar	-13835
▁Scheitern	-13836
▁vorrangig	-13837
-)	-13838
}})	-13839
▁Adri	-13840
▁reine	-13841
▁diverse	-13842
▁Mitentscheid	-13843
▁Road	-13844
bietern	-13845
▁genügt	-13846
▁korrekte	-13847
▁mehrerer	-13848
▁Stellenwert	-13849
▁Entscheidungs	-13850
schu	-13851
elect	-13852
▁israelischen	-13853
asten	-13854
▁angeblich	-13855
▁Ankündigung	-13856
▁durchsetzen	-13857
Pal	-13858
car	-13859
isol	-13860
▁konsul	-13861
▁unverbind	-13862
▁Hinsichtlich	-13863
Sie	-13864
▁Game	-13865
▁Hels	-13866
▁transe	-13867
▁Museums	-13868
▁abzielen	-13869
▁vorschlägt	-13870
▁ausgestatteten	-13871
▁num	-13872
erren	-13873
gungen	-13874
▁Niemand	-13875
▁gezielt	-13876
▁vernach	-13877
vertreter	-13878
▁effizienten	-13879
▁Verkehrsmittel	-13880
Th	-13881
sparen	-13882
▁Kohle	-13883
▁Zielsetzung	-13884
▁Marktwirtschaft	-13885
GA	-13886
burgh	-13887
▁Null	-13888
▁Flach	-13889
▁Smart	-13890
▁nukle	-13891
▁Softwar	-13892
anspruchnahme	-13893
6-	-13894
67	-13895
▁(10	-13896
▁qui	-13897
▁Kohl	-13898
▁reiz	-13899
hotels	-13900
▁Parlamenten	-13901
▁vorangegangenen	-13902
quar	-13903
team	-13904
▁Features	-13905
dar	-13906
▁Palast	-13907
▁feiern	-13908
▁Fristen	-13909
▁Stränden	-13910
schicht	-13911
▁optimalen	-13912
▁Vorsitzende	-13913
nik	-13914
ehne	-13915
sigen	-13916
kamera	-13917
▁Highl	-13918
▁Abgesehen	-13919
▁Integrität	-13920
üche	-13921
▁faire	-13922
▁Aufträge	-13923
▁bereitstellen	-13924
▁{	-13925
rator	-13926
streit	-13927
▁Parks	-13928
▁grand	-13929
▁anstelle	-13930
kunst	-13931
▁Brut	-13932
diovis	-13933
▁setzte	-13934
leit	-13935
▁Chat	-13936
▁gefasst	-13937
▁Effektivität	-13938
emb	-13939
astet	-13940
▁wozu	-13941
▁Distri	-13942
▁Musiker	-13943
▁Tendenz	-13944
▁Neuigkeiten	-13945
▁2012	-13946
▁Orts	-13947
▁Kompon	-13948
▁bevorzug	-13949
▁versetzt	-13950
▁Erreichen	-13951
zweck	-13952
wärtig	-13953
▁School	-13954
▁rasche	-13955
▁realen	-13956
▁Möchten	-13957
▁tausend	-13958
▁spiegelt	-13959
▁Künstlern	-13960
▁verknüpft	-13961
ückt	-13962
▁Tipps	-13963
spieler	-13964
▁Flotte	-13965
▁Philipp	-13966
ebene	-13967
ografen	-13968
▁zunehmenden	-13969
▁Nationalpark	-13970
zell	-13971
ierra	-13972
ürfen	-13973
▁gäng	-13974
iedelt	-13975
▁Listen	-13976
▁Rahmens	-13977
▁Buchstaben	-13978
▁kompatibel	-13979
▁korrigieren	-13980
▁wünschenswert	-13981
▁Dub	-13982
▁rot	-13983
▁iran	-13984
▁Trends	-13985
▁verbrei	-13986
▁zulässig	-13987
▁beantragen	-13988
▁verwirklicht	-13989
cop	-13990
ässi	-13991
▁Att	-13992
sorgt	-13993
▁Francis	-13994
solidierung	-13995
▁Kernenergie	-13996
▁Subventionen	-13997
▁heruntergeladen	-13998
leistungs	-13999
▁Thailand	-14000
▁gleichberech	-14001
format	-14002
▁aufre	-14003
▁George	-14004
▁mieten	-14005
▁anmelden	-14006
▁vorhandene	-14007
▁gingen	-14008
ody	-14009
▁Ganzes	-14010
Protokoll	-14011
▁Elementen	-14012
▁bewaff	-14013
▁diesmal	-14014
ontroller	-14015
▁White	-14016
▁0.	-14017
▁Tar	-14018
elung	-14019
zuheben	-14020
▁Unserer	-14021
ansprüche	-14022
▁Resolution	-14023
▁zugewiesen	-14024
OF	-14025
Sk	-14026
▁Basel	-14027
▁Foren	-14028
zufolge	-14029
obel	-14030
▁wit	-14031
Zimmer	-14032
▁intensive	-14033
kurse	-14034
▁Elect	-14035
▁Fried	-14036
▁Millenn	-14037
Tool	-14038
▁Letz	-14039
▁play	-14040
▁beach	-14041
utionen	-14042
▁kohären	-14043
▁Vorgänger	-14044
sson	-14045
▁Emp	-14046
▁Sir	-14047
▁nett	-14048
zuteilen	-14049
▁gesunde	-14050
▁erschien	-14051
▁großartige	-14052
▁unterstreicht	-14053
ahlen	-14054
▁high	-14055
▁Count	-14056
▁Mater	-14057
▁verhe	-14058
stunden	-14059
diensten	-14060
fahrzeug	-14061
▁Berechnung	-14062
▁Vermeidung	-14063
▁zusammengef	-14064
▁44	-14065
▁effektiven	-14066
mil	-14067
▁1:	-14068
▁Landschaften	-14069
▁kommerzielle	-14070
miss	-14071
▁Masse	-14072
▁Etagen	-14073
▁Joseph	-14074
▁Verband	-14075
▁beantragt	-14076
▁begreifen	-14077
▁Chemikalien	-14078
▁realistisch	-14079
anb	-14080
lanz	-14081
otos	-14082
▁Petitions	-14083
▁Assoziierungs	-14084
digte	-14085
Klasse	-14086
▁getestet	-14087
fahrzeugen	-14088
▁Orientierung	-14089
pläne	-14090
ström	-14091
▁Kommando	-14092
▁Ernennung	-14093
ieder	-14094
▁Coll	-14095
▁Eurozone	-14096
entsprechend	-14097
▁unmittelbaren	-14098
Komp	-14099
▁Bib	-14100
▁Font	-14101
▁Source	-14102
▁geltend	-14103
▁leichten	-14104
▁Verhaltensk	-14105
rix	-14106
▁gäbe	-14107
gehalt	-14108
▁Allah	-14109
▁Schiffen	-14110
▁Parlamentarier	-14111
stent	-14112
▁Zigar	-14113
gelände	-14114
▁antiken	-14115
▁rechtlich	-14116
▁stärkeren	-14117
▁Getreide	-14118
▁bathroom	-14119
ubs	-14120
zucht	-14121
anteil	-14122
▁Imper	-14123
▁Kolum	-14124
iedlung	-14125
▁Quadrat	-14126
▁Schokol	-14127
serklärung	-14128
▁untereinander	-14129
▁Prov	-14130
▁Gegeben	-14131
▁beinahe	-14132
App	-14133
ifik	-14134
zügen	-14135
▁Befehl	-14136
▁geholfen	-14137
dent	-14138
▁Nap	-14139
iveaus	-14140
▁South	-14141
▁indirekt	-14142
▁wahrnehmen	-14143
▁Behinderungen	-14144
eins	-14145
Press	-14146
ussten	-14147
▁first	-14148
▁junger	-14149
▁Therapie	-14150
ässig	-14151
▁zahlt	-14152
▁Trennung	-14153
▁Dolomiten	-14154
SK	-14155
earch	-14156
▁Nero	-14157
ähiger	-14158
ulationen	-14159
▁ausführliche	-14160
▁regelmäßigen	-14161
▁American	-14162
▁Strassen	-14163
▁schnellst	-14164
▁umfassendes	-14165
▁fliegen	-14166
UB	-14167
adt	-14168
öne	-14169
▁Cir	-14170
▁gewann	-14171
▁glaubt	-14172
▁Effekte	-14173
▁grundlegend	-14174
▁Inanspruchnahme	-14175
▁langjährige	-14176
▁Schnittstelle	-14177
EIT	-14178
agog	-14179
▁toll	-14180
binden	-14181
Unternehmen	-14182
ici	-14183
wehr	-14184
▁Ess	-14185
lange	-14186
▁Mis	-14187
▁Eleganz	-14188
weiterung	-14189
▁bestellt	-14190
▁Sortiment	-14191
▁durchgesetzt	-14192
gebir	-14193
▁zweimal	-14194
ffee	-14195
ipel	-14196
▁Konsum	-14197
▁Sämtliche	-14198
▁Abwicklung	-14199
▁Kühlschrank	-14200
▁EF	-14201
errt	-14202
▁Jagd	-14203
farben	-14204
▁Fokus	-14205
▁eingeben	-14206
▁·	-14207
▁Si	-14208
adel	-14209
otel	-14210
▁Zuerst	-14211
▁Richard	-14212
▁Verschm	-14213
ROM	-14214
iler	-14215
▁two	-14216
läufe	-14217
▁ziti	-14218
▁Machen	-14219
▁schöner	-14220
▁Gesamtheit	-14221
▁Infrastrukturen	-14222
bio	-14223
cycl	-14224
invest	-14225
artikel	-14226
▁Auskunft	-14227
▁globaler	-14228
▁Dur	-14229
▁Heiz	-14230
▁back	-14231
ueller	-14232
öhnung	-14233
▁Square	-14234
▁Festung	-14235
▁Forscher	-14236
DI	-14237
dite	-14238
▁freier	-14239
bewerber	-14240
▁Airlines	-14241
▁Dafürhalten	-14242
▁Verfassungsver	-14243
Gu	-14244
hlt	-14245
cast	-14246
genau	-14247
tiefst	-14248
▁Dörfer	-14249
▁Darlehen	-14250
▁Entschädigung	-14251
idem	-14252
aketen	-14253
▁zutiefst	-14254
▁Konsumenten	-14255
▁Übersetzungs	-14256
▁touristischen	-14257
alp	-14258
▁Aud	-14259
▁CHF	-14260
▁than	-14261
digten	-14262
uropas	-14263
▁Grill	-14264
vielfäl	-14265
▁geänder	-14266
▁getreten	-14267
mir	-14268
▁Dal	-14269
ittle	-14270
▁Physi	-14271
▁France	-14272
▁abends	-14273
sprobleme	-14274
▁Anmerkung	-14275
▁Palästina	-14276
▁einzustellen	-14277
▁Mah	-14278
lagern	-14279
marktes	-14280
▁Buffet	-14281
▁Nordir	-14282
▁Räumen	-14283
▁wünscht	-14284
emissionen	-14285
▁Einheiten	-14286
▁Substanzen	-14287
▁Beförderung	-14288
▁Mühe	-14289
▁Gerne	-14290
ARE	-14291
▁tho	-14292
autif	-14293
▁besagt	-14294
▁beliebtesten	-14295
veranstaltungen	-14296
▁Persönlichkeit	-14297
institutionellen	-14298
▁ju	-14299
▁verliert	-14300
▁anlässlich	-14301
▁%,	-14302
▁het	-14303
üsten	-14304
tensiv	-14305
▁Leser	-14306
▁vorkommen	-14307
▁Hyp	-14308
ading	-14309
▁schwedische	-14310
onial	-14311
trieben	-14312
▁Sekret	-14313
▁passenden	-14314
▁verschwinden	-14315
kle	-14316
▁Day	-14317
▁Sad	-14318
▁fehlende	-14319
▁Durchschnitt	-14320
▁о	-14321
iki	-14322
▁verg	-14323
▁besichtigen	-14324
mü	-14325
▁Bä	-14326
star	-14327
▁140	-14328
▁Ero	-14329
▁much	-14330
Dollar	-14331
Systems	-14332
uldigen	-14333
▁geteilt	-14334
reichenden	-14335
▁Christian	-14336
▁unterhalb	-14337
ausstattung	-14338
▁Wachstumspakt	-14339
älen	-14340
▁Taiwan	-14341
greifenden	-14342
▁Regulierungs	-14343
▁Pier	-14344
▁Zimm	-14345
frikas	-14346
halter	-14347
▁haftet	-14348
▁gedruck	-14349
▁zerstören	-14350
▁ausgewogene	-14351
▁GVO	-14352
▁Fett	-14353
▁Netzes	-14354
▁Ebenfalls	-14355
▁Konjunktur	-14356
▁One	-14357
▁Abweich	-14358
▁Datenbanken	-14359
▁Territorium	-14360
▁kompliziert	-14361
etze	-14362
▁Ltd	-14363
▁Yacht	-14364
▁gesorgt	-14365
ns	-14366
eds	-14367
meid	-14368
anwalt	-14369
imente	-14370
teilte	-14371
▁Euror	-14372
▁müsse	-14373
▁Pferde	-14374
▁Verknü	-14375
▁07	-14376
esischen	-14377
▁gelöscht	-14378
spezifischen	-14379
riffe	-14380
Dienst	-14381
▁Indem	-14382
ündigen	-14383
▁Network	-14384
dimension	-14385
schiebung	-14386
▁betreibt	-14387
▁bescheiden	-14388
▁Pad	-14389
owski	-14390
▁monat	-14391
▁Völkern	-14392
▁fotograf	-14393
▁geforder	-14394
▁sexuellen	-14395
▁bekräftigen	-14396
▁Kul	-14397
▁var	-14398
▁gültigen	-14399
▁schwerer	-14400
strategien	-14401
▁optimieren	-14402
▁wiederhole	-14403
ökonomischen	-14404
EX	-14405
iox	-14406
▁Ei	-14407
ütten	-14408
skraft	-14409
▁Später	-14410
▁einzeln	-14411
▁Executive	-14412
▁CR	-14413
▁Dep	-14414
ordern	-14415
▁Klick	-14416
▁decken	-14417
vertreten	-14418
▁wenigsten	-14419
▁renovierte	-14420
rium	-14421
▁Lud	-14422
▁physi	-14423
▁Konvents	-14424
▁Einladung	-14425
lafen	-14426
▁Milit	-14427
▁absur	-14428
▁markt	-14429
▁Metrop	-14430
▁Anhänger	-14431
herm	-14432
Gipfel	-14433
landes	-14434
▁Louis	-14435
▁Plast	-14436
▁klares	-14437
▁Warcraft	-14438
▁verbieten	-14439
bearbeitung	-14440
infrastruktur	-14441
▁MO	-14442
okia	-14443
▁Blue	-14444
geordneten	-14445
▁Associ	-14446
handlung	-14447
▁Konzerte	-14448
▁Reichtum	-14449
Emissionen	-14450
▁Differenz	-14451
WU	-14452
gers	-14453
inki	-14454
▁Games	-14455
▁Namens	-14456
▁Konflikts	-14457
▁Navigation	-14458
▁facilities	-14459
▁inkl	-14460
▁Fracht	-14461
▁bewirkt	-14462
▁genauen	-14463
fassungen	-14464
▁Mitbürger	-14465
teneg	-14466
bauten	-14467
ransfer	-14468
schäden	-14469
▁beweist	-14470
▁Gewissen	-14471
▁audiovis	-14472
▁fünfzehn	-14473
▁Investitions	-14474
▁Funk	-14475
▁Donau	-14476
▁Krebs	-14477
▁Captain	-14478
▁Immunität	-14479
reuen	-14480
▁Toil	-14481
▁Athen	-14482
▁Baden	-14483
▁Überw	-14484
holungs	-14485
Produkte	-14486
▁Indones	-14487
▁arbeits	-14488
▁erweiterte	-14489
▁Cab	-14490
▁main	-14491
schwer	-14492
▁Kreatur	-14493
▁umgekehrt	-14494
▁Stellungnahmen	-14495
palette	-14496
▁gefolgt	-14497
schlüssel	-14498
▁Nachteil	-14499
▁position	-14500
▁dänischen	-14501
▁türkische	-14502
▁Beitrittsk	-14503
▁festgehalten	-14504
▁koordinieren	-14505
▁beglückwünsche	-14506
iene	-14507
sverb	-14508
▁fung	-14509
▁publ	-14510
behalte	-14511
▁geschätzt	-14512
▁hinzuzufügen	-14513
▁geschmackvoll	-14514
▁energ	-14515
▁Paradies	-14516
läd	-14517
[...]
