<unk>,	0
<pad>,	0
<bos>,	0
<eos>	0
▁t	-0
▁th	-1
▁a	-2
in	-3
▁w	-4
▁the	-5
re	-6
▁o	-7
▁s	-8
at	-9
er	-10
nd	-11
ou	-12
▁c	-13
is	-14
it	-15
▁b	-16
ing	-17
▁m	-18
en	-19
▁h	-20
on	-21
▁to	-22
▁p	-23
▁f	-24
an	-25
es	-26
▁d	-27
▁of	-28
ll	-29
or	-30
▁in	-31
▁I	-32
▁and	-33
▁l	-34
ed	-35
ar	-36
▁y	-37
▁that	-38
om	-39
▁g	-40
as	-41
ic	-42
▁you	-43
le	-44
ve	-45
al	-46
▁we	-47
▁n	-48
▁wh	-49
ow	-50
▁is	-51
▁A	-52
▁e	-53
us	-54
▁be	-55
ut	-56
▁it	-57
ion	-58
ot	-59
et	-60
▁T	-61
▁re	-62
▁ha	-63
ent	-64
ct	-65
▁on	-66
ld	-67
ver	-68
▁And	-69
ay	-70
id	-71
▁Th	-72
all	-73
se	-74
▁this	-75
im	-76
st	-77
▁S	-78
ig	-79
ro	-80
ere	-81
ur	-82
ly	-83
▁st	-84
ch	-85
ke	-86
ce	-87
▁for	-88
if	-89
▁was	-90
ra	-91
▁W	-92
ir	-93
▁an	-94
▁do	-95
▁are	-96
oo	-97
ith	-98
ally	-99
op	-100
th	-101
am	-102
▁have	-103
▁with	-104
▁ab	-105
▁-	-106
▁they	-107
▁--	-108
▁k	-109
▁u	-110
▁se	-111
▁can	-112
▁B	-113
ation	-114
▁as	-115
out	-116
▁mo	-117
ht	-118
▁li	-119
▁go	-120
▁so	-121
▁what	-122
▁So	-123
ad	-124
▁wor	-125
▁com	-126
▁he	-127
very	-128
ill	-129
ould	-130
▁at	-131
▁me	-132
▁sh	-133
▁about	-134
▁ne	-135
ant	-136
▁not	-137
ter	-138
ge	-139
il	-140
▁all	-141
ul	-142
ol	-143
ust	-144
▁The	-145
▁j	-146
▁fr	-147
▁ex	-148
ers	-149
use	-150
▁som	-151
ight	-152
▁pro	-153
▁ch	-154
▁r	-155
▁or	-156
▁de	-157
▁there	-158
▁"	-159
▁my	-160
▁pe	-161
ear	-162
art	-163
um	-164
ople	-165
pp	-166
ck	-167
▁It	-168
▁con	-169
▁like	-170
ess	-171
▁one	-172
▁We	-173
ure	-174
ate	-175
ies	-176
▁people	-177
ca	-178
ive	-179
▁N	-180
▁ma	-181
▁kn	-182
est	-183
▁from	-184
ity	-185
nt	-186
ect	-187
ble	-188
ist	-189
ind	-190
qu	-191
ink	-192
▁but	-193
▁out	-194
▁our	-195
▁know	-196
▁int	-197
▁us	-198
▁al	-199
ook	-200
▁te	-201
rou	-202
▁just	-203
▁v	-204
▁H	-205
▁thing	-206
un	-207
▁M	-208
cause	-209
▁C	-210
ide	-211
and	-212
▁them	-213
▁sp	-214
▁see	-215
▁these	-216
▁very	-217
ie	-218
▁But	-219
▁if	-220
▁tr	-221
os	-222
▁think	-223
▁up	-224
ort	-225
▁who	-226
her	-227
▁get	-228
ich	-229
▁pl	-230
▁going	-231
▁by	-232
▁Y	-233
ci	-234
el	-235
▁act	-236
ain	-237
▁1	-238
one	-239
▁some	-240
▁when	-241
iv	-242
▁your	-243
▁because	-244
▁had	-245
▁year	-246
▁more	-247
og	-248
em	-249
▁sa	-250
▁tim	-251
our	-252
▁im	-253
▁which	-254
▁would	-255
▁were	-256
ine	-257
▁look	-258
▁want	-259
▁really	-260
od	-261
ast	-262
ame	-263
▁their	-264
ually	-265
▁how	-266
ment	-267
▁comp	-268
ap	-269
▁work	-270
▁su	-271
."	-272
ard	-273
▁Wh	-274
ack	-275
▁O	-276
iz	-277
ood	-278
act	-279
gh	-280
ous	-281
reat	-282
▁en	-283
▁way	-284
hing	-285
▁ta	-286
▁here	-287
▁E	-288
ose	-289
▁le	-290
ore	-291
▁world	-292
▁You	-293
are	-294
▁then	-295
▁time	-296
▁has	-297
ans	-298
ther	-299
ab	-300
▁This	-301
ong	-302
▁per	-303
ag	-304
▁qu	-305
▁don	-306
▁into	-307
▁actually	-308
▁every	-309
▁exp	-310
▁say	-311
▁P	-312
▁will	-313
▁man	-314
▁could	-315
▁ev	-316
ace	-317
ild	-318
res	-319
▁D	-320
▁fe	-321
ud	-322
itt	-323
▁things	-324
ence	-325
▁now	-326
ions	-327
age	-328
▁co	-329
▁where	-330
▁years	-331
▁ag	-332
▁L	-333
▁G	-334
▁Now	-335
▁other	-336
▁did	-337
alk	-338
▁somet	-339
00	-340
ff	-341
ach	-342
▁They	-343
iff	-344
nder	-345
▁no	-346
▁F	-347
▁any	-348
▁been	-349
ical	-350
▁In	-351
▁make	-352
▁cl	-353
▁happ	-354
▁diff	-355
ice	-356
ip	-357
▁tw	-358
▁un	-359
▁than	-360
▁said	-361
so	-362
▁need	-363
▁start	-364
red	-365
▁right	-366
irst	-367
▁part	-368
ree	-369
▁2	-370
▁something	-371
▁over	-372
own	-373
▁bu	-374
▁pr	-375
▁R	-376
ia	-377
ry	-378
▁imp	-379
ory	-380
ign	-381
ome	-382
▁back	-383
▁dis	-384
▁po	-385
ite	-386
uch	-387
▁kind	-388
pt	-389
▁got	-390
orm	-391
round	-392
olog	-393
▁two	-394
▁much	-395
▁ar	-396
ount	-397
ell	-398
▁call	-399
ittle	-400
ens	-401
ife	-402
ang	-403
▁first	-404
ib	-405
▁differe	-406
▁those	-407
▁little	-408
ass	-409
ater	-410
ound	-411
sel	-412
ue	-413
cent	-414
▁new	-415
▁also	-416
▁ro	-417
▁lot	-418
▁lo	-419
ght	-420
ple	-421
▁cont	-422
ep	-423
ces	-424
ult	-425
▁That	-426
▁spe	-427
way	-428
▁talk	-429
▁♫	-430
ves	-431
▁ac	-432
king	-433
▁most	-434
rain	-435
▁ph	-436
ber	-437
▁bet	-438
▁only	-439
ody	-440
ving	-441
▁she	-442
▁under	-443
vel	-444
▁des	-445
ated	-446
▁life	-447
▁res	-448
able	-449
co	-450
▁his	-451
ations	-452
▁sy	-453
▁ad	-454
ru	-455
▁even	-456
▁day	-457
▁J	-458
▁am	-459
▁take	-460
▁different	-461
ms	-462
ict	-463
ial	-464
rough	-465
other	-466
▁hum	-467
ick	-468
▁many	-469
ish	-470
▁good	-471
int	-472
du	-473
▁bl	-474
▁ide	-475
▁down	-476
▁There	-477
▁does	-478
▁real	-479
▁around	-480
▁through	-481
ance	-482
▁put	-483
ph	-484
pl	-485
ank	-486
ire	-487
ob	-488
▁her	-489
ase	-490
▁What	-491
pe	-492
ents	-493
▁comm	-494
▁show	-495
▁pre	-496
ark	-497
urn	-498
▁use	-499
▁U	-500
▁He	-501
cess	-502
ange	-503
▁being	-504
form	-505
▁tell	-506
ak	-507
ible	-508
ade	-509
▁off	-510
ors	-511
ress	-512
▁happen	-513
▁thou	-514
▁same	-515
▁proble	-516
chn	-517
per	-518
▁too	-519
▁try	-520
ary	-521
ath	-522
wn	-523
ject	-524
▁fact	-525
▁em	-526
▁come	-527
ether	-528
iver	-529
xt	-530
▁inc	-531
▁br	-532
ys	-533
▁sm	-534
▁fl	-535
▁doing	-536
ful	-537
stem	-538
ric	-539
ual	-540
day	-541
▁may	-542
ars	-543
▁techn	-544
▁great	-545
▁count	-546
▁big	-547
tern	-548
ool	-549
ning	-550
ically	-551
▁three	-552
ting	-553
▁gen	-554
he	-555
▁wr	-556
ne	-557
▁find	-558
▁ra	-559
ons	-560
row	-561
ile	-562
▁If	-563
ac	-564
▁pers	-565
ord	-566
ved	-567
▁well	-568
ology	-569
▁percent	-570
▁sur	-571
▁human	-572
▁bec	-573
▁system	-574
ied	-575
▁tra	-576
ower	-577
thing	-578
fore	-579
fter	-580
▁build	-581
illion	-582
▁Ch	-583
▁called	-584
▁gu	-585
▁dec	-586
te	-587
nds	-588
▁let	-589
self	-590
ub	-591
▁app	-592
▁stud	-593
▁child	-594
igh	-595
▁again	-596
body	-597
▁made	-598
▁sim	-599
ition	-600
ating	-601
▁quest	-602
ious	-603
▁Well	-604
▁exper	-605
ics	-606
▁long	-607
▁ind	-608
mer	-609
we	-610
▁inv	-611
▁own	-612
▁lear	-613
▁bel	-614
▁rem	-615
▁should	-616
oss	-617
ize	-618
ren	-619
cial	-620
▁import	-621
ian	-622
erest	-623
▁K	-624
oc	-625
les	-626
▁why	-627
▁sc	-628
▁wom	-629
▁underst	-630
av	-631
ities	-632
ft	-633
▁mean	-634
000	-635
▁ob	-636
▁cour	-637
ates	-638
▁end	-639
▁thought	-640
▁after	-641
▁turn	-642
▁idea	-643
ew	-644
ty	-645
▁didn	-646
be	-647
▁today	-648
▁car	-649
ction	-650
▁design	-651
▁hel	-652
▁change	-653
▁brain	-654
▁interest	-655
▁bas	-656
▁play	-657
▁feel	-658
▁ask	-659
▁important	-660
con	-661
▁creat	-662
▁person	-663
▁last	-664
▁Be	-665
?"	-666
▁its	-667
▁Thank	-668
▁started	-669
▁inst	-670
▁him	-671
ull	-672
,000	-673
▁rel	-674
ail	-675
▁exam	-676
▁sch	-677
old	-678
▁gl	-679
als	-680
ough	-681
▁sci	-682
▁went	-683
▁trans	-684
ise	-685
gan	-686
▁before	-687
▁course	-688
ution	-689
▁ins	-690
▁bit	-691
▁understand	-692
ese	-693
▁point	-694
▁3	-695
▁gra	-696
▁give	-697
▁produ	-698
▁problem	-699
▁might	-700
▁help	-701
▁never	-702
▁another	-703
ular	-704
▁cons	-705
ility	-706
▁ke	-707
▁better	-708
ave	-709
▁story	-710
ists	-711
ost	-712
▁St	-713
▁ele	-714
▁belie	-715
ily	-716
ven	-717
▁sort	-718
lic	-719
▁inter	-720
▁able	-721
kes	-722
ert	-723
ros	-724
▁coll	-725
▁few	-726
▁kid	-727
▁bo	-728
▁sl	-729
ix	-730
▁still	-731
und	-732
▁ago	-733
▁found	-734
▁dr	-735
▁power	-736
▁next	-737
oth	-738
▁ent	-739
▁tog	-740
▁together	-741
▁fam	-742
▁school	-743
▁came	-744
▁num	-745
▁19	-746
▁sol	-747
erg	-748
▁water	-749
▁plan	-750
ense	-751
▁pol	-752
▁place	-753
▁high	-754
▁mod	-755
ience	-756
▁comple	-757
▁mon	-758
▁cr	-759
uc	-760
ng	-761
▁str	-762
ited	-763
ward	-764
velop	-765
▁imag	-766
atch	-767
▁art	-768
▁learn	-769
ween	-770
ather	-771
▁used	-772
▁technology	-773
▁commun	-774
▁each	-775
▁Af	-776
▁10	-777
▁ter	-778
read	-779
▁la	-780
meric	-781
alth	-782
ness	-783
▁between	-784
▁question	-785
▁dat	-786
ized	-787
▁pat	-788
▁When	-789
▁rec	-790
▁20	-791
iss	-792
▁love	-793
,"	-794
ures	-795
ram	-796
▁looking	-797
▁ext	-798
▁done	-799
▁small	-800
▁ser	-801
▁develop	-802
▁example	-803
ork	-804
▁Americ	-805
▁att	-806
▁Because	-807
ways	-808
ific	-809
▁cre	-810
▁four	-811
cond	-812
▁light	-813
▁partic	-814
az	-815
▁old	-816
iness	-817
ute	-818
▁met	-819
▁min	-820
▁op	-821
arch	-822
▁word	-823
ered	-824
ets	-825
▁doesn	-826
ably	-827
▁data	-828
ced	-829
▁How	-830
cept	-831
▁med	-832
▁fin	-833
▁women	-834
▁mom	-835
▁eff	-836
▁stu	-837
▁V	-838
ings	-839
▁wanted	-840
ative	-841
▁cell	-842
▁whole	-843
▁comput	-844
▁grow	-845
▁cent	-846
▁care	-847
▁read	-848
formation	-849
cy	-850
ger	-851
ah	-852
here	-853
▁ever	-854
▁move	-855
▁beh	-856
conom	-857
▁lar	-858
▁poss	-859
▁far	-860
▁nat	-861
▁trying	-862
▁live	-863
▁million	-864
▁working	-865
ands	-866
▁hard	-867
oney	-868
selves	-869
▁ear	-870
▁reas	-871
▁Afric	-872
▁always	-873
ote	-874
▁expl	-875
ross	-876
▁giv	-877
▁children	-878
▁chang	-879
▁ed	-880
▁el	-881
▁book	-882
▁bi	-883
ational	-884
ird	-885
ope	-886
▁5	-887
▁away	-888
▁gener	-889
▁sk	-890
▁believe	-891
▁bus	-892
cer	-893
▁econom	-894
▁less	-895
ural	-896
gin	-897
▁mus	-898
▁cap	-899
▁Un	-900
▁fo	-901
ments	-902
▁pict	-903
▁rep	-904
▁supp	-905
▁country	-906
ont	-907
ism	-908
▁anim	-909
▁cor	-910
▁using	-911
ract	-912
▁sub	-913
▁means	-914
▁five	-915
▁maybe	-916
▁kids	-917
▁hand	-918
nect	-919
ruct	-920
ries	-921
▁information	-922
▁resp	-923
▁took	-924
▁run	-925
▁health	-926
▁vis	-927
▁thinking	-928
▁project	-929
ock	-930
vers	-931
▁frie	-932
▁open	-933
▁4	-934
▁money	-935
nce	-936
led	-937
atter	-938
▁space	-939
▁prob	-940
ps	-941
▁Ind	-942
▁doll	-943
hip	-944
alf	-945
▁inf	-946
▁everything	-947
▁lead	-948
iron	-949
▁As	-950
air	-951
▁teach	-952
▁create	-953
oy	-954
▁home	-955
▁organ	-956
▁One	-957
▁cou	-958
▁number	-959
aces	-960
▁process	-961
▁spec	-962
vern	-963
▁second	-964
ks	-965
▁sing	-966
▁food	-967
its	-968
▁mind	-969
gg	-970
iew	-971
▁left	-972
▁become	-973
▁quite	-974
aut	-975
ond	-976
▁enough	-977
ention	-978
rib	-979
▁interesting	-980
ergy	-981
ident	-982
▁form	-983
▁walk	-984
sw	-985
▁compan	-986
▁pub	-987
ues	-988
▁fun	-989
▁acc	-990
ivers	-991
▁best	-992
ten	-993
▁sense	-994
▁eng	-995
▁war	-996
▁head	-997
▁These	-998
▁prog	-999
ever	-1000
▁fut	-1001
▁comes	-1002
ouse	-1003
ories	-1004
▁pres	-1005
▁getting	-1006
pr	-1007
▁reg	-1008
▁mark	-1009
▁conf	-1010
iting	-1011
▁answ	-1012
▁times	-1013
ital	-1014
▁probably	-1015
▁happened	-1016
▁future	-1017
lear	-1018
▁ca	-1019
ines	-1020
▁elect	-1021
▁stuff	-1022
▁set	-1023
▁govern	-1024
▁energy	-1025
▁My	-1026
▁making	-1027
▁talking	-1028
ertain	-1029
ts	-1030
▁building	-1031
ier	-1032
▁dem	-1033
▁grou	-1034
▁room	-1035
▁begin	-1036
▁contro	-1037
▁month	-1038
▁cur	-1039
ety	-1040
▁pie	-1041
▁env	-1042
▁social	-1043
▁connect	-1044
▁add	-1045
tty	-1046
▁gr	-1047
ogra	-1048
▁Here	-1049
▁moment	-1050
▁half	-1051
▁told	-1052
▁else	-1053
▁sign	-1054
▁dist	-1055
▁beaut	-1056
reen	-1057
ient	-1058
▁pop	-1059
▁without	-1060
▁She	-1061
▁dollars	-1062
▁business	-1063
lf	-1064
▁Is	-1065
▁coming	-1066
▁wee	-1067
▁glob	-1068
▁body	-1069
▁top	-1070
ately	-1071
▁side	-1072
▁keep	-1073
▁anything	-1074
ake	-1075
ner	-1076
imes	-1077
▁job	-1078
▁wo	-1079
▁phys	-1080
▁reason	-1081
▁hist	-1082
▁pretty	-1083
▁Africa	-1084
▁such	-1085
▁soci	-1086
▁allow	-1087
▁model	-1088
▁For	-1089
ior	-1090
▁environ	-1091
ices	-1092
▁opp	-1093
▁bad	-1094
▁countries	-1095
▁An	-1096
▁def	-1097
kay	-1098
▁sound	-1099
▁lives	-1100
ortun	-1101
▁young	-1102
ember	-1103
▁across	-1104
me	-1105
▁says	-1106
▁air	-1107
▁makes	-1108
▁bring	-1109
olution	-1110
▁stand	-1111
idd	-1112
▁goes	-1113
▁stop	-1114
▁200	-1115
▁All	-1116
▁saw	-1117
▁Let	-1118
▁hope	-1119
▁pass	-1120
der	-1121
ying	-1122
▁science	-1123
ince	-1124
▁ey	-1125
▁men	-1126
uring	-1127
▁particular	-1128
▁matter	-1129
▁simple	-1130
▁prot	-1131
▁val	-1132
▁cult	-1133
▁seen	-1134
io	-1135
ided	-1136
▁fig	-1137
where	-1138
▁ty	-1139
▁educ	-1140
▁eas	-1141
▁experience	-1142
ead	-1143
▁sit	-1144
▁happens	-1145
▁phot	-1146
most	-1147
▁living	-1148
man	-1149
▁asked	-1150
▁wonder	-1151
ash	-1152
angu	-1153
ime	-1154
▁picture	-1155
▁later	-1156
▁aut	-1157
▁rese	-1158
ization	-1159
▁cam	-1160
▁hour	-1161
▁having	-1162
▁scient	-1163
▁col	-1164
ality	-1165
gs	-1166
ught	-1167
▁New	-1168
llow	-1169
▁Chin	-1170
▁six	-1171
▁bre	-1172
▁ways	-1173
▁char	-1174
▁complete	-1175
ken	-1176
ograph	-1177
ott	-1178
▁problems	-1179
ective	-1180
▁mem	-1181
aps	-1182
▁music	-1183
▁share	-1184
▁family	-1185
ilt	-1186
ots	-1187
arth	-1188
▁rest	-1189
▁prof	-1190
▁environment	-1191
▁days	-1192
▁langu	-1193
▁thous	-1194
▁single	-1195
▁computer	-1196
irl	-1197
▁case	-1198
▁ref	-1199
▁No	-1200
arent	-1201
▁basically	-1202
▁Se	-1203
▁list	-1204
▁det	-1205
▁global	-1206
▁fore	-1207
▁planet	-1208
▁level	-1209
arr	-1210
▁mach	-1211
▁research	-1212
iter	-1213
▁equ	-1214
ins	-1215
ream	-1216
ike	-1217
▁saying	-1218
▁vide	-1219
▁inside	-1220
orn	-1221
▁amaz	-1222
▁certain	-1223
▁loc	-1224
▁answer	-1225
▁hear	-1226
▁guy	-1227
▁pain	-1228
▁hu	-1229
ready	-1230
▁almost	-1231
▁possible	-1232
▁both	-1233
ED	-1234
▁watch	-1235
less	-1236
▁once	-1237
ulation	-1238
▁yet	-1239
▁sure	-1240
▁test	-1241
▁while	-1242
▁mor	-1243
▁ideas	-1244
▁disco	-1245
ants	-1246
itive	-1247
▁self	-1248
▁Earth	-1249
unch	-1250
ov	-1251
▁suc	-1252
iverse	-1253
▁polit	-1254
▁age	-1255
▁wrong	-1256
▁contin	-1257
▁billion	-1258
lish	-1259
osed	-1260
allen	-1261
▁whether	-1262
ivid	-1263
▁product	-1264
ury	-1265
▁incred	-1266
▁within	-1267
▁looks	-1268
med	-1269
▁rob	-1270
▁already	-1271
▁looked	-1272
▁true	-1273
▁exact	-1274
▁public	-1275
iful	-1276
▁city	-1277
▁unt	-1278
▁dise	-1279
▁dev	-1280
▁mil	-1281
▁nothing	-1282
▁someone	-1283
▁treat	-1284
▁remember	-1285
▁control	-1286
ield	-1287
▁history	-1288
▁heard	-1289
▁amazing	-1290
▁exc	-1291
▁dire	-1292
side	-1293
▁large	-1294
▁par	-1295
work	-1296
▁heart	-1297
▁myself	-1298
utes	-1299
▁cost	-1300
▁Why	-1301
▁lab	-1302
ware	-1303
▁sw	-1304
▁kill	-1305
ivity	-1306
▁Al	-1307
oice	-1308
de	-1309
ene	-1310
▁che	-1311
aterial	-1312
▁often	-1313
▁wa	-1314
ages	-1315
land	-1316
undred	-1317
aster	-1318
▁15	-1319
ases	-1320
▁works	-1321
▁imagine	-1322
Wh	-1323
▁[	-1324
▁cond	-1325
▁words	-1326
▁figure	-1327
imate	-1328
vious	-1329
▁class	-1330
uro	-1331
▁cells	-1332
▁challen	-1333
▁TED	-1334
▁ass	-1335
▁iss	-1336
▁news	-1337
ians	-1338
ling	-1339
▁piece	-1340
▁mag	-1341
▁beautiful	-1342
▁adv	-1343
iddle	-1344
▁community	-1345
▁30	-1346
▁Intern	-1347
▁cancer	-1348
▁couple	-1349
▁full	-1350
▁hundred	-1351
▁built	-1352
▁United	-1353
▁months	-1354
▁tre	-1355
▁50	-1356
▁individ	-1357
▁language	-1358
▁aff	-1359
▁Or	-1360
▁night	-1361
aper	-1362
▁100	-1363
▁fil	-1364
uck	-1365
ering	-1366
▁market	-1367
▁face	-1368
▁follow	-1369
▁everybody	-1370
▁'	-1371
▁pay	-1372
▁girl	-1373
▁vir	-1374
▁species	-1375
▁entire	-1376
▁order	-1377
▁result	-1378
▁government	-1379
bs	-1380
get	-1381
▁group	-1382
▁incre	-1383
▁video	-1384
bers	-1385
▁net	-1386
▁material	-1387
▁front	-1388
▁line	-1389
ives	-1390
▁dra	-1391
ected	-1392
▁must	-1393
ex	-1394
▁view	-1395
cur	-1396
up	-1397
▁friends	-1398
▁universe	-1399
▁6	-1400
atic	-1401
ron	-1402
▁until	-1403
▁individual	-1404
▁wasn	-1405
▁state	-1406
eah	-1407
▁places	-1408
line	-1409
▁deep	-1410
▁completely	-1411
▁isn	-1412
▁education	-1413
outh	-1414
▁train	-1415
ush	-1416
▁ret	-1417
▁appro	-1418
ator	-1419
ustr	-1420
▁decided	-1421
ane	-1422
▁past	-1423
▁object	-1424
▁inn	-1425
▁const	-1426
▁quick	-1427
▁OK	-1428
▁nature	-1429
ired	-1430
▁Fr	-1431
▁India	-1432
to	-1433
▁abs	-1434
▁cra	-1435
▁exactly	-1436
▁deal	-1437
..	-1438
▁9	-1439
▁experim	-1440
cing	-1441
▁behav	-1442
▁stories	-1443
▁taking	-1444
▁happening	-1445
▁huge	-1446
▁itself	-1447
▁pos	-1448
▁name	-1449
▁free	-1450
br	-1451
▁tool	-1452
omes	-1453
▁land	-1454
ined	-1455
▁engine	-1456
acter	-1457
▁though	-1458
▁♪	-1459
cle	-1460
▁di	-1461
▁Internet	-1462
▁kinds	-1463
▁became	-1464
▁States	-1465
▁animals	-1466
dd	-1467
ien	-1468
ters	-1469
▁sca	-1470
▁house	-1471
▁students	-1472
ional	-1473
▁America	-1474
ats	-1475
▁terr	-1476
▁ourselves	-1477
▁gets	-1478
ructure	-1479
▁success	-1480
▁Every	-1481
▁since	-1482
▁learned	-1483
▁society	-1484
ogn	-1485
▁law	-1486
▁knew	-1487
▁woman	-1488
▁themselves	-1489
▁somebody	-1490
ision	-1491
▁complex	-1492
▁minutes	-1493
gest	-1494
▁game	-1495
▁mess	-1496
▁study	-1497
▁ones	-1498
▁close	-1499
▁z	-1500
rop	-1501
▁spend	-1502
▁At	-1503
▁av	-1504
▁along	-1505
ctor	-1506
...	-1507
▁fly	-1508
ret	-1509
ability	-1510
sy	-1511
▁fund	-1512
ocus	-1513
▁oce	-1514
▁questions	-1515
▁rather	-1516
omet	-1517
▁God	-1518
itting	-1519
end	-1520
▁meet	-1521
etic	-1522
▁company	-1523
▁wind	-1524
▁against	-1525
▁mass	-1526
icult	-1527
▁Do	-1528
▁ris	-1529
▁opportun	-1530
ental	-1531
▁guys	-1532
cl	-1533
haps	-1534
▁prov	-1535
▁created	-1536
ium	-1537
ibly	-1538
▁turns	-1539
▁parent	-1540
ee	-1541
▁Br	-1542
ones	-1543
▁hours	-1544
ames	-1545
▁clear	-1546
▁worked	-1547
ients	-1548
thers	-1549
▁Then	-1550
▁bott	-1551
▁mother	-1552
▁focus	-1553
ature	-1554
▁won	-1555
▁program	-1556
▁7	-1557
▁couldn	-1558
aw	-1559
eg	-1560
▁third	-1561
▁relations	-1562
iversity	-1563
face	-1564
▁sometimes	-1565
▁arch	-1566
▁least	-1567
▁8	-1568
▁Can	-1569
▁var	-1570
▁Some	-1571
▁meas	-1572
▁speak	-1573
▁pred	-1574
▁invest	-1575
▁aud	-1576
▁math	-1577
▁bab	-1578
▁gave	-1579
istic	-1580
▁systems	-1581
▁difficult	-1582
wards	-1583
▁hold	-1584
▁amount	-1585
▁everyone	-1586
cul	-1587
erv	-1588
▁others	-1589
▁Euro	-1590
▁liter	-1591
▁disease	-1592
app	-1593
▁American	-1594
att	-1595
▁cir	-1596
▁ill	-1597
▁thousands	-1598
ming	-1599
▁...	-1600
▁innov	-1601
▁Sh	-1602
▁happy	-1603
ented	-1604
▁oil	-1605
ider	-1606
▁Okay	-1607
▁lots	-1608
not	-1609
ples	-1610
▁early	-1611
▁ve	-1612
▁rad	-1613
▁oper	-1614
▁sens	-1615
▁learning	-1616
▁shap	-1617
▁norm	-1618
▁Eng	-1619
olved	-1620
▁field	-1621
iqu	-1622
▁cut	-1623
▁rev	-1624
▁team	-1625
▁natural	-1626
▁instead	-1627
▁interact	-1628
▁hy	-1629
ination	-1630
▁outside	-1631
aking	-1632
▁listen	-1633
▁mic	-1634
vered	-1635
▁mot	-1636
▁difference	-1637
▁miss	-1638
▁death	-1639
▁behavior	-1640
ted	-1641
▁bro	-1642
ither	-1643
ared	-1644
illions	-1645
▁Ar	-1646
▁taken	-1647
▁seven	-1648
ological	-1649
▁machine	-1650
▁pur	-1651
ential	-1652
▁black	-1653
▁record	-1654
gen	-1655
uss	-1656
▁step	-1657
The	-1658
▁Pe	-1659
▁leg	-1660
ially	-1661
▁Europe	-1662
▁network	-1663
▁area	-1664
▁fail	-1665
▁middle	-1666
iol	-1667
▁effect	-1668
▁eyes	-1669
▁dru	-1670
▁short	-1671
▁changed	-1672
▁century	-1673
▁relationship	-1674
sych	-1675
▁China	-1676
▁extra	-1677
▁green	-1678
▁da	-1679
▁pot	-1680
▁York	-1681
▁hands	-1682
▁moving	-1683
▁pattern	-1684
▁stre	-1685
▁beginning	-1686
fect	-1687
▁exist	-1688
▁recent	-1689
orth	-1690
ides	-1691
▁del	-1692
utions	-1693
▁common	-1694
era	-1695
ully	-1696
▁non	-1697
▁explain	-1698
▁wonderful	-1699
▁red	-1700
▁dep	-1701
▁dig	-1702
▁typ	-1703
astic	-1704
▁given	-1705
ale	-1706
ove	-1707
els	-1708
ey	-1709
▁leave	-1710
▁terms	-1711
olute	-1712
▁oc	-1713
▁turned	-1714
▁obvious	-1715
▁takes	-1716
▁perhaps	-1717
▁yourself	-1718
▁ant	-1719
verage	-1720
▁seeing	-1721
▁culture	-1722
ern	-1723
ased	-1724
▁sym	-1725
aring	-1726
▁easy	-1727
▁squ	-1728
▁12	-1729
▁break	-1730
▁paper	-1731
▁psych	-1732
ump	-1733
▁local	-1734
▁intell	-1735
▁support	-1736
▁population	-1737
ipp	-1738
▁es	-1739
▁low	-1740
▁needs	-1741
▁finally	-1742
▁trad	-1743
▁pract	-1744
itch	-1745
▁sex	-1746
▁tem	-1747
▁began	-1748
ery	-1749
▁18	-1750
▁incl	-1751
▁parts	-1752
▁communic	-1753
rew	-1754
▁sent	-1755
iving	-1756
itions	-1757
▁image	-1758
▁super	-1759
ude	-1760
▁Not	-1761
▁chem	-1762
▁eight	-1763
▁reach	-1764
▁behind	-1765
▁Man	-1766
▁cannot	-1767
jor	-1768
elt	-1769
▁jour	-1770
Well	-1771
▁blue	-1772
▁colle	-1773
▁Chr	-1774
▁tot	-1775
▁perform	-1776
inary	-1777
▁whatever	-1778
cious	-1779
▁jo	-1780
▁during	-1781
▁needed	-1782
▁arg	-1783
▁sun	-1784
▁lim	-1785
ply	-1786
▁On	-1787
▁longer	-1788
▁fre	-1789
itect	-1790
▁ident	-1791
▁friend	-1792
▁realized	-1793
NA	-1794
▁event	-1795
▁impro	-1796
ero	-1797
▁opt	-1798
▁expect	-1799
▁powerful	-1800
idence	-1801
year	-1802
▁wall	-1803
▁fall	-1804
▁interested	-1805
▁present	-1806
ax	-1807
ges	-1808
port	-1809
▁dream	-1810
▁extre	-1811
▁ocean	-1812
▁repres	-1813
▁major	-1814
▁saf	-1815
▁absolute	-1816
▁40	-1817
▁emot	-1818
▁pick	-1819
▁serv	-1820
▁size	-1821
▁famil	-1822
▁simply	-1823
▁perfect	-1824
oh	-1825
fully	-1826
rought	-1827
▁consum	-1828
▁buy	-1829
▁ess	-1830
▁dark	-1831
▁surpr	-1832
▁week	-1833
▁parents	-1834
ledge	-1835
▁tried	-1836
▁situ	-1837
ton	-1838
▁ple	-1839
gle	-1840
▁To	-1841
▁poor	-1842
▁access	-1843
▁companies	-1844
▁stay	-1845
▁viol	-1846
▁eat	-1847
▁grand	-1848
▁resour	-1849
ising	-1850
▁personal	-1851
ison	-1852
rodu	-1853
▁emb	-1854
▁gone	-1855
▁People	-1856
▁ground	-1857
▁architect	-1858
▁conv	-1859
▁Just	-1860
▁surv	-1861
▁scale	-1862
▁economic	-1863
▁cal	-1864
▁quickly	-1865
bo	-1866
ards	-1867
▁yes	-1868
▁media	-1869
▁press	-1870
▁key	-1871
▁felt	-1872
▁father	-1873
▁protect	-1874
ills	-1875
ony	-1876
avor	-1877
▁value	-1878
▁weeks	-1879
ged	-1880
osp	-1881
▁feed	-1882
▁robot	-1883
▁spent	-1884
▁recogn	-1885
ilar	-1886
▁vers	-1887
ibility	-1888
▁direct	-1889
ised	-1890
▁cool	-1891
▁fish	-1892
▁—	-1893
▁ge	-1894
orld	-1895
▁special	-1896
▁cities	-1897
ators	-1898
▁Right	-1899
▁enc	-1900
▁feet	-1901
▁approach	-1902
oph	-1903
▁draw	-1904
▁mult	-1905
▁shows	-1906
▁strong	-1907
▁reality	-1908
▁sitting	-1909
▁technolog	-1910
crib	-1911
hood	-1912
▁orig	-1913
▁sum	-1914
rent	-1915
▁humans	-1916
▁ability	-1917
▁photograph	-1918
▁DNA	-1919
ument	-1920
▁requ	-1921
▁fight	-1922
▁known	-1923
▁opportunity	-1924
hor	-1925
▁disc	-1926
ived	-1927
▁cle	-1928
▁obs	-1929
▁phone	-1930
ule	-1931
ouch	-1932
▁travel	-1933
sh	-1934
You	-1935
urb	-1936
▁insp	-1937
▁either	-1938
ler	-1939
izing	-1940
▁dest	-1941
▁priv	-1942
▁leaders	-1943
amp	-1944
ift	-1945
▁evolution	-1946
▁structure	-1947
▁predict	-1948
ney	-1949
▁areas	-1950
▁growth	-1951
▁slow	-1952
inal	-1953
▁civ	-1954
▁write	-1955
▁measure	-1956
▁25	-1957
dden	-1958
lect	-1959
room	-1960
▁economy	-1961
▁Tw	-1962
uses	-1963
▁May	-1964
▁lost	-1965
▁post	-1966
▁sudden	-1967
▁pull	-1968
▁changes	-1969
ains	-1970
▁democ	-1971
What	-1972
▁fast	-1973
▁wouldn	-1974
▁incredible	-1975
ann	-1976
iny	-1977
ral	-1978
▁brought	-1979
uth	-1980
▁fear	-1981
▁foot	-1982
▁based	-1983
▁animal	-1984
▁bottom	-1985
▁extreme	-1986
▁box	-1987
▁near	-1988
▁nice	-1989
▁surface	-1990
▁political	-1991
zy	-1992
vent	-1993
▁ste	-1994
▁soft	-1995
ression	-1996
▁intern	-1997
▁realize	-1998
▁attention	-1999
eed	-2000
▁cy	-2001
▁har	-2002
▁books	-2003
▁win	-2004
▁impact	-2005
ole	-2006
ales	-2007
▁profess	-2008
▁respons	-2009
of	-2010
oll	-2011
▁mole	-2012
▁redu	-2013
▁send	-2014
cially	-2015
▁challenge	-2016
▁ap	-2017
▁numbers	-2018
lt	-2019
ateg	-2020
▁born	-2021
com	-2022
▁mov	-2023
▁force	-2024
▁English	-2025
▁technologies	-2026
▁bene	-2027
▁experiment	-2028
▁crit	-2029
ustain	-2030
▁blood	-2031
▁average	-2032
▁knowledge	-2033
ows	-2034
▁die	-2035
▁circ	-2036
▁morning	-2037
▁feeling	-2038
eng	-2039
anger	-2040
▁developed	-2041
▁Z	-2042
bon	-2043
▁film	-2044
▁sour	-2045
▁wrote	-2046
▁giving	-2047
▁indust	-2048
▁forward	-2049
bor	-2050
ode	-2051
urs	-2052
entially	-2053
▁meaning	-2054
▁physical	-2055
▁Re	-2056
ging	-2057
ored	-2058
ances	-2059
▁comb	-2060
▁stra	-2061
▁mar	-2062
erm	-2063
ensive	-2064
▁theory	-2065
▁electric	-2066
▁anal	-2067
ext	-2068
▁deg	-2069
▁World	-2070
▁hor	-2071
▁instit	-2072
▁growing	-2073
▁tele	-2074
ption	-2075
▁main	-2076
lu	-2077
▁fac	-2078
▁sec	-2079
▁vill	-2080
▁patients	-2081
chie	-2082
▁map	-2083
▁miles	-2084
▁spread	-2085
▁audience	-2086
▁rock	-2087
▁seems	-2088
▁white	-2089
▁scientists	-2090
▁images	-2091
▁running	-2092
▁literally	-2093
▁repl	-2094
▁risk	-2095
▁understanding	-2096
▁depe	-2097
▁worth	-2098
▁anyone	-2099
▁starting	-2100
▁CA	-2101
▁vol	-2102
▁gives	-2103
▁thank	-2104
▁serious	-2105
por	-2106
▁compet	-2107
cr	-2108
ified	-2109
assion	-2110
▁favor	-2111
▁stage	-2112
▁ice	-2113
▁tools	-2114
▁climate	-2115
▁ast	-2116
▁hot	-2117
ploy	-2118
▁ball	-2119
▁relig	-2120
acy	-2121
▁dead	-2122
▁guess	-2123
▁tradition	-2124
omen	-2125
▁path	-2126
▁avail	-2127
▁telling	-2128
▁sil	-2129
▁visual	-2130
▁playing	-2131
▁hundreds	-2132
▁rul	-2133
ggest	-2134
▁civil	-2135
▁color	-2136
▁proper	-2137
par	-2138
▁text	-2139
▁similar	-2140
oon	-2141
▁prin	-2142
▁rele	-2143
aged	-2144
▁hosp	-2145
▁stat	-2146
▁suggest	-2147
▁sho	-2148
▁road	-2149
▁sn	-2150
ades	-2151
imens	-2152
▁neigh	-2153
iet	-2154
▁cop	-2155
▁sea	-2156
▁aren	-2157
▁center	-2158
▁discovered	-2159
▁flo	-2160
ai	-2161
head	-2162
▁touch	-2163
▁concept	-2164
▁creating	-2165
oud	-2166
ilities	-2167
▁soon	-2168
▁Our	-2169
▁sell	-2170
▁modern	-2171
▁absolutely	-2172
icy	-2173
▁lif	-2174
▁prom	-2175
iod	-2176
ites	-2177
asing	-2178
▁Yeah	-2179
▁song	-2180
▁current	-2181
▁millions	-2182
ug	-2183
amed	-2184
▁South	-2185
▁alone	-2186
▁issue	-2187
▁describ	-2188
racy	-2189
▁medic	-2190
▁micro	-2191
▁fundam	-2192
▁talked	-2193
▁sustain	-2194
iant	-2195
▁showed	-2196
▁intellig	-2197
▁movement	-2198
ped	-2199
▁est	-2200
▁collect	-2201
▁shape	-2202
▁mathem	-2203
▁normal	-2204
▁arm	-2205
▁poll	-2206
▁among	-2207
▁truth	-2208
▁includ	-2209
▁fur	-2210
▁prop	-2211
▁type	-2212
▁knows	-2213
pecially	-2214
bit	-2215
▁hon	-2216
▁seem	-2217
▁achie	-2218
▁development	-2219
▁suff	-2220
▁track	-2221
▁incredibly	-2222
▁fu	-2223
erence	-2224
▁benef	-2225
▁recently	-2226
▁available	-2227
ique	-2228
▁cars	-2229
▁produce	-2230
▁subject	-2231
▁experien	-2232
▁solution	-2233
▁arr	-2234
▁fire	-2235
▁period	-2236
▁situation	-2237
ival	-2238
like	-2239
▁neur	-2240
▁rate	-2241
▁er	-2242
ished	-2243
▁patient	-2244
Th	-2245
▁flu	-2246
▁industry	-2247
by	-2248
▁camp	-2249
▁flow	-2250
▁sold	-2251
▁asking	-2252
▁chance	-2253
▁transform	-2254
ung	-2255
▁resources	-2256
▁developing	-2257
chan	-2258
▁innovation	-2259
ik	-2260
apt	-2261
▁By	-2262
oose	-2263
pect	-2264
▁With	-2265
curity	-2266
▁voice	-2267
▁eye	-2268
▁lay	-2269
▁react	-2270
▁pictures	-2271
ences	-2272
▁convers	-2273
asc	-2274
▁solve	-2275
▁bigger	-2276
▁compassion	-2277
abor	-2278
ister	-2279
▁baby	-2280
▁tiny	-2281
▁designed	-2282
▁bird	-2283
▁becomes	-2284
▁putting	-2285
ency	-2286
▁dou	-2287
▁carbon	-2288
yond	-2289
▁haven	-2290
▁issues	-2291
▁online	-2292
▁street	-2293
▁evidence	-2294
pan	-2295
lict	-2296
▁Goo	-2297
▁nuc	-2298
▁attack	-2299
str	-2300
osph	-2301
▁ult	-2302
▁drive	-2303
▁smart	-2304
▁computers	-2305
▁especially	-2306
▁bra	-2307
▁reasons	-2308
▁changing	-2309
ify	-2310
▁Ph	-2311
▁199	-2312
▁fair	-2313
iction	-2314
▁except	-2315
▁Chinese	-2316
▁clos	-2317
▁dom	-2318
▁emp	-2319
arily	-2320
▁writing	-2321
50	-2322
▁din	-2323
▁sever	-2324
▁trust	-2325
▁forest	-2326
▁involved	-2327
▁generation	-2328
ned	-2329
▁ce	-2330
▁imm	-2331
light	-2332
▁message	-2333
▁function	-2334
▁rain	-2335
▁lea	-2336
▁general	-2337
▁De	-2338
▁beyond	-2339
▁sat	-2340
▁save	-2341
▁rules	-2342
▁groups	-2343
▁emerg	-2344
▁Am	-2345
▁died	-2346
▁lived	-2347
▁bacter	-2348
umb	-2349
▁60	-2350
▁mount	-2351
▁solar	-2352
▁sounds	-2353
▁towards	-2354
▁software	-2355
▁effective	-2356
▁aw	-2357
▁bar	-2358
▁unf	-2359
▁table	-2360
▁device	-2361
▁several	-2362
▁conscious	-2363
Oh	-2364
▁fa	-2365
▁plant	-2366
nam	-2367
▁ec	-2368
istan	-2369
▁search	-2370
▁revolution	-2371
unt	-2372
oring	-2373
ishing	-2374
▁choice	-2375
▁necess	-2376
▁Yes	-2377
▁girls	-2378
▁likely	-2379
▁mechan	-2380
vert	-2381
usion	-2382
▁defin	-2383
▁peace	-2384
▁action	-2385
pre	-2386
▁wish	-2387
▁speed	-2388
▁Google	-2389
▁Of	-2390
▁nine	-2391
▁tend	-2392
ny	-2393
ips	-2394
ously	-2395
▁Inst	-2396
▁particularly	-2397
pid	-2398
▁Where	-2399
une	-2400
▁bed	-2401
▁prim	-2402
▁moved	-2403
lo	-2404
wh	-2405
▁Oh	-2406
fort	-2407
oices	-2408
▁games	-2409
▁danger	-2410
▁medical	-2411
▁character	-2412
view	-2413
▁sle	-2414
▁basic	-2415
▁office	-2416
ief	-2417
▁neg	-2418
▁rich	-2419
ressed	-2420
▁First	-2421
▁anybody	-2422
▁obviously	-2423
▁link	-2424
▁further	-2425
▁schools	-2426
irth	-2427
used	-2428
▁log	-2429
▁potential	-2430
ires	-2431
▁Com	-2432
▁teachers	-2433
▁materials	-2434
ask	-2435
▁af	-2436
put	-2437
idge	-2438
rast	-2439
▁gal	-2440
▁hit	-2441
▁vision	-2442
▁walking	-2443
oms	-2444
come	-2445
▁safe	-2446
xy	-2447
▁onto	-2448
ground	-2449
▁block	-2450
▁starts	-2451
▁digital	-2452
▁totally	-2453
▁certainly	-2454
ran	-2455
book	-2456
pped	-2457
▁gas	-2458
▁screen	-2459
medi	-2460
▁Any	-2461
▁carry	-2462
▁occur	-2463
▁quality	-2464
how	-2465
▁div	-2466
▁syn	-2467
▁Maybe	-2468
oke	-2469
▁Im	-2470
▁rece	-2471
▁biggest	-2472
▁examples	-2473
▁scientific	-2474
oun	-2475
▁breat	-2476
▁wants	-2477
▁pa	-2478
▁adm	-2479
▁notice	-2480
▁princi	-2481
▁context	-2482
▁showing	-2483
▁extraord	-2484
▁national	-2485
▁camera	-2486
tend	-2487
itary	-2488
eth	-2489
iar	-2490
▁okay	-2491
▁aware	-2492
ma	-2493
ctors	-2494
▁farm	-2495
▁report	-2496
▁represent	-2497
▁Pr	-2498
eter	-2499
icle	-2500
▁son	-2501
antly	-2502
▁stru	-2503
ores	-2504
▁door	-2505
▁virt	-2506
▁North	-2507
▁activ	-2508
▁journey	-2509
▁everywhere	-2510
uly	-2511
▁memory	-2512
▁nobody	-2513
▁chemical	-2514
▁projects	-2515
apan	-2516
▁skin	-2517
▁effic	-2518
cient	-2519
▁student	-2520
▁creative	-2521
▁exciting	-2522
▁extremely	-2523
▁ep	-2524
▁trees	-2525
▁capital	-2526
▁complic	-2527
▁largest	-2528
▁Le	-2529
▁pu	-2530
▁Joh	-2531
▁Brit	-2532
▁After	-2533
▁birth	-2534
▁particip	-2535
▁positive	-2536
▁violence	-2537
more	-2538
▁Pro	-2539
isions	-2540
▁conflict	-2541
▁thousand	-2542
IV	-2543
ought	-2544
▁cris	-2545
▁jobs	-2546
▁cross	-2547
▁trial	-2548
▁transl	-2549
▁account	-2550
▁fix	-2551
▁capt	-2552
▁sequ	-2553
▁Japan	-2554
▁graph	-2555
▁threat	-2556
aur	-2557
▁Most	-2558
▁results	-2559
ids	-2560
▁clean	-2561
▁meant	-2562
▁depend	-2563
iger	-2564
▁HIV	-2565
▁fem	-2566
▁fant	-2567
▁stick	-2568
▁detail	-2569
▁plants	-2570
ze	-2571
ners	-2572
▁dro	-2573
▁spir	-2574
▁suddenly	-2575
▁supposed	-2576
uit	-2577
▁fill	-2578
pective	-2579
▁activity	-2580
for	-2581
onse	-2582
rest	-2583
▁earl	-2584
▁movie	-2585
▁named	-2586
▁security	-2587
▁boy	-2588
▁vac	-2589
verty	-2590
▁discover	-2591
▁favorite	-2592
urban	-2593
▁nuclear	-2594
▁village	-2595
akes	-2596
itten	-2597
▁drug	-2598
ughter	-2599
▁apart	-2600
▁galax	-2601
ossible	-2602
▁introdu	-2603
▁watching	-2604
▁eventually	-2605
▁80	-2606
▁Cal	-2607
▁led	-2608
▁grew	-2609
▁role	-2610
▁vari	-2611
▁ready	-2612
osphere	-2613
▁models	-2614
▁strateg	-2615
iding	-2616
igher	-2617
▁crazy	-2618
▁return	-2619
▁mathemat	-2620
▁neighbor	-2621
▁connected	-2622
.,	-2623
▁tar	-2624
▁mine	-2625
▁faster	-2626
▁individuals	-2627
itiz	-2628
mend	-2629
▁meth	-2630
▁lands	-2631
ruction	-2632
▁disapp	-2633
▁consider	-2634
conds	-2635
▁higher	-2636
▁African	-2637
▁hospital	-2638
rad	-2639
the	-2640
cape	-2641
▁Even	-2642
▁John	-2643
▁cause	-2644
▁separ	-2645
▁waste	-2646
▁launch	-2647
▁teacher	-2648
▁collabor	-2649
▁democracy	-2650
▁happiness	-2651
▁somewhere	-2652
▁16	-2653
erve	-2654
▁mob	-2655
▁lose	-2656
▁brains	-2657
▁terror	-2658
▁bom	-2659
ulate	-2660
▁marr	-2661
▁appear	-2662
▁finding	-2663
▁improve	-2664
▁passion	-2665
▁continue	-2666
▁response	-2667
joy	-2668
oming	-2669
▁West	-2670
▁adult	-2671
▁blind	-2672
▁cart	-2673
▁magn	-2674
▁sorts	-2675
ipt	-2676
▁Look	-2677
others	-2678
▁check	-2679
▁tells	-2680
▁indeed	-2681
▁remark	-2682
▁buildings	-2683
▁11	-2684
▁shown	-2685
▁accept	-2686
▁immedi	-2687
▁larger	-2688
▁products	-2689
ortunately	-2690
▁essentially	-2691
ina	-2692
ued	-2693
▁ann	-2694
▁bunch	-2695
▁labor	-2696
▁minds	-2697
▁source	-2698
▁allowed	-2699
▁objects	-2700
ana	-2701
▁14	-2702
▁wife	-2703
▁poverty	-2704
ech	-2705
lex	-2706
▁goal	-2707
▁phen	-2708
▁push	-2709
▁sand	-2710
▁webs	-2711
▁forms	-2712
▁impossible	-2713
▁fundamental	-2714
▁Ge	-2715
▁pack	-2716
estern	-2717
▁worse	-2718
▁minute	-2719
▁progress	-2720
inct	-2721
▁fing	-2722
▁communities	-2723
urt	-2724
cise	-2725
▁bal	-2726
▁burn	-2727
▁diag	-2728
▁fine	-2729
▁late	-2730
▁taught	-2731
▁publish	-2732
ror	-2733
▁17	-2734
▁pen	-2735
▁citiz	-2736
▁earth	-2737
▁ended	-2738
▁enjoy	-2739
▁influ	-2740
▁moral	-2741
▁concer	-2742
▁temper	-2743
▁colleag	-2744
▁Ag	-2745
rage	-2746
▁heav	-2747
▁above	-2748
▁position	-2749
▁signific	-2750
We	-2751
iers	-2752
▁sky	-2753
▁drugs	-2754
▁doctor	-2755
▁complicated	-2756
▁traditional	-2757
mb	-2758
▁War	-2759
▁mis	-2760
▁site	-2761
▁afford	-2762
▁allows	-2763
▁points	-2764
izations	-2765
anc	-2766
▁Tod	-2767
odies	-2768
▁discuss	-2769
▁families	-2770
nal	-2771
▁dam	-2772
ining	-2773
▁cook	-2774
▁Chris	-2775
▁square	-2776
▁conditions	-2777
po	-2778
ugh	-2779
▁dy	-2780
sect	-2781
atory	-2782
useum	-2783
though	-2784
▁series	-2785
▁electricity	-2786
ims	-2787
▁Who	-2788
▁bur	-2789
▁deb	-2790
▁phil	-2791
▁tree	-2792
ission	-2793
▁cases	-2794
▁older	-2795
▁distrib	-2796
▁straight	-2797
▁extraordinary	-2798
ev	-2799
let	-2800
▁Don	-2801
▁oxy	-2802
ounds	-2803
▁mist	-2804
▁choose	-2805
▁phenomen	-2806
▁training	-2807
▁perspective	-2808
▁kil	-2809
▁Like	-2810
▁sleep	-2811
▁standing	-2812
▁successful	-2813
rab	-2814
rap	-2815
nces	-2816
ster	-2817
▁fram	-2818
▁affect	-2819
▁crisis	-2820
▁excited	-2821
▁somehow	-2822
▁univers	-2823
▁medicine	-2824
men	-2825
ured	-2826
▁Car	-2827
▁East	-2828
▁bank	-2829
▁wait	-2830
▁assum	-2831
▁author	-2832
▁killed	-2833
▁pieces	-2834
▁prison	-2835
▁reading	-2836
▁decision	-2837
No	-2838
met	-2839
▁198	-2840
▁kept	-2841
inated	-2842
ration	-2843
▁usually	-2844
▁content	-2845
▁bacteria	-2846
▁increase	-2847
go	-2848
la	-2849
ube	-2850
▁cat	-2851
▁luck	-2852
▁town	-2853
▁neurons	-2854
▁international	-2855
imb	-2856
▁purp	-2857
▁upon	-2858
▁Those	-2859
▁alive	-2860
▁mention	-2861
▁critical	-2862
ring	-2863
▁fasc	-2864
▁Which	-2865
▁calcul	-2866
▁provide	-2867
▁smaller	-2868
▁treatment	-2869
ops	-2870
rel	-2871
▁TV	-2872
edom	-2873
ffic	-2874
▁trou	-2875
▁prote	-2876
▁manage	-2877
▁studies	-2878
▁organization	-2879
ays	-2880
iven	-2881
▁201	-2882
▁doc	-2883
ustrial	-2884
▁beings	-2885
▁version	-2886
▁including	-2887
▁clin	-2888
▁truly	-2889
▁urban	-2890
▁achieve	-2891
▁anywhere	-2892
▁architecture	-2893
isms	-2894
▁fra	-2895
▁finan	-2896
▁actual	-2897
▁policy	-2898
▁massive	-2899
▁military	-2900
▁patterns	-2901
▁increasing	-2902
▁cold	-2903
▁Today	-2904
▁lines	-2905
▁slight	-2906
▁seconds	-2907
▁painting	-2908
▁conversation	-2909
rect	-2910
▁ign	-2911
▁veh	-2912
▁wild	-2913
▁lower	-2914
▁throw	-2915
▁employ	-2916
▁region	-2917
▁college	-2918
▁Q	-2919
▁Ab	-2920
▁Sw	-2921
fact	-2922
▁swe	-2923
▁Somet	-2924
▁stars	-2925
▁please	-2926
▁himself	-2927
▁machines	-2928
ama	-2929
▁Act	-2930
epend	-2931
▁page	-2932
▁roll	-2933
▁anymore	-2934
▁strange	-2935
amm	-2936
dom	-2937
iced	-2938
erman	-2939
▁print	-2940
▁Christ	-2941
▁engage	-2942
▁physics	-2943
▁hop	-2944
iling	-2945
▁term	-2946
uments	-2947
▁effort	-2948
▁skills	-2949
soci	-2950
▁Bra	-2951
▁sou	-2952
▁greater	-2953
▁recognize	-2954
!"	-2955
▁eth	-2956
aging	-2957
▁magic	-2958
▁price	-2959
▁rights	-2960
▁written	-2961
▁expensive	-2962
ping	-2963
▁whe	-2964
ently	-2965
▁card	-2966
▁star	-2967
▁enorm	-2968
▁molec	-2969
▁weight	-2970
▁decisions	-2971
iti	-2972
▁13	-2973
iest	-2974
oles	-2975
▁glass	-2976
▁trick	-2977
▁biology	-2978
▁Americans	-2979
▁port	-2980
▁genes	-2981
▁specific	-2982
ulf	-2983
back	-2984
lebr	-2985
▁Isl	-2986
▁board	-2987
▁cloud	-2988
▁21	-2989
▁Sp	-2990
itation	-2991
▁famous	-2992
▁service	-2993
agine	-2994
▁code	-2995
▁legs	-2996
▁remind	-2997
▁surger	-2998
▁clearly	-2999
▁earlier	-3000
▁fantastic	-3001
time	-3002
▁Mar	-3003
▁dog	-3004
erson	-3005
▁production	-3006
▁beauty	-3007
▁robots	-3008
▁Another	-3009
▁contrib	-3010
▁throughout	-3011
▁Are	-3012
itude	-3013
▁autom	-3014
▁cover	-3015
▁laugh	-3016
▁listening	-3017
▁solutions	-3018
▁transport	-3019
acity	-3020
▁drink	-3021
▁loved	-3022
▁explore	-3023
▁waiting	-3024
▁becoming	-3025
▁practice	-3026
ky	-3027
sequ	-3028
▁alg	-3029
▁yeah	-3030
▁costs	-3031
▁walked	-3032
ologists	-3033
zz	-3034
ises	-3035
▁rid	-3036
thern	-3037
▁desp	-3038
▁weap	-3039
▁shark	-3040
▁spect	-3041
inating	-3042
▁driving	-3043
▁therefore	-3044
▁90	-3045
▁Ad	-3046
▁sal	-3047
ystem	-3048
▁hero	-3049
▁catch	-3050
▁store	-3051
▁detect	-3052
▁police	-3053
▁healthy	-3054
▁willing	-3055
▁familiar	-3056
▁Ex	-3057
ables	-3058
ained	-3059
▁shot	-3060
▁zero	-3061
▁celebr	-3062
▁unique	-3063
▁private	-3064
▁greatest	-3065
aly	-3066
rees	-3067
▁Har	-3068
▁exh	-3069
eless	-3070
▁plastic	-3071
▁Go	-3072
ceed	-3073
▁Afgh	-3074
▁prep	-3075
▁range	-3076
▁weren	-3077
fer	-3078
▁cry	-3079
▁lad	-3080
aries	-3081
▁rand	-3082
▁comfort	-3083
▁dangerous	-3084
▁direction	-3085
▁intelligence	-3086
▁environmental	-3087
cies	-3088
ashing	-3089
▁societ	-3090
▁address	-3091
eral	-3092
rams	-3093
▁sam	-3094
orrow	-3095
▁crow	-3096
▁spirit	-3097
▁website	-3098
▁invented	-3099
▁performance	-3100
▁institutions	-3101
▁i	-3102
enn	-3103
iles	-3104
uted	-3105
▁thr	-3106
istics	-3107
▁forth	-3108
atically	-3109
▁respond	-3110
bol	-3111
▁rise	-3112
imately	-3113
▁German	-3114
▁active	-3115
▁secret	-3116
▁freedom	-3117
▁various	-3118
bb	-3119
oid	-3120
resh	-3121
ried	-3122
▁fuel	-3123
▁jump	-3124
▁floor	-3125
▁income	-3126
▁random	-3127
▁teaching	-3128
ils	-3129
rom	-3130
▁Bl	-3131
▁types	-3132
▁babies	-3133
▁bodies	-3134
▁determ	-3135
▁multip	-3136
0,	-3137
mic	-3138
▁pan	-3139
▁tap	-3140
vision	-3141
▁ahead	-3142
▁encou	-3143
▁final	-3144
▁optim	-3145
▁worry	-3146
▁strugg	-3147
▁wealth	-3148
▁Imagine	-3149
▁doctors	-3150
▁services	-3151
orry	-3152
osing	-3153
▁meeting	-3154
▁University	-3155
yr	-3156
▁jud	-3157
▁occ	-3158
atives	-3159
ricult	-3160
▁demon	-3161
▁instr	-3162
▁Afghan	-3163
▁following	-3164
▁web	-3165
▁uses	-3166
▁career	-3167
▁levels	-3168
▁values	-3169
▁genetic	-3170
▁respect	-3171
▁instance	-3172
▁Cl	-3173
▁Two	-3174
▁ord	-3175
▁Mars	-3176
▁flying	-3177
▁useful	-3178
pro	-3179
▁atm	-3180
ondon	-3181
▁decide	-3182
▁insect	-3183
▁method	-3184
SA	-3185
eny	-3186
ches	-3187
itor	-3188
▁tiss	-3189
▁broad	-3190
▁gradu	-3191
▁decade	-3192
▁citizens	-3193
▁humanity	-3194
▁immediately	-3195
▁Cent	-3196
▁Cong	-3197
▁apply	-3198
▁email	-3199
▁simpl	-3200
▁London	-3201
▁mental	-3202
▁Western	-3203
airs	-3204
▁scr	-3205
attle	-3206
▁hair	-3207
▁laws	-3208
▁although	-3209
▁interview	-3210
▁remarkable	-3211
▁Mus	-3212
▁Ste	-3213
▁fit	-3214
antic	-3215
▁raise	-3216
▁trade	-3217
▁virus	-3218
▁governments	-3219
▁Dr	-3220
iate	-3221
▁sus	-3222
board	-3223
▁concl	-3224
▁integ	-3225
▁match	-3226
▁slide	-3227
▁popular	-3228
▁demonstr	-3229
▁standard	-3230
oty	-3231
▁24	-3232
▁Per	-3233
▁Sch	-3234
▁coun	-3235
▁saving	-3236
▁infrast	-3237
▁electron	-3238
▁condition	-3239
▁dram	-3240
▁park	-3241
▁Second	-3242
▁supply	-3243
▁possibly	-3244
▁oh	-3245
▁196	-3246
▁pig	-3247
prene	-3248
▁Arab	-3249
▁yell	-3250
iation	-3251
▁dynam	-3252
ologist	-3253
reprene	-3254
▁nation	-3255
▁relative	-3256
▁terrible	-3257
▁connection	-3258
uct	-3259
▁197	-3260
▁hyd	-3261
▁ran	-3262
▁forget	-3263
▁honest	-3264
▁speech	-3265
ervation	-3266
▁politics	-3267
▁engineering	-3268
▁500	-3269
▁nut	-3270
▁Your	-3271
▁cust	-3272
▁motiv	-3273
▁slightly	-3274
▁surround	-3275
▁television	-3276
yl	-3277
ball	-3278
iber	-3279
▁drop	-3280
▁summer	-3281
▁decades	-3282
▁express	-3283
▁agricult	-3284
▁understood	-3285
key	-3286
▁mal	-3287
anced	-3288
▁directly	-3289
ray	-3290
wise	-3291
ooper	-3292
▁oppos	-3293
▁cultural	-3294
▁financial	-3295
▁neighborhood	-3296
yle	-3297
▁mut	-3298
itted	-3299
▁blog	-3300
▁wood	-3301
▁associ	-3302
▁dimens	-3303
▁states	-3304
▁struct	-3305
▁switch	-3306
▁survive	-3307
▁capacity	-3308
▁societies	-3309
▁et	-3310
aign	-3311
▁Dav	-3312
iforn	-3313
▁quant	-3314
▁destro	-3315
▁forces	-3316
▁consequ	-3317
▁Californ	-3318
▁temperature	-3319
udd	-3320
▁sad	-3321
▁City	-3322
▁Many	-3323
▁base	-3324
▁paid	-3325
▁commer	-3326
▁shared	-3327
▁stress	-3328
▁purpose	-3329
▁enormous	-3330
▁ir	-3331
iring	-3332
▁rule	-3333
▁anyway	-3334
▁helped	-3335
▁physic	-3336
▁prevent	-3337
▁atmosphere	-3338
How	-3339
▁dad	-3340
ufact	-3341
▁From	-3342
▁vict	-3343
▁diseases	-3344
ID	-3345
ios	-3346
ened	-3347
▁Indian	-3348
▁mostly	-3349
▁surgery	-3350
▁tremend	-3351
▁creativity	-3352
0.	-3353
unk	-3354
cell	-3355
▁Char	-3356
▁task	-3357
▁whose	-3358
▁artist	-3359
▁closer	-3360
▁answers	-3361
▁central	-3362
▁National	-3363
▁mountain	-3364
▁published	-3365
▁California	-3366
▁challenges	-3367
ec	-3368
▁Pl	-3369
anda	-3370
cles	-3371
wood	-3372
aling	-3373
▁boys	-3374
▁hous	-3375
▁Think	-3376
▁displ	-3377
▁worst	-3378
▁oxygen	-3379
▁reflect	-3380
▁controll	-3381
▁networks	-3382
▁colleagues	-3383
▁entreprene	-3384
now	-3385
win	-3386
▁aid	-3387
inate	-3388
▁hole	-3389
▁tens	-3390
▁below	-3391
▁surve	-3392
▁philos	-3393
▁trouble	-3394
▁organizations	-3395
load	-3396
cience	-3397
▁Austr	-3398
▁funny	-3399
▁invent	-3400
▁played	-3401
▁symbol	-3402
▁effects	-3403
▁noticed	-3404
▁infrastructure	-3405
5,	-3406
ef	-3407
bert	-3408
izes	-3409
uing	-3410
▁hus	-3411
▁mid	-3412
rench	-3413
▁doub	-3414
▁mamm	-3415
▁causes	-3416
▁expand	-3417
▁original	-3418
▁profound	-3419
▁speaking	-3420
off	-3421
ancy	-3422
raid	-3423
▁300	-3424
icles	-3425
▁heat	-3426
▁smell	-3427
▁produced	-3428
ira	-3429
ked	-3430
arian	-3431
ement	-3432
▁Russ	-3433
▁conc	-3434
ashion	-3435
▁Again	-3436
▁experiments	-3437
olve	-3438
rael	-3439
vest	-3440
▁male	-3441
▁offic	-3442
▁radio	-3443
▁twice	-3444
▁afraid	-3445
▁belief	-3446
▁workers	-3447
▁pressure	-3448
▁programs	-3449
▁Ro	-3450
▁Iran	-3451
▁birds	-3452
▁dance	-3453
▁mobile	-3454
▁evolved	-3455
It	-3456
arm	-3457
▁ang	-3458
phone	-3459
▁coff	-3460
▁fort	-3461
▁loss	-3462
▁Islam	-3463
▁total	-3464
▁applic	-3465
▁corner	-3466
▁manufact	-3467
ibr	-3468
pes	-3469
raq	-3470
▁70	-3471
esis	-3472
atell	-3473
cules	-3474
▁bought	-3475
▁highly	-3476
▁histor	-3477
▁degrees	-3478
▁relationships	-3479
hy	-3480
▁iP	-3481
oting	-3482
▁hall	-3483
▁dying	-3484
▁markets	-3485
▁independ	-3486
cks	-3487
adem	-3488
band	-3489
exic	-3490
rupt	-3491
▁His	-3492
▁fat	-3493
▁mix	-3494
order	-3495
▁gold	-3496
▁stopped	-3497
▁streets	-3498
▁classroom	-3499
▁industrial	-3500
▁Afghanistan	-3501
aced	-3502
rical	-3503
▁airpl	-3504
▁legal	-3505
▁rough	-3506
ception	-3507
▁custom	-3508
▁campaign	-3509
▁communicate	-3510
▁differences	-3511
zil	-3512
empt	-3513
▁tax	-3514
orith	-3515
▁lack	-3516
▁shock	-3517
▁flight	-3518
▁Instead	-3519
▁emotional	-3520
▁collective	-3521
▁complexity	-3522
Why	-3523
ulner	-3524
▁Mich	-3525
▁wire	-3526
▁eating	-3527
▁choices	-3528
▁deliver	-3529
▁studying	-3530
▁differently	-3531
ste	-3532
cope	-3533
▁etc	-3534
▁Face	-3535
▁Iraq	-3536
▁bees	-3537
▁Mexic	-3538
▁Brazil	-3539
▁altern	-3540
▁compon	-3541
▁genome	-3542
▁reduce	-3543
▁satell	-3544
▁creates	-3545
▁journal	-3546
▁algorith	-3547
▁diversity	-3548
▁biological	-3549
▁conference	-3550
▁surprising	-3551
na	-3552
reg	-3553
ears	-3554
term	-3555
▁chim	-3556
▁lights	-3557
▁seemed	-3558
▁experiences	-3559
▁sustainable	-3560
af	-3561
edia	-3562
▁San	-3563
▁hom	-3564
▁David	-3565
▁metap	-3566
▁female	-3567
▁window	-3568
▁helping	-3569
▁bringing	-3570
▁molecules	-3571
▁significant	-3572
▁communication	-3573
ri	-3574
▁Aud	-3575
▁tum	-3576
▁tun	-3577
▁gent	-3578
▁trib	-3579
▁climb	-3580
▁10,000	-3581
▁breast	-3582
▁broken	-3583
▁devices	-3584
▁missing	-3585
▁landscape	-3586
▁consciousness	-3587
▁ut	-3588
▁Dar	-3589
▁cru	-3590
▁fro	-3591
ening	-3592
itter	-3593
water	-3594
osystem	-3595
▁attract	-3596
▁Nob	-3597
▁fold	-3598
▁hang	-3599
▁reco	-3600
▁swim	-3601
▁easily	-3602
▁spending	-3603
IDS	-3604
gth	-3605
▁ske	-3606
▁sick	-3607
rength	-3608
▁Israel	-3609
▁Middle	-3610
▁cooper	-3611
▁gotten	-3612
▁spaces	-3613
gy	-3614
icon	-3615
cript	-3616
▁seas	-3617
aining	-3618
▁Great	-3619
▁agree	-3620
▁basis	-3621
▁bread	-3622
▁fully	-3623
▁habit	-3624
▁Thanks	-3625
▁daughter	-3626
▁scientist	-3627
▁background	-3628
▁commercial	-3629
▁ur	-3630
▁Par	-3631
▁reb	-3632
▁rare	-3633
▁trip	-3634
▁vast	-3635
▁diagn	-3636
▁hearing	-3637
▁ecosystem	-3638
▁tremendous	-3639
▁opportunities	-3640
cra	-3641
edd	-3642
ees	-3643
▁En	-3644
▁ver	-3645
inist	-3646
rogen	-3647
▁beat	-3648
▁none	-3649
▁race	-3650
▁brill	-3651
▁crowd	-3652
▁passed	-3653
▁vulner	-3654
▁artists	-3655
▁members	-3656
▁strength	-3657
▁designers	-3658
▁ban	-3659
▁photo	-3660
▁visit	-3661
▁coffee	-3662
▁ancient	-3663
▁farmers	-3664
▁efficient	-3665
▁responsibility	-3666
val	-3667
hand	-3668
arter	-3669
▁feels	-3670
▁master	-3671
▁target	-3672
▁focused	-3673
▁religion	-3674
▁Gu	-3675
▁Mc	-3676
▁1,000	-3677
▁analy	-3678
▁liber	-3679
▁rapid	-3680
▁museum	-3681
▁contact	-3682
do	-3683
amb	-3684
▁Te	-3685
isco	-3686
▁cogn	-3687
▁ship	-3688
▁shift	-3689
▁desert	-3690
▁therap	-3691
aul	-3692
edic	-3693
▁Web	-3694
icking	-3695
ording	-3696
▁accom	-3697
▁enter	-3698
▁parad	-3699
▁pleas	-3700
▁yellow	-3701
▁forever	-3702
▁Facebook	-3703
reci	-3704
▁poet	-3705
▁weird	-3706
ography	-3707
▁knowing	-3708
mp	-3709
irt	-3710
▁alt	-3711
ander	-3712
▁Musl	-3713
▁harm	-3714
▁cheap	-3715
▁fairly	-3716
▁gentle	-3717
▁sexual	-3718
▁argument	-3719
▁imagination	-3720
▁More	-3721
▁join	-3722
▁mort	-3723
▁wide	-3724
▁brand	-3725
▁correct	-3726
▁Actually	-3727
▁addition	-3728
▁opposite	-3729
▁possibility	-3730
▁1.	-3731
▁inj	-3732
based	-3733
house	-3734
ratic	-3735
▁hell	-3736
▁Niger	-3737
▁aspect	-3738
▁failure	-3739
▁mission	-3740
▁moments	-3741
▁sharing	-3742
▁inspired	-3743
itely	-3744
▁Good	-3745
▁Rich	-3746
▁lucky	-3747
▁mouth	-3748
▁advant	-3749
▁identity	-3750
▁particles	-3751
▁religious	-3752
▁phenomenon	-3753
cop	-3754
mark	-3755
orge	-3756
roud	-3757
pping	-3758
▁bomb	-3759
▁host	-3760
▁consid	-3761
▁demand	-3762
▁notion	-3763
▁resist	-3764
▁accident	-3765
▁creatures	-3766
zen	-3767
▁Mr	-3768
▁Ob	-3769
▁joy	-3770
ipped	-3771
▁Over	-3772
▁seed	-3773
▁vacc	-3774
atures	-3775
dimens	-3776
▁integr	-3777
▁nearly	-3778
▁tissue	-3779
▁Austral	-3780
ification	-3781
▁benefits	-3782
▁negative	-3783
▁competition	-3784
fl	-3785
ami	-3786
▁Ha	-3787
▁See	-3788
▁ble	-3789
▁appl	-3790
▁repe	-3791
▁scan	-3792
▁shop	-3793
orders	-3794
▁dinos	-3795
▁party	-3796
▁foreign	-3797
▁restaur	-3798
▁turning	-3799
ada	-3800
▁Tr	-3801
▁wis	-3802
▁Asia	-3803
▁forg	-3804
▁gene	-3805
▁note	-3806
▁plat	-3807
▁rout	-3808
▁teen	-3809
ifying	-3810
▁magaz	-3811
▁batter	-3812
▁fashion	-3813
▁describe	-3814
reet	-3815
ulpt	-3816
▁gun	-3817
▁tom	-3818
▁core	-3819
▁stem	-3820
▁calls	-3821
▁coast	-3822
▁north	-3823
▁bright	-3824
▁charge	-3825
▁corpor	-3826
▁sculpt	-3827
▁stream	-3828
▁volunt	-3829
▁leadership	-3830
1,	-3831
tle	-3832
ront	-3833
▁400	-3834
▁nor	-3835
idden	-3836
ively	-3837
▁Will	-3838
▁iron	-3839
▁proud	-3840
▁French	-3841
▁remote	-3842
▁concent	-3843
▁despite	-3844
▁planets	-3845
▁Audience	-3846
8,	-3847
inc	-3848
vity	-3849
▁Nor	-3850
▁bud	-3851
print	-3852
▁exer	-3853
▁invis	-3854
connect	-3855
▁bridge	-3856
▁colors	-3857
▁events	-3858
▁sector	-3859
▁elements	-3860
▁partners	-3861
▁importantly	-3862
7,	-3863
gra	-3864
mon	-3865
▁fol	-3866
▁cred	-3867
▁noise	-3868
▁easier	-3869
▁meters	-3870
▁husband	-3871
▁weapons	-3872
▁European	-3873
rie	-3874
cest	-3875
▁Con	-3876
eared	-3877
stein	-3878
icians	-3879
▁maint	-3880
▁sorry	-3881
▁photos	-3882
ifically	-3883
▁emotion	-3884
▁figured	-3885
▁virtual	-3886
▁distance	-3887
dimensional	-3888
▁necessarily	-3889
9,	-3890
ica	-3891
▁CO	-3892
ford	-3893
urch	-3894
▁egg	-3895
▁ing	-3896
celer	-3897
▁puzz	-3898
▁tast	-3899
▁quote	-3900
▁tough	-3901
▁dollar	-3902
▁dreams	-3903
▁infect	-3904
▁inform	-3905
▁attempt	-3906
▁brother	-3907
▁traffic	-3908
▁brilliant	-3909
▁suffering	-3910
using	-3911
▁Take	-3912
▁cand	-3913
▁held	-3914
▁accur	-3915
▁bound	-3916
▁faith	-3917
▁giant	-3918
▁truck	-3919
▁ancest	-3920
▁double	-3921
▁raised	-3922
▁balance	-3923
ley	-3924
lin	-3925
ses	-3926
▁narr	-3927
▁helps	-3928
▁indic	-3929
▁grandm	-3930
▁kilomet	-3931
▁regular	-3932
▁related	-3933
gar	-3934
ager	-3935
vere	-3936
▁Big	-3937
▁unc	-3938
iable	-3939
▁boat	-3940
itable	-3941
▁chick	-3942
▁river	-3943
▁opened	-3944
▁appreci	-3945
▁destroy	-3946
▁leading	-3947
▁billions	-3948
▁previous	-3949
▁intellect	-3950
▁philosoph	-3951
ties	-3952
▁Bang	-3953
▁Keny	-3954
▁mill	-3955
▁shel	-3956
▁stuck	-3957
▁signal	-3958
▁transp	-3959
ographic	-3960
▁However	-3961
▁holding	-3962
▁typical	-3963
▁metaphor	-3964
▁sequence	-3965
▁Sometimes	-3966
▁necessary	-3967
▁structures	-3968
ha	-3969
mar	-3970
oop	-3971
▁Su	-3972
cked	-3973
vant	-3974
verse	-3975
inally	-3976
ulated	-3977
▁adapt	-3978
▁crash	-3979
▁brings	-3980
▁convin	-3981
▁succeed	-3982
▁entirely	-3983
▁ultimately	-3984
▁responsible	-3985
kn	-3986
equ	-3987
mit	-3988
esth	-3989
▁Sun	-3990
▁Very	-3991
▁edge	-3992
▁frequ	-3993
▁grass	-3994
▁leads	-3995
▁mouse	-3996
▁wheel	-3997
▁document	-3998
▁platform	-3999
▁childhood	-4000
ysis	-4001
▁amb	-4002
▁disp	-4003
▁moves	-4004
▁newsp	-4005
▁offer	-4006
▁subst	-4007
▁pounds	-4008
▁unlike	-4009
ulations	-4010
▁insects	-4011
▁leaving	-4012
▁require	-4013
▁shouldn	-4014
▁definition	-4015
my	-4016
son	-4017
▁1,	-4018
▁Sc	-4019
This	-4020
▁rot	-4021
idents	-4022
ipping	-4023
▁lunch	-4024
▁motor	-4025
▁paint	-4026
artment	-4027
ibilities	-4028
▁believed	-4029
▁institution	-4030
▁mathematics	-4031
▁fab	-4032
istry	-4033
▁grad	-4034
▁roof	-4035
▁weak	-4036
▁click	-4037
▁epide	-4038
▁fresh	-4039
▁walls	-4040
▁caught	-4041
▁closed	-4042
▁slowly	-4043
▁British	-4044
▁counter	-4045
▁element	-4046
▁install	-4047
▁studied	-4048
▁strategy	-4049
▁construct	-4050
▁discovery	-4051
▁influence	-4052
▁operating	-4053
▁president	-4054
▁university	-4055
rim	-4056
set	-4057
▁Fl	-4058
▁Ne	-4059
uild	-4060
uros	-4061
▁Did	-4062
▁bag	-4063
▁cla	-4064
▁ants	-4065
▁band	-4066
▁exch	-4067
▁compl	-4068
▁matters	-4069
▁trained	-4070
▁creation	-4071
▁fighting	-4072
▁constantly	-4073
▁unfortunately	-4074
ok	-4075
ads	-4076
oom	-4077
enty	-4078
hold	-4079
▁Gra	-4080
▁tit	-4081
▁und	-4082
agers	-4083
illed	-4084
▁frag	-4085
▁seat	-4086
▁embra	-4087
▁exhib	-4088
▁degree	-4089
▁microb	-4090
▁cognitive	-4091
▁investment	-4092
▁professional	-4093
2,	-4094
IT	-4095
atr	-4096
ius	-4097
cket	-4098
▁Once	-4099
▁reve	-4100
▁soil	-4101
▁spot	-4102
▁talks	-4103
lection	-4104
▁lesson	-4105
▁oceans	-4106
▁factory	-4107
▁surprise	-4108
▁civilization	-4109
iot	-4110
▁Ac	-4111
oint	-4112
pper	-4113
▁Gen	-4114
▁mos	-4115
▁tor	-4116
▁empt	-4117
▁hate	-4118
▁names	-4119
▁adults	-4120
▁deeply	-4121
▁failed	-4122
▁acceler	-4123
▁equival	-4124
▁finished	-4125
▁galaxies	-4126
▁concerned	-4127
▁organisms	-4128
▁depression	-4129
▁fascinating	-4130
uge	-4131
▁Ed	-4132
oman	-4133
oted	-4134
▁fle	-4135
▁gar	-4136
▁pun	-4137
▁ton	-4138
apers	-4139
right	-4140
▁Have	-4141
▁Life	-4142
▁horr	-4143
▁moon	-4144
terday	-4145
▁novel	-4146
▁prior	-4147
▁prototy	-4148
▁emotions	-4149
▁advantage	-4150
▁engineers	-4151
▁invisible	-4152
aff	-4153
iam	-4154
oses	-4155
▁hyp	-4156
alley	-4157
▁bone	-4158
urally	-4159
▁argue	-4160
vention	-4161
▁begins	-4162
▁phones	-4163
▁benefit	-4164
▁capable	-4165
▁interaction	-4166
▁ju	-4167
ength	-4168
▁Bill	-4169
▁tour	-4170
ctions	-4171
▁chann	-4172
mission	-4173
ruption	-4174
▁attach	-4175
▁finger	-4176
▁leader	-4177
▁letter	-4178
▁sister	-4179
▁managed	-4180
▁compared	-4181
▁Everybody	-4182
ij	-4183
▁NA	-4184
essed	-4185
icity	-4186
itute	-4187
▁opin	-4188
elling	-4189
▁Richard	-4190
▁artific	-4191
anes	-4192
apse	-4193
athy	-4194
iage	-4195
roll	-4196
▁Des	-4197
▁Red	-4198
▁era	-4199
▁mir	-4200
▁odd	-4201
▁gard	-4202
▁purs	-4203
▁whom	-4204
▁brief	-4205
▁chair	-4206
▁equip	-4207
▁south	-4208
▁Mexico	-4209
▁reward	-4210
▁Washing	-4211
▁invited	-4212
▁married	-4213
▁vehicle	-4214
▁languages	-4215
▁perfectly	-4216
▁consumption	-4217
cil	-4218
▁Me	-4219
gypt	-4220
▁den	-4221
▁mig	-4222
ulous	-4223
▁adop	-4224
▁king	-4225
ancing	-4226
▁avoid	-4227
▁equal	-4228
▁prost	-4229
▁circle	-4230
▁galaxy	-4231
▁symmet	-4232
▁wisdom	-4233
▁majority	-4234
▁described	-4235
▁otherwise	-4236
▁surprised	-4237
▁businesses	-4238
ae	-4239
aria	-4240
onom	-4241
▁150	-4242
▁pet	-4243
▁tal	-4244
▁anti	-4245
▁meat	-4246
▁nerv	-4247
▁coral	-4248
▁eleph	-4249
▁paying	-4250
▁precise	-4251
▁replace	-4252
▁wearing	-4253
▁contract	-4254
▁followed	-4255
▁Washington	-4256
▁equivalent	-4257
▁agriculture	-4258
oe	-4259
▁smo	-4260
throp	-4261
uries	-4262
▁grown	-4263
oration	-4264
▁exists	-4265
▁insight	-4266
▁mothers	-4267
▁protein	-4268
▁weather	-4269
▁everyday	-4270
▁launched	-4271
▁molecule	-4272
▁ax	-4273
care	-4274
iors	-4275
▁Her	-4276
▁cos	-4277
▁dol	-4278
▁pow	-4279
craft	-4280
known	-4281
lands	-4282
▁Each	-4283
▁Paul	-4284
▁intu	-4285
▁peak	-4286
▁Egypt	-4287
▁extend	-4288
▁unless	-4289
▁England	-4290
▁mentioned	-4291
▁Col	-4292
▁lapt	-4293
▁cycle	-4294
▁surge	-4295
▁incent	-4296
▁seriously	-4297
▁due	-4298
▁AIDS	-4299
▁Park	-4300
▁hasn	-4301
ildren	-4302
▁Three	-4303
▁heads	-4304
iration	-4305
▁Darwin	-4306
▁breath	-4307
▁dinner	-4308
▁implic	-4309
▁versus	-4310
▁compare	-4311
▁drawing	-4312
▁highest	-4313
▁feedback	-4314
▁normally	-4315
▁separate	-4316
▁economics	-4317
▁equipment	-4318
ara	-4319
ume	-4320
▁Co	-4321
rict	-4322
▁cro	-4323
▁fed	-4324
▁org	-4325
▁foss	-4326
▁wave	-4327
▁wear	-4328
▁round	-4329
▁commit	-4330
▁Twitter	-4331
▁limited	-4332
▁station	-4333
▁disaster	-4334
▁planning	-4335
▁principles	-4336
▁distribution	-4337
exp	-4338
▁Gl	-4339
ublic	-4340
ensity	-4341
forest	-4342
▁dolph	-4343
▁faces	-4344
▁pages	-4345
▁plane	-4346
entally	-4347
▁belong	-4348
▁shapes	-4349
▁Germany	-4350
▁curious	-4351
▁nervous	-4352
▁organic	-4353
▁treated	-4354
▁airplane	-4355
▁survival	-4356
▁App	-4357
▁dry	-4358
▁hun	-4359
▁agre	-4360
▁arms	-4361
▁academ	-4362
▁circum	-4363
▁fellow	-4364
▁select	-4365
▁warming	-4366
▁designer	-4367
▁received	-4368
▁hopefully	-4369
▁increasingly	-4370
If	-4371
add	-4372
pet	-4373
▁35	-4374
roph	-4375
uman	-4376
wide	-4377
▁Pal	-4378
estic	-4379
▁Does	-4380
▁bull	-4381
▁flat	-4382
▁myth	-4383
▁Franc	-4384
▁quiet	-4385
▁rural	-4386
▁synth	-4387
▁users	-4388
instein	-4389
▁toward	-4390
▁article	-4391
▁Japanese	-4392
▁statistics	-4393
▁transformation	-4394
RI	-4395
ox	-4396
car	-4397
irm	-4398
engu	-4399
asion	-4400
place	-4401
▁Pres	-4402
▁fell	-4403
▁nutr	-4404
▁veget	-4405
issions	-4406
▁astron	-4407
▁debate	-4408
▁harder	-4409
▁thinks	-4410
▁magazine	-4411
Yes	-4412
olves	-4413
ortex	-4414
▁abst	-4415
▁tick	-4416
encies	-4417
▁chain	-4418
▁sport	-4419
▁steps	-4420
▁toile	-4421
▁expert	-4422
▁fields	-4423
▁interp	-4424
▁leaves	-4425
▁stupid	-4426
▁Einstein	-4427
▁multiple	-4428
▁property	-4429
▁principle	-4430
▁technical	-4431
▁dimensions	-4432
▁generations	-4433
4,	-4434
ett	-4435
▁El	-4436
▁Rep	-4437
▁diet	-4438
▁reef	-4439
ession	-4440
▁Kenya	-4441
▁Would	-4442
▁driver	-4443
▁gather	-4444
▁ordinary	-4445
▁sentence	-4446
gl	-4447
Hey	-4448
oes	-4449
▁poo	-4450
▁spl	-4451
▁tow	-4452
▁Kore	-4453
▁puts	-4454
▁rein	-4455
▁tail	-4456
▁2,000	-4457
▁categ	-4458
▁crime	-4459
▁daily	-4460
▁lifet	-4461
▁motion	-4462
▁covered	-4463
▁letters	-4464
▁theater	-4465
▁investig	-4466
▁Australia	-4467
▁according	-4468
▁electrical	-4469
▁experienced	-4470
bel	-4471
urd	-4472
cale	-4473
ocol	-4474
▁Bas	-4475
▁Ben	-4476
anted	-4477
▁enem	-4478
▁wond	-4479
▁Their	-4480
▁Times	-4481
▁grade	-4482
▁heavy	-4483
▁homes	-4484
▁battle	-4485
▁damage	-4486
▁fourth	-4487
▁island	-4488
▁100,000	-4489
▁conduct	-4490
▁justice	-4491
▁killing	-4492
▁testing	-4493
▁volunte	-4494
▁watched	-4495
▁soldiers	-4496
▁continent	-4497
▁Everything	-4498
ns	-4499
hab	-4500
rum	-4501
▁Mo	-4502
▁Sm	-4503
aker	-4504
▁MIT	-4505
▁Res	-4506
▁row	-4507
lease	-4508
organ	-4509
▁coal	-4510
▁copy	-4511
▁pros	-4512
▁valu	-4513
▁warm	-4514
▁cloth	-4515
▁colon	-4516
▁inner	-4517
▁limit	-4518
▁hidden	-4519
▁setting	-4520
▁signals	-4521
▁associated	-4522
▁kilometers	-4523
▁intelligent	-4524
▁consequences	-4525
oot	-4526
aked	-4527
▁Dan	-4528
isher	-4529
▁King	-4530
▁date	-4531
▁folks	-4532
▁grain	-4533
▁neuro	-4534
▁polic	-4535
▁scene	-4536
▁caused	-4537
▁explan	-4538
▁filled	-4539
▁movies	-4540
▁resource	-4541
▁currently	-4542
▁essential	-4543
odes	-4544
▁pil	-4545
▁ves	-4546
▁bear	-4547
▁stim	-4548
▁Green	-4549
▁awful	-4550
▁facts	-4551
▁holes	-4552
▁infin	-4553
▁pengu	-4554
▁advert	-4555
▁losing	-4556
▁arrived	-4557
▁continu	-4558
▁identify	-4559
▁convinced	-4560
▁processes	-4561
▁yesterday	-4562
▁artificial	-4563
▁grandmother	-4564
▁researchers	-4565
▁intellectual	-4566
cast	-4567
▁cow	-4568
▁gap	-4569
▁nan	-4570
▁rat	-4571
erves	-4572
force	-4573
▁dial	-4574
▁surf	-4575
▁empty	-4576
▁liked	-4577
▁negot	-4578
▁shoes	-4579
ressive	-4580
▁neuros	-4581
▁players	-4582
▁comfortable	-4583
hyth	-4584
semb	-4585
▁gang	-4586
▁hadn	-4587
▁shut	-4588
ushing	-4589
▁manip	-4590
▁saved	-4591
▁signs	-4592
▁sites	-4593
▁spoke	-4594
▁stood	-4595
▁deeper	-4596
▁frustr	-4597
▁appropr	-4598
▁dealing	-4599
▁designing	-4600
▁satellite	-4601
▁considered	-4602
▁alternative	-4603
min	-4604
That	-4605
fish	-4606
gged	-4607
rate	-4608
▁Bar	-4609
▁agg	-4610
▁lat	-4611
iency	-4612
▁bits	-4613
▁hack	-4614
▁init	-4615
▁pray	-4616
▁soph	-4617
▁layer	-4618
▁mosqu	-4619
▁stock	-4620
▁finish	-4621
▁micros	-4622
▁voices	-4623
▁Britain	-4624
▁opening	-4625
▁worried	-4626
▁engineer	-4627
▁universal	-4628
▁importance	-4629
ald	-4630
ogen	-4631
rete	-4632
vard	-4633
▁Rem	-4634
▁Sim	-4635
▁bee	-4636
▁god	-4637
▁lie	-4638
▁Amaz	-4639
▁gall	-4640
▁tall	-4641
▁vote	-4642
ension	-4643
▁camer	-4644
▁perce	-4645
▁recon	-4646
akistan	-4647
▁muscle	-4648
▁picked	-4649
▁sharks	-4650
▁vessel	-4651
▁battery	-4652
▁cutting	-4653
▁feelings	-4654
▁wondering	-4655
▁management	-4656
2.	-4657
eal	-4658
▁Je	-4659
zing	-4660
neath	-4661
▁hide	-4662
▁libr	-4663
▁recy	-4664
▁scen	-4665
▁soul	-4666
▁teeth	-4667
▁School	-4668
▁reform	-4669
▁calling	-4670
▁experts	-4671
▁sources	-4672
▁reaction	-4673
▁struggle	-4674
▁professor	-4675
▁connections	-4676
6,	-4677
ux	-4678
cipl	-4679
▁Swed	-4680
▁blow	-4681
▁chap	-4682
▁dots	-4683
▁ends	-4684
▁videos	-4685
▁chimpan	-4686
▁display	-4687
▁variety	-4688
▁expected	-4689
bble	-4690
▁Cam	-4691
▁nar	-4692
▁pal	-4693
▁hurt	-4694
▁shif	-4695
▁Anyway	-4696
▁Canada	-4697
▁fortun	-4698
▁replic	-4699
▁review	-4700
▁capture	-4701
▁keeping	-4702
▁nations	-4703
▁Pakistan	-4704
▁cultures	-4705
▁tomorrow	-4706
▁interface	-4707
▁independent	-4708
hi	-4709
mas	-4710
uff	-4711
cend	-4712
▁pip	-4713
umber	-4714
▁2000	-4715
▁Gree	-4716
▁desk	-4717
▁intr	-4718
▁pian	-4719
▁qual	-4720
osition	-4721
▁budget	-4722
▁safety	-4723
▁illustr	-4724
▁roughly	-4725
▁advanced	-4726
▁marriage	-4727
▁requires	-4728
▁valuable	-4729
▁President	-4730
▁entertain	-4731
▁underneath	-4732
▁entrepreneurs	-4733
ago	-4734
zed	-4735
gets	-4736
mber	-4737
otic	-4738
▁Last	-4739
▁lady	-4740
▁user	-4741
itness	-4742
▁broke	-4743
▁cards	-4744
▁estab	-4745
▁flies	-4746
▁ideal	-4747
▁prove	-4748
▁waves	-4749
▁status	-4750
▁trials	-4751
▁illness	-4752
▁analysis	-4753
▁carrying	-4754
▁producing	-4755
▁properties	-4756
▁specifically	-4757
▁CE	-4758
aurs	-4759
icip	-4760
life	-4761
▁Sat	-4762
▁gay	-4763
▁tox	-4764
lying	-4765
▁auth	-4766
▁evil	-4767
▁gift	-4768
▁kick	-4769
▁lies	-4770
▁fewer	-4771
▁illeg	-4772
▁solid	-4773
▁George	-4774
▁Street	-4775
▁define	-4776
▁houses	-4777
▁Nigeria	-4778
▁cartoon	-4779
▁dynamic	-4780
▁viruses	-4781
▁chemistry	-4782
▁expression	-4783
▁vulnerable	-4784
▁effectively	-4785
▁possibilities	-4786
3,	-4787
30	-4788
rs	-4789
lom	-4790
itan	-4791
▁crim	-4792
▁exec	-4793
▁gain	-4794
▁nest	-4795
▁shall	-4796
▁sugar	-4797
▁gender	-4798
▁member	-4799
▁player	-4800
▁Harvard	-4801
▁privile	-4802
▁consumer	-4803
▁convince	-4804
▁exchange	-4805
▁location	-4806
▁existence	-4807
▁interpret	-4808
▁organized	-4809
▁sophistic	-4810
▁construction	-4811
ym	-4812
new	-4813
▁bul	-4814
▁fal	-4815
▁bran	-4816
▁flex	-4817
▁grid	-4818
▁isol	-4819
acters	-4820
▁chart	-4821
▁sight	-4822
▁smile	-4823
▁facing	-4824
▁cameras	-4825
▁consist	-4826
▁extract	-4827
▁circumst	-4828
▁exercise	-4829
▁hydrogen	-4830
▁chemicals	-4831
▁mortality	-4832
▁characters	-4833
▁transition	-4834
▁45	-4835
mers	-4836
▁lic	-4837
▁snow	-4838
anging	-4839
lement	-4840
▁rates	-4841
▁shoot	-4842
ulating	-4843
▁Center	-4844
▁forced	-4845
▁height	-4846
▁contain	-4847
▁sending	-4848
▁generate	-4849
▁messages	-4850
▁thoughts	-4851
▁whenever	-4852
▁encourage	-4853
▁corruption	-4854
▁instrument	-4855
▁relatively	-4856
▁represents	-4857
▁situations	-4858
gn	-4859
▁Gh	-4860
down	-4861
▁Wik	-4862
▁mel	-4863
▁sla	-4864
iques	-4865
▁drag	-4866
▁pure	-4867
▁tons	-4868
▁wake	-4869
▁honor	-4870
▁poetry	-4871
▁reprodu	-4872
▁emerging	-4873
▁lifetime	-4874
▁behaviors	-4875
▁carefully	-4876
▁collection	-4877
▁restaurant	-4878
▁GP	-4879
▁Ma	-4880
▁Gal	-4881
▁Int	-4882
▁Mil	-4883
▁ten	-4884
▁poem	-4885
▁spin	-4886
▁bottle	-4887
▁length	-4888
▁prefer	-4889
▁winter	-4890
▁selling	-4891
▁victims	-4892
▁clinical	-4893
▁graduate	-4894
.'	-4895
Don	-4896
ael	-4897
igm	-4898
abet	-4899
cont	-4900
sing	-4901
▁Phil	-4902
▁YouT	-4903
▁acqu	-4904
▁maps	-4905
▁resc	-4906
▁ring	-4907
▁Could	-4908
▁kitch	-4909
▁minim	-4910
▁tumor	-4911
▁fossil	-4912
▁sphere	-4913
▁malaria	-4914
▁abstract	-4915
▁prepared	-4916
▁Institute	-4917
▁employees	-4918
▁convention	-4919
DP	-4920
ta	-4921
uel	-4922
▁99	-4923
atin	-4924
▁Jew	-4925
▁Min	-4926
▁que	-4927
▁spo	-4928
▁bill	-4929
▁inev	-4930
▁lawy	-4931
▁lect	-4932
▁liqu	-4933
▁ride	-4934
▁tank	-4935
porary	-4936
▁Frank	-4937
▁added	-4938
▁horse	-4939
▁analog	-4940
▁buying	-4941
▁credit	-4942
▁Charles	-4943
▁YouTube	-4944
▁depends	-4945
▁partner	-4946
▁rapidly	-4947
abilities	-4948
▁epidemic	-4949
▁trillion	-4950
▁disappear	-4951
▁emissions	-4952
▁interests	-4953
▁definitely	-4954
▁politicians	-4955
▁mathematical	-4956
can	-4957
irty	-4958
olds	-4959
pher	-4960
▁bow	-4961
▁uns	-4962
▁arts	-4963
▁cure	-4964
▁beach	-4965
▁reven	-4966
▁serve	-4967
▁steel	-4968
itarian	-4969
▁forgot	-4970
▁remain	-4971
▁encoura	-4972
▁primary	-4973
▁Congress	-4974
▁movements	-4975
▁healthcare	-4976
▁protection	-4977
1.	-4978
fit	-4979
log	-4980
▁II	-4981
Look	-4982
▁Atl	-4983
▁Pac	-4984
▁Tom	-4985
▁Tur	-4986
▁iPh	-4987
▁occup	-4988
▁risks	-4989
▁sympt	-4990
▁hypoth	-4991
chnology	-4992
▁autonom	-4993
▁promise	-4994
▁radical	-4995
▁pleasure	-4996
▁generally	-4997
▁introduced	-4998
▁profession	-4999
▁evolutionary	-5000
60	-5001
▁'9	-5002
bors	-5003
sour	-5004
what	-5005
etics	-5006
▁NASA	-5007
▁runs	-5008
▁unit	-5009
▁goods	-5010
▁metal	-5011
▁compar	-5012
▁conver	-5013
▁desire	-5014
▁factor	-5015
▁mirror	-5016
▁release	-5017
▁Francisco	-5018
▁introduce	-5019
▁newspaper	-5020
▁practical	-5021
▁radiation	-5022
▁discussion	-5023
▁psychology	-5024
iat	-5025
rog	-5026
aled	-5027
over	-5028
▁rub	-5029
erved	-5030
▁dish	-5031
▁plus	-5032
▁thin	-5033
▁claim	-5034
▁hyper	-5035
▁sides	-5036
▁medium	-5037
▁rocket	-5038
▁Anderson	-5039
▁affected	-5040
▁official	-5041
▁recorded	-5042
▁spectrum	-5043
▁invention	-5044
▁environments	-5045
alt	-5046
ingu	-5047
▁GDP	-5048
▁rom	-5049
▁san	-5050
aters	-5051
orous	-5052
▁input	-5053
▁skill	-5054
▁Russia	-5055
▁assign	-5056
▁bubble	-5057
▁former	-5058
▁organs	-5059
▁refuge	-5060
▁applied	-5061
▁dropped	-5062
▁gravity	-5063
▁singing	-5064
▁vehicles	-5065
▁dinosaurs	-5066
▁typically	-5067
▁techniques	-5068
lly	-5069
▁Bro	-5070
▁dip	-5071
▁ens	-5072
alled	-5073
icing	-5074
usual	-5075
▁glam	-5076
▁aging	-5077
▁ought	-5078
▁details	-5079
▁engaged	-5080
▁harvest	-5081
▁mistake	-5082
▁establish	-5083
▁molecular	-5084
▁mountains	-5085
▁algorithms	-5086
▁components	-5087
▁technological	-5088
bl	-5089
spe	-5090
olly	-5091
▁mer	-5092
▁ped	-5093
itals	-5094
point	-5095
▁clip	-5096
▁shad	-5097
▁wine	-5098
▁James	-5099
▁atoms	-5100
▁estim	-5101
▁staff	-5102
▁hoping	-5103
▁pulled	-5104
▁regard	-5105
▁sample	-5106
▁season	-5107
▁spring	-5108
▁worlds	-5109
▁centers	-5110
▁factors	-5111
▁however	-5112
▁kitchen	-5113
▁lessons	-5114
▁opinion	-5115
▁neighbors	-5116
▁perception	-5117
▁combination	-5118
bur	-5119
osh	-5120
uary	-5121
▁Ber	-5122
▁Yet	-5123
eline	-5124
enced	-5125
▁Coll	-5126
▁Mont	-5127
▁cast	-5128
▁mira	-5129
▁myst	-5130
ternal	-5131
urance	-5132
▁goals	-5133
▁initi	-5134
▁notes	-5135
▁theme	-5136
▁topic	-5137
▁aftern	-5138
▁senses	-5139
▁include	-5140
▁occurred	-5141
▁worldwide	-5142
▁efficiency	-5143
▁collaboration	-5144
oly	-5145
osis	-5146
▁adj	-5147
▁rig	-5148
riend	-5149
▁Bank	-5150
▁Port	-5151
▁bare	-5152
▁biom	-5153
▁decl	-5154
▁hits	-5155
▁impl	-5156
▁reci	-5157
▁vent	-5158
olving	-5159
▁3,000	-5160
▁Since	-5161
▁Steve	-5162
▁clock	-5163
▁dedic	-5164
▁keeps	-5165
▁pitch	-5166
▁sweet	-5167
▁Amazon	-5168
▁acting	-5169
▁assist	-5170
▁blocks	-5171
▁cortex	-5172
▁driven	-5173
▁garden	-5174
▁liquid	-5175
▁accompl	-5176
▁chicken	-5177
▁courage	-5178
▁illegal	-5179
▁reached	-5180
▁mistakes	-5181
▁rational	-5182
▁relevant	-5183
▁ultimate	-5184
▁activities	-5185
▁foundation	-5186
▁sophisticated	-5187
bre	-5188
ham	-5189
ino	-5190
aren	-5191
asks	-5192
elly	-5193
uits	-5194
umps	-5195
▁Rob	-5196
▁cha	-5197
abled	-5198
itual	-5199
usive	-5200
▁cere	-5201
▁eggs	-5202
▁Other	-5203
▁prime	-5204
▁refer	-5205
▁satis	-5206
▁teles	-5207
▁ingred	-5208
▁studio	-5209
▁thanks	-5210
▁Michael	-5211
▁feature	-5212
▁figures	-5213
▁operate	-5214
▁quantum	-5215
▁unusual	-5216
▁birthday	-5217
▁features	-5218
▁memories	-5219
▁naturally	-5220
▁traveling	-5221
80	-5222
orb	-5223
▁eld	-5224
vable	-5225
arrass	-5226
▁false	-5227
▁piano	-5228
▁pregn	-5229
eration	-5230
▁burning	-5231
▁cooking	-5232
▁musical	-5233
▁astronom	-5234
▁terrorism	-5235
▁destruction	-5236
▁photographs	-5237
Do	-5238
za	-5239
esh	-5240
xim	-5241
ifth	-5242
▁Art	-5243
▁Lad	-5244
▁mak	-5245
gment	-5246
nding	-5247
▁Also	-5248
▁Four	-5249
▁load	-5250
▁sees	-5251
▁wars	-5252
▁wash	-5253
▁storm	-5254
▁Nobody	-5255
▁iPhone	-5256
▁solved	-5257
▁Pacific	-5258
▁actions	-5259
▁silence	-5260
▁afternoon	-5261
▁marketing	-5262
uls	-5263
cred	-5264
▁194	-5265
▁Dem	-5266
▁Los	-5267
▁Alex	-5268
▁Ange	-5269
▁club	-5270
▁fert	-5271
▁silk	-5272
▁trig	-5273
▁domin	-5274
▁horiz	-5275
▁Valley	-5276
▁drives	-5277
▁fisher	-5278
▁formed	-5279
▁scared	-5280
▁string	-5281
volution	-5282
▁amounts	-5283
▁records	-5284
▁suppose	-5285
▁witness	-5286
▁proteins	-5287
▁ancestors	-5288
▁embarrass	-5289
▁pollution	-5290
▁meaningful	-5291
▁personally	-5292
▁participate	-5293
▁fundamentally	-5294
▁manufacturing	-5295
In	-5296
ait	-5297
▁75	-5298
abol	-5299
akers	-5300
ended	-5301
ework	-5302
icago	-5303
scale	-5304
▁Adam	-5305
▁Mart	-5306
▁cave	-5307
▁dogs	-5308
▁joke	-5309
▁pair	-5310
▁State	-5311
▁tests	-5312
▁France	-5313
▁contem	-5314
▁survey	-5315
▁Chicago	-5316
▁Perhaps	-5317
▁Project	-5318
▁extinct	-5319
▁forests	-5320
▁nowhere	-5321
▁visible	-5322
▁confront	-5323
▁dramatic	-5324
▁awareness	-5325
▁framework	-5326
▁mechanism	-5327
▁percentage	-5328
▁processing	-5329
▁presentation	-5330
▁circumstances	-5331
▁psychological	-5332
▁transportation	-5333
alu	-5334
ula	-5335
ums	-5336
▁Qu	-5337
xide	-5338
▁Ant	-5339
▁Bab	-5340
▁Mic	-5341
▁Unf	-5342
lines	-5343
retch	-5344
▁Stan	-5345
▁diss	-5346
▁fake	-5347
▁hook	-5348
▁remo	-5349
▁coord	-5350
▁doubt	-5351
▁films	-5352
▁frame	-5353
▁resil	-5354
▁roads	-5355
▁Muslim	-5356
▁clever	-5357
▁laptop	-5358
▁perman	-5359
▁ritual	-5360
▁empower	-5361
▁outcome	-5362
▁tonight	-5363
▁apparent	-5364
▁required	-5365
▁sunlight	-5366
▁computing	-5367
▁increased	-5368
▁operation	-5369
▁literature	-5370
▁conservation	-5371
8.	-5372
uh	-5373
yn	-5374
rat	-5375
aser	-5376
oons	-5377
▁nav	-5378
oston	-5379
▁flew	-5380
▁hung	-5381
▁hunt	-5382
▁orch	-5383
▁pump	-5384
▁tape	-5385
▁vert	-5386
▁Women	-5387
▁score	-5388
▁shame	-5389
inction	-5390
▁church	-5391
▁option	-5392
▁severe	-5393
▁clothes	-5394
▁command	-5395
▁diction	-5396
▁largely	-5397
▁concrete	-5398
▁creature	-5399
▁internal	-5400
▁providing	-5401
▁conclusion	-5402
▁democratic	-5403
▁productive	-5404
▁applications	-5405
▁Unfortunately	-5406
▁sustainability	-5407
itz	-5408
vis	-5409
▁Ah	-5410
▁ru	-5411
adic	-5412
foot	-5413
▁Dep	-5414
▁asp	-5415
iture	-5416
▁lens	-5417
▁obst	-5418
▁suit	-5419
angers	-5420
estyle	-5421
illing	-5422
▁5,000	-5423
▁curve	-5424
▁taste	-5425
▁thick	-5426
▁advice	-5427
▁clouds	-5428
▁critic	-5429
▁whales	-5430
aneously	-5431
cription	-5432
▁defined	-5433
▁falling	-5434
▁therapy	-5435
▁administ	-5436
▁existing	-5437
▁infected	-5438
▁presence	-5439
▁released	-5440
▁tracking	-5441
▁collected	-5442
▁hospitals	-5443
▁physically	-5444
▁appropriate	-5445
▁inspiration	-5446
ls	-5447
ita	-5448
top	-5449
▁Fe	-5450
Okay	-5451
whel	-5452
▁Day	-5453
▁Jul	-5454
▁Mon	-5455
▁phr	-5456
▁pin	-5457
▁toy	-5458
itors	-5459
▁jail	-5460
▁loud	-5461
▁ment	-5462
▁subs	-5463
making	-5464
owered	-5465
▁Union	-5466
▁lying	-5467
▁ridic	-5468
▁upper	-5469
▁Boston	-5470
▁advent	-5471
▁flower	-5472
▁reject	-5473
▁closely	-5474
▁discipl	-5475
▁electro	-5476
▁empathy	-5477
▁fingers	-5478
▁flowers	-5479
▁quarter	-5480
▁accurate	-5481
▁villages	-5482
▁gentlemen	-5483
▁protected	-5484
▁surrounded	-5485
▁explanation	-5486
▁potentially	-5487
ss	-5488
500	-5489
que	-5490
▁Sa	-5491
keys	-5492
tech	-5493
▁Air	-5494
▁GPS	-5495
▁Law	-5496
▁mad	-5497
rated	-5498
▁Come	-5499
▁Five	-5500
▁ears	-5501
▁elev	-5502
▁furn	-5503
▁zoom	-5504
iosity	-5505
isters	-5506
▁Wikip	-5507
▁chose	-5508
▁inequ	-5509
▁split	-5510
▁boring	-5511
▁deaths	-5512
▁papers	-5513
▁circuit	-5514
▁decline	-5515
▁fishing	-5516
▁reverse	-5517
▁unknown	-5518
▁combined	-5519
▁contrast	-5520
▁horrible	-5521
▁subjects	-5522
▁wireless	-5523
▁narrative	-5524
▁economists	-5525
▁electronic	-5526
▁innovative	-5527
uce	-5528
ests	-5529
▁bes	-5530
allel	-5531
esome	-5532
▁bicy	-5533
▁diam	-5534
▁disg	-5535
▁While	-5536
▁hotel	-5537
▁multi	-5538
▁recom	-5539
▁renew	-5540
▁songs	-5541
▁trend	-5542
▁uncom	-5543
▁Robert	-5544
▁pollen	-5545
▁comment	-5546
▁intense	-5547
▁allowing	-5548
▁collapse	-5549
▁constant	-5550
▁overwhel	-5551
▁somewhat	-5552
▁stronger	-5553
▁Something	-5554
▁explained	-5555
▁functions	-5556
▁sensitive	-5557
▁underwater	-5558
Is	-5559
ih	-5560
fin	-5561
anta	-5562
cers	-5563
iggs	-5564
tail	-5565
▁Eth	-5566
▁Pol	-5567
▁van	-5568
stand	-5569
▁Only	-5570
▁gras	-5571
▁item	-5572
▁milk	-5573
▁sets	-5574
▁Latin	-5575
▁Paris	-5576
▁falls	-5577
▁humor	-5578
▁stone	-5579
▁corres	-5580
▁divide	-5581
▁monkey	-5582
inations	-5583
▁advance	-5584
▁evening	-5585
▁election	-5586
▁spiritual	-5587
▁controlled	-5588
▁laboratory	-5589
▁challenging	-5590
▁instruments	-5591
20	-5592
au	-5593
cal	-5594
ola	-5595
▁2.	-5596
▁La	-5597
berg	-5598
▁600	-5599
▁sen	-5600
night	-5601
▁bath	-5602
▁bike	-5603
▁busy	-5604
▁mere	-5605
▁nurs	-5606
▁scar	-5607
herent	-5608
stream	-5609
▁Higgs	-5610
▁antib	-5611
▁bones	-5612
▁depth	-5613
▁error	-5614
▁frank	-5615
▁logic	-5616
▁prize	-5617
▁Museum	-5618
▁stayed	-5619
▁volume	-5620
▁Science	-5621
▁channel	-5622
▁combine	-5623
▁remains	-5624
▁measured	-5625
▁provided	-5626
▁Basically	-5627
▁Christmas	-5628
▁Wikipedia	-5629
▁authority	-5630
▁exploration	-5631
5.	-5632
Os	-5633
aks	-5634
ato	-5635
nda	-5636
▁wel	-5637
clear	-5638
icide	-5639
iters	-5640
▁Talk	-5641
▁mile	-5642
▁pill	-5643
▁vibr	-5644
athers	-5645
▁admit	-5646
▁whist	-5647
▁Please	-5648
▁autism	-5649
▁button	-5650
▁deploy	-5651
▁desper	-5652
▁inject	-5653
▁profit	-5654
▁remove	-5655
▁mosquit	-5656
▁transpl	-5657
▁vaccine	-5658
▁Republic	-5659
▁instruct	-5660
▁paradigm	-5661
▁wondered	-5662
▁reference	-5663
▁technique	-5664
▁telephone	-5665
▁transformed	-5666
mm	-5667
ota	-5668
vey	-5669
▁py	-5670
hour	-5671
being	-5672
gging	-5673
▁Thom	-5674
▁clus	-5675
▁horm	-5676
▁poly	-5677
▁tack	-5678
ateful	-5679
▁breed	-5680
▁dress	-5681
▁expon	-5682
▁plate	-5683
▁rooms	-5684
▁unexp	-5685
▁encoun	-5686
▁handle	-5687
▁relate	-5688
ographer	-5689
▁options	-5690
▁regions	-5691
▁continued	-5692
▁statement	-5693
▁mathematic	-5694
ban	-5695
mal	-5696
nel	-5697
▁Em	-5698
Yeah	-5699
ille	-5700
▁Sam	-5701
▁anx	-5702
▁cock	-5703
▁gest	-5704
▁icon	-5705
▁outc	-5706
ounced	-5707
▁Found	-5708
▁memor	-5709
▁shell	-5710
ptember	-5711
▁border	-5712
▁explos	-5713
▁spider	-5714
▁suffer	-5715
onscious	-5716
▁classes	-5717
▁samples	-5718
connected	-5719
▁director	-5720
▁footprint	-5721
▁passionate	-5722
▁unexpected	-5723
▁implications	-5724
▁conversations	-5725
70	-5726
My	-5727
van	-5728
▁23	-5729
east	-5730
lymp	-5731
▁Mal	-5732
acing	-5733
▁Gulf	-5734
▁army	-5735
▁flag	-5736
▁mush	-5737
▁nose	-5738
▁pool	-5739
▁About	-5740
▁Count	-5741
▁Mount	-5742
▁Woman	-5743
▁bombs	-5744
▁knock	-5745
▁label	-5746
▁navig	-5747
▁weigh	-5748
▁Health	-5749
▁attend	-5750
▁diplom	-5751
▁enable	-5752
▁joined	-5753
▁linked	-5754
▁script	-5755
▁stands	-5756
▁attacks	-5757
▁embrace	-5758
▁equally	-5759
▁offered	-5760
▁overall	-5761
▁robotic	-5762
▁drinking	-5763
▁microbes	-5764
▁organism	-5765
▁swimming	-5766
▁September	-5767
▁arguments	-5768
▁centuries	-5769
▁appreciate	-5770
▁confidence	-5771
agn	-5772
box	-5773
cut	-5774
den	-5775
bage	-5776
nded	-5777
onym	-5778
▁Che	-5779
▁Jan	-5780
▁ack	-5781
▁dot	-5782
hythm	-5783
icted	-5784
sters	-5785
▁elim	-5786
▁root	-5787
▁Ghana	-5788
▁anger	-5789
▁angry	-5790
▁boxes	-5791
▁cents	-5792
▁datab	-5793
▁fright	-5794
▁interf	-5795
▁toilet	-5796
▁sensors	-5797
▁surgeon	-5798
▁distinct	-5799
▁penguins	-5800
▁wherever	-5801
▁corporate	-5802
ata	-5803
hol	-5804
etch	-5805
gent	-5806
iled	-5807
rors	-5808
▁250	-5809
▁hur	-5810
▁irr	-5811
▁tea	-5812
eness	-5813
▁barr	-5814
▁tube	-5815
▁Korea	-5816
▁Obama	-5817
▁Olymp	-5818
▁honey	-5819
▁style	-5820
▁agreed	-5821
▁chocol	-5822
▁narrow	-5823
▁anticip	-5824
▁careful	-5825
▁carried	-5826
▁dancing	-5827
▁frankly	-5828
▁monkeys	-5829
▁windows	-5830
▁younger	-5831
▁infinite	-5832
▁occasion	-5833
▁transfer	-5834
▁identical	-5835
▁implement	-5836
▁spreading	-5837
▁standards	-5838
▁behavioral	-5839
▁directions	-5840
▁automatically	-5841
dr	-5842
och	-5843
▁["	-5844
amin	-5845
ctic	-5846
▁Cap	-5847
▁Haw	-5848
uting	-5849
▁Gold	-5850
▁Mark	-5851
▁acts	-5852
▁biod	-5853
▁cash	-5854
▁Micro	-5855
▁cyber	-5856
▁decre	-5857
▁fixed	-5858
▁ignor	-5859
▁plans	-5860
▁assume	-5861
▁storyt	-5862
▁feeding	-5863
▁funding	-5864
▁poorest	-5865
▁violent	-5866
▁Remember	-5867
▁domestic	-5868
▁obsessed	-5869
▁overcome	-5870
▁symptoms	-5871
▁lifestyle	-5872
▁selection	-5873
▁mechanical	-5874
▁application	-5875
▁represented	-5876
ias	-5877
sum	-5878
▁Hy	-5879
▁NG	-5880
aint	-5881
erge	-5882
lock	-5883
ogue	-5884
▁Leg	-5885
▁gut	-5886
▁sem	-5887
▁tab	-5888
arant	-5889
belie	-5890
iform	-5891
itory	-5892
ounce	-5893
▁atom	-5894
▁dign	-5895
▁tent	-5896
imeter	-5897
profit	-5898
▁Congo	-5899
▁Inter	-5900
▁dense	-5901
▁enemy	-5902
▁faced	-5903
▁guide	-5904
▁recyc	-5905
▁scary	-5906
▁tight	-5907
▁title	-5908
▁Sweden	-5909
▁pocket	-5910
▁puzzle	-5911
▁tested	-5912
▁Finally	-5913
▁earthqu	-5914
▁concepts	-5915
▁download	-5916
▁elephant	-5917
▁equation	-5918
▁grateful	-5919
▁illusion	-5920
▁suggests	-5921
▁constrain	-5922
▁consumers	-5923
▁recording	-5924
▁controlling	-5925
▁cooperation	-5926
PA	-5927
wr	-5928
bal	-5929
gly	-5930
imp	-5931
iop	-5932
isl	-5933
appy	-5934
look	-5935
▁10,	-5936
▁June	-5937
▁zone	-5938
▁dozen	-5939
▁polio	-5940
▁pyram	-5941
▁smoke	-5942
▁stack	-5943
▁colony	-5944
▁extent	-5945
▁fabric	-5946
▁mainly	-5947
▁owners	-5948
▁placed	-5949
▁slides	-5950
▁struck	-5951
▁breathe	-5952
▁library	-5953
▁painful	-5954
▁proport	-5955
▁pushing	-5956
▁Everyone	-5957
▁policies	-5958
▁breathing	-5959
▁determine	-5960
▁increases	-5961
▁architects	-5962
▁exhibition	-5963
▁greenhouse	-5964
▁distributed	-5965
▁recognition	-5966
▁conventional	-5967
▁entertainment	-5968
4.	-5969
▁AB	-5970
▁Rw	-5971
aret	-5972
keep	-5973
otes	-5974
▁Med	-5975
▁vag	-5976
▁1950	-5977
▁cosm	-5978
▁golf	-5979
▁gray	-5980
▁pour	-5981
▁till	-5982
astern	-5983
▁Apple	-5984
▁crack	-5985
▁flood	-5986
▁grows	-5987
▁pharm	-5988
▁phase	-5989
▁Thomas	-5990
▁acknow	-5991
▁arrest	-5992
▁geomet	-5993
▁latest	-5994
▁limits	-5995
▁myster	-5996
▁obstac	-5997
▁prices	-5998
▁traged	-5999
etically	-6000
▁Nothing	-6001
▁causing	-6002
▁conserv	-6003
▁divided	-6004
▁metabol	-6005
▁parking	-6006
▁brothers	-6007
▁instinct	-6008
▁maintain	-6009
▁outcomes	-6010
▁component	-6011
▁disorders	-6012
▁exploring	-6013
▁household	-6014
▁presented	-6015
▁prototype	-6016
▁translate	-6017
▁resistance	-6018
▁educational	-6019
▁dramatically	-6020
sem	-6021
ups	-6022
hips	-6023
illy	-6024
ocal	-6025
rous	-6026
▁Cop	-6027
▁Sil	-6028
▁ben	-6029
▁sed	-6030
ingly	-6031
▁cord	-6032
▁loop	-6033
arency	-6034
▁Haiti	-6035
▁Nobel	-6036
▁colum	-6037
▁polar	-6038
▁tasks	-6039
▁tries	-6040
▁Before	-6041
▁astero	-6042
▁embedd	-6043
▁worker	-6044
ollywood	-6045
▁borders	-6046
▁collaps	-6047
▁concert	-6048
▁privacy	-6049
▁solving	-6050
▁engaging	-6051
▁floating	-6052
▁celebrate	-6053
▁measuring	-6054
▁Foundation	-6055
▁entrepreneur	-6056
But	-6057
tes	-6058
▁DH	-6059
▁Ke	-6060
soft	-6061
ubes	-6062
▁Get	-6063
▁Jer	-6064
▁Nat	-6065
▁fan	-6066
▁raw	-6067
cence	-6068
iance	-6069
▁Jack	-6070
▁firm	-6071
▁neut	-6072
▁ours	-6073
▁explo	-6074
▁remem	-6075
▁sales	-6076
▁yield	-6077
iveness	-6078
▁Number	-6079
▁filter	-6080
▁hunger	-6081
▁plenty	-6082
▁Angeles	-6083
▁habitat	-6084
▁license	-6085
▁vessels	-6086
▁appeared	-6087
▁mushroom	-6088
▁parallel	-6089
▁particle	-6090
▁printing	-6091
▁romantic	-6092
ologically	-6093
▁furniture	-6094
▁paintings	-6095
▁uncertain	-6096
▁Revolution	-6097
▁philosophy	-6098
▁interactive	-6099
▁interactions	-6100
ault	-6101
heim	-6102
uous	-6103
well	-6104
▁Hom	-6105
▁dio	-6106
▁ther	-6107
apping	-6108
▁House	-6109
▁accum	-6110
▁teams	-6111
unclear	-6112
▁candid	-6113
▁lovely	-6114
▁proced	-6115
▁spoken	-6116
▁classic	-6117
▁density	-6118
▁existed	-6119
▁fiction	-6120
▁lecture	-6121
▁pretend	-6122
▁receive	-6123
▁savings	-6124
▁stretch	-6125
▁achieved	-6126
▁involves	-6127
▁economies	-6128
▁insurance	-6129
▁practices	-6130
▁precisely	-6131
▁commitment	-6132
▁connecting	-6133
▁fascinated	-6134
▁performing	-6135
▁interacting	-6136
7.	-6137
azz	-6138
col	-6139
oca	-6140
ris	-6141
▁BG	-6142
▁Ug	-6143
ello	-6144
gers	-6145
lete	-6146
oned	-6147
rary	-6148
rets	-6149
udes	-6150
zees	-6151
▁Tor	-6152
aving	-6153
iders	-6154
▁Part	-6155
▁axis	-6156
▁corn	-6157
▁grab	-6158
▁prem	-6159
▁stri	-6160
▁stro	-6161
called	-6162
father	-6163
source	-6164
▁aston	-6165
▁judge	-6166
▁whale	-6167
raction	-6168
▁Island	-6169
▁hearts	-6170
▁immune	-6171
▁ladies	-6172
▁phrase	-6173
▁repair	-6174
▁scream	-6175
▁secure	-6176
▁surely	-6177
▁thrown	-6178
▁Central	-6179
▁Islamic	-6180
▁disgust	-6181
▁housing	-6182
▁opposed	-6183
▁Africans	-6184
▁laughing	-6185
▁properly	-6186
▁traveled	-6187
▁destroyed	-6188
▁sculpture	-6189
▁department	-6190
vas	-6191
exas	-6192
osen	-6193
quar	-6194
wich	-6195
▁Bob	-6196
▁Jim	-6197
▁Mad	-6198
▁gla	-6199
▁gon	-6200
▁mim	-6201
▁tip	-6202
esity	-6203
pring	-6204
▁Bush	-6205
▁bubb	-6206
▁excl	-6207
▁lets	-6208
▁pace	-6209
▁ugly	-6210
▁Democ	-6211
▁Grand	-6212
▁globe	-6213
▁likes	-6214
▁toxic	-6215
▁wings	-6216
▁Ethiop	-6217
▁agenda	-6218
▁behave	-6219
▁clinic	-6220
▁eradic	-6221
▁excell	-6222
▁legisl	-6223
▁marine	-6224
▁repeat	-6225
▁signed	-6226
▁writer	-6227
▁appears	-6228
▁awesome	-6229
▁balloon	-6230
▁ceiling	-6231
▁dioxide	-6232
▁entered	-6233
▁neither	-6234
▁raising	-6235
▁academic	-6236
▁attached	-6237
▁breaking	-6238
▁embedded	-6239
▁recovery	-6240
▁Microsoft	-6241
▁chocolate	-6242
▁recommend	-6243
▁controvers	-6244
▁rainforest	-6245
▁disappeared	-6246
▁productivity	-6247
AR	-6248
anz	-6249
rey	-6250
rade	-6251
thal	-6252
▁Boy	-6253
▁Pat	-6254
▁tag	-6255
earch	-6256
eters	-6257
inals	-6258
power	-6259
▁Budd	-6260
▁dict	-6261
▁emph	-6262
▁mold	-6263
▁Texas	-6264
▁orbit	-6265
▁persu	-6266
▁stere	-6267
▁toler	-6268
▁usual	-6269
▁walks	-6270
forward	-6271
related	-6272
through	-6273
▁conven	-6274
▁frozen	-6275
▁finance	-6276
▁guarant	-6277
▁monitor	-6278
▁orchest	-6279
▁whereas	-6280
▁disorder	-6281
▁dolphins	-6282
▁estimate	-6283
▁imagined	-6284
▁magnetic	-6285
▁meetings	-6286
▁reaching	-6287
▁shooting	-6288
▁shoulder	-6289
▁animation	-6290
▁curiosity	-6291
▁depending	-6292
▁permanent	-6293
▁reduction	-6294
▁inequality	-6295
▁recognized	-6296
▁manufacture	-6297
▁personality	-6298
▁populations	-6299
Be	-6300
ua	-6301
des	-6302
han	-6303
ida	-6304
org	-6305
pox	-6306
ras	-6307
cean	-6308
ener	-6309
▁Eve	-6310
▁Pre	-6311
▁Sov	-6312
▁bat	-6313
▁gig	-6314
▁shr	-6315
▁tri	-6316
leton	-6317
level	-6318
state	-6319
▁Cons	-6320
▁plot	-6321
phones	-6322
▁Human	-6323
▁brown	-6324
▁delic	-6325
▁flash	-6326
▁maxim	-6327
▁purch	-6328
▁shake	-6329
▁units	-6330
uration	-6331
▁heroes	-6332
▁ignore	-6333
▁legacy	-6334
▁sports	-6335
▁Muslims	-6336
▁authent	-6337
▁dignity	-6338
▁distant	-6339
▁suspect	-6340
▁captured	-6341
▁treating	-6342
▁committed	-6343
▁conflicts	-6344
▁encounter	-6345
▁expectations	-6346
St	-6347
ari	-6348
gic	-6349
nic	-6350
oir	-6351
doll	-6352
fall	-6353
tery	-6354
utch	-6355
walk	-6356
▁Dis	-6357
▁Ice	-6358
▁Lar	-6359
▁Spe	-6360
▁Ten	-6361
▁lin	-6362
▁pul	-6363
archy	-6364
under	-6365
▁beer	-6366
▁lung	-6367
▁pink	-6368
orking	-6369
usions	-6370
▁White	-6371
▁alien	-6372
▁angle	-6373
▁chest	-6374
▁liver	-6375
▁plays	-6376
▁sheep	-6377
erences	-6378
ishment	-6379
▁Really	-6380
▁adjust	-6381
▁chosen	-6382
▁crying	-6383
▁escape	-6384
▁facial	-6385
▁patent	-6386
▁portra	-6387
▁rising	-6388
▁scales	-6389
▁talent	-6390
▁weapon	-6391
▁charity	-6392
▁designs	-6393
▁spectac	-6394
▁Stanford	-6395
▁stations	-6396
▁vertical	-6397
▁backwards	-6398
▁dedicated	-6399
▁governance	-6400
▁incentives	-6401
▁microscope	-6402
▁motivation	-6403
▁advertising	-6404
ek	-6405
arp	-6406
▁Hi	-6407
▁Op	-6408
Talk	-6409
▁Del	-6410
▁Jes	-6411
▁ate	-6412
▁bon	-6413
▁cup	-6414
▁der	-6415
▁tro	-6416
agger	-6417
andem	-6418
iated	-6419
while	-6420
▁Comm	-6421
▁Sing	-6422
▁flip	-6423
▁rush	-6424
▁sacr	-6425
Americ	-6426
yright	-6427
▁abuse	-6428
▁adopt	-6429
▁aside	-6430
▁males	-6431
▁meter	-6432
▁paras	-6433
▁reput	-6434
▁seeds	-6435
▁skull	-6436
anthrop	-6437
▁20,000	-6438
▁50,000	-6439
▁Uganda	-6440
▁expans	-6441
▁neuron	-6442
▁rating	-6443
▁scenar	-6444
▁January	-6445
▁aspects	-6446
▁mammals	-6447
▁obesity	-6448
▁section	-6449
▁suicide	-6450
▁touched	-6451
▁wanting	-6452
▁aircraft	-6453
▁darkness	-6454
▁organize	-6455
▁customers	-6456
▁privilege	-6457
▁simplicity	-6458
▁strategies	-6459
▁innovations	-6460
▁communications	-6461
3.	-6462
ka	-6463
cel	-6464
▁Ox	-6465
anny	-6466
ardo	-6467
iety	-6468
▁aim	-6469
▁nit	-6470
▁obl	-6471
▁wet	-6472
angle	-6473
quare	-6474
▁Stud	-6475
▁boom	-6476
▁limb	-6477
abetes	-6478
▁aband	-6479
▁drove	-6480
▁rocks	-6481
▁tears	-6482
▁actors	-6483
▁devast	-6484
▁hardly	-6485
▁missed	-6486
▁trends	-6487
▁TEDTalk	-6488
▁amongst	-6489
▁initial	-6490
▁instant	-6491
▁letting	-6492
▁muscles	-6493
▁rebuild	-6494
▁scratch	-6495
▁northern	-6496
▁produces	-6497
▁symmetry	-6498
▁colleague	-6499
▁continues	-6500
▁intention	-6501
▁functional	-6502
▁transparent	-6503
▁transparency	-6504
6.	-6505
edy	-6506
hib	-6507
nov	-6508
war	-6509
▁22	-6510
▁27	-6511
▁Sl	-6512
pass	-6513
▁enh	-6514
▁hat	-6515
▁jun	-6516
ckets	-6517
class	-6518
oster	-6519
▁Jeff	-6520
▁boss	-6521
▁cute	-6522
▁hire	-6523
▁rely	-6524
lessly	-6525
▁Super	-6526
▁abund	-6527
▁evalu	-6528
▁finds	-6529
▁imper	-6530
▁route	-6531
▁suppl	-6532
astroph	-6533
▁Palest	-6534
▁absorb	-6535
▁assemb	-6536
▁defend	-6537
▁heaven	-6538
▁hungry	-6539
▁oldest	-6540
▁orange	-6541
▁Nations	-6542
▁airport	-6543
▁bicycle	-6544
▁cheaper	-6545
▁mystery	-6546
▁unbelie	-6547
▁hardware	-6548
▁laughter	-6549
▁minister	-6550
▁surfaces	-6551
▁emergency	-6552
▁generated	-6553
▁virtually	-6554
▁collecting	-6555
▁historical	-6556
▁International	-6557
bi	-6558
aws	-6559
iday	-6560
ideo	-6561
obal	-6562
▁Bon	-6563
▁Fin	-6564
▁Les	-6565
▁Vir	-6566
▁ath	-6567
▁beg	-6568
▁lob	-6569
▁meg	-6570
▁unp	-6571
▁wip	-6572
aming	-6573
going	-6574
iment	-6575
orter	-6576
think	-6577
▁1990	-6578
▁Girl	-6579
▁Next	-6580
▁cens	-6581
▁choo	-6582
▁dump	-6583
▁fulf	-6584
▁lock	-6585
▁pref	-6586
▁quad	-6587
▁susp	-6588
ietnam	-6589
▁Bible	-6590
▁Space	-6591
▁Voice	-6592
▁crops	-6593
▁laser	-6594
▁links	-6595
▁utter	-6596
▁vital	-6597
▁Indeed	-6598
▁attrib	-6599
▁borrow	-6600
▁intent	-6601
▁retire	-6602
▁satisf	-6603
▁concern	-6604
▁delight	-6605
▁diverse	-6606
▁efforts	-6607
▁inspire	-6608
▁methods	-6609
▁speaker	-6610
▁football	-6611
▁elsewhere	-6612
▁musicians	-6613
▁searching	-6614
▁apparently	-6615
▁boundaries	-6616
▁engagement	-6617
▁optimistic	-6618
▁resolution	-6619
▁transplant	-6620
▁chimpanzees	-6621
asy	-6622
nes	-6623
rol	-6624
▁BF	-6625
▁id	-6626
icop	-6627
irds	-6628
▁Fre	-6629
▁Sea	-6630
▁Tal	-6631
▁cab	-6632
▁fib	-6633
There	-6634
inder	-6635
▁Step	-6636
▁clim	-6637
▁dust	-6638
▁infl	-6639
▁nets	-6640
▁seek	-6641
dollar	-6642
struct	-6643
▁Black	-6644
▁Never	-6645
▁conce	-6646
▁diver	-6647
▁elder	-6648
▁fifth	-6649
▁fluid	-6650
▁genoc	-6651
▁pilot	-6652
▁reefs	-6653
▁schol	-6654
▁stops	-6655
▁traum	-6656
▁yours	-6657
century	-6658
▁emphas	-6659
▁fertil	-6660
▁genius	-6661
▁margin	-6662
▁poison	-6663
▁stable	-6664
children	-6665
▁circles	-6666
▁exposed	-6667
▁herself	-6668
▁origami	-6669
▁pointed	-6670
▁accepted	-6671
▁criminal	-6672
▁dynamics	-6673
▁equality	-6674
▁lighting	-6675
▁pregnant	-6676
▁provides	-6677
▁sandwich	-6678
▁apartment	-6679
▁accessible	-6680
▁afterwards	-6681
▁capitalism	-6682
▁catastroph	-6683
▁contribute	-6684
▁earthquake	-6685
▁universities	-6686
Let	-6687
omb	-6688
ione	-6689
▁Net	-6690
▁unh	-6691
▁Mary	-6692
▁glad	-6693
▁pile	-6694
▁seats	-6695
▁upset	-6696
illance	-6697
▁adding	-6698
▁barely	-6699
▁farmer	-6700
▁locked	-6701
▁output	-6702
▁paraly	-6703
▁rescue	-6704
▁smooth	-6705
▁Eastern	-6706
▁Vietnam	-6707
▁beliefs	-6708
▁pyramid	-6709
▁removed	-6710
▁tragedy	-6711
▁traject	-6712
▁diabetes	-6713
▁dominant	-6714
▁strangers	-6715
▁variation	-6716
▁journalist	-6717
uk	-6718
ams	-6719
bra	-6720
def	-6721
ixt	-6722
oor	-6723
ura	-6724
▁US	-6725
case	-6726
hatt	-6727
ocin	-6728
oded	-6729
osal	-6730
oust	-6731
▁Pan	-6732
▁ink	-6733
amine	-6734
▁1960	-6735
▁Arch	-6736
▁Narr	-6737
▁bias	-6738
▁east	-6739
▁lift	-6740
▁mice	-6741
▁peer	-6742
▁wing	-6743
hattan	-6744
othing	-6745
▁Child	-6746
▁blank	-6747
▁champ	-6748
▁dirty	-6749
▁fruit	-6750
▁gonna	-6751
▁manif	-6752
▁spots	-6753
▁thumb	-6754
▁tired	-6755
▁views	-6756
▁youth	-6757
▁Rwanda	-6758
▁commod	-6759
▁emerge	-6760
▁evolve	-6761
▁origin	-6762
▁powers	-6763
▁tribes	-6764
▁diagram	-6765
▁essence	-6766
▁granted	-6767
▁globally	-6768
▁includes	-6769
▁smallpox	-6770
▁textbook	-6771
▁Hollywood	-6772
▁Manhattan	-6773
▁calculate	-6774
▁depressed	-6775
▁dimension	-6776
▁intuitive	-6777
▁separated	-6778
▁uncomfort	-6779
▁affordable	-6780
▁capability	-6781
▁consequence	-6782
▁electronics	-6783
-1	-6784
9.	-6785
rid	-6786
▁na	-6787
ding	-6788
rons	-6789
west	-6790
▁Hey	-6791
▁Mac	-6792
▁Ven	-6793
▁aer	-6794
▁hol	-6795
▁wid	-6796
Where	-6797
▁1980	-6798
▁Flor	-6799
▁Gand	-6800
▁Pole	-6801
▁ages	-6802
▁hier	-6803
▁knee	-6804
▁leap	-6805
▁mate	-6806
▁soap	-6807
▁toys	-6808
arents	-6809
▁Cambr	-6810
▁Video	-6811
▁aesth	-6812
▁chief	-6813
▁drill	-6814
▁jelly	-6815
▁realm	-6816
igation	-6817
itution	-6818
▁Jewish	-6819
▁Soviet	-6820
▁pandem	-6821
▁briefly	-6822
▁chapter	-6823
▁disrupt	-6824
▁passing	-6825
▁visited	-6826
▁Atlantic	-6827
▁speakers	-6828
▁theories	-6829
▁algorithm	-6830
▁announced	-6831
▁dependent	-6832
▁ecosystems	-6833
▁integrated	-6834
▁protecting	-6835
▁terrorists	-6836
▁volunteers	-6837
▁demonstrate	-6838
▁ingredients	-6839
▁photography	-6840
▁underground	-6841
▁agricultural	-6842
▁neuroscience	-6843
▁participants	-6844
▁neighborhoods	-6845
bul	-6846
iel	-6847
obs	-6848
uba	-6849
uum	-6850
▁Jo	-6851
atts	-6852
bits	-6853
rant	-6854
▁gro	-6855
andel	-6856
eller	-6857
itate	-6858
obile	-6859
▁Dere	-6860
▁Long	-6861
▁Wall	-6862
▁adap	-6863
▁bars	-6864
▁brib	-6865
▁debt	-6866
▁earn	-6867
▁neat	-6868
▁trop	-6869
ivered	-6870
▁balls	-6871
▁banks	-6872
▁blame	-6873
▁cryst	-6874
▁glaci	-6875
▁opens	-6876
▁recru	-6877
▁wound	-6878
ughters	-6879
▁Arabic	-6880
▁adoles	-6881
▁shadow	-6882
▁tricks	-6883
▁bubbles	-6884
▁clients	-6885
▁consume	-6886
▁crucial	-6887
▁painted	-6888
▁pulling	-6889
▁symbols	-6890
▁agencies	-6891
▁external	-6892
▁returned	-6893
▁copyright	-6894
MS	-6895
So	-6896
aj	-6897
▁x	-6898
hen	-6899
▁65	-6900
▁gh	-6901
onic	-6902
oral	-6903
▁195	-6904
▁Bay	-6905
▁Six	-6906
▁Was	-6907
▁pra	-6908
▁spr	-6909
alian	-6910
enger	-6911
ested	-6912
owing	-6913
tocin	-6914
▁1970	-6915
▁beet	-6916
▁caps	-6917
▁enth	-6918
▁laid	-6919
▁rent	-6920
▁sulf	-6921
▁tied	-6922
iatric	-6923
icious	-6924
▁Peter	-6925
▁apple	-6926
▁chrom	-6927
▁digit	-6928
▁fiber	-6929
▁legit	-6930
▁march	-6931
▁sheet	-6932
▁Martin	-6933
▁Virgin	-6934
▁branch	-6935
▁invite	-6936
▁layers	-6937
▁observ	-6938
▁poster	-6939
▁silent	-6940
▁stages	-6941
▁Whether	-6942
▁consult	-6943
▁defense	-6944
▁ethical	-6945
▁hanging	-6946
▁picking	-6947
▁recover	-6948
▁Children	-6949
▁controls	-6950
▁facility	-6951
▁incident	-6952
▁isolated	-6953
▁reminded	-6954
▁repeated	-6955
▁unlikely	-6956
▁accidents	-6957
▁elections	-6958
▁inspiring	-6959
▁reputation	-6960
▁grandfather	-6961
▁probability	-6962
▁intervention	-6963
▁surveillance	-6964
▁uncomfortable	-6965
▁characteristics	-6966
BI	-6967
li	-6968
elf	-6969
▁Bu	-6970
▁Os	-6971
▁PM	-6972
fold	-6973
zero	-6974
▁10-	-6975
▁700	-6976
▁Mah	-6977
▁Mod	-6978
▁Oct	-6979
▁Ser	-6980
▁Wal	-6981
▁hey	-6982
▁hip	-6983
capes	-6984
isted	-6985
opard	-6986
ribly	-6987
tical	-6988
▁pupp	-6989
▁quit	-6990
▁rail	-6991
▁salt	-6992
iology	-6993
▁Italy	-6994
▁chaos	-6995
▁drawn	-6996
▁fuels	-6997
▁proof	-6998
▁punch	-6999
▁ultra	-7000
onymous	-7001
▁Oxford	-7002
▁Saturn	-7003
▁capita	-7004
▁landed	-7005
▁panels	-7006
▁settle	-7007
▁simult	-7008
▁stores	-7009
▁trucks	-7010
▁volcan	-7011
▁Florida	-7012
▁disturb	-7013
▁federal	-7014
▁happier	-7015
▁helicop	-7016
▁prosper	-7017
▁reduced	-7018
▁sensory	-7019
▁session	-7020
▁wheelch	-7021
▁conclude	-7022
▁contains	-7023
▁reported	-7024
▁southern	-7025
▁delivered	-7026
▁ignorance	-7027
▁physicist	-7028
▁sentences	-7029
▁dictionary	-7030
▁ridiculous	-7031
▁discoveries	-7032
▁improvement	-7033
▁spectacular	-7034
▁breakthrough	-7035
▁experimental	-7036
▁photographer	-7037
▁globalization	-7038
bru	-7039
erd	-7040
▁2,	-7041
apor	-7042
emen	-7043
fess	-7044
icks	-7045
pond	-7046
zens	-7047
▁'60	-7048
▁Bur	-7049
▁Sur	-7050
▁twe	-7051
bered	-7052
cohol	-7053
igned	-7054
otion	-7055
▁Back	-7056
▁Cont	-7057
▁Time	-7058
▁acid	-7059
▁chip	-7060
▁kiss	-7061
▁mail	-7062
▁prev	-7063
▁rice	-7064
erving	-7065
mented	-7066
▁Antar	-7067
▁Carol	-7068
▁Ocean	-7069
▁Prize	-7070
▁cliff	-7071
▁disag	-7072
▁flour	-7073
▁minor	-7074
▁naked	-7075
▁relax	-7076
▁reson	-7077
▁spark	-7078
▁strip	-7079
▁threw	-7080
viously	-7081
▁corals	-7082
▁linear	-7083
▁spinal	-7084
▁General	-7085
▁comprom	-7086
▁Ethiopia	-7087
▁Narrator	-7088
▁artistic	-7089
▁district	-7090
▁expanding	-7091
▁frequency	-7092
▁objective	-7093
▁predicted	-7094
▁primarily	-7095
▁disappoint	-7096
▁identified	-7097
▁resilience	-7098
▁suggesting	-7099
▁observation	-7100
▁collaborative	-7101
EC	-7102
tw	-7103
Can	-7104
auc	-7105
che	-7106
hes	-7107
lyn	-7108
opy	-7109
▁26	-7110
izar	-7111
part	-7112
urse	-7113
▁Ken	-7114
▁Lab	-7115
▁lon	-7116
▁sav	-7117
▁spa	-7118
ocent	-7119
riger	-7120
▁Turn	-7121
▁carr	-7122
▁mall	-7123
▁stom	-7124
▁wise	-7125
esthes	-7126
makers	-7127
ptions	-7128
▁River	-7129
▁Smith	-7130
▁Titan	-7131
▁actor	-7132
▁arrow	-7133
▁burst	-7134
▁court	-7135
▁exped	-7136
▁fract	-7137
▁pione	-7138
▁stunt	-7139
▁veter	-7140
▁extrem	-7141
▁rarely	-7142
▁robust	-7143
▁thresh	-7144
▁transm	-7145
▁vacuum	-7146
▁waters	-7147
▁Through	-7148
▁William	-7149
▁emerged	-7150
▁impacts	-7151
▁parties	-7152
▁targets	-7153
▁Research	-7154
▁Somebody	-7155
▁focusing	-7156
▁refriger	-7157
▁abilities	-7158
▁expansion	-7159
▁teenagers	-7160
▁autonomous	-7161
▁determined	-7162
▁mechanisms	-7163
▁satellites	-7164
▁underlying	-7165
▁constructed	-7166
▁predictions	-7167
Ch	-7168
▁32	-7169
▁Up	-7170
aran	-7171
ober	-7172
oran	-7173
rome	-7174
ulum	-7175
▁'70	-7176
▁120	-7177
▁Bel	-7178
▁CEO	-7179
▁Que	-7180
▁ain	-7181
▁hem	-7182
▁ric	-7183
izoph	-7184
oding	-7185
▁Give	-7186
▁Move	-7187
▁None	-7188
▁Star	-7189
▁clar	-7190
▁eleg	-7191
▁hill	-7192
▁mode	-7193
erable	-7194
heimer	-7195
market	-7196
▁Gates	-7197
▁gotta	-7198
▁nucle	-7199
▁roots	-7200
▁shrim	-7201
▁tribe	-7202
attered	-7203
▁agency	-7204
▁caring	-7205
▁degrad	-7206
▁domain	-7207
▁inches	-7208
▁injury	-7209
▁partly	-7210
▁sticks	-7211
▁October	-7212
▁Russian	-7213
▁chromos	-7214
▁imagery	-7215
▁reports	-7216
▁revenue	-7217
▁welcome	-7218
▁answered	-7219
▁attitude	-7220
▁crossing	-7221
▁database	-7222
▁dialogue	-7223
▁inherent	-7224
▁proposed	-7225
▁daughters	-7226
▁positions	-7227
▁biologists	-7228
▁inevitable	-7229
▁originally	-7230
▁translated	-7231
▁astonishing	-7232
▁philanthrop	-7233
▁biodiversity	-7234
▁photographed	-7235
▁grandchildren	-7236
"]	-7237
ET	-7238
va	-7239
And	-7240
bed	-7241
ena	-7242
err	-7243
hal	-7244
udi	-7245
▁95	-7246
▁KB	-7247
agon	-7248
atom	-7249
rich	-7250
yard	-7251
▁Det	-7252
▁Hel	-7253
▁MRI	-7254
▁ham	-7255
▁lun	-7256
▁mur	-7257
atrix	-7258
gency	-7259
itous	-7260
osure	-7261
ville	-7262
▁fool	-7263
▁sits	-7264
bruary	-7265
itudes	-7266
izarre	-7267
mingly	-7268
▁Derek	-7269
▁Jesus	-7270
▁Third	-7271
▁agent	-7272
▁cable	-7273
▁craft	-7274
▁flows	-7275
▁holds	-7276
▁sharp	-7277
▁Nature	-7278
▁Should	-7279
▁barrel	-7280
▁buried	-7281
▁compos	-7282
▁curren	-7283
▁curric	-7284
▁dozens	-7285
▁fought	-7286
▁neural	-7287
▁nurses	-7288
▁perpet	-7289
▁pursue	-7290
▁regret	-7291
▁sacred	-7292
▁served	-7293
▁skelet	-7294
▁subtle	-7295
▁theore	-7296
▁alcohol	-7297
▁convert	-7298
▁dolphin	-7299
▁shelter	-7300
▁writers	-7301
▁February	-7302
▁category	-7303
▁colonies	-7304
▁extended	-7305
▁figuring	-7306
▁flexible	-7307
▁genocide	-7308
▁keyboard	-7309
▁oxytocin	-7310
▁perceive	-7311
▁sleeping	-7312
▁Cambridge	-7313
▁completed	-7314
▁confident	-7315
▁forgotten	-7316
▁gathering	-7317
▁immediate	-7318
▁suggested	-7319
▁supported	-7320
▁Department	-7321
▁expectancy	-7322
▁explaining	-7323
▁operations	-7324
▁struggling	-7325
MA	-7326
].	-7327
aze	-7328
lar	-7329
ora	-7330
▁0.	-7331
▁ub	-7332
agos	-7333
▁Isn	-7334
▁LED	-7335
▁Sar	-7336
▁lux	-7337
▁sew	-7338
▁wra	-7339
▁Bron	-7340
▁High	-7341
▁Play	-7342
▁cert	-7343
▁cott	-7344
▁dear	-7345
▁grat	-7346
▁publ	-7347
▁whis	-7348
▁4,000	-7349
▁edges	-7350
▁joint	-7351
▁nerve	-7352
▁tempt	-7353
▁chairs	-7354
▁cheese	-7355
▁garage	-7356
▁intrig	-7357
▁needle	-7358
▁phosph	-7359
▁richer	-7360
▁tumors	-7361
interest	-7362
▁enterpr	-7363
▁liberal	-7364
▁millenn	-7365
▁washing	-7366
▁climbing	-7367
▁dinosaur	-7368
▁fabulous	-7369
▁leverage	-7370
▁manifest	-7371
▁Obviously	-7372
▁exception	-7373
▁fortunate	-7374
▁correspond	-7375
▁difficulty	-7376
▁industries	-7377
▁programming	-7378
▁translation	-7379
▁instructions	-7380
▁successfully	-7381
▁representation	-7382
11	-7383
eda	-7384
iac	-7385
sey	-7386
ason	-7387
illa	-7388
izer	-7389
yrus	-7390
▁191	-7391
▁Alz	-7392
▁Mag	-7393
▁bio	-7394
anned	-7395
elled	-7396
opher	-7397
▁Coun	-7398
▁Gore	-7399
▁Sund	-7400
▁defe	-7401
▁dive	-7402
▁leaf	-7403
▁plug	-7404
▁tone	-7405
soever	-7406
utical	-7407
▁Scott	-7408
▁begun	-7409
▁plain	-7410
▁trash	-7411
▁unpre	-7412
▁wider	-7413
ogether	-7414
unction	-7415
▁Arctic	-7416
▁Within	-7417
▁breaks	-7418
▁ensure	-7419
▁golden	-7420
▁pushed	-7421
▁rivers	-7422
▁shaped	-7423
▁shrimp	-7424
izophren	-7425
▁analyze	-7426
▁anxiety	-7427
▁bizarre	-7428
▁closing	-7429
▁deliber	-7430
▁drivers	-7431
▁graphic	-7432
▁helpful	-7433
▁involve	-7434
▁methane	-7435
▁selfish	-7436
▁smarter	-7437
▁smoking	-7438
▁soldier	-7439
▁baseball	-7440
▁cartoons	-7441
▁homework	-7442
▁restrict	-7443
▁shopping	-7444
▁skeleton	-7445
▁Alzheimer	-7446
▁Christian	-7447
▁radically	-7448
▁synthetic	-7449
▁telescope	-7450
▁permission	-7451
▁proportion	-7452
▁treatments	-7453
▁whatsoever	-7454
▁wheelchair	-7455
▁uncertainty	-7456
▁capabilities	-7457
LA	-7458
wl	-7459
kin	-7460
mod	-7461
▁3.	-7462
▁ah	-7463
▁nu	-7464
eart	-7465
iban	-7466
liam	-7467
ords	-7468
orus	-7469
road	-7470
uity	-7471
viol	-7472
▁'80	-7473
▁800	-7474
▁Put	-7475
▁boo	-7476
▁lit	-7477
copes	-7478
worth	-7479
▁Blue	-7480
▁Comp	-7481
▁alph	-7482
▁lamp	-7483
▁meal	-7484
▁mood	-7485
▁suck	-7486
▁tort	-7487
semble	-7488
▁Brown	-7489
▁audio	-7490
▁bucks	-7491
▁foods	-7492
▁mixed	-7493
▁monit	-7494
▁nurse	-7495
▁silly	-7496
▁skept	-7497
▁wired	-7498
athered	-7499
otherap	-7500
▁Things	-7501
▁addict	-7502
▁merely	-7503
▁regime	-7504
▁reveal	-7505
▁senior	-7506
fficient	-7507
▁charges	-7508
▁founded	-7509
▁hitting	-7510
▁leather	-7511
▁prepare	-7512
▁warning	-7513
aceutical	-7514
▁choosing	-7515
▁confused	-7516
▁openness	-7517
▁documents	-7518
▁elephants	-7519
▁intuition	-7520
▁attractive	-7521
▁hypothesis	-7522
▁mysterious	-7523
▁trajectory	-7524
▁interestingly	-7525
BM	-7526
DA	-7527
fe	-7528
Wow	-7529
ali	-7530
hop	-7531
sch	-7532
When	-7533
ache	-7534
born	-7535
conf	-7536
eday	-7537
enly	-7538
free	-7539
iens	-7540
kins	-7541
play	-7542
xual	-7543
▁Aug	-7544
▁Cor	-7545
▁Mom	-7546
▁Moo	-7547
aches	-7548
ading	-7549
flies	-7550
ician	-7551
inson	-7552
iogen	-7553
umble	-7554
▁cham	-7555
▁dumb	-7556
▁orph	-7557
▁sink	-7558
▁tear	-7559
▁tong	-7560
mental	-7561
▁Bronx	-7562
▁Dutch	-7563
▁bears	-7564
▁bored	-7565
▁chron	-7566
▁doors	-7567
▁drone	-7568
▁owned	-7569
▁ships	-7570
▁shore	-7571
▁spont	-7572
▁spray	-7573
▁tooth	-7574
▁weeke	-7575
parents	-7576
▁assess	-7577
▁correl	-7578
▁decent	-7579
▁ending	-7580
▁funded	-7581
▁killer	-7582
▁mining	-7583
▁scores	-7584
American	-7585
▁anthrop	-7586
▁distort	-7587
▁elderly	-7588
▁failing	-7589
▁fragile	-7590
▁promote	-7591
▁sisters	-7592
▁slavery	-7593
▁Minister	-7594
▁educated	-7595
▁homeless	-7596
▁informed	-7597
▁innocent	-7598
▁measures	-7599
▁neurolog	-7600
▁stranger	-7601
▁gradually	-7602
▁highlight	-7603
▁terrorist	-7604
▁curriculum	-7605
▁simulation	-7606
▁traditions	-7607
▁description	-7608
▁schizophren	-7609
▁surprisingly	-7610
▁unbelievable	-7611
▁architectural	-7612
▁demonstration	-7613
100	-7614
cap	-7615
rit	-7616
sec	-7617
sun	-7618
▁MT	-7619
half	-7620
kind	-7621
onds	-7622
▁Som	-7623
▁cas	-7624
▁cig	-7625
▁dop	-7626
▁sin	-7627
allow	-7628
anged	-7629
field	-7630
gence	-7631
maker	-7632
owers	-7633
stone	-7634
▁Span	-7635
▁Tell	-7636
▁bell	-7637
▁butt	-7638
▁duck	-7639
▁frog	-7640
▁pigs	-7641
▁rats	-7642
▁soup	-7643
▁tuna	-7644
atever	-7645
encing	-7646
engine	-7647
rained	-7648
▁owner	-7649
▁queen	-7650
▁schem	-7651
liament	-7652
▁Church	-7653
▁Design	-7654
▁Square	-7655
▁Turkey	-7656
▁arrive	-7657
▁enthus	-7658
▁lawyer	-7659
▁occurs	-7660
▁victim	-7661
▁elected	-7662
▁enables	-7663
▁fortune	-7664
▁immense	-7665
▁lawyers	-7666
▁magical	-7667
▁miracle	-7668
▁restore	-7669
▁statist	-7670
▁articles	-7671
▁fraction	-7672
▁optimism	-7673
▁throwing	-7674
▁conducted	-7675
▁extension	-7676
▁magnitude	-7677
▁nutrition	-7678
▁paralyzed	-7679
▁primitive	-7680
▁qualities	-7681
▁realizing	-7682
▁transcend	-7683
▁remembered	-7684
He	-7685
ya	-7686
Who	-7687
aid	-7688
abil	-7689
agen	-7690
ares	-7691
▁'90	-7692
▁20,	-7693
▁Hen	-7694
▁Out	-7695
▁Sal	-7696
▁Tes	-7697
▁Wow	-7698
▁cub	-7699
▁gee	-7700
▁lap	-7701
▁upd	-7702
ifice	-7703
otted	-7704
▁Hill	-7705
▁bask	-7706
▁brut	-7707
▁cake	-7708
▁cats	-7709
▁dung	-7710
▁nurt	-7711
▁odds	-7712
▁urge	-7713
aching	-7714
active	-7715
iences	-7716
▁outer	-7717
▁squee	-7718
▁stake	-7719
angible	-7720
working	-7721
▁30,000	-7722
▁convey	-7723
▁sensor	-7724
otherapy	-7725
▁Taliban	-7726
▁beneath	-7727
▁besides	-7728
▁bottles	-7729
▁forming	-7730
▁garbage	-7731
▁persist	-7732
▁threats	-7733
▁antibiot	-7734
▁channels	-7735
▁clothing	-7736
▁distingu	-7737
▁entering	-7738
▁invested	-7739
▁pandemic	-7740
▁tendency	-7741
▁adventure	-7742
▁expecting	-7743
▁glamorous	-7744
▁replicate	-7745
▁threshold	-7746
▁influenced	-7747
▁profoundly	-7748
▁exponential	-7749
▁contemporary	-7750
▁experiencing	-7751
▁institutional	-7752
▁participation	-7753
▁vulnerability	-7754
▁pharmaceutical	-7755
sp	-7756
Sah	-7757
enh	-7758
▁SS	-7759
erer	-7760
ifer	-7761
onia	-7762
pled	-7763
▁Cra	-7764
▁Joe	-7765
▁Lou	-7766
▁Rio	-7767
▁nom	-7768
adays	-7769
athan	-7770
chron	-7771
ogram	-7772
▁Homo	-7773
▁Leon	-7774
▁bend	-7775
▁crew	-7776
▁dile	-7777
▁gaps	-7778
▁neck	-7779
▁tsun	-7780
edding	-7781
employ	-7782
fessor	-7783
friend	-7784
▁Greek	-7785
▁March	-7786
▁Saudi	-7787
▁advoc	-7788
▁array	-7789
▁crick	-7790
▁lions	-7791
▁panel	-7792
▁proto	-7793
▁steal	-7794
▁ubiqu	-7795
inarily	-7796
▁August	-7797
▁Global	-7798
▁Mother	-7799
▁acoust	-7800
▁burned	-7801
▁drones	-7802
▁halluc	-7803
▁headed	-7804
▁shrink	-7805
▁tackle	-7806
▁Council	-7807
▁Without	-7808
▁adopted	-7809
▁analogy	-7810
▁arrange	-7811
▁chances	-7812
▁citizen	-7813
▁fastest	-7814
▁observe	-7815
▁portion	-7816
▁shocked	-7817
▁uniform	-7818
▁covering	-7819
▁detailed	-7820
▁drawings	-7821
▁included	-7822
▁remained	-7823
▁suffered	-7824
▁airplanes	-7825
▁factories	-7826
▁instantly	-7827
▁remaining	-7828
▁strategic	-7829
▁facilities	-7830
▁simultaneously	-7831
gu	-7832
aby	-7833
ctu	-7834
ini	-7835
vit	-7836
yal	-7837
zee	-7838
▁28	-7839
▁Bo	-7840
▁Ty	-7841
atar	-7842
fast	-7843
fram	-7844
olic	-7845
ship	-7846
▁Lib	-7847
▁dim	-7848
gines	-7849
oples	-7850
ostic	-7851
▁Beij	-7852
▁Camp	-7853
▁Dece	-7854
▁Jose	-7855
▁coca	-7856
▁cous	-7857
▁dies	-7858
▁iPod	-7859
▁lake	-7860
▁2000,	-7861
▁Power	-7862
▁Spain	-7863
▁altru	-7864
▁civic	-7865
▁dilem	-7866
▁indig	-7867
▁kills	-7868
▁pride	-7869
▁shout	-7870
▁spons	-7871
section	-7872
▁Howard	-7873
▁Norway	-7874
▁aggreg	-7875
▁combat	-7876
▁errors	-7877
▁formal	-7878
▁negoti	-7879
▁recept	-7880
▁unable	-7881
▁widely	-7882
orescent	-7883
▁Indians	-7884
▁contrad	-7885
▁demands	-7886
▁engines	-7887
▁peoples	-7888
▁rituals	-7889
▁rolling	-7890
▁staying	-7891
▁trigger	-7892
▁wealthy	-7893
▁December	-7894
▁dopamine	-7895
▁explains	-7896
▁friendly	-7897
▁graphics	-7898
▁preserve	-7899
▁nutrients	-7900
▁obstacles	-7901
▁substance	-7902
▁comparison	-7903
▁consistent	-7904
▁assumptions	-7905
▁authorities	-7906
▁restaurants	-7907
▁significantly	-7908
▁interpretation	-7909
CA	-7910
bar	-7911
bow	-7912
isy	-7913
▁rh	-7914
ails	-7915
imal	-7916
omin	-7917
ropy	-7918
umin	-7919
▁Den	-7920
▁Tim	-7921
▁Unt	-7922
▁awk	-7923
▁gre	-7924
▁tie	-7925
anges	-7926
antom	-7927
asses	-7928
licit	-7929
opath	-7930
usted	-7931
▁bats	-7932
▁clay	-7933
▁deli	-7934
▁dism	-7935
▁fung	-7936
▁gear	-7937
▁tech	-7938
aneous	-7939
urable	-7940
▁Delhi	-7941
▁Organ	-7942
▁blogs	-7943
▁camps	-7944
▁elite	-7945
▁loves	-7946
▁opera	-7947
▁sixth	-7948
▁suspe	-7949
▁tends	-7950
▁winds	-7951
looking	-7952
usiness	-7953
▁Mandel	-7954
▁export	-7955
▁jumped	-7956
▁preval	-7957
▁prosth	-7958
▁rubber	-7959
▁strike	-7960
▁subway	-7961
▁trains	-7962
esthesia	-7963
quarters	-7964
▁Whereas	-7965
▁awkward	-7966
▁courses	-7967
▁hunting	-7968
▁imaging	-7969
▁located	-7970
▁package	-7971
▁printed	-7972
▁profile	-7973
▁routine	-7974
▁serving	-7975
▁tissues	-7976
▁comments	-7977
▁counting	-7978
▁earliest	-7979
▁pointing	-7980
▁reducing	-7981
▁shipping	-7982
▁strongly	-7983
▁substant	-7984
▁classical	-7985
▁diagnosed	-7986
▁initially	-7987
▁mechanics	-7988
▁physician	-7989
▁approaches	-7990
▁impression	-7991
▁supporting	-7992
▁competitive	-7993
▁computation	-7994
▁demographic	-7995
▁conservative	-7996
▁professionals	-7997
▁straightforward	-7998
eyn	-7999
▁85	-8000
▁CD	-8001
▁RB	-8002
aves	-8003
cons	-8004
ipts	-8005
mony	-8006
quis	-8007
▁Sud	-8008
▁bug	-8009
▁gam	-8010
burgh	-8011
copic	-8012
human	-8013
lings	-8014
oning	-8015
puter	-8016
stage	-8017
▁Both	-8018
▁Same	-8019
▁cath	-8020
▁cong	-8021
▁fits	-8022
▁irre	-8023
▁nerd	-8024
▁triv	-8025
▁west	-8026
astics	-8027
minute	-8028
umines	-8029
▁Brook	-8030
▁Medic	-8031
▁Moore	-8032
▁Trans	-8033
▁cruel	-8034
▁devil	-8035
▁excit	-8036
▁inhab	-8037
▁items	-8038
▁marry	-8039
▁sauce	-8040
Saharan	-8041
angered	-8042
▁Scient	-8043
▁matrix	-8044
▁stroke	-8045
▁Spanish	-8046
▁affects	-8047
▁farming	-8048
▁flowing	-8049
▁footage	-8050
▁percept	-8051
▁printer	-8052
▁regener	-8053
▁spreads	-8054
▁Northern	-8055
▁Whatever	-8056
▁gathered	-8057
▁genetics	-8058
▁judgment	-8059
▁morality	-8060
▁musician	-8061
▁purposes	-8062
▁robotics	-8063
▁shifting	-8064
▁socially	-8065
▁synchron	-8066
▁gentleman	-8067
▁improving	-8068
▁incentive	-8069
▁infection	-8070
▁investing	-8071
▁investors	-8072
▁ownership	-8073
▁passenger	-8074
▁aggressive	-8075
▁chimpanzee	-8076
▁compelling	-8077
▁continuing	-8078
▁threatened	-8079
▁vegetables	-8080
▁genetically	-8081
▁corporations	-8082
ati	-8083
cro	-8084
see	-8085
aded	-8086
ague	-8087
ania	-8088
asty	-8089
away	-8090
edge	-8091
lend	-8092
ownt	-8093
umes	-8094
▁FBI	-8095
▁Far	-8096
▁Met	-8097
▁Mor	-8098
▁Moz	-8099
▁alb	-8100
▁ski	-8101
▁tut	-8102
attoo	-8103
clock	-8104
ctica	-8105
eries	-8106
irect	-8107
orage	-8108
press	-8109
venth	-8110
▁Bell	-8111
▁Josh	-8112
▁Tanz	-8113
▁Walk	-8114
▁asks	-8115
▁bind	-8116
▁file	-8117
▁gate	-8118
▁gods	-8119
▁gram	-8120
▁rape	-8121
▁shit	-8122
▁tune	-8123
▁woke	-8124
▁2009,	-8125
▁Charl	-8126
▁Eight	-8127
▁Koran	-8128
▁energ	-8129
▁farms	-8130
▁incor	-8131
▁intim	-8132
▁pause	-8133
▁shots	-8134
▁tower	-8135
▁tubes	-8136
▁valid	-8137
▁viral	-8138
▁wires	-8139
▁Newton	-8140
▁System	-8141
▁burden	-8142
▁canopy	-8143
▁client	-8144
▁dragon	-8145
▁ethnic	-8146
▁excess	-8147
▁freely	-8148
▁inevit	-8149
▁orient	-8150
▁recess	-8151
▁sketch	-8152
▁static	-8153
▁ticket	-8154
▁tongue	-8155
▁tracks	-8156
▁tunnel	-8157
▁upload	-8158
▁upside	-8159
andering	-8160
▁Islands	-8161
▁Italian	-8162
▁beating	-8163
▁deserve	-8164
▁despair	-8165
▁paradox	-8166
▁profits	-8167
▁reminds	-8168
▁someday	-8169
▁winning	-8170
▁connects	-8171
▁currency	-8172
▁delivery	-8173
▁distract	-8174
▁refugees	-8175
▁reinvent	-8176
▁scenario	-8177
▁scholars	-8178
▁terribly	-8179
▁versions	-8180
▁excellent	-8181
▁expertise	-8182
▁explosion	-8183
▁healthier	-8184
▁jellyfish	-8185
▁procedure	-8186
▁workforce	-8187
otechnology	-8188
▁Antarctica	-8189
▁additional	-8190
▁categories	-8191
▁classrooms	-8192
▁ecological	-8193
▁encouraged	-8194
▁endangered	-8195
▁excitement	-8196
▁extinction	-8197
▁frustrated	-8198
▁impressive	-8199
▁prediction	-8200
▁approaching	-8201
▁established	-8202
▁reconstruct	-8203
▁compassionate	-8204
asm	-8205
bye	-8206
cip	-8207
eps	-8208
oln	-8209
▁33	-8210
▁LG	-8211
▁ho	-8212
arsh	-8213
cost	-8214
eady	-8215
four	-8216
ghai	-8217
gram	-8218
ilty	-8219
made	-8220
uded	-8221
udge	-8222
wind	-8223
▁Hum	-8224
▁Sou	-8225
▁Tas	-8226
▁bin	-8227
▁jew	-8228
elson	-8229
ormal	-8230
rence	-8231
▁Brun	-8232
▁Cour	-8233
▁Ford	-8234
▁Hall	-8235
▁Miss	-8236
▁NGOs	-8237
▁ange	-8238
▁dawn	-8239
▁deck	-8240
▁genu	-8241
▁guns	-8242
▁hors	-8243
▁prol	-8244
ifully	-8245
incoln	-8246
tering	-8247
▁2010,	-8248
▁Henry	-8249
▁Santa	-8250
▁Yemen	-8251
▁armed	-8252
▁caves	-8253
▁eaten	-8254
▁fancy	-8255
▁membr	-8256
▁numer	-8257
▁revol	-8258
▁shirt	-8259
▁slime	-8260
▁troub	-8261
ounding	-8262
reating	-8263
uilding	-8264
▁Govern	-8265
▁athlet	-8266
▁improv	-8267
▁planes	-8268
cedented	-8269
controll	-8270
▁Johnson	-8271
▁Neander	-8272
▁compete	-8273
▁dressed	-8274
▁entropy	-8275
▁harness	-8276
▁phantom	-8277
▁storage	-8278
▁Secondly	-8279
▁accounts	-8280
▁arrested	-8281
▁branches	-8282
▁generous	-8283
▁improved	-8284
▁insights	-8285
▁interior	-8286
▁interven	-8287
▁managers	-8288
▁reliable	-8289
▁survived	-8290
▁unemploy	-8291
▁wildlife	-8292
▁broadcast	-8293
▁detection	-8294
▁miserable	-8295
▁phenomena	-8296
▁religions	-8297
▁signature	-8298
▁temporary	-8299
▁appearance	-8300
▁commission	-8301
▁continents	-8302
▁disability	-8303
▁discipline	-8304
▁landscapes	-8305
▁phosphorus	-8306
▁ubiquitous	-8307
▁grandparents	-8308
▁occasionally	-8309
▁administration	-8310
▁mathematicians	-8311
OK	-8312
],	-8313
arl	-8314
hea	-8315
lim	-8316
oma	-8317
uke	-8318
▁IM	-8319
crim	-8320
izza	-8321
list	-8322
neys	-8323
ulin	-8324
▁Bet	-8325
▁Dou	-8326
▁Dra	-8327
aning	-8328
icked	-8329
lades	-8330
pless	-8331
ushed	-8332
▁Make	-8333
▁Shan	-8334
▁Vict	-8335
▁crop	-8336
▁damn	-8337
▁heal	-8338
▁lone	-8339
▁nuts	-8340
▁pale	-8341
▁subt	-8342
icient	-8343
ndrome	-8344
▁2008,	-8345
▁Asian	-8346
▁Peace	-8347
▁Sorry	-8348
▁amate	-8349
▁anten	-8350
▁brows	-8351
▁divor	-8352
▁fault	-8353
▁fears	-8354
▁gases	-8355
▁hired	-8356
▁hydro	-8357
▁overl	-8358
▁pairs	-8359
▁ratio	-8360
▁uncle	-8361
▁agents	-8362
▁annual	-8363
▁column	-8364
▁cosmic	-8365
▁cotton	-8366
▁cycles	-8367
▁editor	-8368
▁fibers	-8369
▁gained	-8370
▁habits	-8371
▁lowest	-8372
▁makers	-8373
▁nearby	-8374
▁nights	-8375
▁propag	-8376
▁rhythm	-8377
▁silver	-8378
▁speaks	-8379
▁tattoo	-8380
▁tragic	-8381
▁traits	-8382
▁200,000	-8383
▁Redwood	-8384
▁cigaret	-8385
▁closest	-8386
▁genuine	-8387
▁glasses	-8388
▁hardest	-8389
▁mindset	-8390
▁officer	-8391
▁offices	-8392
▁ongoing	-8393
▁secrets	-8394
▁synthes	-8395
▁tsunami	-8396
▁unhappy	-8397
▁Although	-8398
▁believes	-8399
▁magnific	-8400
▁precious	-8401
▁replaced	-8402
▁smallest	-8403
▁teenager	-8404
▁Banglades	-8405
▁addiction	-8406
▁audiences	-8407
▁cooperate	-8408
▁distances	-8409
▁interrupt	-8410
▁prisoners	-8411
▁stability	-8412
▁succeeded	-8413
▁assumption	-8414
▁prevention	-8415
▁previously	-8416
▁researcher	-8417
▁yourselves	-8418
▁fortunately	-8419
▁unconscious	-8420
▁transforming	-8421
▁unprecedented	-8422
All	-8423
dig	-8424
pie	-8425
▁36	-8426
hist	-8427
ihad	-8428
▁202	-8429
▁Age	-8430
▁Aut	-8431
▁Edu	-8432
▁Its	-8433
▁Str	-8434
▁dys	-8435
▁ine	-8436
▁ooh	-8437
▁sir	-8438
▁ven	-8439
apped	-8440
icial	-8441
izers	-8442
mates	-8443
phere	-8444
produ	-8445
uctor	-8446
▁2050	-8447
▁Abra	-8448
▁July	-8449
▁Mill	-8450
▁Sudd	-8451
▁bags	-8452
▁jazz	-8453
▁palm	-8454
▁rope	-8455
▁rose	-8456
iberia	-8457
iously	-8458
▁2007,	-8459
▁Watch	-8460
▁annoy	-8461
▁badly	-8462
▁brave	-8463
▁grasp	-8464
▁incom	-8465
▁patch	-8466
▁raped	-8467
▁rehab	-8468
▁slums	-8469
▁wheat	-8470
▁worms	-8471
▁Except	-8472
▁Nelson	-8473
▁Sunday	-8474
▁builds	-8475
▁estate	-8476
▁fusion	-8477
▁hiding	-8478
▁manual	-8479
▁metric	-8480
▁native	-8481
▁stored	-8482
▁subsid	-8483
▁surviv	-8484
▁Lincoln	-8485
▁arguing	-8486
▁cocaine	-8487
▁destiny	-8488
▁drought	-8489
▁ecology	-8490
▁minimum	-8491
▁passive	-8492
▁puzzles	-8493
▁refugee	-8494
▁resolve	-8495
▁stomach	-8496
▁tension	-8497
▁Palestin	-8498
▁Shanghai	-8499
▁applying	-8500
▁catching	-8501
▁circuits	-8502
▁geometry	-8503
▁listened	-8504
▁offering	-8505
▁relation	-8506
▁stereoty	-8507
▁Alexander	-8508
▁breakfast	-8509
▁collapsed	-8510
▁economist	-8511
▁estimates	-8512
▁intensive	-8513
▁nonprofit	-8514
▁perceived	-8515
▁performed	-8516
▁reproduce	-8517
▁responses	-8518
▁sensation	-8519
▁physicists	-8520
▁achievement	-8521
▁consciously	-8522
▁encouraging	-8523
▁interviewed	-8524
▁limitations	-8525
▁predictable	-8526
▁interconnected	-8527
.'"	-8528
200	-8529
For	-8530
ava	-8531
ege	-8532
▁DV	-8533
▁SW	-8534
estr	-8535
grow	-8536
irlf	-8537
outs	-8538
▁20-	-8539
▁30-	-8540
▁Ext	-8541
▁Ire	-8542
▁Jon	-8543
▁Ray	-8544
▁Sir	-8545
▁Sky	-8546
▁Sus	-8547
▁cyl	-8548
▁gif	-8549
▁les	-8550
▁vit	-8551
inter	-8552
itzer	-8553
uther	-8554
▁Eric	-8555
▁Fore	-8556
▁Gene	-8557
▁Lake	-8558
▁Open	-8559
▁Rock	-8560
▁ampl	-8561
▁biol	-8562
▁coat	-8563
▁keys	-8564
▁summ	-8565
▁wrap	-8566
arians	-8567
ureauc	-8568
▁Arist	-8569
▁Brian	-8570
▁Hello	-8571
▁Leban	-8572
▁Stage	-8573
▁Under	-8574
▁ambig	-8575
▁cabin	-8576
▁fires	-8577
▁grabb	-8578
▁lever	-8579
▁lifes	-8580
▁nodes	-8581
▁redef	-8582
▁screw	-8583
ativity	-8584
itative	-8585
▁Econom	-8586
▁Twenty	-8587
▁Yorker	-8588
▁amazed	-8589
▁appeal	-8590
▁basket	-8591
▁bullet	-8592
▁dating	-8593
▁luxury	-8594
▁marvel	-8595
▁sheets	-8596
▁stones	-8597
▁strict	-8598
▁tempor	-8599
▁troops	-8600
▁valley	-8601
▁Beijing	-8602
▁Indones	-8603
▁Mandela	-8604
▁absence	-8605
▁colored	-8606
▁cricket	-8607
▁females	-8608
▁horizon	-8609
▁insulin	-8610
▁pockets	-8611
▁propose	-8612
▁pursuit	-8613
▁stepped	-8614
▁teenage	-8615
▁Southern	-8616
▁Suddenly	-8617
▁customer	-8618
▁failures	-8619
▁navigate	-8620
▁prostate	-8621
▁transmit	-8622
▁Professor	-8623
▁headlines	-8624
▁preparing	-8625
▁protocell	-8626
▁sacrifice	-8627
▁challenged	-8628
▁convenient	-8629
▁elementary	-8630
▁helicopter	-8631
▁acknowledge	-8632
▁discovering	-8633
▁supermarket	-8634
py	-8635
tr	-8636
ani	-8637
eds	-8638
mun	-8639
pat	-8640
▁Da	-8641
inth	-8642
leep	-8643
sell	-8644
▁15-	-8645
▁350	-8646
▁Ham	-8647
▁Rom	-8648
▁Tel	-8649
▁Way	-8650
▁aqu	-8651
▁aug	-8652
arest	-8653
eling	-8654
ifact	-8655
phony	-8656
▁Coke	-8657
▁Feyn	-8658
▁Fort	-8659
▁Hans	-8660
▁Hist	-8661
▁Sure	-8662
▁Tony	-8663
▁brid	-8664
▁hybr	-8665
▁labs	-8666
▁sail	-8667
inging	-8668
ournal	-8669
▁6,000	-8670
▁Coast	-8671
▁award	-8672
▁donor	-8673
▁downt	-8674
▁exerc	-8675
▁lungs	-8676
▁memes	-8677
▁mines	-8678
▁redes	-8679
▁safer	-8680
▁sched	-8681
▁shine	-8682
▁During	-8683
▁bother	-8684
▁execut	-8685
▁insane	-8686
▁nerves	-8687
▁proven	-8688
▁vagina	-8689
▁Abraham	-8690
▁Aristot	-8691
▁Feynman	-8692
▁bedroom	-8693
▁enemies	-8694
▁fathers	-8695
▁gesture	-8696
▁glamour	-8697
▁hormone	-8698
▁ignored	-8699
▁intrins	-8700
▁seeking	-8701
▁terrain	-8702
▁toilets	-8703
▁wedding	-8704
▁Leonardo	-8705
▁bathroom	-8706
▁decrease	-8707
▁mosquito	-8708
▁affecting	-8709
▁empowered	-8710
▁graduated	-8711
▁guarantee	-8712
▁orchestra	-8713
▁reactions	-8714
▁Industrial	-8715
▁assistance	-8716
▁continuous	-8717
▁inevitably	-8718
▁manipulate	-8719
▁newspapers	-8720
▁reflection	-8721
▁terrifying	-8722
▁constraints	-8723
▁marketplace	-8724
▁surrounding	-8725
▁concentrated	-8726
▁storytelling	-8727
▁transmission	-8728
▁extraordinarily	-8729
,'	-8730
OL	-8731
jo	-8732
sc	-8733
▁.	-8734
ete	-8735
▁42	-8736
▁55	-8737
▁JH	-8738
▁od	-8739
aeda	-8740
cycl	-8741
erey	-8742
irts	-8743
pers	-8744
▁Syr	-8745
▁hal	-8746
▁jet	-8747
▁pit	-8748
ansas	-8749
ashed	-8750
isons	-8751
omics	-8752
rance	-8753
▁Mach	-8754
▁Rick	-8755
▁Zeal	-8756
▁bold	-8757
▁chop	-8758
▁clue	-8759
▁drum	-8760
▁fate	-8761
▁glue	-8762
▁pige	-8763
▁sons	-8764
▁toes	-8765
▁turb	-8766
person	-8767
weight	-8768
▁Detro	-8769
▁Hawai	-8770
▁Until	-8771
▁chips	-8772
▁coinc	-8773
▁immun	-8774
▁meals	-8775
▁pizza	-8776
▁proph	-8777
▁shelf	-8778
▁spill	-8779
▁stays	-8780
powered	-8781
▁Anyone	-8782
▁Berlin	-8783
▁Friday	-8784
▁Victor	-8785
▁assets	-8786
▁beaten	-8787
▁config	-8788
▁crimes	-8789
▁fallen	-8790
▁loving	-8791
▁murder	-8792
▁offers	-8793
▁orphan	-8794
▁parach	-8795
▁recipe	-8796
▁scenes	-8797
▁thread	-8798
▁wheels	-8799
changing	-8800
▁Anybody	-8801
▁Silicon	-8802
▁adapted	-8803
▁cancers	-8804
▁halfway	-8805
▁highway	-8806
▁logical	-8807
▁proceed	-8808
▁request	-8809
▁scanner	-8810
criptions	-8811
▁Carolina	-8812
▁Monterey	-8813
▁artifact	-8814
▁attacked	-8815
▁intended	-8816
▁sciences	-8817
▁believing	-8818
▁blindness	-8819
▁equations	-8820
▁locations	-8821
▁volunteer	-8822
▁assignment	-8823
▁biolumines	-8824
▁expedition	-8825
▁infections	-8826
▁interviews	-8827
▁retirement	-8828
▁structural	-8829
▁antibiotics	-8830
▁beautifully	-8831
▁contributed	-8832
▁expressions	-8833
▁journalists	-8834
▁technically	-8835
▁calculations	-8836
▁demonstrated	-8837
▁historically	-8838
▁installation	-8839
▁concentration	-8840
SP	-8841
dis	-8842
osn	-8843
rof	-8844
▁2:	-8845
aped	-8846
char	-8847
erry	-8848
grad	-8849
ifty	-8850
mill	-8851
plus	-8852
take	-8853
▁Acc	-8854
▁Cur	-8855
▁Kev	-8856
▁Off	-8857
▁Roy	-8858
▁obt	-8859
▁pir	-8860
▁tin	-8861
ademy	-8862
bably	-8863
enous	-8864
inent	-8865
inery	-8866
itage	-8867
oline	-8868
peare	-8869
▁1900	-8870
▁Hong	-8871
▁Love	-8872
▁News	-8873
▁Supp	-8874
▁blah	-8875
▁calm	-8876
▁dent	-8877
▁jugg	-8878
▁melt	-8879
▁sale	-8880
▁sett	-8881
gments	-8882
vation	-8883
▁2005,	-8884
▁Being	-8885
▁Chile	-8886
▁Court	-8887
▁bills	-8888
▁comic	-8889
▁dough	-8890
▁drown	-8891
▁embod	-8892
▁embry	-8893
▁encry	-8894
▁funds	-8895
▁guard	-8896
▁immig	-8897
▁impul	-8898
▁jihad	-8899
▁knife	-8900
▁lanes	-8901
▁loads	-8902
▁loose	-8903
▁maker	-8904
▁pills	-8905
▁stair	-8906
▁steam	-8907
▁tiles	-8908
keepers	-8909
▁Columb	-8910
▁Portug	-8911
▁Tasman	-8912
▁atomic	-8913
▁binary	-8914
▁campus	-8915
▁compre	-8916
▁contam	-8917
▁covers	-8918
▁guilty	-8919
▁orders	-8920
▁proved	-8921
▁recall	-8922
▁relief	-8923
▁stimul	-8924
▁summar	-8925
▁topics	-8926
▁College	-8927
▁Develop	-8928
▁Iceland	-8929
▁Ireland	-8930
▁Zealand	-8931
▁barrier	-8932
▁enforce	-8933
▁follows	-8934
▁formula	-8935
▁healing	-8936
▁origins	-8937
▁protest	-8938
▁readers	-8939
▁trivial	-8940
▁useless	-8941
▁whistle	-8942
akespeare	-8943
▁Security	-8944
▁activist	-8945
▁advances	-8946
▁breeding	-8947
▁concerns	-8948
▁contrary	-8949
▁disabled	-8950
▁enjoying	-8951
▁explicit	-8952
▁horizont	-8953
▁peaceful	-8954
▁randomly	-8955
▁selected	-8956
▁stopping	-8957
▁striking	-8958
▁competing	-8959
▁correctly	-8960
▁residents	-8961
▁seemingly	-8962
▁territory	-8963
▁workplace	-8964
▁Bangladesh	-8965
▁Technology	-8966
▁electrodes	-8967
▁initiative	-8968
▁mainstream	-8969
▁medication	-8970
▁monitoring	-8971
▁narratives	-8972
▁reasonable	-8973
▁foundations	-8974
▁legislation	-8975
▁proposition	-8976
▁psychologist	-8977
Are	-8978
ado	-8979
gal	-8980
ima	-8981
oto	-8982
two	-8983
uty	-8984
▁AK	-8985
▁Ap	-8986
▁Us	-8987
Here	-8988
airo	-8989
expl	-8990
oric	-8991
rats	-8992
reme	-8993
utan	-8994
ynth	-8995
▁Dad	-8996
▁Mur	-8997
▁Nic	-8998
▁Ros	-8999
▁Try	-9000
▁USA	-9001
▁dil	-9002
▁shy	-9003
atson	-9004
enter	-9005
grade	-9006
gradu	-9007
ighth	-9008
reens	-9009
▁Mike	-9010
▁Nove	-9011
▁Rand	-9012
▁Zero	-9013
▁cows	-9014
▁dece	-9015
▁forb	-9016
▁inch	-9017
▁junk	-9018
▁meme	-9019
▁rect	-9020
▁tact	-9021
assemb	-9022
cyclop	-9023
ulsion	-9024
▁Force	-9025
▁McDon	-9026
▁algae	-9027
▁boats	-9028
▁deals	-9029
▁delay	-9030
▁drops	-9031
▁girlf	-9032
▁irony	-9033
▁jewel	-9034
▁minus	-9035
▁param	-9036
▁plank	-9037
▁roles	-9038
▁spell	-9039
▁taxes	-9040
▁trace	-9041
essions	-9042
ometown	-9043
perform	-9044
umented	-9045
▁butter	-9046
▁carpet	-9047
▁chains	-9048
▁curves	-9049
▁grocer	-9050
▁magnet	-9051
▁motors	-9052
▁packed	-9053
▁pencil	-9054
▁posted	-9055
▁purple	-9056
▁viewer	-9057
▁wooden	-9058
standing	-9059
▁Israeli	-9060
▁enabled	-9061
▁harmony	-9062
▁implant	-9063
▁islands	-9064
▁kingdom	-9065
▁locally	-9066
▁manager	-9067
▁mapping	-9068
▁pedestr	-9069
▁Brooklyn	-9070
▁Tanzania	-9071
▁altitude	-9072
▁asteroid	-9073
▁ceremony	-9074
▁historic	-9075
▁mobility	-9076
▁overhead	-9077
▁plastics	-9078
▁predator	-9079
▁syndrome	-9080
▁worrying	-9081
▁Indonesia	-9082
▁authentic	-9083
▁biologist	-9084
▁describes	-9085
▁dominated	-9086
▁hierarchy	-9087
▁installed	-9088
▁recycling	-9089
forestation	-9090
▁accomplish	-9091
▁approached	-9092
▁automobile	-9093
▁calculated	-9094
▁engineered	-9095
▁generating	-9096
▁indigenous	-9097
▁legitimate	-9098
▁prosperity	-9099
▁publishing	-9100
▁punishment	-9101
▁sanitation	-9102
▁telescopes	-9103
▁Shakespeare	-9104
▁magnificent	-9105
▁philosopher	-9106
▁connectivity	-9107
▁humanitarian	-9108
▁civilizations	-9109
Sh	-9110
yd	-9111
ETI	-9112
law	-9113
ugg	-9114
uts	-9115
▁ED	-9116
▁Es	-9117
ette	-9118
pril	-9119
seen	-9120
thur	-9121
▁10.	-9122
▁Amy	-9123
▁Ann	-9124
▁DVD	-9125
▁Lin	-9126
▁Tib	-9127
▁ads	-9128
▁ash	-9129
▁hub	-9130
▁oct	-9131
apore	-9132
break	-9133
cking	-9134
enses	-9135
inger	-9136
orden	-9137
sized	-9138
world	-9139
▁Benj	-9140
▁Conf	-9141
▁Half	-9142
▁Lego	-9143
▁Lord	-9144
▁Math	-9145
▁Moon	-9146
▁Snow	-9147
▁bang	-9148
▁batt	-9149
▁bite	-9150
▁dirt	-9151
▁drew	-9152
▁exha	-9153
▁hipp	-9154
▁lawn	-9155
▁mask	-9156
▁mesh	-9157
▁murd	-9158
▁pole	-9159
▁sake	-9160
rating	-9161
uction	-9162
▁April	-9163
▁Clint	-9164
▁Elect	-9165
▁Seven	-9166
▁Swiss	-9167
▁lobby	-9168
▁remix	-9169
▁rings	-9170
▁trail	-9171
▁zones	-9172
itating	-9173
▁Albert	-9174
▁Almost	-9175
▁Watson	-9176
▁approx	-9177
▁behalf	-9178
▁comedy	-9179
▁criter	-9180
▁excuse	-9181
▁immers	-9182
▁infant	-9183
▁manner	-9184
▁namely	-9185
▁render	-9186
▁safely	-9187
▁voting	-9188
▁worthy	-9189
▁bureauc	-9190
▁clinics	-9191
▁corrupt	-9192
▁dilemma	-9193
▁doubled	-9194
▁enjoyed	-9195
▁genomes	-9196
▁laptops	-9197
▁neutral	-9198
▁reactor	-9199
▁rethink	-9200
▁simpler	-9201
▁strings	-9202
▁November	-9203
▁cellular	-9204
▁complain	-9205
▁coverage	-9206
▁downtown	-9207
▁exposure	-9208
▁kindness	-9209
▁observed	-9210
▁reserves	-9211
▁skeletal	-9212
▁spinning	-9213
▁supplies	-9214
▁tropical	-9215
▁Singapore	-9216
▁diagnosis	-9217
▁estimated	-9218
▁officials	-9219
▁overnight	-9220
▁anticipate	-9221
▁compromise	-9222
▁frequently	-9223
▁physicians	-9224
▁neuroscient	-9225
▁collectively	-9226
▁independence	-9227
▁personalized	-9228
▁communicating	-9229
▁visualization	-9230
da	-9231
eu	-9232
ye	-9233
ema	-9234
izz	-9235
uan	-9236
▁Cr	-9237
▁JA	-9238
▁PC	-9239
▁RS	-9240
▁IBM	-9241
▁Rad	-9242
▁Sen	-9243
▁Tam	-9244
▁via	-9245
erent	-9246
isten	-9247
▁Carl	-9248
▁Cath	-9249
▁Rome	-9250
▁biof	-9251
▁cree	-9252
▁loan	-9253
▁mand	-9254
▁sexy	-9255
▁shoe	-9256
▁span	-9257
▁unre	-9258
▁unst	-9259
▁util	-9260
▁verb	-9261
lihood	-9262
orient	-9263
romagn	-9264
thirds	-9265
▁bench	-9266
▁conqu	-9267
▁entry	-9268
▁erect	-9269
▁fatal	-9270
▁gorge	-9271
▁inher	-9272
▁inhib	-9273
▁mayor	-9274
▁norms	-9275
▁penet	-9276
▁perip	-9277
▁40,000	-9278
▁Little	-9279
▁apolog	-9280
▁epidem	-9281
▁Similar	-9282
▁Someone	-9283
▁Switzer	-9284
▁broader	-9285
▁constit	-9286
▁corners	-9287
▁discrim	-9288
▁glacier	-9289
▁mankind	-9290
▁penguin	-9291
▁smiling	-9292
▁staring	-9293
▁accompan	-9294
▁calories	-9295
▁clusters	-9296
▁compound	-9297
▁consumed	-9298
▁diameter	-9299
▁honestly	-9300
▁nitrogen	-9301
▁nowadays	-9302
▁portrait	-9303
▁recycled	-9304
▁sidewalk	-9305
▁simplest	-9306
▁abundance	-9307
▁aesthetic	-9308
▁amazingly	-9309
▁bacterial	-9310
▁batteries	-9311
▁electrons	-9312
▁medicines	-9313
▁occurring	-9314
▁planetary	-9315
▁predators	-9316
▁receiving	-9317
▁relatives	-9318
▁suspended	-9319
▁Geographic	-9320
▁illustrate	-9321
▁likelihood	-9322
▁regardless	-9323
▁sufficient	-9324
▁Switzerland	-9325
▁desperately	-9326
▁devastating	-9327
▁electromagn	-9328
▁fluorescent	-9329
▁instruction	-9330
▁politically	-9331
▁controversial	-9332
▁psychologists	-9333
▁schizophrenia	-9334
"?	-9335
IS	-9336
bie	-9337
upp	-9338
▁Bi	-9339
▁Er	-9340
▁UC	-9341
They	-9342
aste	-9343
ieve	-9344
igma	-9345
oton	-9346
▁193	-9347
▁Ele	-9348
▁Emp	-9349
▁Had	-9350
▁ech	-9351
▁jar	-9352
▁rib	-9353
adian	-9354
ensus	-9355
impse	-9356
lfare	-9357
storm	-9358
▁SETI	-9359
▁Scot	-9360
▁Wind	-9361
▁bush	-9362
▁crap	-9363
▁deaf	-9364
▁dose	-9365
▁enzy	-9366
▁offs	-9367
▁outs	-9368
▁stad	-9369
awater	-9370
unning	-9371
▁Jones	-9372
▁Queen	-9373
▁Still	-9374
▁aspir	-9375
▁clubs	-9376
▁defic	-9377
▁grace	-9378
▁hopes	-9379
▁juice	-9380
▁peers	-9381
▁sperm	-9382
▁straw	-9383
▁vocal	-9384
ascular	-9385
isphere	-9386
ocation	-9387
theless	-9388
▁Andrew	-9389
▁Compan	-9390
▁County	-9391
▁anatom	-9392
▁chimps	-9393
▁comics	-9394
▁cultiv	-9395
▁diving	-9396
▁intact	-9397
▁masses	-9398
▁tables	-9399
▁Detroit	-9400
▁artwork	-9401
▁chamber	-9402
▁cooling	-9403
▁educate	-9404
▁enhance	-9405
▁heading	-9406
▁maximum	-9407
▁patents	-9408
▁princip	-9409
▁texture	-9410
▁Business	-9411
▁approved	-9412
▁backyard	-9413
▁disagree	-9414
▁findings	-9415
▁helpless	-9416
▁injuries	-9417
▁literacy	-9418
▁opinions	-9419
▁scanning	-9420
▁touching	-9421
▁Brazilian	-9422
▁activists	-9423
▁agreement	-9424
▁attitudes	-9425
▁criminals	-9426
▁microbial	-9427
▁motivated	-9428
▁reflected	-9429
▁regularly	-9430
▁renewable	-9431
▁therapies	-9432
▁psychopath	-9433
▁remarkably	-9434
▁composition	-9435
▁distinction	-9436
▁partnership	-9437
▁realization	-9438
▁accomplished	-9439
▁continuously	-9440
▁measurements	-9441
▁temperatures	-9442
God	-9443
ala	-9444
ape	-9445
cus	-9446
dam	-9447
ona	-9448
tra	-9449
yon	-9450
▁AI	-9451
▁AM	-9452
▁Po	-9453
ador	-9454
alog	-9455
door	-9456
enth	-9457
fare	-9458
five	-9459
iots	-9460
▁192	-9461
▁Civ	-9462
▁Jud	-9463
▁Sah	-9464
▁Tun	-9465
▁orb	-9466
▁sne	-9467
acher	-9468
ester	-9469
▁Hope	-9470
▁Jane	-9471
▁Kong	-9472
▁Soci	-9473
▁athe	-9474
▁bulb	-9475
▁bump	-9476
▁chef	-9477
▁cuts	-9478
▁ende	-9479
▁mast	-9480
▁slic	-9481
▁spat	-9482
▁vary	-9483
gevity	-9484
itated	-9485
orough	-9486
▁appla	-9487
▁belly	-9488
▁bless	-9489
▁cared	-9490
▁coach	-9491
▁decor	-9492
▁depos	-9493
▁drunk	-9494
▁illum	-9495
▁lingu	-9496
▁maneu	-9497
▁mimic	-9498
▁naive	-9499
▁parks	-9500
▁pulls	-9501
▁sends	-9502
▁twist	-9503
osexual	-9504
ressing	-9505
vestock	-9506
▁Gandhi	-9507
▁claims	-9508
▁denial	-9509
▁elabor	-9510
▁emails	-9511
▁grades	-9512
▁mentor	-9513
▁prepar	-9514
ffective	-9515
▁Clinton	-9516
▁authors	-9517
▁belongs	-9518
▁biomass	-9519
▁bridges	-9520
▁carries	-9521
▁cluster	-9522
▁deepest	-9523
▁default	-9524
▁filling	-9525
▁glimpse	-9526
▁handful	-9527
▁hopeful	-9528
▁landing	-9529
▁nearest	-9530
▁reaches	-9531
▁teaches	-9532
▁Benjamin	-9533
▁McDonald	-9534
▁Probably	-9535
▁announce	-9536
▁barriers	-9537
▁boundary	-9538
▁deployed	-9539
▁dropping	-9540
▁gorgeous	-9541
▁hometown	-9542
▁hopeless	-9543
▁incorpor	-9544
▁informal	-9545
▁promised	-9546
▁proposal	-9547
▁shocking	-9548
▁vaccines	-9549
▁Aristotle	-9550
▁candidate	-9551
▁formation	-9552
▁intensity	-9553
▁livestock	-9554
▁resistant	-9555
▁statistic	-9556
▁surgeries	-9557
▁textbooks	-9558
▁universes	-9559
▁phenomenal	-9560
▁privileged	-9561
▁suggestion	-9562
▁variations	-9563
▁frightening	-9564
▁programmers	-9565
▁theoretical	-9566
▁alternatives	-9567
▁embarrassing	-9568
▁observations	-9569
▁mathematician	-9570
▁transformative	-9571
As	-9572
BC	-9573
ga	-9574
tt	-9575
She	-9576
gie	-9577
har	-9578
mat	-9579
nat	-9580
net	-9581
obb	-9582
pos	-9583
vir	-9584
▁29	-9585
▁Ba	-9586
▁du	-9587
▁je	-9588
city	-9589
esty	-9590
etti	-9591
gend	-9592
rane	-9593
ules	-9594
wart	-9595
▁12,	-9596
▁Bol	-9597
▁Men	-9598
▁Pot	-9599
▁Ver	-9600
▁Wol	-9601
▁ego	-9602
aired	-9603
ament	-9604
aware	-9605
cover	-9606
ellow	-9607
epher	-9608
raine	-9609
▁Lear	-9610
▁Mass	-9611
▁Turk	-9612
▁blew	-9613
▁chew	-9614
▁mant	-9615
▁prec	-9616
▁quar	-9617
▁rabb	-9618
▁radi	-9619
▁subm	-9620
▁ties	-9621
arrhea	-9622
driven	-9623
iances	-9624
racies	-9625
▁2004,	-9626
▁Cyrus	-9627
▁Laden	-9628
▁Media	-9629
▁Water	-9630
▁blink	-9631
▁boots	-9632
▁brush	-9633
▁bulbs	-9634
▁camel	-9635
▁cream	-9636
▁fence	-9637
▁flock	-9638
▁gains	-9639
▁grave	-9640
▁hated	-9641
▁infer	-9642
▁mobil	-9643
▁obese	-9644
▁pulse	-9645
▁reass	-9646
▁recre	-9647
▁spare	-9648
▁sweat	-9649
▁watts	-9650
▁wrist	-9651
bsolute	-9652
▁Arabia	-9653
▁Greece	-9654
▁Pretty	-9655
▁fluctu	-9656
▁helium	-9657
▁horses	-9658
▁immort	-9659
▁lonely	-9660
▁pestic	-9661
▁riding	-9662
▁sensit	-9663
▁sovere	-9664
▁unfold	-9665
▁wishes	-9666
etheless	-9667
function	-9668
ventions	-9669
▁Stephen	-9670
▁antenna	-9671
▁banking	-9672
▁coastal	-9673
▁congest	-9674
▁crossed	-9675
▁elegant	-9676
▁hacking	-9677
▁heavily	-9678
▁hostile	-9679
▁planted	-9680
▁rewards	-9681
▁sectors	-9682
▁strands	-9683
▁trapped	-9684
▁venture	-9685
▁welfare	-9686
▁Interest	-9687
▁Nigerian	-9688
▁Olympics	-9689
▁Virginia	-9690
▁activate	-9691
▁contempl	-9692
▁criteria	-9693
▁cylinder	-9694
▁hormones	-9695
▁switched	-9696
▁transist	-9697
▁visually	-9698
▁Parkinson	-9699
▁abandoned	-9700
▁administr	-9701
▁asteroids	-9702
▁attracted	-9703
▁comparing	-9704
▁deception	-9705
▁delicious	-9706
▁favorites	-9707
▁machinery	-9708
▁realistic	-9709
▁responded	-9710
▁screaming	-9711
▁shoulders	-9712
▁terrified	-9713
▁visualize	-9714
▁destroying	-9715
▁discussing	-9716
▁documented	-9717
▁exceptions	-9718
▁microphone	-9719
▁spacecraft	-9720
▁computational	-9721
▁systematically	-9722
40	-9723
fly	-9724
hot	-9725
via	-9726
zes	-9727
▁Gr	-9728
Come	-9729
agan	-9730
alem	-9731
anas	-9732
bees	-9733
cher	-9734
eren	-9735
hear	-9736
inci	-9737
itar	-9738
long	-9739
mind	-9740
offs	-9741
unks	-9742
ylon	-9743
▁Bre	-9744
▁Hol	-9745
▁Pop	-9746
▁Tar	-9747
▁Val	-9748
▁pla	-9749
arten	-9750
asive	-9751
atoes	-9752
cribe	-9753
eping	-9754
erals	-9755
ifies	-9756
three	-9757
umbai	-9758
▁Brad	-9759
▁Ever	-9760
▁Hosp	-9761
▁Mond	-9762
▁Penn	-9763
▁Pitt	-9764
▁buff	-9765
▁herd	-9766
▁logo	-9767
▁mixt	-9768
▁pipe	-9769
▁prey	-9770
▁thus	-9771
▁wins	-9772
coming	-9773
culiar	-9774
enance	-9775
ifting	-9776
income	-9777
▁Harry	-9778
▁ambit	-9779
▁arbit	-9780
▁artic	-9781
▁bleed	-9782
▁boost	-9783
▁cheat	-9784
▁chess	-9785
▁consp	-9786
▁facil	-9787
▁freak	-9788
▁gross	-9789
▁index	-9790
▁lists	-9791
▁messy	-9792
▁picks	-9793
▁rhyth	-9794
▁stamp	-9795
▁texts	-9796
▁vivid	-9797
▁voted	-9798
faction	-9799
percent	-9800
▁Argent	-9801
▁Arthur	-9802
▁Disney	-9803
▁Joseph	-9804
▁Ladies	-9805
▁Mozart	-9806
▁Mumbai	-9807
▁Social	-9808
▁Steven	-9809
▁cattle	-9810
▁cockro	-9811
▁copies	-9812
▁donors	-9813
▁horror	-9814
▁lethal	-9815
▁nightm	-9816
▁racing	-9817
▁revers	-9818
▁rotate	-9819
▁shower	-9820
▁strain	-9821
▁trauma	-9822
▁virgin	-9823
▁winner	-9824
▁History	-9825
▁chronic	-9826
▁descend	-9827
▁earning	-9828
▁eastern	-9829
▁exploit	-9830
▁gallery	-9831
▁happily	-9832
▁kidding	-9833
▁laughed	-9834
▁periods	-9835
▁powered	-9836
▁retreat	-9837
▁scaling	-9838
▁screens	-9839
▁spiders	-9840
▁Catholic	-9841
▁accuracy	-9842
▁alphabet	-9843
▁angiogen	-9844
▁expanded	-9845
▁forecast	-9846
▁indicate	-9847
▁momentum	-9848
▁peculiar	-9849
▁prisoner	-9850
▁underest	-9851
▁websites	-9852
▁Greenland	-9853
▁eliminate	-9854
▁recession	-9855
▁sequences	-9856
▁determines	-9857
▁enterprise	-9858
▁irrational	-9859
▁prototypes	-9860
▁undergradu	-9861
▁concentrate	-9862
▁cooperative	-9863
▁discussions	-9864
▁preparation	-9865
▁specialized	-9866
▁understands	-9867
▁accelerating	-9868
▁contribution	-9869
▁overwhelming	-9870
▁philanthropy	-9871
▁interventions	-9872
ki	-9873
mo	-9874
aza	-9875
bag	-9876
ker	-9877
lor	-9878
nut	-9879
oen	-9880
▁..	-9881
▁37	-9882
▁BM	-9883
▁DP	-9884
▁Di	-9885
▁EM	-9886
▁Ky	-9887
▁Ol	-9888
▁SP	-9889
lers	-9890
olen	-9891
page	-9892
uana	-9893
ylac	-9894
▁190	-9895
▁Ast	-9896
▁Tre	-9897
▁avo	-9898
▁awe	-9899
▁ger	-9900
▁loo	-9901
▁mat	-9902
▁mud	-9903
▁sel	-9904
▁tur	-9905
▁wow	-9906
abeth	-9907
digit	-9908
ellig	-9909
ierra	-9910
iolet	-9911
viron	-9912
▁Abed	-9913
▁Army	-9914
▁Bern	-9915
▁Bosn	-9916
▁Cape	-9917
▁Hind	-9918
▁Norm	-9919
▁apps	-9920
▁impr	-9921
▁lion	-9922
▁porn	-9923
▁seal	-9924
▁sole	-9925
▁surg	-9926
▁toss	-9927
▁turt	-9928
▁voca	-9929
▁ward	-9930
▁worm	-9931
normal	-9932
umbled	-9933
unting	-9934
▁Bruno	-9935
▁Civil	-9936
▁Indus	-9937
▁Kevin	-9938
▁Stone	-9939
▁Turns	-9940
▁alarm	-9941
▁blown	-9942
▁careg	-9943
▁crude	-9944
▁ingen	-9945
▁loses	-9946
▁marks	-9947
▁mater	-9948
▁meets	-9949
▁mycel	-9950
▁penal	-9951
▁rains	-9952
▁scaff	-9953
▁sheer	-9954
▁shops	-9955
▁sizes	-9956
▁Michel	-9957
▁Rather	-9958
▁advers	-9959
▁cables	-9960
▁canvas	-9961
▁dispar	-9962
▁divers	-9963
▁evapor	-9964
▁flavor	-9965
▁frames	-9966
▁gravit	-9967
▁harbor	-9968
▁hybrid	-9969
▁iconic	-9970
▁kicked	-9971
▁lifted	-9972
▁mating	-9973
▁retail	-9974
▁shifts	-9975
▁summit	-9976
▁unlock	-9977
ergarten	-9978
ortunate	-9979
▁Iranian	-9980
▁Journal	-9981
▁Seattle	-9982
▁Society	-9983
▁acquire	-9984
▁climbed	-9985
▁enlight	-9986
▁fantasy	-9987
▁hackers	-9988
▁inhabit	-9989
▁labeled	-9990
▁logging	-9991
▁matched	-9992
▁optical	-9993
▁pouring	-9994
▁swallow	-9995
▁trading	-9996
▁western	-9997
mentation	-9998
▁adoption	-9999
▁division	-10000
▁evolving	-10001
▁inventor	-10002
▁multiply	-10003
▁pleasant	-10004
▁revealed	-10005
▁surgeons	-10006
▁ambitious	-10007
▁answering	-10008
▁convicted	-10009
▁expressed	-10010
▁fisheries	-10011
▁imagining	-10012
▁mutations	-10013
▁reasoning	-10014
▁adolescent	-10015
▁households	-10016
▁professors	-10017
▁prosthetic	-10018
▁separation	-10019
▁sequencing	-10020
▁destination	-10021
▁distinguish	-10022
▁emotionally	-10023
▁overwhelmed	-10024
▁Organization	-10025
▁approximately	-10026
▁accountability	-10027
RA	-10028
tz	-10029
vy	-10030
ila	-10031
▁Kh	-10032
▁Wi	-10033
▁tu	-10034
▁vo	-10035
aken	-10036
ials	-10037
▁Def	-10038
▁Dub	-10039
▁Has	-10040
▁Kir	-10041
▁Mos	-10042
▁Nam	-10043
▁Ron	-10044
▁Sec	-10045
▁Tra	-10046
▁Van	-10047
▁pad	-10048
▁rap	-10049
▁rip	-10050
▁unw	-10051
▁vel	-10052
▁zoo	-10053
gener	-10054
inity	-10055
iracy	-10056
keley	-10057
oenix	-10058
olera	-10059
osity	-10060
ouses	-10061
proof	-10062
restr	-10063
▁Chap	-10064
▁Educ	-10065
▁Ross	-10066
▁carc	-10067
▁carp	-10068
▁caus	-10069
▁coin	-10070
▁cube	-10071
▁dood	-10072
▁fest	-10073
▁hint	-10074
▁jack	-10075
▁neoc	-10076
▁piss	-10077
▁symp	-10078
▁tags	-10079
▁torn	-10080
Please	-10081
epherd	-10082
ijuana	-10083
istine	-10084
ometer	-10085
▁Craig	-10086
▁Louis	-10087
▁Sarah	-10088
▁Tibet	-10089
▁Tunis	-10090
▁Young	-10091
▁acids	-10092
▁album	-10093
▁align	-10094
▁couch	-10095
▁crows	-10096
▁ethic	-10097
▁float	-10098
▁grant	-10099
▁lifel	-10100
▁panic	-10101
▁probe	-10102
▁reper	-10103
▁scans	-10104
▁unint	-10105
violent	-10106
▁25,000	-10107
▁Daniel	-10108
▁Norden	-10109
▁Spring	-10110
▁argued	-10111
▁corrid	-10112
▁depart	-10113
▁format	-10114
▁kidney	-10115
▁passes	-10116
▁plates	-10117
▁preced	-10118
▁selves	-10119
▁slower	-10120
▁smells	-10121
▁themes	-10122
▁triang	-10123
▁Mexican	-10124
▁Olympic	-10125
▁envelop	-10126
▁exagger	-10127
▁grocery	-10128
▁heating	-10129
▁outrage	-10130
▁planned	-10131
▁playful	-10132
▁pleased	-10133
▁rehabil	-10134
▁streams	-10135
▁telecom	-10136
▁utterly	-10137
bsolutely	-10138
▁Berkeley	-10139
▁analyzed	-10140
▁freezing	-10141
▁gasoline	-10142
▁mutation	-10143
▁pathways	-10144
▁priority	-10145
▁publicly	-10146
▁redesign	-10147
▁rejected	-10148
▁seawater	-10149
▁sexually	-10150
▁sometime	-10151
▁thrilled	-10152
▁youngest	-10153
cyclopedia	-10154
▁acknowled	-10155
▁anonymous	-10156
▁astronomy	-10157
▁commodity	-10158
▁emergence	-10159
▁geography	-10160
▁longevity	-10161
▁negotiate	-10162
▁parachute	-10163
▁tolerance	-10164
▁witnessed	-10165
▁Christians	-10166
▁candidates	-10167
▁conceptual	-10168
▁critically	-10169
▁delivering	-10170
▁girlfriend	-10171
▁ingredient	-10172
▁organizing	-10173
▁practicing	-10174
▁coordination	-10175
▁economically	-10176
▁introduction	-10177
▁representative	-10178
Ah	-10179
bu	-10180
gr	-10181
Now	-10182
kyo	-10183
▁48	-10184
▁72	-10185
▁DR	-10186
▁ID	-10187
alia	-10188
burg	-10189
inos	-10190
osov	-10191
plic	-10192
star	-10193
▁130	-10194
▁203	-10195
▁Mid	-10196
▁nap	-10197
▁nic	-10198
▁sib	-10199
brush	-10200
matic	-10201
month	-10202
plete	-10203
▁..."	-10204
▁1930	-10205
▁Cold	-10206
▁Jews	-10207
▁Plan	-10208
▁asth	-10209
▁blur	-10210
▁calc	-10211
▁cope	-10212
▁craw	-10213
▁dare	-10214
▁indu	-10215
▁lean	-10216
▁semi	-10217
▁unle	-10218
▁wore	-10219
ection	-10220
olitan	-10221
violet	-10222
▁1,500	-10223
▁Alask	-10224
▁Trade	-10225
▁buses	-10226
▁cares	-10227
▁guerr	-10228
▁juven	-10229
▁nasty	-10230
▁resur	-10231
▁risky	-10232
▁roofs	-10233
▁slice	-10234
▁trips	-10235
▁usage	-10236
atories	-10237
enhagen	-10238
izabeth	-10239
▁60,000	-10240
▁Hawaii	-10241
▁Office	-10242
▁Wright	-10243
▁counts	-10244
▁exquis	-10245
▁grains	-10246
▁insert	-10247
▁modest	-10248
▁pigeon	-10249
▁precip	-10250
▁raises	-10251
▁stabil	-10252
▁stolen	-10253
▁temple	-10254
▁Atlanta	-10255
▁Kingdom	-10256
▁Lebanon	-10257
▁assumed	-10258
▁blowing	-10259
▁compreh	-10260
▁compute	-10261
▁condoms	-10262
▁creator	-10263
▁digging	-10264
▁endless	-10265
▁injured	-10266
▁lottery	-10267
▁rescued	-10268
▁returns	-10269
▁shaking	-10270
▁shining	-10271
▁stadium	-10272
▁whoever	-10273
▁TEDTalks	-10274
▁Whenever	-10275
▁assembly	-10276
▁calculus	-10277
▁cheating	-10278
▁detector	-10279
▁diarrhea	-10280
▁intimate	-10281
▁mentally	-10282
▁talented	-10283
▁terrific	-10284
▁variable	-10285
ographical	-10286
▁alongside	-10287
▁associate	-10288
▁collision	-10289
▁converted	-10290
▁integrate	-10291
▁parenting	-10292
▁Copenhagen	-10293
▁accelerate	-10294
▁employment	-10295
▁enormously	-10296
▁horizontal	-10297
▁metabolism	-10298
▁networking	-10299
▁priorities	-10300
▁sculptures	-10301
▁systematic	-10302
▁translator	-10303
▁collaborate	-10304
▁enforcement	-10305
▁integration	-10306
▁recognizing	-10307
▁transported	-10308
▁ultraviolet	-10309
▁unfortunate	-10310
▁angiogenesis	-10311
▁chemotherapy	-10312
▁kindergarten	-10313
▁representing	-10314
▁significance	-10315
▁authoritarian	-10316
▁deforestation	-10317
NC	-10318
▁]	-10319
Man	-10320
afe	-10321
dra	-10322
ecd	-10323
psy	-10324
▁4.	-10325
▁Bh	-10326
▁Gi	-10327
AIDS	-10328
agra	-10329
aver	-10330
beat	-10331
eyed	-10332
irms	-10333
oked	-10334
omed	-10335
pack	-10336
▁'50	-10337
▁30,	-10338
▁Fed	-10339
▁Mat	-10340
▁Nep	-10341
anium	-10342
asure	-10343
athon	-10344
elect	-10345
front	-10346
ogens	-10347
oured	-10348
ubble	-10349
▁Fund	-10350
▁Jord	-10351
▁Kids	-10352
▁Know	-10353
▁Libr	-10354
▁Prot	-10355
▁adds	-10356
▁dele	-10357
▁demo	-10358
▁epip	-10359
▁epis	-10360
▁fier	-10361
▁foie	-10362
▁glor	-10363
▁mild	-10364
▁mini	-10365
▁odor	-10366
▁pays	-10367
▁scal	-10368
▁stew	-10369
▁warr	-10370
ancers	-10371
ending	-10372
estone	-10373
iments	-10374
orters	-10375
shaped	-10376
▁Kosov	-10377
▁Tokyo	-10378
▁acres	-10379
▁anecd	-10380
▁candy	-10381
▁drain	-10382
▁escal	-10383
▁favel	-10384
▁feeds	-10385
▁frogs	-10386
▁knees	-10387
▁manus	-10388
▁obser	-10389
▁revel	-10390
▁squid	-10391
▁steep	-10392
▁woods	-10393
ilation	-10394
onsense	-10395
umbling	-10396
▁Joshua	-10397
▁Korean	-10398
▁Nether	-10399
▁Sierra	-10400
▁allies	-10401
▁copied	-10402
▁deadly	-10403
▁digest	-10404
▁eighth	-10405
▁losses	-10406
▁presum	-10407
▁regist	-10408
▁rolled	-10409
▁sooner	-10410
▁thylac	-10411
▁unfair	-10412
▁unseen	-10413
▁weighs	-10414
computer	-10415
▁150,000	-10416
▁Academy	-10417
▁Charlie	-10418
▁Everest	-10419
▁Medical	-10420
▁airline	-10421
▁cholera	-10422
▁counted	-10423
▁couples	-10424
▁damaged	-10425
▁filters	-10426
▁folding	-10427
▁fulfill	-10428
▁grabbed	-10429
▁melting	-10430
▁reserve	-10431
▁richest	-10432
▁seventh	-10433
▁shorter	-10434
▁squares	-10435
▁travels	-10436
▁visions	-10437
▁weekend	-10438
▁wrapped	-10439
ationally	-10440
▁Canadian	-10441
▁Hospital	-10442
▁acquired	-10443
▁actively	-10444
▁autistic	-10445
▁deciding	-10446
▁explored	-10447
▁gestures	-10448
▁ideology	-10449
▁membrane	-10450
▁parasite	-10451
▁remotely	-10452
▁sticking	-10453
▁supernov	-10454
▁targeted	-10455
▁vacation	-10456
▁visiting	-10457
ustainable	-10458
▁According	-10459
▁Similarly	-10460
▁achieving	-10461
▁bacterium	-10462
▁desperate	-10463
▁diplomacy	-10464
▁disasters	-10465
▁elaborate	-10466
▁embracing	-10467
▁generates	-10468
▁migration	-10469
▁millennia	-10470
▁mosquitos	-10471
▁offspring	-10472
▁platforms	-10473
▁producers	-10474
▁screening	-10475
▁vegetable	-10476
▁confronted	-10477
▁describing	-10478
▁hemisphere	-10479
▁projection	-10480
▁renewables	-10481
▁symmetries	-10482
▁Netherlands	-10483
▁Palestinian	-10484
▁documentary	-10485
▁maintenance	-10486
▁contributing	-10487
▁philosophical	-10488
TC	-10489
eem	-10490
mes	-10491
nik	-10492
orr	-10493
wan	-10494
▁Av	-10495
▁Ra	-10496
,500	-10497
aman	-10498
amps	-10499
bean	-10500
fire	-10501
held	-10502
igan	-10503
laim	-10504
nedy	-10505
orse	-10506
oves	-10507
step	-10508
ucks	-10509
unes	-10510
wing	-10511
▁Gol	-10512
▁Mas	-10513
▁Mer	-10514
▁Pen	-10515
▁Say	-10516
▁Syl	-10517
▁cin	-10518
▁cul	-10519
▁rac	-10520
▁voy	-10521
▁wre	-10522
▁yog	-10523
Would	-10524
ambod	-10525
ctive	-10526
oters	-10527
ponds	-10528
speed	-10529
urday	-10530
urger	-10531
▁Mall	-10532
▁Phot	-10533
▁Tues	-10534
▁Zimb	-10535
▁beef	-10536
▁bowl	-10537
▁cups	-10538
▁curt	-10539
▁fuck	-10540
▁hamb	-10541
▁holy	-10542
▁kidn	-10543
▁merg	-10544
▁obso	-10545
▁ster	-10546
▁vice	-10547
boards	-10548
bulary	-10549
usalem	-10550
▁2003,	-10551
▁Alice	-10552
▁Larry	-10553
▁Light	-10554
▁Sudan	-10555
▁advis	-10556
▁blast	-10557
▁dread	-10558
▁fired	-10559
▁flesh	-10560
▁pound	-10561
▁wrest	-10562
▁yeast	-10563
ictions	-10564
ologies	-10565
rection	-10566
▁12,000	-10567
▁Cambod	-10568
▁Monday	-10569
▁Secret	-10570
▁abroad	-10571
▁accent	-10572
▁aliens	-10573
▁asleep	-10574
▁boards	-10575
▁brands	-10576
▁cataly	-10577
▁empath	-10578
▁equals	-10579
▁exotic	-10580
▁firing	-10581
▁guards	-10582
▁mammal	-10583
▁mapped	-10584
▁refuse	-10585
▁warmer	-10586
▁Kennedy	-10587
▁Library	-10588
▁Stewart	-10589
▁Tuesday	-10590
▁cardiac	-10591
▁columns	-10592
▁flights	-10593
▁longest	-10594
▁priorit	-10595
▁segment	-10596
▁shifted	-10597
▁talents	-10598
▁trusted	-10599
▁Egyptian	-10600
▁Saturday	-10601
▁annivers	-10602
▁attempts	-10603
▁cocktail	-10604
▁defining	-10605
▁entities	-10606
▁envision	-10607
▁innovate	-10608
▁internet	-10609
▁lifespan	-10610
▁managing	-10611
▁maneuver	-10612
▁minority	-10613
▁mycelium	-10614
▁protocol	-10615
▁scaffold	-10616
▁Jerusalem	-10617
▁astronaut	-10618
▁celebrity	-10619
▁extensive	-10620
▁illusions	-10621
▁indicates	-10622
▁integrity	-10623
▁magazines	-10624
▁mushrooms	-10625
▁pressures	-10626
▁disturbing	-10627
▁infectious	-10628
▁intentions	-10629
▁interfaces	-10630
▁predicting	-10631
▁preventing	-10632
▁profitable	-10633
▁vocabulary	-10634
▁Fortunately	-10635
▁Republicans	-10636
▁celebration	-10637
▁considering	-10638
▁corresponds	-10639
▁embarrassed	-10640
▁frustration	-10641
▁investigate	-10642
▁investments	-10643
▁practically	-10644
▁revolutions	-10645
▁sensitivity	-10646
▁symmetrical	-10647
▁catastrophic	-10648
▁headquarters	-10649
▁hallucinations	-10650
Go	-10651
hr	-10652
no	-10653
idi	-10654
pol	-10655
▁31	-10656
▁46	-10657
▁Ok	-10658
▁oy	-10659
anna	-10660
chem	-10661
elle	-10662
iatr	-10663
idal	-10664
mass	-10665
size	-10666
teen	-10667
▁1.2	-10668
▁11,	-10669
▁12-	-10670
▁FDA	-10671
▁Jup	-10672
▁Mel	-10673
▁eru	-10674
▁jam	-10675
arded	-10676
berry	-10677
ching	-10678
eting	-10679
glect	-10680
grand	-10681
graph	-10682
piece	-10683
pound	-10684
thood	-10685
▁Book	-10686
▁Free	-10687
▁Sand	-10688
▁Show	-10689
▁beam	-10690
▁cage	-10691
▁dens	-10692
▁depr	-10693
▁disk	-10694
▁node	-10695
▁outl	-10696
▁oven	-10697
▁panc	-10698
▁rank	-10699
▁rays	-10700
▁reck	-10701
▁sque	-10702
▁unac	-10703
action	-10704
alysis	-10705
asters	-10706
escope	-10707
formed	-10708
ghetti	-10709
handed	-10710
imalay	-10711
ograms	-10712
ricane	-10713
stairs	-10714
uminum	-10715
vasive	-10716
▁2006,	-10717
▁Heart	-10718
▁Story	-10719
▁entit	-10720
▁hills	-10721
▁hoped	-10722
▁infra	-10723
▁loans	-10724
▁octop	-10725
▁paste	-10726
▁posed	-10727
▁slope	-10728
▁tanks	-10729
▁towns	-10730
imeters	-10731
issance	-10732
quality	-10733
raising	-10734
▁Alaska	-10735
▁Luther	-10736
▁Notice	-10737
▁absurd	-10738
▁angles	-10739
▁beside	-10740
▁calend	-10741
▁cathed	-10742
▁enrich	-10743
▁famine	-10744
▁foster	-10745
▁graphs	-10746
▁handed	-10747
▁insist	-10748
▁jungle	-10749
▁marker	-10750
▁metals	-10751
▁potent	-10752
▁punish	-10753
▁scheme	-10754
▁server	-10755
▁speeds	-10756
▁submit	-10757
▁tagged	-10758
▁tomato	-10759
▁viewed	-10760
▁virtue	-10761
▁viscer	-10762
▁waited	-10763
▁wasted	-10764
ependent	-10765
ountered	-10766
pectives	-10767
▁Country	-10768
▁Environ	-10769
▁Himalay	-10770
▁Jupiter	-10771
▁Montana	-10772
▁altered	-10773
▁beetles	-10774
▁charged	-10775
▁clarity	-10776
▁decides	-10777
▁desktop	-10778
▁eternal	-10779
▁farther	-10780
▁honored	-10781
▁impress	-10782
▁luckily	-10783
▁neglect	-10784
▁ordered	-10785
▁penalty	-10786
▁reforms	-10787
▁spatial	-10788
▁sulfide	-10789
▁thereby	-10790
conscious	-10791
inational	-10792
▁Together	-10793
▁assemble	-10794
▁autonomy	-10795
▁basement	-10796
▁elevator	-10797
▁entrance	-10798
▁frontier	-10799
▁habitats	-10800
▁heritage	-10801
▁motivate	-10802
▁obsolete	-10803
▁peripher	-10804
▁pipeline	-10805
▁receptor	-10806
▁revenues	-10807
▁simulate	-10808
▁surgical	-10809
▁tangible	-10810
▁triangle	-10811
ifications	-10812
▁artifacts	-10813
▁consuming	-10814
▁contained	-10815
▁dictators	-10816
▁emphasize	-10817
▁portraits	-10818
▁precision	-10819
▁principal	-10820
▁promoting	-10821
▁replacing	-10822
▁reporting	-10823
▁acceptance	-10824
▁addressing	-10825
▁chromosome	-10826
▁disappears	-10827
▁relativity	-10828
▁responding	-10829
▁correlation	-10830
▁democracies	-10831
▁encountered	-10832
▁implemented	-10833
▁microscopic	-10834
▁statistical	-10835
▁dictionaries	-10836
▁disappointed	-10837
▁improvements	-10838
▁philosophers	-10839
▁prescription	-10840
▁satisfaction	-10841
▁exponentially	-10842
?'	-10843
pa	-10844
300	-10845
Did	-10846
ano	-10847
isc	-10848
low	-10849
vol	-10850
wid	-10851
▁CP	-10852
▁MO	-10853
▁MS	-10854
▁Wo	-10855
▁eB	-10856
▁gy	-10857
Cola	-10858
abwe	-10859
asha	-10860
ccer	-10861
ccol	-10862
hors	-10863
lets	-10864
olas	-10865
pres	-10866
ptic	-10867
ucky	-10868
umbs	-10869
umen	-10870
▁15,	-10871
▁Gar	-10872
▁Inc	-10873
▁Lew	-10874
▁Luc	-10875
▁Naz	-10876
▁RNA	-10877
▁arc	-10878
▁fog	-10879
▁hut	-10880
▁lex	-10881
▁mas	-10882
▁owe	-10883
▁rod	-10884
Point	-10885
actic	-10886
ccoli	-10887
ennis	-10888
heads	-10889
illas	-10890
iumph	-10891
thals	-10892
uster	-10893
▁Band	-10894
▁Bert	-10895
▁Coca	-10896
▁Desp	-10897
▁Lead	-10898
▁Mean	-10899
▁Nick	-10900
▁Stop	-10901
▁belt	-10902
▁bond	-10903
▁bust	-10904
▁cycl	-10905
▁debr	-10906
▁enab	-10907
▁puff	-10908
▁shed	-10909
▁toll	-10910
ailand	-10911
ements	-10912
ilated	-10913
minded	-10914
ounded	-10915
rhythm	-10916
▁8,000	-10917
▁Apoll	-10918
▁Beach	-10919
▁Broad	-10920
▁Creat	-10921
▁Venus	-10922
▁acute	-10923
▁alert	-10924
▁alter	-10925
▁asset	-10926
▁clips	-10927
▁clues	-10928
▁discl	-10929
▁divid	-10930
▁drama	-10931
▁fails	-10932
▁greet	-10933
▁harsh	-10934
▁heter	-10935
▁laund	-10936
▁noisy	-10937
▁pants	-10938
▁pipes	-10939
▁rigid	-10940
▁rises	-10941
▁seals	-10942
▁slave	-10943
▁stare	-10944
▁taboo	-10945
▁yards	-10946
inished	-10947
iterate	-10948
ructive	-10949
▁Recent	-10950
▁Sylvia	-10951
▁apples	-10952
▁assure	-10953
▁beetle	-10954
▁behold	-10955
▁candle	-10956
▁casual	-10957
▁contag	-10958
▁courts	-10959
▁cracks	-10960
▁dishes	-10961
▁exceed	-10962
▁filmed	-10963
▁floors	-10964
▁folded	-10965
▁fruits	-10966
▁ironic	-10967
▁marrow	-10968
▁mature	-10969
▁occupy	-10970
▁resemb	-10971
▁serves	-10972
▁spiral	-10973
▁stairs	-10974
▁steady	-10975
▁submar	-10976
▁timing	-10977
▁traces	-10978
ifferent	-10979
▁Phoenix	-10980
▁applies	-10981
▁blessed	-10982
▁budgets	-10983
▁consent	-10984
▁counsel	-10985
▁exhibit	-10986
▁greatly	-10987
▁liberty	-10988
▁markers	-10989
▁mirrors	-10990
▁mixture	-10991
▁passage	-10992
▁praying	-10993
▁refused	-10994
▁sensing	-10995
▁shelves	-10996
▁shortly	-10997
▁squeeze	-10998
▁strikes	-10999
▁surveys	-11000
▁texting	-11001
▁tightly	-11002
▁warrior	-11003
▁Consider	-11004
▁Portugal	-11005
▁Thailand	-11006
▁Zimbabwe	-11007
▁accommod	-11008
▁chapters	-11009
▁checking	-11010
▁consists	-11011
▁democrat	-11012
▁deserves	-11013
▁friction	-11014
▁improvis	-11015
▁magician	-11016
▁regional	-11017
▁resident	-11018
▁shepherd	-11019
▁stressed	-11020
▁symbolic	-11021
▁thinkers	-11022
▁thorough	-11023
▁uniquely	-11024
▁weakness	-11025
controlled	-11026
▁Elizabeth	-11027
▁Jefferson	-11028
▁Telescope	-11029
▁Therefore	-11030
▁biosphere	-11031
▁blueprint	-11032
▁cardboard	-11033
▁countless	-11034
▁fishermen	-11035
▁involving	-11036
▁isolation	-11037
▁judgments	-11038
▁obsession	-11039
▁resilient	-11040
▁secondary	-11041
▁spaghetti	-11042
▁staircase	-11043
▁surviving	-11044
▁apartments	-11045
▁disruptive	-11046
▁frightened	-11047
▁inherently	-11048
▁inventions	-11049
▁millimeter	-11050
▁programmed	-11051
▁anniversary	-11052
▁calculation	-11053
▁disciplines	-11054
▁empowerment	-11055
▁frequencies	-11056
▁psychiatric	-11057
▁Neanderthals	-11058
▁appreciation	-11059
▁authenticity	-11060
▁collaborators	-11061
▁configuration	-11062
▁gravitational	-11063
▁multinational	-11064
▁participating	-11065
▁spontaneously	-11066
▁scientifically	-11067
▁entrepreneurial	-11068
10	-11069
ES	-11070
HA	-11071
Le	-11072
cod	-11073
eys	-11074
gon	-11075
ili	-11076
iva	-11077
omy	-11078
urf	-11079
zzy	-11080
▁44	-11081
▁AG	-11082
▁Ir	-11083
▁MA	-11084
▁Sk	-11085
acqu	-11086
aire	-11087
ican	-11088
ogan	-11089
oter	-11090
pace	-11091
▁Add	-11092
▁Ang	-11093
▁Dal	-11094
▁Old	-11095
▁Ram	-11096
▁Tem	-11097
▁Vol	-11098
▁bay	-11099
▁caf	-11100
▁gad	-11101
▁pix	-11102
ancer	-11103
ittee	-11104
ourse	-11105
roots	-11106
▁Gard	-11107
▁Hung	-11108
▁Keep	-11109
▁Less	-11110
▁Milo	-11111
▁Oper	-11112
▁Such	-11113
▁Tele	-11114
▁apes	-11115
▁appe	-11116
▁beds	-11117
▁edit	-11118
▁folk	-11119
▁font	-11120
▁glow	-11121
▁goat	-11122
▁hump	-11123
▁lips	-11124
▁lump	-11125
▁nano	-11126
▁narc	-11127
▁sang	-11128
▁tale	-11129
▁unim	-11130
▁yard	-11131
cribed	-11132
ieties	-11133
ulator	-11134
verted	-11135
▁2011,	-11136
▁Danny	-11137
▁Fried	-11138
▁Georg	-11139
▁Guard	-11140
▁Milky	-11141
▁Namib	-11142
▁Qaeda	-11143
▁Small	-11144
▁Syria	-11145
▁bribe	-11146
▁brick	-11147
▁chase	-11148
▁draws	-11149
▁freed	-11150
▁ghost	-11151
▁jumps	-11152
▁loyal	-11153
▁poems	-11154
▁recur	-11155
▁slept	-11156
▁spite	-11157
▁suits	-11158
▁surre	-11159
▁tiger	-11160
million	-11161
natural	-11162
ulative	-11163
▁Buddha	-11164
▁Having	-11165
▁Kansas	-11166
▁brutal	-11167
▁equity	-11168
▁guitar	-11169
▁hugely	-11170
▁hunter	-11171
▁lately	-11172
▁mouths	-11173
▁noises	-11174
▁pollut	-11175
▁powder	-11176
▁psycho	-11177
▁salary	-11178
▁soccer	-11179
▁underm	-11180
▁viable	-11181
▁Certain	-11182
▁Natural	-11183
▁Suppose	-11184
▁appoint	-11185
▁archive	-11186
▁buttons	-11187
▁crashes	-11188
▁dancers	-11189
▁forgive	-11190
▁generic	-11191
▁goodbye	-11192
▁honesty	-11193
▁jumping	-11194
▁matches	-11195
▁onstage	-11196
▁premise	-11197
▁pricing	-11198
▁ratings	-11199
▁silicon	-11200
▁thermal	-11201
izational	-11202
▁Columbia	-11203
▁aluminum	-11204
▁ambition	-11205
▁circular	-11206
▁displays	-11207
▁embodied	-11208
▁feminist	-11209
▁humility	-11210
▁intimacy	-11211
▁memorial	-11212
▁modeling	-11213
▁numerous	-11214
▁passions	-11215
▁purchase	-11216
▁stepping	-11217
▁Meanwhile	-11218
▁activated	-11219
▁bombsight	-11220
▁compounds	-11221
▁cybercrim	-11222
▁demograph	-11223
▁exercises	-11224
▁finishing	-11225
▁kilometer	-11226
▁lightning	-11227
▁metabolic	-11228
▁observing	-11229
▁psychiatr	-11230
▁realities	-11231
▁sexuality	-11232
▁therapist	-11233
▁Absolutely	-11234
▁PowerPoint	-11235
▁accumulate	-11236
▁beneficial	-11237
▁congestion	-11238
▁disconnect	-11239
▁empowering	-11240
▁invitation	-11241
▁journalism	-11242
▁parliament	-11243
▁pedestrian	-11244
▁politician	-11245
▁prevalence	-11246
▁reflective	-11247
▁Development	-11248
▁nonetheless	-11249
▁orientation	-11250
▁progression	-11251
▁rainforests	-11252
▁regulations	-11253
▁replacement	-11254
▁substantial	-11255
▁disabilities	-11256
▁manipulation	-11257
▁presidential	-11258
▁electromagnetic	-11259
Ex	-11260
Fi	-11261
Mom	-11262
asa	-11263
odd	-11264
oof	-11265
vin	-11266
▁'8	-11267
▁BJ	-11268
▁Id	-11269
▁WK	-11270
▁ol	-11271
addy	-11272
adel	-11273
adow	-11274
anch	-11275
anol	-11276
bing	-11277
bral	-11278
eros	-11279
food	-11280
mile	-11281
pted	-11282
rose	-11283
word	-11284
▁1.5	-11285
▁24-	-11286
▁450	-11287
▁50-	-11288
▁DAR	-11289
▁Die	-11290
▁Ear	-11291
▁Hot	-11292
▁Jay	-11293
▁Kib	-11294
▁Nin	-11295
▁Sub	-11296
▁Sum	-11297
▁Top	-11298
▁bip	-11299
▁bos	-11300
▁cum	-11301
▁gel	-11302
▁jaw	-11303
▁kit	-11304
Every	-11305
Thank	-11306
alore	-11307
appro	-11308
idesp	-11309
ilibr	-11310
ilson	-11311
rants	-11312
vance	-11313
▁2008	-11314
▁Dick	-11315
▁Nike	-11316
▁TEDx	-11317
▁Year	-11318
▁alar	-11319
▁aunt	-11320
▁bugs	-11321
▁chat	-11322
▁conj	-11323
▁eats	-11324
▁heck	-11325
▁hurd	-11326
▁pean	-11327
▁perm	-11328
▁slip	-11329
▁solo	-11330
▁thro	-11331
apagos	-11332
obiles	-11333
ocracy	-11334
odynam	-11335
ortion	-11336
ounder	-11337
redict	-11338
school	-11339
ulates	-11340
▁Color	-11341
▁choir	-11342
▁empir	-11343
▁faint	-11344
▁femin	-11345
▁fever	-11346
▁fungi	-11347
▁macro	-11348
▁ridge	-11349
▁shred	-11350
▁snake	-11351
▁twins	-11352
▁wiped	-11353
alities	-11354
conomic	-11355
holders	-11356
ocratic	-11357
ouncing	-11358
umental	-11359
▁Around	-11360
▁Canyon	-11361
▁Empire	-11362
▁Native	-11363
▁Sahara	-11364
▁Yellow	-11365
▁banned	-11366
▁checks	-11367
▁cinema	-11368
▁circul	-11369
▁cosmos	-11370
▁debris	-11371
▁empire	-11372
▁hatred	-11373
▁helmet	-11374
▁intric	-11375
▁mixing	-11376
▁nicely	-11377
▁prayer	-11378
▁stigma	-11379
▁storms	-11380
▁upward	-11381
▁washed	-11382
aggering	-11383
ilibrium	-11384
oriented	-11385
restrial	-11386
▁Alright	-11387
▁Denmark	-11388
▁Despite	-11389
▁amateur	-11390
▁bananas	-11391
▁chasing	-11392
▁dismiss	-11393
▁dreamed	-11394
▁editors	-11395
▁emerges	-11396
▁grammar	-11397
▁iceberg	-11398
▁impulse	-11399
▁joining	-11400
▁lighter	-11401
▁primate	-11402
▁relates	-11403
▁submers	-11404
▁touches	-11405
▁transit	-11406
▁triumph	-11407
▁upright	-11408
idespread	-11409
istically	-11410
ventually	-11411
▁abundant	-11412
▁altruism	-11413
▁ancestor	-11414
▁broccoli	-11415
▁chickens	-11416
▁detected	-11417
▁endeavor	-11418
▁famously	-11419
▁goodness	-11420
▁lectures	-11421
▁minerals	-11422
▁nonsense	-11423
▁obstacle	-11424
▁patience	-11425
▁petition	-11426
▁plankton	-11427
▁promises	-11428
▁reflects	-11429
▁regulate	-11430
▁Bangalore	-11431
▁Galapagos	-11432
▁Tasmanian	-11433
▁analyzing	-11434
▁attacking	-11435
▁breakdown	-11436
▁container	-11437
▁fragments	-11438
▁massively	-11439
▁preserved	-11440
▁processed	-11441
▁processor	-11442
▁respected	-11443
▁returning	-11444
▁skeptical	-11445
▁summarize	-11446
▁sustained	-11447
▁unpredict	-11448
▁voluntary	-11449
▁celebrated	-11450
▁connectome	-11451
▁dependence	-11452
▁fertilizer	-11453
▁intriguing	-11454
▁opposition	-11455
▁physiology	-11456
▁playground	-11457
▁propaganda	-11458
▁regulation	-11459
▁subjective	-11460
▁supportive	-11461
▁adolescence	-11462
▁calculating	-11463
▁chromosomes	-11464
▁documenting	-11465
▁functioning	-11466
▁perceptions	-11467
▁researching	-11468
▁explanations	-11469
▁laboratories	-11470
▁partnerships	-11471
▁perspectives	-11472
▁Interestingly	-11473
▁investigation	-11474
▁rehabilitation	-11475
-2	-11476
HC	-11477
ao	-11478
ja	-11479
One	-11480
aco	-11481
bee	-11482
cup	-11483
lad	-11484
ois	-11485
pay	-11486
run	-11487
sea	-11488
sor	-11489
vil	-11490
weg	-11491
you	-11492
zer	-11493
▁43	-11494
▁Od	-11495
▁PI	-11496
▁UN	-11497
▁Vi	-11498
▁ic	-11499
Good	-11500
amas	-11501
bian	-11502
core	-11503
heel	-11504
iasm	-11505
inch	-11506
mate	-11507
otal	-11508
rays	-11509
soon	-11510
uten	-11511
zler	-11512
▁Arm	-11513
▁Ask	-11514
▁Beh	-11515
▁Bot	-11516
▁McC	-11517
▁Ooh	-11518
▁Pet	-11519
▁Sad	-11520
▁Ted	-11521
▁ape	-11522
▁gor	-11523
▁jan	-11524
▁sty	-11525
ached	-11526
akota	-11527
bling	-11528
ffiti	-11529
fight	-11530
ivals	-11531
pling	-11532
rovir	-11533
width	-11534
▁Cuba	-11535
▁Food	-11536
▁Fred	-11537
▁Lama	-11538
▁Lind	-11539
▁Matt	-11540
▁Post	-11541
▁Slow	-11542
▁Wood	-11543
▁bore	-11544
▁crab	-11545
▁duty	-11546
▁eBay	-11547
▁extr	-11548
▁lane	-11549
▁pose	-11550
▁pron	-11551
▁tide	-11552
▁tips	-11553
▁trap	-11554
▁twin	-11555
▁ware	-11556
ankind	-11557
inding	-11558
lethal	-11559
ndered	-11560
opardy	-11561
rition	-11562
▁Large	-11563
▁Prime	-11564
▁Royal	-11565
▁Start	-11566
▁alleg	-11567
▁bonds	-11568
▁codes	-11569
▁fuzzy	-11570
▁hatch	-11571
▁incar	-11572
▁midst	-11573
▁morph	-11574
▁newly	-11575
▁paths	-11576
▁piles	-11577
▁pumps	-11578
▁repet	-11579
▁sells	-11580
▁toast	-11581
▁towel	-11582
▁tuned	-11583
▁wives	-11584
Because	-11585
develop	-11586
fulness	-11587
iscover	-11588
▁15,000	-11589
▁Cancer	-11590
▁Golden	-11591
▁Greeks	-11592
▁Humans	-11593
▁Julian	-11594
▁Kosovo	-11595
▁Norweg	-11596
▁Philip	-11597
▁admire	-11598
▁angels	-11599
▁benign	-11600
▁copper	-11601
▁cousin	-11602
▁earned	-11603
▁heroin	-11604
▁hooked	-11605
▁imagin	-11606
▁insult	-11607
▁laying	-11608
▁marked	-11609
▁mutual	-11610
▁reserv	-11611
▁scroll	-11612
▁snakes	-11613
▁tribal	-11614
▁update	-11615
▁violin	-11616
▁wished	-11617
velength	-11618
▁Defense	-11619
▁Looking	-11620
▁Teszler	-11621
▁affairs	-11622
▁ashamed	-11623
▁browser	-11624
▁checked	-11625
▁chemist	-11626
▁commons	-11627
▁copying	-11628
▁devoted	-11629
▁dispers	-11630
▁easiest	-11631
▁enthusi	-11632
▁expense	-11633
▁explode	-11634
▁frontal	-11635
▁gardens	-11636
▁leopard	-11637
▁linking	-11638
▁mammoth	-11639
▁minimal	-11640
▁museums	-11641
▁nucleus	-11642
▁octopus	-11643
▁pathway	-11644
▁reveals	-11645
▁rhythms	-11646
▁sadness	-11647
▁squared	-11648
▁viewing	-11649
▁vitamin	-11650
▁warfare	-11651
sociation	-11652
▁admitted	-11653
▁baseline	-11654
▁commonly	-11655
▁composed	-11656
▁confined	-11657
▁gigantic	-11658
▁infrared	-11659
▁juvenile	-11660
▁misunder	-11661
▁operates	-11662
▁outbreak	-11663
▁planting	-11664
▁pressing	-11665
▁siblings	-11666
▁singular	-11667
▁stealing	-11668
▁temporal	-11669
▁galleries	-11670
▁impressed	-11671
▁institute	-11672
▁nightmare	-11673
▁sequenced	-11674
▁stimulate	-11675
▁strengths	-11676
▁struggled	-11677
▁variables	-11678
▁worldview	-11679
engineering	-11680
▁Eventually	-11681
▁accurately	-11682
▁attributes	-11683
▁enthusiasm	-11684
▁generosity	-11685
▁grassroots	-11686
▁presenting	-11687
▁quantities	-11688
▁recognizes	-11689
▁repeatedly	-11690
▁smartphone	-11691
▁staggering	-11692
▁statements	-11693
▁dysfunction	-11694
▁equilibrium	-11695
▁frustrating	-11696
▁storyteller	-11697
▁transmitted	-11698
▁biologically	-11699
▁deliberately	-11700
▁disappearing	-11701
▁individually	-11702
▁refrigerator	-11703
▁reproduction	-11704
▁consideration	-11705
▁personalities	-11706
▁characteristic	-11707
.]	-11708
Ar	-11709
IA	-11710
sm	-11711
▁:	-11712
11,	-11713
ECD	-11714
Not	-11715
hed	-11716
una	-11717
▁38	-11718
▁52	-11719
▁AT	-11720
▁CC	-11721
▁Cy	-11722
▁Ec	-11723
▁Ig	-11724
▁PR	-11725
▁TB	-11726
amie	-11727
ctar	-11728
egas	-11729
enez	-11730
flow	-11731
inea	-11732
intu	-11733
ocks	-11734
orph	-11735
plet	-11736
pons	-11737
roup	-11738
them	-11739
zone	-11740
▁140	-11741
▁185	-11742
▁Ara	-11743
▁Bor	-11744
▁Bud	-11745
▁Hon	-11746
▁LHC	-11747
▁SMS	-11748
▁Ult	-11749
▁Win	-11750
▁lou	-11751
,000.	-11752
achel	-11753
aurus	-11754
berty	-11755
cture	-11756
cycle	-11757
ocity	-11758
shine	-11759
story	-11760
▁2005	-11761
▁CEOs	-11762
▁Cost	-11763
▁Data	-11764
▁Edin	-11765
▁Expl	-11766
▁Gall	-11767
▁Jill	-11768
▁Main	-11769
▁OECD	-11770
▁Pent	-11771
▁Pers	-11772
▁Peru	-11773
▁Phys	-11774
▁Real	-11775
▁Serv	-11776
▁Wait	-11777
▁cram	-11778
▁deci	-11779
▁dome	-11780
▁fame	-11781
▁inqu	-11782
▁menu	-11783
▁perf	-11784
▁seam	-11785
angelo	-11786
ertips	-11787
irling	-11788
lights	-11789
rontal	-11790
second	-11791
▁Clear	-11792
▁Dalai	-11793
▁Diego	-11794
▁Lagos	-11795
▁Leone	-11796
▁Lewis	-11797
▁Nepal	-11798
▁Roman	-11799
▁Using	-11800
▁Venez	-11801
▁adequ	-11802
▁alike	-11803
▁arena	-11804
▁arise	-11805
▁bonus	-11806
▁crank	-11807
▁cried	-11808
▁folds	-11809
▁hairs	-11810
▁limbs	-11811
▁occas	-11812
anguage	-11813
inistry	-11814
version	-11815
▁Nathan	-11816
▁Thirty	-11817
▁biases	-11818
▁bloody	-11819
▁cement	-11820
▁cookie	-11821
▁dancer	-11822
▁ethics	-11823
▁facult	-11824
▁humble	-11825
▁nectar	-11826
▁tricky	-11827
▁250,000	-11828
▁Babbage	-11829
▁Babylon	-11830
▁Natasha	-11831
▁Philipp	-11832
▁Swedish	-11833
▁basking	-11834
▁chaotic	-11835
▁confirm	-11836
▁contest	-11837
▁cracked	-11838
▁crushed	-11839
▁deficit	-11840
▁divorce	-11841
▁ethanol	-11842
▁examine	-11843
▁jewelry	-11844
▁masters	-11845
▁mastery	-11846
▁morally	-11847
▁needles	-11848
▁newborn	-11849
▁notions	-11850
▁reclaim	-11851
▁rockets	-11852
▁shadows	-11853
▁slowing	-11854
▁subsequ	-11855
▁tickets	-11856
▁Brothers	-11857
▁Michigan	-11858
▁Ministry	-11859
▁Mountain	-11860
▁Venezuel	-11861
▁acoustic	-11862
▁advertis	-11863
▁cerebral	-11864
▁diamonds	-11865
▁doubling	-11866
▁dreaming	-11867
▁equipped	-11868
▁evaluate	-11869
▁hypothes	-11870
▁miracles	-11871
▁operated	-11872
▁operator	-11873
▁primates	-11874
▁producer	-11875
▁prospect	-11876
▁sections	-11877
▁suburban	-11878
▁Argentina	-11879
▁Democrats	-11880
▁Edinburgh	-11881
▁Secretary	-11882
▁apologize	-11883
▁arbitrary	-11884
▁champions	-11885
▁consensus	-11886
▁discussed	-11887
▁displaced	-11888
▁distorted	-11889
▁geometric	-11890
▁illnesses	-11891
▁intervene	-11892
▁marijuana	-11893
▁practiced	-11894
▁projected	-11895
▁recovered	-11896
▁releasing	-11897
▁successes	-11898
▁acceptable	-11899
▁adaptation	-11900
▁anesthesia	-11901
▁convincing	-11902
▁diagnostic	-11903
▁disgusting	-11904
▁imperative	-11905
▁meditation	-11906
▁multiverse	-11907
▁prefrontal	-11908
▁procedures	-11909
▁regenerate	-11910
▁standpoint	-11911
▁wavelength	-11912
▁widespread	-11913
▁astronomers	-11914
▁complaining	-11915
▁controversy	-11916
▁countryside	-11917
▁dragonflies	-11918
▁expectation	-11919
▁questioning	-11920
▁remembering	-11921
▁stimulation	-11922
▁willingness	-11923
▁Michelangelo	-11924
▁consistently	-11925
▁intersection	-11926
▁nevertheless	-11927
▁independently	-11928
▁undergraduate	-11929
An	-11930
NG	-11931
SE	-11932
awa	-11933
but	-11934
jan	-11935
jud	-11936
lan	-11937
lla	-11938
omp	-11939
yan	-11940
▁SB	-11941
▁Wr	-11942
acre	-11943
axis	-11944
bird	-11945
cium	-11946
copy	-11947
ench	-11948
eton	-11949
iath	-11950
isan	-11951
neum	-11952
oved	-11953
oven	-11954
phia	-11955
rine	-11956
spec	-11957
ummy	-11958
uper	-11959
▁16,	-11960
▁50,	-11961
▁Cla	-11962
▁Ide	-11963
▁Kle	-11964
▁Mot	-11965
▁Muh	-11966
▁NGO	-11967
▁NSA	-11968
▁Pur	-11969
▁Sup	-11970
▁Tit	-11971
▁Zip	-11972
▁fis	-11973
▁mit	-11974
▁plu	-11975
arial	-11976
asant	-11977
avors	-11978
chill	-11979
erers	-11980
essim	-11981
frame	-11982
gered	-11983
lical	-11984
munic	-11985
sight	-11986
third	-11987
ucked	-11988
▁Wars	-11989
▁buzz	-11990
▁cort	-11991
▁dorm	-11992
▁esca	-11993
▁larv	-11994
▁leak	-11995
▁moms	-11996
▁mund	-11997
▁orth	-11998
▁skip	-11999
▁slum	-12000
▁symb	-12001
▁unin	-12002
atical	-12003
enment	-12004
ibbean	-12005
irable	-12006
istant	-12007
orship	-12008
putnik	-12009
ustice	-12010
▁2001,	-12011
▁2008.	-12012
▁2010.	-12013
▁Fifty	-12014
▁Later	-12015
▁Pitts	-12016
▁Princ	-12017
▁Quite	-12018
▁Radio	-12019
▁Stand	-12020
▁Tesla	-12021
▁Tower	-12022
▁arous	-12023
▁beast	-12024
▁boson	-12025
▁deter	-12026
▁doses	-12027
▁gifts	-12028
▁halls	-12029
▁jokes	-12030
▁oblig	-12031
▁physi	-12032
▁spike	-12033
▁steer	-12034
▁swing	-12035
▁tenth	-12036
acities	-12037
genesis	-12038
inators	-12039
▁Apollo	-12040
▁Bosnia	-12041
▁Johnny	-12042
▁Jordan	-12043
▁Mathem	-12044
▁Nicole	-12045
▁Others	-12046
▁Public	-12047
▁Rights	-12048
▁Wilson	-12049
▁Wonder	-12050
▁asthma	-12051
▁avatar	-12052
▁coined	-12053
▁depths	-12054
▁differ	-12055
▁expose	-12056
▁fights	-12057
▁gallon	-12058
▁incons	-12059
▁intend	-12060
▁judges	-12061
▁pessim	-12062
▁pilots	-12063
▁prohib	-12064
▁purely	-12065
▁reader	-12066
▁retina	-12067
▁spends	-12068
▁sticky	-12069
▁urgent	-12070
▁voters	-12071
adelphia	-12072
assembly	-12073
building	-12074
ceptable	-12075
specific	-12076
▁Clearly	-12077
▁Finland	-12078
▁bankers	-12079
▁blocked	-12080
▁captain	-12081
▁careers	-12082
▁desires	-12083
▁donated	-12084
▁knocked	-12085
▁multipl	-12086
▁persons	-12087
▁posters	-12088
▁prisons	-12089
▁puberty	-12090
▁recruit	-12091
▁regrets	-12092
▁reinfor	-12093
▁scanned	-12094
▁secular	-12095
▁shipped	-12096
▁skilled	-12097
▁summary	-12098
▁victory	-12099
▁whisper	-12100
▁winners	-12101
▁worship	-12102
expensive	-12103
▁Buddhist	-12104
▁TEDsters	-12105
▁abnormal	-12106
▁adaptive	-12107
▁appropri	-12108
▁assuming	-12109
▁athletes	-12110
▁balanced	-12111
▁champion	-12112
▁colorful	-12113
▁contents	-12114
▁daylight	-12115
▁exploded	-12116
▁graffiti	-12117
▁headline	-12118
▁marathon	-12119
▁marginal	-12120
▁mustache	-12121
▁passport	-12122
▁persuade	-12123
▁presents	-12124
▁rainfall	-12125
▁register	-12126
▁releases	-12127
▁sacrific	-12128
▁secondly	-12129
▁superher	-12130
▁superior	-12131
▁supports	-12132
▁visitors	-12133
generation	-12134
▁Caribbean	-12135
▁Princeton	-12136
▁aggregate	-12137
▁certainty	-12138
▁exclusive	-12139
▁filmmaker	-12140
▁graduates	-12141
▁humankind	-12142
▁improvise	-12143
▁inclusive	-12144
▁inflation	-12145
▁launching	-12146
▁libraries	-12147
▁limestone	-12148
▁pregnancy	-12149
▁similarly	-12150
▁Parliament	-12151
▁attraction	-12152
▁basketball	-12153
▁brainstorm	-12154
▁conscience	-12155
▁globalized	-12156
▁harvesting	-12157
▁parameters	-12158
▁temptation	-12159
▁catastrophe	-12160
▁celebrating	-12161
▁conferences	-12162
▁flexibility	-12163
▁introducing	-12164
▁maintaining	-12165
▁wonderfully	-12166
▁Philadelphia	-12167
▁constitution	-12168
▁manufacturers	-12169
▁revolutionary	-12170
Af	-12171
BA	-12172
To	-12173
600	-12174
SPR	-12175
cav	-12176
fig	-12177
flu	-12178
oft	-12179
ria	-12180
▁98	-12181
▁AD	-12182
▁DM	-12183
▁Mu	-12184
▁Sn	-12185
acks	-12186
acle	-12187
atus	-12188
aven	-12189
bone	-12190
cuse	-12191
educ	-12192
eman	-12193
fund	-12194
gage	-12195
inas	-12196
iner	-12197
obic	-12198
ocke	-12199
ousy	-12200
rove	-12201
shah	-12202
uled	-12203
umor	-12204
wall	-12205
▁1.3	-12206
▁125	-12207
▁160	-12208
▁180	-12209
▁187	-12210
▁CRI	-12211
▁Dig	-12212
▁EDI	-12213
▁Est	-12214
▁Lee	-12215
▁Len	-12216
▁Map	-12217
▁Nav	-12218
▁Pra	-12219
▁Rog	-12220
▁cod	-12221
▁dug	-12222
▁fee	-12223
▁heh	-12224
▁hij	-12225
▁hob	-12226
▁mum	-12227
adequ	-12228
amous	-12229
backs	-12230
ensed	-12231
ilage	-12232
imony	-12233
metic	-12234
phing	-12235
vania	-12236
venue	-12237
wheel	-12238
▁100,	-12239
▁2007	-12240
▁2010	-12241
▁Alph	-12242
▁Cars	-12243
▁Cult	-12244
▁Doug	-12245
▁Down	-12246
▁Jobs	-12247
▁Luck	-12248
▁Pass	-12249
▁Sher	-12250
▁Vill	-12251
▁fans	-12252
▁grim	-12253
▁nail	-12254
▁obsc	-12255
▁pity	-12256
▁plum	-12257
▁rept	-12258
▁stir	-12259
advant	-12260
inates	-12261
levant	-12262
ogenic	-12263
rowing	-12264
▁2000.	-12265
▁7,000	-12266
▁Carne	-12267
▁Death	-12268
▁Keith	-12269
▁Libya	-12270
▁Rover	-12271
▁Solar	-12272
▁Ushah	-12273
▁Vegas	-12274
▁absor	-12275
▁arose	-12276
▁backs	-12277
▁blend	-12278
▁chore	-12279
▁dates	-12280
▁drift	-12281
▁eager	-12282
▁elbow	-12283
▁firms	-12284
▁hurts	-12285
▁irres	-12286
▁lasts	-12287
▁moder	-12288
▁peaks	-12289
▁pneum	-12290
▁resid	-12291
▁sands	-12292
▁scope	-12293
▁shuff	-12294
▁sucks	-12295
▁swamp	-12296
▁wells	-12297
▁wreck	-12298
iratory	-12299
itorium	-12300
▁Bhutan	-12301
▁CRISPR	-12302
▁Colomb	-12303
▁Desert	-12304
▁Invest	-12305
▁Lester	-12306
▁Warren	-12307
▁agrees	-12308
▁banana	-12309
▁bitter	-12310
▁bucket	-12311
▁bypass	-12312
▁condom	-12313
▁crocod	-12314
▁defeat	-12315
▁elders	-12316
▁entity	-12317
▁fierce	-12318
▁firmly	-12319
▁fixing	-12320
▁hollow	-12321
▁improb	-12322
▁interd	-12323
▁ladder	-12324
▁larvae	-12325
▁lasted	-12326
▁listed	-12327
▁louder	-12328
▁scaled	-12329
▁scarce	-12330
▁slowed	-12331
▁spouse	-12332
▁sulfur	-12333
▁towers	-12334
▁truths	-12335
▁typing	-12336
▁undert	-12337
appiness	-12338
vascular	-12339
▁Connect	-12340
▁Georgia	-12341
▁Namibia	-12342
▁abandon	-12343
▁anatomy	-12344
▁calcium	-12345
▁cousins	-12346
▁crystal	-12347
▁fossils	-12348
▁harmful	-12349
▁inadequ	-12350
▁legally	-12351
▁literal	-12352
▁monsoon	-12353
▁monster	-12354
▁mundane	-12355
▁posture	-12356
▁reduces	-12357
▁refined	-12358
▁reperto	-12359
▁reviews	-12360
▁sailing	-12361
▁settled	-12362
▁singers	-12363
▁spheres	-12364
▁surplus	-12365
▁symptom	-12366
▁torture	-12367
▁tracked	-12368
condition	-12369
ropolitan	-12370
▁Cambodia	-12371
▁Recently	-12372
▁advocate	-12373
▁blocking	-12374
▁calendar	-12375
▁certific	-12376
▁civilian	-12377
▁cleaning	-12378
▁climbers	-12379
▁commands	-12380
▁declared	-12381
▁enabling	-12382
▁envelope	-12383
▁executed	-12384
▁flourish	-12385
▁happiest	-12386
▁impaired	-12387
▁imprison	-12388
▁inviting	-12389
▁midnight	-12390
▁missions	-12391
▁modified	-12392
▁observer	-12393
▁optimize	-12394
▁pursuing	-12395
▁receiver	-12396
▁shouting	-12397
▁workshop	-12398
▁Architect	-12399
▁Education	-12400
▁accepting	-12401
▁addressed	-12402
▁afterward	-12403
▁assembled	-12404
▁bandwidth	-12405
▁cartilage	-12406
▁cathedral	-12407
▁cigarette	-12408
▁conductor	-12409
▁confusion	-12410
▁delighted	-12411
▁disadvant	-12412
▁gratitude	-12413
▁mythology	-12414
▁relevance	-12415
▁resonance	-12416
▁supercond	-12417
▁varieties	-12418
▁Democratic	-12419
▁Republican	-12420
▁comparable	-12421
▁culturally	-12422
▁friendship	-12423
▁pesticides	-12424
▁programmer	-12425
▁randomness	-12426
▁reasonably	-12427
▁suspicious	-12428
▁unemployed	-12429
▁vegetation	-12430
▁Association	-12431
▁accountable	-12432
▁battlefield	-12433
▁circulation	-12434
▁conclusions	-12435
▁destructive	-12436
▁eradication	-12437
▁inexpensive	-12438
▁problematic	-12439
▁requirement	-12440
▁spontaneous	-12441
▁acceleration	-12442
▁encyclopedia	-12443
▁contradiction	-12444
▁environmentally	-12445
Me	-12446
mn	-12447
800	-12448
ARS	-12449
Cor	-12450
cko	-12451
fts	-12452
iza	-12453
mia	-12454
pit	-12455
syl	-12456
uci	-12457
▁86	-12458
▁IP	-12459
▁Py	-12460
▁SA	-12461
▁SO	-12462
▁ov	-12463
amil	-12464
arks	-12465
asso	-12466
bled	-12467
dest	-12468
eron	-12469
imed	-12470
isha	-12471
lies	-12472
onto	-12473
stan	-12474
verb	-12475
▁12.	-12476
▁40-	-12477
▁900	-12478
▁Fal	-12479
▁Mem	-12480
▁Oft	-12481
▁Rub	-12482
▁Scr	-12483
▁Seb	-12484
▁Tai	-12485
▁Toy	-12486
▁agn	-12487
▁bol	-12488
▁eco	-12489
▁lem	-12490
▁los	-12491
▁reh	-12492
▁sap	-12493
ammad	-12494
apses	-12495
integ	-12496
kings	-12497
ocamp	-12498
opoly	-12499
osion	-12500
otive	-12501
shore	-12502
stick	-12503
ymmet	-12504
▁2006	-12505
▁Germ	-12506
▁Home	-12507
▁Mind	-12508
▁MoMA	-12509
▁Poll	-12510
▁Shir	-12511
▁Work	-12512
▁adul	-12513
▁bent	-12514
▁budd	-12515
▁gaze	-12516
▁germ	-12517
▁keen	-12518
▁lith	-12519
▁lobe	-12520
▁padd	-12521
▁pops	-12522
▁snap	-12523
achers	-12524
bercul	-12525
health	-12526
▁Beeth	-12527
▁Exact	-12528
▁Kyoto	-12529
▁Matth	-12530
▁Music	-12531
▁Simon	-12532
▁arter	-12533
▁blade	-12534
▁booth	-12535
▁chalk	-12536
▁crust	-12537
▁desal	-12538
▁excer	-12539
▁fairy	-12540
▁glory	-12541
▁incon	-12542
▁incub	-12543
▁inert	-12544
▁insur	-12545
▁moist	-12546
▁myths	-12547
▁noble	-12548
▁orang	-12549
▁radar	-12550
▁recip	-12551
▁riots	-12552
▁rolls	-12553
▁ruins	-12554
▁skies	-12555
▁snaps	-12556
▁spawn	-12557
▁spine	-12558
▁templ	-12559
▁tread	-12560
▁wrink	-12561
eliness	-12562
sterdam	-12563
▁Either	-12564
▁Evergl	-12565
▁Person	-12566
▁balcon	-12567
▁biased	-12568
▁bounce	-12569
▁cooler	-12570
▁digits	-12571
▁divine	-12572
▁freeze	-12573
▁harass	-12574
▁heroic	-12575
▁hotter	-12576
▁issued	-12577
▁labels	-12578
▁learns	-12579
▁radius	-12580
▁slaves	-12581
▁sought	-12582
▁strand	-12583
▁strang	-12584
▁taller	-12585
▁tastes	-12586
▁thirds	-12587
▁titles	-12588
▁treaty	-12589
▁triple	-12590
▁underp	-12591
cellular	-12592
friendly	-12593
osterone	-12594
sylvania	-12595
▁300,000	-12596
▁Climate	-12597
▁Francis	-12598
▁Freedom	-12599
▁Liberia	-12600
▁Supreme	-12601
▁Toronto	-12602
▁Usually	-12603
▁addicts	-12604
▁anytime	-12605
▁aquatic	-12606
▁broadly	-12607
▁catalog	-12608
▁dragged	-12609
▁episode	-12610
▁equator	-12611
▁erectus	-12612
▁forcing	-12613
▁funeral	-12614
▁heights	-12615
▁laundry	-12616
▁migrate	-12617
▁millise	-12618
▁needing	-12619
▁painter	-12620
▁placebo	-12621
▁portray	-12622
▁quietly	-12623
▁satisfy	-12624
▁utility	-12625
▁volumes	-12626
▁wonders	-12627
▁Carnegie	-12628
▁Franklin	-12629
▁Muhammad	-12630
▁Russians	-12631
▁Scotland	-12632
▁Ushahidi	-12633
▁annoying	-12634
▁applause	-12635
▁backpack	-12636
▁blogging	-12637
▁diagnose	-12638
▁drilling	-12639
▁duration	-12640
▁emergent	-12641
▁fighters	-12642
▁glaciers	-12643
▁indirect	-12644
▁reactors	-12645
▁redefine	-12646
▁referred	-12647
▁sessions	-12648
▁shortcut	-12649
▁stumbled	-12650
▁unstable	-12651
▁velocity	-12652
▁visceral	-12653
berculosis	-12654
▁Beethoven	-12655
▁Darwinian	-12656
▁Egyptians	-12657
▁Interview	-12658
▁Palestine	-12659
▁affection	-12660
▁assistant	-12661
▁automatic	-12662
▁campaigns	-12663
▁cellphone	-12664
▁corridors	-12665
▁declining	-12666
▁educators	-12667
▁injustice	-12668
▁instances	-12669
▁intrinsic	-12670
▁kilograms	-12671
▁mysteries	-12672
▁nurturing	-12673
▁parasites	-12674
▁pervasive	-12675
▁promising	-12676
▁schooling	-12677
▁simulated	-12678
▁submitted	-12679
▁synthesis	-12680
▁vibrating	-12681
▁Pittsburgh	-12682
▁accounting	-12683
▁assessment	-12684
▁coordinate	-12685
▁geographic	-12686
▁identities	-12687
▁infinitely	-12688
▁influences	-12689
▁nonviolent	-12690
▁pollutants	-12691
▁repertoire	-12692
▁unintended	-12693
▁accompanied	-12694
▁appreciated	-12695
▁aspirations	-12696
▁coincidence	-12697
▁commodities	-12698
▁corporation	-12699
▁existential	-12700
▁meaningless	-12701
▁negotiation	-12702
▁specialists	-12703
▁Pennsylvania	-12704
▁demographics	-12705
▁disconnected	-12706
▁incidentally	-12707
▁interconnect	-12708
▁quantitative	-12709
▁testosterone	-12710
▁unacceptable	-12711
▁comprehensive	-12712
▁statistically	-12713
▁cybercriminals	-12714
▁mathematically	-12715
.7	-12716
EA	-12717
Hi	-12718
Je	-12719
On	-12720
Pe	-12721
400	-12722
PTC	-12723
cam	-12724
eur	-12725
fur	-12726
gue	-12727
oub	-12728
pot	-12729
raz	-12730
rug	-12731
ulu	-12732
▁34	-12733
▁4:	-12734
▁FG	-12735
▁Fa	-12736
▁Ju	-12737
▁TM	-12738
agin	-12739
arer	-12740
ause	-12741
brow	-12742
cult	-12743
etts	-12744
imic	-12745
itis	-12746
mala	-12747
mble	-12748
olar	-12749
omic	-12750
rett	-12751
ruce	-12752
text	-12753
urbs	-12754
ylan	-12755
▁13,	-12756
▁Abu	-12757
▁BMW	-12758
▁Bul	-12759
▁Gam	-12760
▁Got	-12761
▁Kam	-12762
▁Las	-12763
▁Reg	-12764
▁Sel	-12765
▁Sty	-12766
▁Ter	-12767
▁Too	-12768
▁geo	-12769
▁hug	-12770
▁nud	-12771
▁pup	-12772
▁ups	-12773
▁wax	-12774
Great	-12775
These	-12776
achus	-12777
amboo	-12778
bands	-12779
borne	-12780
built	-12781
erend	-12782
gebra	-12783
ibles	-12784
icism	-12785
tends	-12786
▁Alan	-12787
▁Dave	-12788
▁Dean	-12789
▁Dian	-12790
▁Didn	-12791
▁Peps	-12792
▁Rose	-12793
▁Rule	-12794
▁Wild	-12795
▁argu	-12796
▁bulk	-12797
▁cafe	-12798
▁cues	-12799
▁grip	-12800
▁lure	-12801
▁sket	-12802
▁sums	-12803
▁taxi	-12804
▁tect	-12805
▁tink	-12806
Listen	-12807
airobi	-12808
carbon	-12809
cripts	-12810
energy	-12811
engers	-12812
erness	-12813
esteem	-12814
etical	-12815
ignant	-12816
inator	-12817
ortune	-12818
resses	-12819
▁1990,	-12820
▁2012,	-12821
▁Alpha	-12822
▁Const	-12823
▁Doesn	-12824
▁Dylan	-12825
▁Freud	-12826
▁Going	-12827
▁Guate	-12828
▁Jerry	-12829
▁Skype	-12830
▁Techn	-12831
▁awake	-12832
▁bumps	-12833
▁centr	-12834
▁chunk	-12835
▁dealt	-12836
▁dwell	-12837
▁epile	-12838
▁grabs	-12839
▁guilt	-12840
▁hobby	-12841
▁kilos	-12842
▁locom	-12843
▁neutr	-12844
▁oppon	-12845
▁unequ	-12846
▁unity	-12847
balance	-12848
fashion	-12849
rations	-12850
ulators	-12851
▁Agency	-12852
▁Copern	-12853
▁Darfur	-12854
▁Edward	-12855
▁Eighty	-12856
▁Samuel	-12857
▁Taiwan	-12858
▁Venice	-12859
▁arrows	-12860
▁bamboo	-12861
▁camels	-12862
▁census	-12863
▁coding	-12864
▁compat	-12865
▁enters	-12866
▁finite	-12867
▁forbid	-12868
▁hammer	-12869
▁joyful	-12870
▁loaded	-12871
▁misery	-12872
▁mosque	-12873
▁nuclei	-12874
▁potato	-12875
▁poured	-12876
▁resort	-12877
▁routes	-12878
▁shield	-12879
▁singer	-12880
▁slogan	-12881
▁tender	-12882
▁theirs	-12883
▁underw	-12884
▁valued	-12885
▁voyage	-12886
▁writes	-12887
attering	-12888
breaking	-12889
conflict	-12890
ictional	-12891
▁Austria	-12892
▁Exactly	-12893
▁Goliath	-12894
▁Luckily	-12895
▁Nairobi	-12896
▁Siberia	-12897
▁Somalia	-12898
▁Wolfram	-12899
▁anxious	-12900
▁barrels	-12901
▁beaches	-12902
▁bluefin	-12903
▁cleaned	-12904
▁curator	-12905
▁epiphan	-12906
▁gaining	-12907
▁humming	-12908
▁hunters	-12909
▁justify	-12910
▁manages	-12911
▁margins	-12912
▁outdoor	-12913
▁prevail	-12914
▁recycle	-12915
▁ringing	-12916
▁shuttle	-12917
▁sounded	-12918
▁unified	-12919
▁volcano	-12920
achusetts	-12921
nutrition	-12922
▁Building	-12923
▁Movement	-12924
▁composer	-12925
▁delicate	-12926
▁embraced	-12927
▁founding	-12928
▁horrific	-12929
▁incarcer	-12930
▁insisted	-12931
▁meanings	-12932
▁noticing	-12933
▁obtained	-12934
▁potatoes	-12935
▁resolved	-12936
▁sensible	-12937
▁settings	-12938
▁sketches	-12939
▁societal	-12940
▁strictly	-12941
▁symphony	-12942
▁volcanic	-12943
▁weekends	-12944
▁Amsterdam	-12945
▁Certainly	-12946
▁Hopefully	-12947
▁Venezuela	-12948
▁ambiguity	-12949
▁decentral	-12950
▁demanding	-12951
▁directors	-12952
▁donations	-12953
▁eradicate	-12954
▁executive	-12955
▁exquisite	-12956
▁hamburger	-12957
▁hippocamp	-12958
▁implanted	-12959
▁inconsist	-12960
▁instincts	-12961
▁intersect	-12962
▁marvelous	-12963
▁neocortex	-12964
▁paralysis	-12965
▁routinely	-12966
▁scenarios	-12967
▁selective	-12968
▁sovereign	-12969
▁streaming	-12970
▁stressful	-12971
▁surprises	-12972
▁survivors	-12973
▁wandering	-12974
▁Compassion	-12975
▁altogether	-12976
▁animations	-12977
▁antibodies	-12978
▁appliances	-12979
▁attachment	-12980
▁auditorium	-12981
▁beginnings	-12982
▁cigarettes	-12983
▁compressed	-12984
▁explicitly	-12985
▁guaranteed	-12986
▁indication	-12987
▁innovators	-12988
▁irrigation	-12989
▁protective	-12990
▁registered	-12991
▁satisfying	-12992
▁specialist	-12993
▁Interviewer	-12994
▁accelerated	-12995
▁association	-12996
▁citizenship	-12997
▁competitors	-12998
▁continually	-12999
▁fundraising	-13000
▁ideological	-13001
▁initiatives	-13002
▁negotiating	-13003
▁operational	-13004
▁preventable	-13005
▁reinventing	-13006
▁surroundings	-13007
▁tremendously	-13008
▁tuberculosis	-13009
▁urbanization	-13010
▁Massachusetts	-13011
▁appropriately	-13012
▁breakthroughs	-13013
▁developmental	-13014
▁photographers	-13015
▁unpredictable	-13016
▁organizational	-13017
99	-13018
Am	-13019
dy	-13020
ISD	-13021
aba	-13022
boy	-13023
dog	-13024
een	-13025
ffe	-13026
isa	-13027
nie	-13028
obo	-13029
ogy	-13030
▁53	-13031
▁74	-13032
▁AO	-13033
▁BL	-13034
▁HG	-13035
▁KA	-13036
▁Mi	-13037
▁RL	-13038
▁RO	-13039
▁SJ	-13040
▁ST	-13041
▁TR	-13042
▁ze	-13043
Mart	-13044
acon	-13045
alin	-13046
bons	-13047
ects	-13048
fill	-13049
hops	-13050
know	-13051
onal	-13052
rics	-13053
rust	-13054
▁18,	-13055
▁18-	-13056
▁360	-13057
▁Bat	-13058
▁Cir	-13059
▁Cub	-13060
▁Cup	-13061
▁Fil	-13062
▁Hop	-13063
▁Lev	-13064
▁Nev	-13065
▁Ott	-13066
▁Pic	-13067
▁Rec	-13068
▁Rel	-13069
▁Syd	-13070
▁aph	-13071
▁dar	-13072
▁fer	-13073
▁haz	-13074
▁jur	-13075
▁quo	-13076
▁soy	-13077
▁tid	-13078
allas	-13079
atics	-13080
cular	-13081
idity	-13082
ieval	-13083
irmed	-13084
leans	-13085
meter	-13086
ucose	-13087
wired	-13088
▁AIMS	-13089
▁Beck	-13090
▁Cass	-13091
▁Fall	-13092
▁Fire	-13093
▁Full	-13094
▁Gord	-13095
▁Harr	-13096
▁Pier	-13097
▁RISD	-13098
▁Type	-13099
▁UCLA	-13100
▁amph	-13101
▁axes	-13102
▁blob	-13103
▁bron	-13104
▁cass	-13105
▁deny	-13106
▁ease	-13107
▁exit	-13108
▁gosh	-13109
▁iPad	-13110
▁indo	-13111
▁moth	-13112
▁pets	-13113
▁pond	-13114
▁scra	-13115
▁slam	-13116
▁tilt	-13117
▁wage	-13118
▁writ	-13119
anting	-13120
astery	-13121
astian	-13122
giving	-13123
imicry	-13124
linear	-13125
ocaust	-13126
ranean	-13127
reatic	-13128
rogram	-13129
strong	-13130
verbal	-13131
weeney	-13132
▁Allen	-13133
▁DARPA	-13134
▁Field	-13135
▁Labor	-13136
▁Linux	-13137
▁Often	-13138
▁Susan	-13139
▁amino	-13140
▁amput	-13141
▁arrog	-13142
▁bands	-13143
▁bikes	-13144
▁blows	-13145
▁compr	-13146
▁flown	-13147
▁handy	-13148
▁icons	-13149
▁lakes	-13150
▁merit	-13151
▁ozone	-13152
▁patri	-13153
▁penis	-13154
▁petro	-13155
▁pools	-13156
▁poses	-13157
▁races	-13158
▁rooft	-13159
▁royal	-13160
▁traff	-13161
▁tweet	-13162
▁vapor	-13163
▁verge	-13164
▁votes	-13165
appropr	-13166
assador	-13167
ometers	-13168
rasound	-13169
writing	-13170
▁Commun	-13171
▁Cooper	-13172
▁Easter	-13173
▁Garden	-13174
▁Incred	-13175
▁Jersey	-13176
▁Kibera	-13177
▁Poland	-13178
▁Wouldn	-13179
▁acquis	-13180
▁archae	-13181
▁bookst	-13182
▁collar	-13183
▁hotels	-13184
▁indoor	-13185
▁legend	-13186
▁melody	-13187
▁obsess	-13188
▁orgasm	-13189
▁overse	-13190
▁poorly	-13191
▁prejud	-13192
▁prizes	-13193
▁quotes	-13194
▁reflex	-13195
▁reluct	-13196
▁salmon	-13197
▁shares	-13198
▁shells	-13199
▁spades	-13200
▁stocks	-13201
▁tennis	-13202
▁thrive	-13203
▁throws	-13204
▁thumbs	-13205
▁toxins	-13206
▁turbul	-13207
▁verbal	-13208
Jeopardy	-13209
aterials	-13210
ensitive	-13211
ithmetic	-13212
lessness	-13213
security	-13214
▁400,000	-13215
▁Already	-13216
▁Believe	-13217
▁Germans	-13218
▁Hawking	-13219
▁Hundred	-13220
▁Orleans	-13221
▁Perfect	-13222
▁Sputnik	-13223
▁Windows	-13224
▁algebra	-13225
▁beloved	-13226
▁boiling	-13227
▁cabinet	-13228
▁compact	-13229
▁compens	-13230
▁council	-13231
▁crowded	-13232
▁defines	-13233
▁deserts	-13234
▁diamond	-13235
▁editing	-13236
▁excerpt	-13237
▁gallons	-13238
▁glucose	-13239
▁hallway	-13240
▁heavens	-13241
▁inspect	-13242
▁mentors	-13243
▁partial	-13244
▁ranging	-13245
▁rehears	-13246
▁scripts	-13247
▁seafood	-13248
▁seasons	-13249
▁suburbs	-13250
▁tropics	-13251
▁veterin	-13252
▁wasting	-13253
intuitive	-13254
organized	-13255
wandering	-13256
▁Medicine	-13257
▁Students	-13258
▁approval	-13259
▁assigned	-13260
▁balloons	-13261
▁constitu	-13262
▁crashing	-13263
▁crawling	-13264
▁crystall	-13265
▁degraded	-13266
▁donation	-13267
▁employed	-13268
▁entitled	-13269
▁interrog	-13270
▁juggling	-13271
▁notebook	-13272
▁officers	-13273
▁pinpoint	-13274
▁portable	-13275
▁schedule	-13276
▁survivor	-13277
▁synapses	-13278
▁threaten	-13279
▁Guatemala	-13280
▁Mountains	-13281
▁Norwegian	-13282
▁academics	-13283
▁appearing	-13284
▁certified	-13285
▁charities	-13286
▁checklist	-13287
▁cognition	-13288
▁criticism	-13289
▁educating	-13290
▁epidemics	-13291
▁explorers	-13292
▁histories	-13293
▁imaginary	-13294
▁injection	-13295
▁intrigued	-13296
▁metaphors	-13297
▁ministers	-13298
▁pediatric	-13299
▁preferred	-13300
▁qualified	-13301
▁satisfied	-13302
▁swallowed	-13303
▁triangles	-13304
▁triggered	-13305
▁waterfall	-13306
▁Especially	-13307
▁Everglades	-13308
▁aesthetics	-13309
▁censorship	-13310
▁courageous	-13311
▁distribute	-13312
▁executives	-13313
▁homosexual	-13314
▁humanities	-13315
▁inadequate	-13316
▁intangible	-13317
▁irrelevant	-13318
▁photosynth	-13319
▁restricted	-13320
▁worthwhile	-13321
▁Information	-13322
▁automobiles	-13323
▁departments	-13324
▁efficiently	-13325
▁illustrates	-13326
▁inefficient	-13327
▁instability	-13328
▁mammography	-13329
▁projections	-13330
▁prototyping	-13331
▁suggestions	-13332
▁threatening	-13333
▁astronomical	-13334
▁combinations	-13335
▁developments	-13336
▁illustration	-13337
▁malnutrition	-13338
▁manufacturer	-13339
▁neurogenesis	-13340
▁reproductive	-13341
▁unemployment	-13342
▁biotechnology	-13343
▁experimenting	-13344
▁improvisation	-13345
▁manifestation	-13346
▁traditionally	-13347
▁discrimination	-13348
▁industrialized	-13349
▁nanotechnology	-13350
▁bioluminescence	-13351
Cl	-13352
HO	-13353
IP	-13354
NN	-13355
wa	-13356
zo	-13357
adp	-13358
aic	-13359
dad	-13360
dle	-13361
lem	-13362
obe	-13363
obi	-13364
ols	-13365
oul	-13366
rer	-13367
rip	-13368
sex	-13369
sis	-13370
tic	-13371
▁3,	-13372
▁57	-13373
▁AR	-13374
▁AS	-13375
▁BC	-13376
▁FO	-13377
▁NO	-13378
▁PH	-13379
▁Si	-13380
▁uh	-13381
abad	-13382
ells	-13383
eram	-13384
hill	-13385
ickr	-13386
iflu	-13387
mail	-13388
omer	-13389
phal	-13390
stal	-13391
stop	-13392
urge	-13393
▁14,	-13394
▁17,	-13395
▁25,	-13396
▁Ark	-13397
▁Cat	-13398
▁Ell	-13399
▁Emb	-13400
▁End	-13401
▁Fem	-13402
▁Han	-13403
▁Hit	-13404
▁Ill	-13405
▁Isa	-13406
▁Kar	-13407
▁Max	-13408
▁Oak	-13409
▁Sho	-13410
▁Tah	-13411
▁bot	-13412
▁cav	-13413
▁cue	-13414
▁dub	-13415
▁gym	-13416
▁mol	-13417
▁ove	-13418
▁piv	-13419
▁vib	-13420
▁vig	-13421
Corps	-13422
acent	-13423
ambia	-13424
ashes	-13425
bucks	-13426
etary	-13427
garet	-13428
green	-13429
ibati	-13430
ipper	-13431
izona	-13432
olith	-13433
regon	-13434
▁1800	-13435
▁200-	-13436
▁2001	-13437
▁Hold	-13438
▁Katr	-13439
▁Lady	-13440
▁Lots	-13441
▁Mama	-13442
▁Nine	-13443
▁Palm	-13444
▁True	-13445
▁Virt	-13446
▁Yale	-13447
▁buck	-13448
▁bunk	-13449
▁buys	-13450
▁cann	-13451
▁cher	-13452
▁doct	-13453
▁feas	-13454
▁flop	-13455
▁gira	-13456
▁guid	-13457
▁hats	-13458
▁mism	-13459
▁mite	-13460
▁nick	-13461
▁numb	-13462
▁owns	-13463
▁peel	-13464
▁plun	-13465
▁plut	-13466
▁prag	-13467
▁ramp	-13468
▁rhet	-13469
▁skys	-13470
▁swap	-13471
▁sync	-13472
▁tadp	-13473
▁unne	-13474
▁veil	-13475
abytes	-13476
asking	-13477
consum	-13478
ermaid	-13479
esters	-13480
igrade	-13481
itical	-13482
ocated	-13483
ospher	-13484
ostics	-13485
worthy	-13486
▁Agnes	-13487
▁Bruce	-13488
▁Build	-13489
▁Emily	-13490
▁Intel	-13491
▁Julia	-13492
▁Kelly	-13493
▁Moses	-13494
▁Pepsi	-13495
▁Point	-13496
▁Short	-13497
▁Vinci	-13498
▁appar	-13499
▁armor	-13500
▁chord	-13501
▁clich	-13502
▁cubic	-13503
▁dunes	-13504
▁fatty	-13505
▁goats	-13506
▁grief	-13507
▁homin	-13508
▁lined	-13509
▁loops	-13510
▁parap	-13511
▁pries	-13512
▁rides	-13513
▁sadly	-13514
▁scare	-13515
▁strat	-13516
▁swear	-13517
▁trait	-13518
▁tutor	-13519
▁wages	-13520
atively	-13521
centric	-13522
growing	-13523
keeping	-13524
massive	-13525
quarium	-13526
▁Achill	-13527
▁Energy	-13528
▁Engine	-13529
▁Inside	-13530
▁Marcus	-13531
▁Marine	-13532
▁Murray	-13533
▁Oregon	-13534
▁Reagan	-13535
▁Sydney	-13536
▁Unlike	-13537
▁Zipcar	-13538
▁antide	-13539
▁carcin	-13540
▁cooked	-13541
▁denied	-13542
▁dining	-13543
▁drinks	-13544
▁enzyme	-13545
▁hacker	-13546
▁ideals	-13547
▁impose	-13548
▁inputs	-13549
▁lenses	-13550
▁pirate	-13551
▁popped	-13552
▁praise	-13553
▁priest	-13554
▁rooted	-13555
▁sealed	-13556
▁smiles	-13557
▁stated	-13558
▁statue	-13559
▁stereo	-13560
▁stockp	-13561
▁stunts	-13562
▁thrust	-13563
▁timber	-13564
▁transf	-13565
▁united	-13566
▁varied	-13567
▁waking	-13568
▁wallet	-13569
▁wander	-13570
▁wolves	-13571
positive	-13572
▁Arizona	-13573
▁Justice	-13574
▁Snowden	-13575
▁Tamiflu	-13576
▁Tunisia	-13577
▁athlete	-13578
▁erosion	-13579
▁evident	-13580
▁exhilar	-13581
▁expands	-13582
▁faculty	-13583
▁favelas	-13584
▁focuses	-13585
▁holiday	-13586
▁indoors	-13587
▁inmates	-13588
▁kidneys	-13589
▁lesbian	-13590
▁mustard	-13591
▁nurture	-13592
▁optimal	-13593
▁overlap	-13594
▁placing	-13595
▁relaxed	-13596
▁replied	-13597
▁retired	-13598
▁romance	-13599
▁sapiens	-13600
▁shallow	-13601
▁shaping	-13602
▁sterile	-13603
▁thirdly	-13604
▁thunder	-13605
▁tourist	-13606
▁untouch	-13607
▁withdra	-13608
efficient	-13609
ependence	-13610
fashioned	-13611
ographing	-13612
▁Guardian	-13613
▁Kiribati	-13614
▁Language	-13615
▁Learning	-13616
▁Margaret	-13617
▁absorbed	-13618
▁addicted	-13619
▁adjacent	-13620
▁auditory	-13621
▁contexts	-13622
▁creators	-13623
▁currents	-13624
▁develops	-13625
▁distress	-13626
▁drowning	-13627
▁guidance	-13628
▁liberals	-13629
▁maximize	-13630
▁migraine	-13631
▁minimize	-13632
▁occupied	-13633
▁prevents	-13634
▁requests	-13635
▁respects	-13636
▁stewards	-13637
▁stimulus	-13638
▁unnecess	-13639
▁uploaded	-13640
organizing	-13641
▁Himalayas	-13642
▁Otherwise	-13643
▁Starbucks	-13644
▁cockroach	-13645
▁confusing	-13646
▁contracts	-13647
▁cultivate	-13648
▁databases	-13649
▁detectors	-13650
▁execution	-13651
▁exhausted	-13652
▁fictional	-13653
▁honeybees	-13654
▁imperfect	-13655
▁northeast	-13656
▁orphanage	-13657
▁packaging	-13658
▁pneumonia	-13659
▁slaughter	-13660
▁Australian	-13661
▁Depression	-13662
▁Government	-13663
▁Scientists	-13664
▁StoryCorps	-13665
▁advantages	-13666
▁complained	-13667
▁conspiracy	-13668
▁contagious	-13669
▁excellence	-13670
▁expressing	-13671
▁foreground	-13672
▁incomplete	-13673
▁limitation	-13674
▁pancreatic	-13675
▁prioritize	-13676
▁reflecting	-13677
▁antidepress	-13678
▁arrangement	-13679
▁convenience	-13680
▁counterpart	-13681
▁financially	-13682
▁hippocampus	-13683
▁medications	-13684
▁publication	-13685
▁respiratory	-13686
▁scholarship	-13687
▁stereotypes	-13688
▁achievements	-13689
▁fluctuations	-13690
▁hypothetical	-13691
▁interviewing	-13692
▁negotiations	-13693
▁similarities	-13694
▁conservatives	-13695
▁intrinsically	-13696
▁investigating	-13697
▁bioluminescent	-13698
-'	-13699
ER	-13700
fi	-13701
fu	-13702
ni	-13703
Get	-13704
Spe	-13705
bec	-13706
bot	-13707
bro	-13708
deg	-13709
gel	-13710
ocr	-13711
ods	-13712
oug	-13713
▁1:	-13714
▁3:	-13715
▁47	-13716
▁Aw	-13717
▁IT	-13718
▁JC	-13719
▁Ku	-13720
▁MP	-13721
▁SR	-13722
▁UV	-13723
▁Ur	-13724
▁VC	-13725
▁Ze	-13726
▁ly	-13727
arin	-13728
assy	-13729
avil	-13730
coal	-13731
feed	-13732
hall	-13733
hran	-13734
ikes	-13735
ingo	-13736
iper	-13737
mart	-13738
plex	-13739
your	-13740
▁14-	-13741
▁188	-13742
▁189	-13743
▁99.	-13744
▁Aur	-13745
▁Bah	-13746
▁Cro	-13747
▁ELA	-13748
▁Fox	-13749
▁Heb	-13750
▁Hud	-13751
▁IMF	-13752
▁LOL	-13753
▁Lyn	-13754
▁Nik	-13755
▁Ric	-13756
▁Tro	-13757
▁Use	-13758
▁Vis	-13759
▁Wel	-13760
▁bru	-13761
▁hay	-13762
▁hoo	-13763
▁huh	-13764
▁lam	-13765
▁onc	-13766
▁ray	-13767
▁upl	-13768
▁wig	-13769
Hello	-13770
azine	-13771
fting	-13772
geria	-13773
great	-13774
iages	-13775
ifted	-13776
otent	-13777
pical	-13778
shirt	-13779
style	-13780
uding	-13781
▁Cart	-13782
▁Dead	-13783
▁Deep	-13784
▁Fair	-13785
▁Fast	-13786
▁Hard	-13787
▁Help	-13788
▁Jean	-13789
▁Left	-13790
▁Mald	-13791
▁Read	-13792
▁Rena	-13793
▁Stat	-13794
▁auto	-13795
▁coch	-13796
▁dodo	-13797
▁ecst	-13798
▁envy	-13799
▁heel	-13800
▁jury	-13801
▁lazy	-13802
▁lett	-13803
▁lied	-13804
▁rear	-13805
▁reli	-13806
▁ruin	-13807
▁seiz	-13808
▁watt	-13809
ateral	-13810
change	-13811
charge	-13812
ellers	-13813
estion	-13814
izable	-13815
ologic	-13816
ougher	-13817
puters	-13818
secure	-13819
uclear	-13820
ussani	-13821
▁1995,	-13822
▁1997,	-13823
▁2002,	-13824
▁2050,	-13825
▁Costa	-13826
▁Cross	-13827
▁Forty	-13828
▁Paulo	-13829
▁Psych	-13830
▁Stock	-13831
▁Truth	-13832
▁Wired	-13833
▁ambul	-13834
▁angel	-13835
▁banjo	-13836
▁crawl	-13837
▁flick	-13838
▁gecko	-13839
▁geeks	-13840
▁geese	-13841
▁germs	-13842
▁humil	-13843
▁innoc	-13844
▁jeans	-13845
▁livel	-13846
▁merch	-13847
▁nests	-13848
▁ninth	-13849
▁overd	-13850
▁reads	-13851
▁relie	-13852
▁sanct	-13853
▁tails	-13854
▁tales	-13855
▁trunk	-13856
▁urine	-13857
agement	-13858
discipl	-13859
ignific	-13860
markets	-13861
product	-13862
▁Barack	-13863
▁Doctor	-13864
▁Flickr	-13865
▁Guinea	-13866
▁Hitler	-13867
▁Hubble	-13868
▁Modern	-13869
▁Ninety	-13870
▁Norman	-13871
▁Senate	-13872
▁Simple	-13873
▁abused	-13874
▁brakes	-13875
▁cardio	-13876
▁carrot	-13877
▁clicks	-13878
▁costly	-13879
▁decomp	-13880
▁dumped	-13881
▁edited	-13882
▁elites	-13883
▁expend	-13884
▁feared	-13885
▁invade	-13886
▁microw	-13887
▁parked	-13888
▁poorer	-13889
▁puppet	-13890
▁racial	-13891
▁sewage	-13892
▁spills	-13893
▁syring	-13894
▁unexpl	-13895
▁vastly	-13896
▁weekly	-13897
▁wiring	-13898
▁wounds	-13899
ospheric	-13900
violence	-13901
▁Command	-13902
▁Company	-13903
▁Katrina	-13904
▁Lesters	-13905
▁Mediter	-13906
▁Network	-13907
▁Somehow	-13908
▁Station	-13909
▁Village	-13910
▁abusive	-13911
▁battles	-13912
▁categor	-13913
▁charter	-13914
▁crashed	-13915
▁disagre	-13916
▁exhaust	-13917
▁founder	-13918
▁fractal	-13919
▁invaded	-13920
▁learner	-13921
▁lithium	-13922
▁mineral	-13923
▁miracul	-13924
▁payload	-13925
▁regimes	-13926
▁rightly	-13927
▁seroton	-13928
▁strains	-13929
▁vicious	-13930
▁virtues	-13931
▁worries	-13932
astically	-13933
resistant	-13934
▁Anything	-13935
▁Giussani	-13936
▁Moreover	-13937
▁Pentagon	-13938
▁Scottish	-13939
▁Williams	-13940
▁agnostic	-13941
▁backward	-13942
▁clapping	-13943
▁coherent	-13944
▁contacts	-13945
▁depended	-13946
▁emphasis	-13947
▁employee	-13948
▁estrogen	-13949
▁flooding	-13950
▁foraging	-13951
▁grounded	-13952
▁ignorant	-13953
▁improves	-13954
▁insecure	-13955
▁invasive	-13956
▁literary	-13957
▁matching	-13958
▁meantime	-13959
▁offshore	-13960
▁periodic	-13961
▁policing	-13962
▁pristine	-13963
▁quantity	-13964
▁reacting	-13965
▁realizes	-13966
▁reporter	-13967
▁richness	-13968
▁rotating	-13969
▁smartest	-13970
▁steering	-13971
▁sympathy	-13972
▁underway	-13973
▁unimagin	-13974
industrial	-13975
performing	-13976
▁Sebastian	-13977
▁appealing	-13978
▁attempted	-13979
▁attribute	-13980
▁combining	-13981
▁developer	-13982
▁firsthand	-13983
▁followers	-13984
▁historian	-13985
▁ingenuity	-13986
▁inherited	-13987
▁interfere	-13988
▁marriages	-13989
▁meanwhile	-13990
▁personnel	-13991
▁prevalent	-13992
▁promotion	-13993
▁recruited	-13994
▁strangely	-13995
▁whistling	-13996
▁Conference	-13997
▁Throughout	-13998
▁aspiration	-13999
▁beekeepers	-14000
▁calculator	-14001
▁capacities	-14002
▁caregivers	-14003
▁cartoonist	-14004
▁centimeter	-14005
▁depressing	-14006
▁developers	-14007
▁eliminated	-14008
▁encryption	-14009
▁fingertips	-14010
▁footprints	-14011
▁loneliness	-14012
▁motorcycle	-14013
▁outrageous	-14014
▁telephones	-14015
▁translates	-14016
▁Renaissance	-14017
▁adolescents	-14018
▁backgrounds	-14019
▁commercials	-14020
▁constrained	-14021
▁immortality	-14022
▁implication	-14023
▁methodology	-14024
▁permanently	-14025
▁variability	-14026
▁acknowledged	-14027
▁availability	-14028
▁collaborator	-14029
▁conditioning	-14030
▁descriptions	-14031
▁neurological	-14032
▁Mediterranean	-14033
▁contributions	-14034
▁corresponding	-14035
▁presentations	-14036
▁unsustainable	-14037
▁cardiovascular	-14038
▁desertification	-14039
▁internationally	-14040
▁neuroscientists	-14041
Of	-14042
gi	-14043
Pro	-14044
abb	-14045
abs	-14046
agu	-14047
hel	-14048
kel	-14049
oko	-14050
rus	-14051
uns	-14052
▁54	-14053
▁58	-14054
▁AV	-14055
▁BR	-14056
▁DD	-14057
▁DJ	-14058
▁Hu	-14059
▁RG	-14060
▁Uk	-14061
▁ft	-14062
Give	-14063
Just	-14064
Star	-14065
Your	-14066
anor	-14067
bags	-14068
cils	-14069
fits	-14070
gath	-14071
hole	-14072
home	-14073
ieth	-14074
itra	-14075
kill	-14076
last	-14077
obos	-14078
olia	-14079
opol	-14080
opsy	-14081
oura	-14082
rans	-14083
shot	-14084
tent	-14085
type	-14086
uate	-14087
weet	-14088
with	-14089
▁11.	-14090
▁110	-14091
▁15.	-14092
▁Adm	-14093
▁Bow	-14094
▁CIA	-14095
▁CNN	-14096
▁Dur	-14097
▁Ess	-14098
▁Hem	-14099
▁Hur	-14100
▁Sri	-14101
▁Wil	-14102
▁ais	-14103
▁blo	-14104
▁gru	-14105
▁kin	-14106
▁mun	-14107
▁sha	-14108
▁umb	-14109
Afric	-14110
acted	-14111
annel	-14112
arity	-14113
artic	-14114
brain	-14115
cards	-14116
igate	-14117
ihood	-14118
named	-14119
ocate	-14120
oshop	-14121
pable	-14122
ravel	-14123
▁2009	-14124
▁Ages	-14125
▁Aust	-14126
▁Best	-14127
▁Bond	-14128
▁Capt	-14129
▁Case	-14130
▁Chim	-14131
▁Club	-14132
▁Coch	-14133
▁Emma	-14134
▁Geor	-14135
▁Ivan	-14136
▁Joel	-14137
▁Kind	-14138
▁LEDs	-14139
▁Marx	-14140
▁Much	-14141
▁Pope	-14142
▁SARS	-14143
▁Sony	-14144
▁Soon	-14145
▁Text	-14146
▁Town	-14147
▁Whit	-14148
▁Yves	-14149
▁anom	-14150
▁bass	-14151
▁boil	-14152
▁brow	-14153
▁cane	-14154
▁clap	-14155
▁coma	-14156
▁dash	-14157
▁deer	-14158
▁encl	-14159
▁fuse	-14160
▁goss	-14161
▁hect	-14162
▁hood	-14163
▁horn	-14164
▁lent	-14165
▁mama	-14166
▁mash	-14167
▁swar	-14168
▁unve	-14169
▁whip	-14170
▁wipe	-14171
People	-14172
agraph	-14173
atized	-14174
belief	-14175
degree	-14176
govern	-14177
growth	-14178
icular	-14179
irming	-14180
people	-14181
razine	-14182
social	-14183
ulsive	-14184
▁1,100	-14185
▁Among	-14186
▁Barry	-14187
▁Cuban	-14188
▁Given	-14189
▁Glass	-14190
▁Hindu	-14191
▁Jacqu	-14192
▁Laure	-14193
▁Roger	-14194
▁Sadly	-14195
▁Sever	-14196
▁appet	-14197
▁biote	-14198
▁bites	-14199
▁ceram	-14200
▁claws	-14201
▁erase	-14202
▁exams	-14203
▁fonts	-14204
▁forum	-14205
▁gangs	-14206
▁gyrus	-14207
▁hunch	-14208
▁idiot	-14209
▁impat	-14210
▁kings	-14211
▁laure	-14212
▁lemon	-14213
▁mites	-14214
▁obliv	-14215
▁overt	-14216
▁oxide	-14217
▁perse	-14218
▁poets	-14219
▁ruled	-14220
▁smugg	-14221
▁sober	-14222
▁souls	-14223
▁spear	-14224
▁spong	-14225
▁stagn	-14226
▁stain	-14227
▁steak	-14228
▁sting	-14229
▁sunny	-14230
▁therm	-14231
▁tunas	-14232
▁unple	-14233
▁valve	-14234
▁vents	-14235
amation	-14236
amiliar	-14237
banisha	-14238
cellent	-14239
healthy	-14240
ocative	-14241
osaurus	-14242
sharing	-14243
▁Behind	-14244
▁Cities	-14245
▁Dallas	-14246
▁Falcon	-14247
▁Forest	-14248
▁Hadron	-14249
▁Hudson	-14250
▁Kenyan	-14251
▁Lakota	-14252
▁Tehran	-14253
▁artery	-14254
▁bronze	-14255
▁cliffs	-14256
▁condem	-14257
▁county	-14258
▁crafts	-14259
▁curved	-14260
▁dissem	-14261
▁fiscal	-14262
▁floods	-14263
▁gifted	-14264
▁intest	-14265
▁libert	-14266
▁novels	-14267
▁oyster	-14268
▁phthal	-14269
▁polite	-14270
▁primal	-14271
▁prosec	-14272
▁redund	-14273
▁refers	-14274
▁regain	-14275
▁retain	-14276
▁retrie	-14277
▁retros	-14278
▁suburb	-14279
▁sucked	-14280
▁traded	-14281
▁twenty	-14282
activity	-14283
ceptible	-14284
othermal	-14285
sourcing	-14286
▁500,000	-14287
▁Between	-14288
▁Caltech	-14289
▁Cassini	-14290
▁Digital	-14291
▁Program	-14292
▁accused	-14293
▁apprent	-14294
▁assault	-14295
▁breasts	-14296
▁cafeter	-14297
▁crosses	-14298
▁curtain	-14299
▁derived	-14300
▁excuses	-14301
▁fishery	-14302
▁flipped	-14303
▁lasting	-14304
▁modular	-14305
▁novelty	-14306
▁outward	-14307
▁perpetr	-14308
▁plotted	-14309
▁reconst	-14310
▁spirits	-14311
▁strokes	-14312
▁trailer	-14313
▁unthink	-14314
▁upwards	-14315
▁wounded	-14316
▁Collider	-14317
▁Colorado	-14318
▁Intellig	-14319
▁Iranians	-14320
▁Lawrence	-14321
▁Magazine	-14322
▁Movember	-14323
▁amateurs	-14324
▁ancestry	-14325
▁animated	-14326
▁arranged	-14327
▁atrazine	-14328
▁avoiding	-14329
▁behaving	-14330
▁bleeding	-14331
▁catalyst	-14332
▁charcoal	-14333
▁clicking	-14334
▁dictator	-14335
▁elevated	-14336
▁epiphany	-14337
▁fairness	-14338
▁frequent	-14339
▁glorious	-14340
▁highways	-14341
▁husbands	-14342
▁implicit	-14343
▁lifelong	-14344
▁medieval	-14345
▁mismatch	-14346
▁murdered	-14347
▁mutually	-14348
▁notation	-14349
▁overseas	-14350
▁paradise	-14351
▁province	-14352
▁reminder	-14353
▁resemble	-14354
▁resulted	-14355
▁rigorous	-14356
▁scalable	-14357
▁shortage	-14358
▁starving	-14359
▁sweeping	-14360
▁switches	-14361
▁terminal	-14362
▁tortured	-14363
▁troubled	-14364
▁trusting	-14365
▁Companies	-14366
▁Excellent	-14367
▁Victorian	-14368
▁aerodynam	-14369
▁augmented	-14370
▁balancing	-14371
▁billboard	-14372
▁circuitry	-14373
▁committee	-14374
▁enjoyable	-14375
▁extracted	-14376
▁fertility	-14377
▁generator	-14378
▁immensely	-14379
▁inventors	-14380
▁messaging	-14381
▁partially	-14382
▁penetrate	-14383
▁periphery	-14384
▁reconnect	-14385
▁rectangle	-14386
▁remembers	-14387
▁revealing	-14388
▁serotonin	-14389
▁shrinking	-14390
▁spaceship	-14391
▁stabilize	-14392
▁stretched	-14393
▁submarine	-14394
▁supernova	-14395
▁switching	-14396
▁thylacine	-14397
appropriate	-14398
munications	-14399
▁Commission	-14400
▁Panbanisha	-14401
▁Vietnamese	-14402
▁accidental	-14403
▁arithmetic	-14404
▁automotive	-14405
▁conducting	-14406
▁containers	-14407
▁criticized	-14408
▁deliberate	-14409
▁downstairs	-14410
▁eradicated	-14411
▁fulfilling	-14412
▁liberation	-14413
▁livelihood	-14414
▁manuscript	-14415
▁overweight	-14416
▁perceptual	-14417
▁performers	-14418
▁persistent	-14419
▁references	-14420
▁settlement	-14421
▁simplistic	-14422
▁starvation	-14423
▁thoroughly	-14424
▁unpleasant	-14425
▁wastewater	-14426
▁anticipated	-14427
▁certificate	-14428
▁distinctive	-14429
▁eliminating	-14430
▁exceptional	-14431
▁fingerprint	-14432
▁incorporate	-14433
▁inhabitants	-14434
▁integrating	-14435
▁involvement	-14436
▁measurement	-14437
▁progressive	-14438
▁transferred	-14439
▁transistors	-14440
▁visualizing	-14441
▁announcement	-14442
▁commissioned	-14443
▁desalination	-14444
▁exploitation	-14445
▁preservation	-14446
▁restrictions	-14447
▁standardized	-14448
▁decentralized	-14449
▁determination	-14450
▁differentiate	-14451
▁establishment	-14452
▁substantially	-14453
▁supercomputer	-14454
▁underestimate	-14455
▁neuroscientist	-14456
Bl	-14457
IN	-14458
RN	-14459
cc	-14460
ju	-14461
sa	-14462
eor	-14463
erk	-14464
iro	-14465
iry	-14466
nob	-14467
pen	-14468
rah	-14469
sim	-14470
vet	-14471
▁64	-14472
▁73	-14473
▁BP	-14474
▁ES	-14475
▁Ga	-14476
▁JL	-14477
▁eg	-14478
▁hi	-14479
acci	-14480
arse	-14481
arts	-14482
atma	-14483
bear	-14484
bell	-14485
cile	-14486
cuss	-14487
elve	-14488
iary	-14489
ileo	-14490
lean	-14491
mies	-14492
nels	-14493
otto	-14494
race	-14495
rand	-14496
real	-14497
rosh	-14498
that	-14499
uced	-14500
wire	-14501
ymph	-14502
▁186	-14503
▁2.5	-14504
▁Cre	-14505
▁Dam	-14506
▁Dec	-14507
▁Fib	-14508
▁Fly	-14509
▁IDE	-14510
▁Imp	-14511
▁Kep	-14512
▁McK	-14513
▁Pap	-14514
▁RNG	-14515
▁Rus	-14516
▁Sol	-14517
▁dye	-14518
▁inh	-14519
▁rud	-14520
▁sug	-14521
▁unm	-14522
▁woo	-14523
PTCHA	-14524
agina	-14525
akery	-14526
annah	-14527
icken	-14528
igers	-14529
imore	-14530
ladus	-14531
lived	-14532
ochem	-14533
ogene	-14534
owned	-14535
ppers	-14536
stood	-14537
▁Andy	-14538
▁Barb	-14539
▁Beat	-14540
▁CERN	-14541
▁Duke	-14542
▁Ence	-14543
▁Gaza	-14544
▁Holy	-14545
▁Lang	-14546
▁Lank	-14547
▁Near	-14548
▁Nich	-14549
▁Odys	-14550
▁Poor	-14551
▁Save	-14552
▁Self	-14553
▁Tenn	-14554
▁Word	-14555
▁aged	-14556
▁apoc	-14557
▁atro	-14558
▁dude	-14559
▁fees	-14560
▁flap	-14561
▁fled	-14562
▁hind	-14563
▁hive	-14564
▁hull	-14565
▁lava	-14566
▁mang	-14567
▁pies	-14568
▁pist	-14569
▁rage	-14570
▁rhin	-14571
▁ripp	-14572
▁rode	-14573
▁rust	-14574
▁spra	-14575
▁todd	-14576
▁utop	-14577
▁warn	-14578
agging	-14579
alling	-14580
funded	-14581
houses	-14582
icides	-14583
itutes	-14584
omfort	-14585
oscope	-14586
oulder	-14587
places	-14588
saving	-14589
urfing	-14590
▁1,200	-14591
▁1998,	-14592
▁2004.	-14593
▁2020.	-14594
▁Brain	-14595
▁Cairo	-14596
▁Hyper	-14597
▁Irish	-14598
▁Qatar	-14599
▁baker	-14600
▁burns	-14601
▁croch	-14602
▁deriv	-14603
▁essay	-14604
▁fraud	-14605
▁greed	-14606
▁hears	-14607
▁hives	-14608
▁hurry	-14609
▁juris	-14610
▁leaks	-14611
▁milit	-14612
▁nanot	-14613
▁poles	-14614
▁posts	-14615
▁rever	-14616
▁saves	-14617
▁scrap	-14618
▁scuba	-14619
▁skate	-14620
▁soils	-14621
▁stiff	-14622
▁stink	-14623
▁sword	-14624
▁tense	-14625
▁theft	-14626
▁twent	-14627
▁versa	-14628
▁volat	-14629
erendip	-14630
versely	-14631
▁80,000	-14632
▁Avenue	-14633
▁Bulgar	-14634
▁Europa	-14635
▁Forget	-14636
▁Gordon	-14637
[...]
