<unk>	0
<pad>	0
<bos>	0
<eos>	0
en	-0
er	-1
ch	-2
▁d	-3
in	-4
ie	-5
▁w	-6
un	-7
▁s	-8
ich	-9
▁e	-10
an	-11
st	-12
as	-13
ei	-14
▁die	-15
▁a	-16
▁un	-17
▁m	-18
▁ein	-19
te	-20
▁S	-21
ge	-22
▁i	-23
on	-24
▁v	-25
ir	-26
▁h	-27
sch	-28
▁z	-29
▁n	-30
ll	-31
▁und	-32
▁das	-33
ar	-34
gen	-35
ten	-36
▁b	-37
es	-38
▁D	-39
hr	-40
▁A	-41
▁W	-42
▁zu	-43
▁k	-44
▁M	-45
▁der	-46
or	-47
at	-48
ein	-49
it	-50
em	-51
▁in	-52
der	-53
▁E	-54
▁wir	-55
au	-56
▁ist	-57
▁au	-58
▁I	-59
icht	-60
de	-61
den	-62
al	-63
ach	-64
ier	-65
lich	-66
▁f	-67
▁G	-68
ben	-69
▁g	-70
ber	-71
▁B	-72
el	-73
▁ich	-74
▁ge	-75
ur	-76
ter	-77
▁U	-78
▁K	-79
▁es	-80
▁F	-81
ung	-82
se	-83
le	-84
▁an	-85
▁er	-86
▁Un	-87
▁P	-88
▁sie	-89
sen	-90
▁den	-91
▁Sie	-92
▁L	-93
ür	-94
mm	-95
ro	-96
▁T	-97
nen	-98
um	-99
ig	-100
ls	-101
▁nicht	-102
▁ver	-103
▁dass	-104
▁von	-105
eit	-106
▁be	-107
re	-108
is	-109
▁eine	-110
▁Und	-111
ck	-112
▁auf	-113
ser	-114
▁H	-115
ann	-116
▁ha	-117
▁so	-118
tz	-119
eh	-120
▁V	-121
▁mit	-122
ion	-123
ind	-124
▁wie	-125
▁R	-126
isch	-127
ra	-128
enn	-129
▁als	-130
▁N	-131
am	-132
▁war	-133
▁sch	-134
▁sich	-135
us	-136
kt	-137
ent	-138
▁l	-139
eu	-140
▁o	-141
▁Ich	-142
▁J	-143
▁Z	-144
▁t	-145
ft	-146
ahr	-147
über	-148
ol	-149
▁sind	-150
ön	-151
be	-152
ehr	-153
▁haben	-154
▁für	-155
lle	-156
▁j	-157
▁hat	-158
ste	-159
▁man	-160
▁aus	-161
ag	-162
▁um	-163
and	-164
iel	-165
il	-166
ik	-167
än	-168
▁St	-169
▁über	-170
ff	-171
▁kön	-172
▁"	-173
eine	-174
▁p	-175
▁Das	-176
▁Die	-177
och	-178
ut	-179
▁wer	-180
▁Es	-181
llen	-182
tw	-183
▁Wir	-184
▁Sch	-185
sten	-186
▁Ge	-187
▁In	-188
om	-189
▁da	-190
hl	-191
eil	-192
▁diese	-193
▁was	-194
▁Er	-195
▁dem	-196
▁im	-197
igen	-198
ern	-199
hen	-200
▁wenn	-201
▁O	-202
▁ihr	-203
bt	-204
sp	-205
▁dies	-206
▁uns	-207
▁einen	-208
rei	-209
omm	-210
▁-	-211
chen	-212
ieren	-213
▁Ver	-214
▁C	-215
ensch	-216
ne	-217
▁können	-218
▁des	-219
▁je	-220
▁unser	-221
▁werden	-222
ien	-223
▁Jahr	-224
wei	-225
iv	-226
▁Pro	-227
▁oder	-228
ehen	-229
rau	-230
ungen	-231
▁vor	-232
zu	-233
ige	-234
▁Ar	-235
▁sein	-236
iert	-237
elt	-238
scha	-239
ation	-240
▁An	-241
rü	-242
▁ander	-243
▁kann	-244
▁aber	-245
▁wo	-246
▁auch	-247
▁einer	-248
▁1	-249
▁Mensch	-250
men	-251
▁einem	-252
▁Aber	-253
gt	-254
anz	-255
▁Be	-256
▁nach	-257
ken	-258
▁mach	-259
▁mein	-260
ort	-261
hnen	-262
uch	-263
▁Ein	-264
▁sehr	-265
▁hier	-266
▁wird	-267
▁etw	-268
▁nur	-269
▁bei	-270
▁all	-271
ischen	-272
▁dar	-273
ht	-274
▁Menschen	-275
os	-276
ibt	-277
ör	-278
aus	-279
fen	-280
▁ent	-281
hn	-282
▁mich	-283
▁–	-284
urch	-285
äch	-286
▁st	-287
▁gibt	-288
issen	-289
▁dann	-290
▁Re	-291
lau	-292
▁also	-293
ot	-294
▁wur	-295
▁le	-296
▁Le	-297
tzt	-298
ät	-299
ill	-300
hal	-301
▁sp	-302
eute	-303
ab	-304
▁En	-305
og	-306
ru	-307
und	-308
▁noch	-309
▁etwas	-310
ing	-311
bl	-312
schaft	-313
dern	-314
ommen	-315
ick	-316
▁her	-317
rie	-318
▁sehen	-319
▁habe	-320
tet	-321
et	-322
▁wei	-323
ang	-324
▁sa	-325
▁Sp	-326
▁vie	-327
▁dieser	-328
▁Welt	-329
▁Als	-330
▁mir	-331
ul	-332
mmer	-333
bei	-334
▁mehr	-335
▁durch	-336
▁kl	-337
heit	-338
roß	-339
▁sag	-340
ische	-341
ers	-342
op	-343
▁re	-344
mal	-345
lichen	-346
▁gen	-347
keit	-348
all	-349
▁Was	-350
acht	-351
we	-352
00	-353
▁viel	-354
▁Wenn	-355
he	-356
."	-357
ffen	-358
ank	-359
▁Leben	-360
her	-361
▁Au	-362
liche	-363
▁2	-364
▁alle	-365
är	-366
üs	-367
klich	-368
fach	-369
uss	-370
end	-371
amm	-372
cht	-373
▁ganz	-374
▁mö	-375
▁zum	-376
▁wurde	-377
▁Zeit	-378
ri	-379
fü	-380
▁Ihnen	-381
ess	-382
▁unter	-383
▁wür	-384
ze	-385
ähr	-386
rin	-387
bst	-388
▁machen	-389
imm	-390
assen	-391
▁ste	-392
▁groß	-393
▁wirklich	-394
tzen	-395
oll	-396
ech	-397
ass	-398
▁ab	-399
▁zwei	-400
▁Gesch	-401
▁einfach	-402
▁immer	-403
for	-404
▁meine	-405
fl	-406
rück	-407
ungs	-408
▁r	-409
▁weil	-410
wer	-411
▁bes	-412
▁am	-413
inge	-414
ob	-415
▁kon	-416
▁tun	-417
▁Also	-418
bar	-419
chte	-420
ekt	-421
tern	-422
schie	-423
▁fü	-424
ner	-425
art	-426
▁hatte	-427
äu	-428
nte	-429
▁neu	-430
aten	-431
▁dieses	-432
▁bis	-433
ad	-434
▁Ihr	-435
ist	-436
inden	-437
lie	-438
ap	-439
▁müs	-440
iz	-441
▁unsere	-442
ehmen	-443
elbst	-444
che	-445
▁hin	-446
leich	-447
gel	-448
▁keine	-449
per	-450
ück	-451
eiten	-452
▁Leute	-453
▁ihre	-454
▁♫	-455
ger	-456
im	-457
▁wissen	-458
glich	-459
▁Gr	-460
rach	-461
ionen	-462
iger	-463
stell	-464
▁diesem	-465
unkt	-466
▁Art	-467
▁müssen	-468
▁soll	-469
hlen	-470
omp	-471
▁Man	-472
▁Dinge	-473
▁dam	-474
dem	-475
▁sagte	-476
ke	-477
olog	-478
▁sagen	-479
est	-480
ßen	-481
▁waren	-482
pt	-483
▁viele	-484
▁diesen	-485
itte	-486
gend	-487
rä	-488
unden	-489
lt	-490
▁beg	-491
▁Jahren	-492
▁Zu	-493
blem	-494
age	-495
▁weiter	-496
▁Ges	-497
▁lie	-498
ild	-499
▁bin	-500
ats	-501
sam	-502
kommen	-503
ah	-504
zen	-505
▁Kon	-506
du	-507
▁eines	-508
einen	-509
▁jetzt	-510
▁gew	-511
▁andere	-512
▁Or	-513
ammen	-514
ver	-515
▁Kin	-516
▁Vor	-517
▁zei	-518
ster	-519
▁wieder	-520
▁anderen	-521
▁eigen	-522
▁Wie	-523
ität	-524
det	-525
ed	-526
lleicht	-527
angen	-528
▁würde	-529
ichte	-530
ichtig	-531
▁glau	-532
auf	-533
▁Bei	-534
geb	-535
▁alles	-536
nis	-537
▁Problem	-538
pp	-539
▁zur	-540
▁So	-541
▁Aus	-542
▁damit	-543
▁du	-544
▁selbst	-545
ün	-546
sehen	-547
▁nie	-548
▁vers	-549
▁ar	-550
▁Der	-551
eg	-552
zi	-553
▁wen	-554
▁verb	-555
auen	-556
▁Ch	-557
▁geht	-558
eln	-559
yst	-560
▁Mill	-561
▁gem	-562
spiel	-563
under	-564
ant	-565
ast	-566
▁Jahre	-567
änder	-568
ler	-569
ande	-570
tes	-571
▁zurück	-572
ystem	-573
▁ob	-574
halten	-575
off	-576
beit	-577
▁ber	-578
▁Auf	-579
▁ger	-580
▁denn	-581
▁Frau	-582
inn	-583
ale	-584
mer	-585
▁wel	-586
▁muss	-587
ragen	-588
kl	-589
rö	-590
pf	-591
▁gut	-592
ßer	-593
▁zus	-594
▁zw	-595
ächlich	-596
schl	-597
nten	-598
▁schon	-599
▁Um	-600
äre	-601
amen	-602
▁heraus	-603
▁Pl	-604
▁Ne	-605
igkeit	-606
zeu	-607
aar	-608
▁Kinder	-609
von	-610
▁möchte	-611
des	-612
vor	-613
lei	-614
▁verst	-615
zent	-616
rit	-617
stellen	-618
▁ihnen	-619
▁Dies	-620
agen	-621
echn	-622
ell	-623
ierte	-624
ringen	-625
▁vielleicht	-626
ok	-627
fahr	-628
ationen	-629
▁son	-630
▁best	-631
ommt	-632
▁Her	-633
▁Ide	-634
▁Teil	-635
▁pass	-636
atsächlich	-637
ert	-638
ahl	-639
▁letz	-640
me	-641
▁3	-642
▁zusammen	-643
▁drei	-644
▁Nun	-645
▁pro	-646
ran	-647
ug	-648
▁davon	-649
▁Geh	-650
▁dort	-651
▁arbei	-652
ade	-653
▁brau	-654
zie	-655
fe	-656
▁Fl	-657
rechen	-658
hne	-659
uchen	-660
alt	-661
alen	-662
▁Land	-663
halb	-664
▁Dank	-665
▁Hier	-666
▁gleich	-667
▁heute	-668
▁Wissen	-669
▁hatten	-670
atür	-671
▁Techn	-672
▁einige	-673
▁genau	-674
▁inter	-675
▁Geschichte	-676
000	-677
form	-678
ha	-679
kte	-680
cken	-681
▁Bild	-682
▁bet	-683
ater	-684
weise	-685
esen	-686
wo	-687
▁Kl	-688
att	-689
mlich	-690
schen	-691
aut	-692
▁ir	-693
ichten	-694
anden	-695
eld	-696
▁kein	-697
▁könnte	-698
▁Arbeit	-699
zä	-700
aum	-701
▁ihn	-702
▁jem	-703
▁For	-704
ändern	-705
ennen	-706
net	-707
ologie	-708
▁Diese	-709
ielen	-710
atz	-711
rage	-712
▁Bl	-713
▁Gen	-714
▁Nach	-715
▁paar	-716
▁Unter	-717
ine	-718
▁wollen	-719
unde	-720
▁einz	-721
ud	-722
▁woll	-723
war	-724
fr	-725
▁darüber	-726
oren	-727
▁wahr	-728
▁werde	-729
▁gehen	-730
▁nun	-731
qu	-732
▁wurden	-733
▁meiner	-734
reich	-735
irn	-736
▁ben	-737
▁Mit	-738
▁Inter	-739
für	-740
ak	-741
▁tatsächlich	-742
rag	-743
▁Je	-744
hm	-745
▁Wei	-746
tlich	-747
unktion	-748
wick	-749
?"	-750
▁Ber	-751
utzen	-752
schieden	-753
▁verw	-754
▁Beispiel	-755
hren	-756
eich	-757
ache	-758
▁zie	-759
▁sondern	-760
▁grö	-761
▁ange	-762
ährend	-763
gar	-764
hör	-765
▁besser	-766
äd	-767
▁Geb	-768
atur	-769
atürlich	-770
▁weiß	-771
▁seine	-772
▁Ü	-773
fol	-774
ativ	-775
▁Ab	-776
▁Da	-777
▁gab	-778
▁bede	-779
eisten	-780
▁unserer	-781
ander	-782
hin	-783
▁bek	-784
▁Wasser	-785
akt	-786
▁5	-787
▁gu	-788
▁Se	-789
▁wäre	-790
▁dazu	-791
▁neue	-792
änd	-793
ode	-794
▁denke	-795
ult	-796
▁will	-797
▁irgend	-798
▁leben	-799
▁vom	-800
▁Fre	-801
▁Al	-802
schein	-803
br	-804
ite	-805
achen	-806
eite	-807
▁Aut	-808
teil	-809
▁gef	-810
▁19	-811
▁ges	-812
▁denken	-813
▁hät	-814
▁Ste	-815
schei	-816
gie	-817
▁kommen	-818
▁macht	-819
öglich	-820
▁finden	-821
▁denen	-822
▁entwick	-823
▁einmal	-824
▁gemacht	-825
▁sogar	-826
utz	-827
▁lang	-828
▁Wer	-829
ma	-830
▁hei	-831
▁Grund	-832
▁Mon	-833
▁gerade	-834
▁gegen	-835
▁verl	-836
▁Tag	-837
▁glaube	-838
▁erzä	-839
ittel	-840
▁zwischen	-841
▁interess	-842
▁20	-843
▁kommt	-844
▁geben	-845
erson	-846
öff	-847
ften	-848
▁gel	-849
▁Ent	-850
▁funktion	-851
äh	-852
geben	-853
ierung	-854
ingen	-855
ika	-856
keiten	-857
▁Des	-858
▁Im	-859
enden	-860
▁Lebens	-861
▁wichtig	-862
▁Frauen	-863
▁Frage	-864
ange	-865
▁bedeu	-866
olle	-867
▁Mal	-868
▁Mar	-869
od	-870
▁erst	-871
▁Gehirn	-872
▁ex	-873
▁Über	-874
lück	-875
▁näch	-876
gan	-877
hem	-878
▁mus	-879
▁ohne	-880
pl	-881
ay	-882
▁jeder	-883
▁zeigen	-884
▁dafür	-885
rank	-886
rün	-887
▁letzten	-888
fer	-889
▁nichts	-890
▁4	-891
▁Prozent	-892
alten	-893
▁würden	-894
▁sieht	-895
▁passiert	-896
gef	-897
▁verschieden	-898
achte	-899
▁ihren	-900
tschaft	-901
▁ersten	-902
ue	-903
ate	-904
andel	-905
▁konnte	-906
ikan	-907
chten	-908
äl	-909
cher	-910
weg	-911
ss	-912
ce	-913
▁Daten	-914
▁Reg	-915
▁während	-916
▁meisten	-917
▁daran	-918
ys	-919
▁verstehen	-920
gr	-921
immt	-922
nell	-923
aufen	-924
ßt	-925
▁Eine	-926
▁Millionen	-927
▁mal	-928
ischer	-929
▁Ex	-930
▁Ihre	-931
rupp	-932
▁sollte	-933
▁besch	-934
stand	-935
▁erste	-936
▁Hand	-937
▁warum	-938
▁lassen	-939
sicht	-940
▁etwa	-941
gehen	-942
sel	-943
▁Idee	-944
hrt	-945
iele	-946
▁sicher	-947
▁natürlich	-948
ord	-949
ße	-950
▁Med	-951
gew	-952
bs	-953
▁10	-954
▁Ph	-955
jekt	-956
zeit	-957
ivers	-958
ramm	-959
▁sollten	-960
agt	-961
▁Geld	-962
ucht	-963
yp	-964
ogen	-965
stellt	-966
ompu	-967
▁meinen	-968
ign	-969
▁schw	-970
▁mensch	-971
▁Me	-972
ergie	-973
▁wollte	-974
▁Person	-975
iere	-976
▁Schl	-977
licher	-978
.000	-979
erst	-980
▁ganze	-981
▁ja	-982
▁könnten	-983
▁meinem	-984
fte	-985
ide	-986
▁schnell	-987
tro	-988
▁Raum	-989
igt	-990
▁Weg	-991
▁ziemlich	-992
▁Ger	-993
▁komp	-994
▁große	-995
pro	-996
▁geb	-997
▁gesch	-998
llt	-999
schied	-1000
innen	-1001
▁We	-1002
▁klein	-1003
ia	-1004
ckt	-1005
▁bekommen	-1006
ös	-1007
▁sprechen	-1008
aupt	-1009
▁Inform	-1010
ollar	-1011
▁jemand	-1012
ält	-1013
▁arbeiten	-1014
▁scha	-1015
▁dabei	-1016
▁sagt	-1017
richt	-1018
wir	-1019
als	-1020
ären	-1021
▁ging	-1022
ic	-1023
▁ins	-1024
wie	-1025
äng	-1026
ktiv	-1027
▁ihrer	-1028
▁Wo	-1029
ernen	-1030
ark	-1031
▁War	-1032
▁Ä	-1033
▁kam	-1034
onder	-1035
ts	-1036
▁hör	-1037
▁nehmen	-1038
enz	-1039
örper	-1040
omputer	-1041
▁darauf	-1042
dien	-1043
lung	-1044
olut	-1045
▁System	-1046
kun	-1047
ierten	-1048
utter	-1049
twort	-1050
▁sol	-1051
▁Wissenschaft	-1052
ktur	-1053
▁Univers	-1054
amil	-1055
io	-1056
eist	-1057
▁Ende	-1058
scheinlich	-1059
ele	-1060
laub	-1061
orden	-1062
tt	-1063
rad	-1064
finden	-1065
str	-1066
▁Mann	-1067
reiben	-1068
▁Kre	-1069
▁bereit	-1070
▁Kind	-1071
▁El	-1072
▁Min	-1073
▁doch	-1074
urz	-1075
▁weniger	-1076
▁Dollar	-1077
▁Men	-1078
▁kleinen	-1079
▁Mus	-1080
..	-1081
ane	-1082
adt	-1083
äter	-1084
fühl	-1085
▁Ö	-1086
▁Gem	-1087
olit	-1088
▁Stra	-1089
▁vier	-1090
▁schl	-1091
▁bedeutet	-1092
id	-1093
mus	-1094
fall	-1095
ker	-1096
nah	-1097
asch	-1098
▁Technologie	-1099
▁Sache	-1100
gl	-1101
kunft	-1102
ial	-1103
▁Dann	-1104
▁Entw	-1105
▁unseren	-1106
sst	-1107
▁Bo	-1108
▁dir	-1109
arbei	-1110
▁Q	-1111
ganis	-1112
annt	-1113
▁Denn	-1114
▁welche	-1115
▁Verb	-1116
▁Computer	-1117
".	-1118
▁Mein	-1119
rat	-1120
▁Famil	-1121
▁bringen	-1122
▁Möglich	-1123
usst	-1124
▁Y	-1125
▁Rei	-1126
itz	-1127
ennt	-1128
▁dachte	-1129
▁ung	-1130
▁eigentlich	-1131
▁ihm	-1132
▁Te	-1133
orgen	-1134
▁Lie	-1135
▁gesehen	-1136
▁Energie	-1137
äft	-1138
lo	-1139
▁US	-1140
▁seit	-1141
ruck	-1142
▁kleine	-1143
▁möglich	-1144
▁All	-1145
tete	-1146
nit	-1147
▁„	-1148
ald	-1149
raft	-1150
▁brauchen	-1151
▁Fall	-1152
▁Vers	-1153
ive	-1154
▁Seite	-1155
oment	-1156
ga	-1157
no	-1158
▁wenig	-1159
▁Gew	-1160
▁sei	-1161
uten	-1162
achsen	-1163
fin	-1164
▁großen	-1165
▁jeden	-1166
▁se	-1167
▁get	-1168
ition	-1169
▁Weise	-1170
unter	-1171
▁gest	-1172
iges	-1173
ätz	-1174
▁ganzen	-1175
▁Män	-1176
schw	-1177
▁ausge	-1178
...	-1179
▁Menge	-1180
▁Schu	-1181
our	-1182
▁200	-1183
",	-1184
▁Licht	-1185
▁Kar	-1186
▁keinen	-1187
opf	-1188
raf	-1189
▁en	-1190
legen	-1191
▁versuchen	-1192
halt	-1193
nung	-1194
▁Groß	-1195
▁außer	-1196
▁fin	-1197
icher	-1198
▁Am	-1199
schaften	-1200
hlt	-1201
▁6	-1202
▁hätte	-1203
▁hoch	-1204
▁voll	-1205
wegen	-1206
kten	-1207
▁Tage	-1208
▁Ha	-1209
▁al	-1210
folg	-1211
isten	-1212
▁Woch	-1213
▁gern	-1214
▁fün	-1215
▁Buch	-1216
▁gesagt	-1217
ernt	-1218
alis	-1219
ust	-1220
▁Fil	-1221
ard	-1222
gramm	-1223
stellung	-1224
Ich	-1225
▁Zukunft	-1226
fft	-1227
ultur	-1228
eht	-1229
▁De	-1230
th	-1231
rieben	-1232
▁Ja	-1233
▁glauben	-1234
▁Danke	-1235
▁Grupp	-1236
▁schle	-1237
▁später	-1238
ähn	-1239
▁Ko	-1240
denken	-1241
iss	-1242
achten	-1243
wohl	-1244
leben	-1245
lekt	-1246
iar	-1247
▁vielen	-1248
▁Augen	-1249
▁Spiel	-1250
▁unglaub	-1251
▁Körper	-1252
hol	-1253
lex	-1254
▁verm	-1255
▁Entwick	-1256
ormal	-1257
▁te	-1258
▁gehör	-1259
eilen	-1260
ip	-1261
zeug	-1262
▁Son	-1263
▁Vielen	-1264
essen	-1265
▁Stadt	-1266
aden	-1267
▁stellen	-1268
▁Afr	-1269
▁Den	-1270
▁Ort	-1271
▁lernen	-1272
oten	-1273
▁wunder	-1274
▁eigenen	-1275
▁konnten	-1276
▁beim	-1277
öffent	-1278
öl	-1279
▁indem	-1280
▁fest	-1281
ausen	-1282
ellen	-1283
asse	-1284
▁heißt	-1285
▁fünf	-1286
tr	-1287
▁funktioniert	-1288
nehmen	-1289
▁Sprach	-1290
fahren	-1291
▁Gemein	-1292
mp	-1293
undheit	-1294
gang	-1295
ruktur	-1296
▁besonder	-1297
▁Natur	-1298
▁Ob	-1299
elfen	-1300
▁Jetzt	-1301
▁Mutter	-1302
stoff	-1303
▁Ged	-1304
alität	-1305
▁schaffen	-1306
ges	-1307
ließ	-1308
inner	-1309
▁fast	-1310
▁jedes	-1311
▁Moment	-1312
▁oft	-1313
ständ	-1314
setzen	-1315
reichen	-1316
▁Du	-1317
ium	-1318
ändert	-1319
▁nä	-1320
eile	-1321
▁Musik	-1322
▁Schul	-1323
▁Untern	-1324
▁größ	-1325
▁rie	-1326
▁Milliar	-1327
reis	-1328
zeich	-1329
gefähr	-1330
ause	-1331
▁Erde	-1332
kel	-1333
▁Haus	-1334
▁Produ	-1335
▁offen	-1336
allen	-1337
▁Wahr	-1338
satz	-1339
echs	-1340
▁sozi	-1341
▁Probleme	-1342
ho	-1343
ritt	-1344
▁gute	-1345
▁Stud	-1346
▁lange	-1347
▁seiner	-1348
▁Hin	-1349
volut	-1350
lichkeit	-1351
hle	-1352
▁8	-1353
▁Vide	-1354
wusst	-1355
▁Warum	-1356
spro	-1357
▁nutzen	-1358
kon	-1359
eiden	-1360
ott	-1361
isches	-1362
▁schwer	-1363
▁Ma	-1364
▁Gesell	-1365
▁gl	-1366
zahl	-1367
▁Pat	-1368
▁Lehr	-1369
▁wahrscheinlich	-1370
▁fol	-1371
ett	-1372
▁allen	-1373
▁helfen	-1374
fangen	-1375
▁Sta	-1376
▁aller	-1377
▁anders	-1378
ED	-1379
▁genug	-1380
▁Kam	-1381
euten	-1382
▁herum	-1383
fä	-1384
so	-1385
▁erzählen	-1386
▁Bil	-1387
▁Form	-1388
▁c	-1389
▁sah	-1390
volution	-1391
▁verk	-1392
▁Internet	-1393
ahlen	-1394
▁weit	-1395
▁Qu	-1396
nisse	-1397
▁einge	-1398
▁zeigt	-1399
▁schön	-1400
▁Ang	-1401
▁unserem	-1402
duz	-1403
▁weg	-1404
▁begann	-1405
ib	-1406
unst	-1407
▁neuen	-1408
▁7	-1409
ünst	-1410
▁Gesundheit	-1411
esser	-1412
ossen	-1413
yn	-1414
▁pl	-1415
▁nächsten	-1416
glichen	-1417
▁ne	-1418
▁Stu	-1419
▁kennen	-1420
ren	-1421
chmal	-1422
▁ungefähr	-1423
▁klar	-1424
zess	-1425
▁Amer	-1426
▁wicht	-1427
dent	-1428
gleich	-1429
land	-1430
welt	-1431
▁15	-1432
▁Gegen	-1433
rieg	-1434
ron	-1435
▁betrach	-1436
▁Met	-1437
liches	-1438
itu	-1439
▁50	-1440
▁größer	-1441
▁bisschen	-1442
▁Mo	-1443
ph	-1444
kay	-1445
▁Ro	-1446
schaffen	-1447
▁frü	-1448
eim	-1449
raum	-1450
▁100	-1451
heiten	-1452
▁9	-1453
umen	-1454
ösen	-1455
▁USA	-1456
▁Selbst	-1457
igkeiten	-1458
▁richtig	-1459
▁Kunst	-1460
gangen	-1461
▁Ideen	-1462
▁bevor	-1463
▁30	-1464
▁Lu	-1465
▁star	-1466
ehn	-1467
▁♪	-1468
▁nah	-1469
▁jede	-1470
▁bestimm	-1471
▁we	-1472
aneten	-1473
▁Fot	-1474
reffen	-1475
▁bauen	-1476
ina	-1477
▁Dar	-1478
hunder	-1479
ens	-1480
asst	-1481
andeln	-1482
▁Wor	-1483
setzt	-1484
▁wus	-1485
chn	-1486
▁Pu	-1487
▁Fäh	-1488
▁blei	-1489
▁liegt	-1490
▁Mater	-1491
▁recht	-1492
▁fal	-1493
▁gemein	-1494
▁Design	-1495
öt	-1496
▁Zus	-1497
scheid	-1498
▁Informationen	-1499
▁kurz	-1500
kennen	-1501
▁Leuten	-1502
▁seinen	-1503
mpf	-1504
iker	-1505
▁New	-1506
▁Projekt	-1507
▁verändern	-1508
▁TED	-1509
▁Schw	-1510
▁Di	-1511
▁Rob	-1512
llig	-1513
eut	-1514
ffe	-1515
▁Planeten	-1516
sche	-1517
ädchen	-1518
▁Nicht	-1519
▁normal	-1520
ere	-1521
▁Su	-1522
▁gar	-1523
▁Vie	-1524
▁Schule	-1525
dig	-1526
zieh	-1527
▁gehört	-1528
omen	-1529
▁Bür	-1530
▁ro	-1531
▁beh	-1532
▁Erfahr	-1533
utzt	-1534
▁Arten	-1535
anken	-1536
äche	-1537
ände	-1538
▁Lin	-1539
▁Mode	-1540
sk	-1541
ktion	-1542
▁inner	-1543
▁überall	-1544
▁Forsch	-1545
▁hö	-1546
itzen	-1547
▁stehen	-1548
mö	-1549
▁Mu	-1550
▁Für	-1551
▁versuch	-1552
forder	-1553
▁sagten	-1554
bo	-1555
elle	-1556
▁darum	-1557
▁nennen	-1558
▁ko	-1559
ringt	-1560
▁Kopf	-1561
▁erkl	-1562
▁Punkt	-1563
▁ern	-1564
▁Milliarden	-1565
▁At	-1566
▁Antwort	-1567
ütz	-1568
anzen	-1569
▁Gebäu	-1570
ismus	-1571
▁Vort	-1572
▁dich	-1573
▁hinter	-1574
▁anzu	-1575
mittel	-1576
▁euch	-1577
▁Exper	-1578
▁Afrika	-1579
▁anderes	-1580
▁reden	-1581
▁Dieses	-1582
▁Fragen	-1583
werk	-1584
▁bem	-1585
gesch	-1586
▁eben	-1587
▁Bü	-1588
▁Mädchen	-1589
▁Universum	-1590
mand	-1591
▁ihrem	-1592
▁musste	-1593
los	-1594
▁schwier	-1595
▁Unternehmen	-1596
zept	-1597
▁sel	-1598
▁Netz	-1599
▁Geschichten	-1600
cke	-1601
▁Br	-1602
▁de	-1603
▁Glück	-1604
▁Männer	-1605
pr	-1606
eren	-1607
twor	-1608
▁großart	-1609
je	-1610
auer	-1611
▁hal	-1612
▁Krank	-1613
sy	-1614
▁Bi	-1615
gung	-1616
rieb	-1617
▁Meine	-1618
▁Zwei	-1619
▁Wirtschaft	-1620
bringen	-1621
änger	-1622
▁entwickelt	-1623
fang	-1624
▁bereits	-1625
ief	-1626
▁Jahrhunder	-1627
▁Richt	-1628
scheiden	-1629
amens	-1630
einander	-1631
▁oben	-1632
gem	-1633
▁Auto	-1634
öhn	-1635
▁entde	-1636
▁Film	-1637
▁steht	-1638
▁fragen	-1639
▁Minuten	-1640
▁spielen	-1641
▁Zusammen	-1642
▁benutzen	-1643
▁halten	-1644
▁seinem	-1645
voll	-1646
ome	-1647
inen	-1648
▁Bed	-1649
▁Indien	-1650
▁erreichen	-1651
ienten	-1652
▁ü	-1653
▁namens	-1654
▁Lös	-1655
▁gerne	-1656
▁besonders	-1657
▁verschiedene	-1658
▁frag	-1659
if	-1660
erv	-1661
izin	-1662
zei	-1663
▁Gesellschaft	-1664
▁machte	-1665
▁hören	-1666
▁erkennen	-1667
▁hätten	-1668
▁darin	-1669
▁erh	-1670
▁Flug	-1671
indung	-1672
ilfe	-1673
inde	-1674
▁Stück	-1675
aun	-1676
etz	-1677
▁Far	-1678
ielt	-1679
▁Familie	-1680
▁Gl	-1681
▁Video	-1682
▁Verhalten	-1683
▁[	-1684
akter	-1685
andelt	-1686
▁na	-1687
▁Them	-1688
▁sechs	-1689
ks	-1690
▁Oder	-1691
ommun	-1692
zentr	-1693
ahn	-1694
rom	-1695
▁ähn	-1696
▁ho	-1697
deut	-1698
annte	-1699
▁Kön	-1700
▁Fü	-1701
▁Kor	-1702
pen	-1703
grund	-1704
geln	-1705
▁gesam	-1706
▁Bilder	-1707
▁Organis	-1708
▁Sprache	-1709
mals	-1710
endet	-1711
▁Gruppe	-1712
bare	-1713
euer	-1714
▁bef	-1715
▁Herz	-1716
▁jedem	-1717
mit	-1718
ient	-1719
▁Beweg	-1720
setz	-1721
unge	-1722
ließlich	-1723
üt	-1724
ume	-1725
▁Fol	-1726
▁Eltern	-1727
▁Ur	-1728
▁Doch	-1729
▁Fir	-1730
▁Weil	-1731
▁Ergeb	-1732
richten	-1733
oter	-1734
▁Luft	-1735
▁statt	-1736
▁Entscheid	-1737
ack	-1738
let	-1739
was	-1740
▁Sü	-1741
onen	-1742
schnit	-1743
▁Angst	-1744
▁Macht	-1745
▁richt	-1746
urs	-1747
ützen	-1748
▁beein	-1749
bild	-1750
kehr	-1751
▁Beg	-1752
▁erf	-1753
ölker	-1754
▁braucht	-1755
ezie	-1756
heor	-1757
▁vorstellen	-1758
▁Vielleicht	-1759
▁wohl	-1760
ächt	-1761
▁Gefühl	-1762
▁irgendwie	-1763
▁glob	-1764
▁ries	-1765
ings	-1766
ante	-1767
▁Durch	-1768
▁mag	-1769
system	-1770
▁Eigen	-1771
▁Dem	-1772
▁entwickeln	-1773
führt	-1774
punkt	-1775
▁flie	-1776
▁Kultur	-1777
▁ch	-1778
sych	-1779
▁Unser	-1780
▁Möglichkeit	-1781
dr	-1782
▁bewegen	-1783
ock	-1784
▁Str	-1785
▁tro	-1786
▁hoff	-1787
▁Bau	-1788
anten	-1789
ase	-1790
uer	-1791
▁Vater	-1792
▁glück	-1793
ure	-1794
▁Wort	-1795
▁Stimm	-1796
▁Stunden	-1797
▁verschiedenen	-1798
ider	-1799
urop	-1800
genommen	-1801
blik	-1802
esse	-1803
▁erhalten	-1804
ässt	-1805
▁Beh	-1806
▁Gener	-1807
▁Bereich	-1808
▁erw	-1809
▁einzel	-1810
icherheit	-1811
▁einigen	-1812
iken	-1813
ersön	-1814
haupt	-1815
▁einzige	-1816
gte	-1817
ohn	-1818
reten	-1819
ow	-1820
▁manchmal	-1821
▁drau	-1822
▁Freund	-1823
▁wollten	-1824
▁Sachen	-1825
gestellt	-1826
zug	-1827
▁Neu	-1828
▁abs	-1829
▁frei	-1830
zeugen	-1831
▁bemer	-1832
▁ändern	-1833
▁Hause	-1834
▁führen	-1835
▁Sinn	-1836
stehen	-1837
▁Masch	-1838
▁Veränder	-1839
gal	-1840
annen	-1841
äten	-1842
▁Arm	-1843
▁alt	-1844
▁stell	-1845
▁beiden	-1846
▁besten	-1847
▁Patienten	-1848
err	-1849
▁sage	-1850
häng	-1851
▁nämlich	-1852
▁unbe	-1853
▁verwenden	-1854
tel	-1855
▁for	-1856
▁Gott	-1857
▁eher	-1858
▁Komp	-1859
▁vert	-1860
▁innerhalb	-1861
▁Kindern	-1862
zin	-1863
okrat	-1864
eig	-1865
▁erk	-1866
zustellen	-1867
führ	-1868
▁beginnen	-1869
vest	-1870
teten	-1871
▁Regierung	-1872
one	-1873
ikro	-1874
▁Gebäude	-1875
▁unterschied	-1876
isk	-1877
reifen	-1878
▁unglaublich	-1879
zt	-1880
erweise	-1881
▁Hö	-1882
▁Yor	-1883
▁Werk	-1884
tens	-1885
▁Rück	-1886
▁Krebs	-1887
▁Gesicht	-1888
gabe	-1889
sent	-1890
▁verändert	-1891
▁Bab	-1892
▁Roboter	-1893
▁brach	-1894
▁welch	-1895
hemat	-1896
▁getan	-1897
ehe	-1898
druck	-1899
▁Grün	-1900
▁Po	-1901
▁Pol	-1902
enzen	-1903
▁Sol	-1904
▁los	-1905
▁per	-1906
▁ansch	-1907
▁menschlichen	-1908
▁Arch	-1909
schlossen	-1910
▁Part	-1911
▁gemeinsam	-1912
▁...	-1913
▁Mat	-1914
▁überhaupt	-1915
bte	-1916
fel	-1917
ende	-1918
▁wegen	-1919
▁Bezieh	-1920
▁Gleich	-1921
son	-1922
▁bl	-1923
denten	-1924
▁schauen	-1925
▁versucht	-1926
ai	-1927
hlte	-1928
racht	-1929
▁abge	-1930
erikan	-1931
▁Heraus	-1932
nov	-1933
onnen	-1934
▁zwar	-1935
berfl	-1936
blikum	-1937
▁fand	-1938
▁gleichen	-1939
icken	-1940
▁Fahr	-1941
▁Länder	-1942
▁Meer	-1943
tem	-1944
ingt	-1945
▁Lage	-1946
▁18	-1947
▁gr	-1948
stens	-1949
▁Dieser	-1950
▁Material	-1951
führen	-1952
kü	-1953
▁Ziel	-1954
▁Umwelt	-1955
uß	-1956
ans	-1957
eint	-1958
▁beob	-1959
▁Anfang	-1960
igten	-1961
▁Lehrer	-1962
ont	-1963
▁Kn	-1964
imen	-1965
ffekt	-1966
▁aufge	-1967
▁treffen	-1968
▁Par	-1969
ative	-1970
riff	-1971
▁rau	-1972
▁allem	-1973
▁Wochen	-1974
abor	-1975
ängt	-1976
▁verd	-1977
uf	-1978
han	-1979
▁Krieg	-1980
erk	-1981
▁%	-1982
▁Okay	-1983
▁Prozess	-1984
▁Programm	-1985
▁niemand	-1986
▁Erfahrung	-1987
▁Sy	-1988
▁China	-1989
▁Entwicklung	-1990
entr	-1991
▁Rest	-1992
▁öffent	-1993
haus	-1994
▁Grö	-1995
enne	-1996
▁Essen	-1997
av	-1998
völker	-1999
▁Publikum	-2000
ivi	-2001
ute	-2002
▁40	-2003
▁To	-2004
▁lin	-2005
St	-2006
▁dre	-2007
ument	-2008
▁Städ	-2009
▁Stellen	-2010
eid	-2011
▁jen	-2012
ritte	-2013
▁auszu	-2014
▁weltw	-2015
▁mussten	-2016
▁nächste	-2017
▁Bet	-2018
▁Prä	-2019
▁folgen	-2020
▁Herausforder	-2021
▁Zum	-2022
uelle	-2023
arten	-2024
baren	-2025
eister	-2026
ötz	-2027
▁Pap	-2028
nahme	-2029
▁Nacht	-2030
oss	-2031
▁Dingen	-2032
▁produz	-2033
min	-2034
auso	-2035
▁Chr	-2036
▁Bes	-2037
innern	-2038
ras	-2039
▁polit	-2040
sie	-2041
▁bel	-2042
▁kamen	-2043
▁'	-2044
▁vö	-2045
uren	-2046
eigen	-2047
▁entf	-2048
▁Tiere	-2049
▁meines	-2050
möglich	-2051
ager	-2052
▁Freunde	-2053
▁weitere	-2054
iet	-2055
wert	-2056
▁Situ	-2057
▁erre	-2058
▁Grunde	-2059
▁Mittel	-2060
▁falsch	-2061
▁vorher	-2062
▁Geschäft	-2063
wär	-2064
▁Nu	-2065
itze	-2066
anach	-2067
▁Verein	-2068
▁tut	-2069
▁Tier	-2070
arbeit	-2071
▁Dam	-2072
▁Frei	-2073
ziehen	-2074
▁Tages	-2075
▁Denken	-2076
▁wusste	-2077
ehl	-2078
▁fl	-2079
▁ster	-2080
ächst	-2081
ranken	-2082
▁fühlen	-2083
sein	-2084
▁eigene	-2085
▁wor	-2086
lligen	-2087
ransp	-2088
▁Kont	-2089
▁Unterschied	-2090
dlich	-2091
▁worden	-2092
▁12	-2093
▁Kap	-2094
ienen	-2095
▁bringt	-2096
▁Sicherheit	-2097
▁Klim	-2098
▁Lassen	-2099
amp	-2100
▁Inst	-2101
▁lässt	-2102
▁Pf	-2103
nahmen	-2104
ational	-2105
ragt	-2106
▁jed	-2107
▁Boden	-2108
▁ersch	-2109
▁erstaun	-2110
▁Struktur	-2111
ax	-2112
▁or	-2113
▁Ant	-2114
achst	-2115
▁erlau	-2116
▁Möglichkeiten	-2117
elig	-2118
▁Res	-2119
falls	-2120
anke	-2121
▁unten	-2122
▁solche	-2123
▁Vert	-2124
▁erwar	-2125
▁Typ	-2126
rauen	-2127
▁hervor	-2128
▁verschw	-2129
sichtlich	-2130
statt	-2131
annten	-2132
▁Hilfe	-2133
▁leicht	-2134
▁Gedanken	-2135
iment	-2136
stet	-2137
▁exist	-2138
▁völlig	-2139
▁gleiche	-2140
troll	-2141
▁Nein	-2142
▁aufzu	-2143
▁obwohl	-2144
sph	-2145
fluss	-2146
ötzlich	-2147
haft	-2148
▁Job	-2149
antwort	-2150
▁damals	-2151
▁dessen	-2152
▁menschliche	-2153
ian	-2154
▁Fern	-2155
▁berü	-2156
▁Staaten	-2157
innt	-2158
ksam	-2159
▁Ster	-2160
ations	-2161
▁deren	-2162
Was	-2163
▁Sek	-2164
▁teil	-2165
izieren	-2166
▁letzte	-2167
▁schreiben	-2168
lungs	-2169
▁York	-2170
▁grund	-2171
▁jedoch	-2172
▁Pr	-2173
bung	-2174
ahren	-2175
rieden	-2176
▁wären	-2177
xt	-2178
▁mo	-2179
ologien	-2180
inger	-2181
ograf	-2182
▁25	-2183
achstum	-2184
▁direkt	-2185
▁Elekt	-2186
▁fragte	-2187
▁Kü	-2188
iziert	-2189
▁Polit	-2190
▁Thema	-2191
▁betrachten	-2192
bau	-2193
▁Sk	-2194
▁Haupt	-2195
▁lösen	-2196
▁hunder	-2197
▁unters	-2198
uche	-2199
wesen	-2200
▁Schwe	-2201
drück	-2202
▁sollen	-2203
hält	-2204
flanzen	-2205
▁erinner	-2206
blick	-2207
zellen	-2208
▁Woche	-2209
▁besteht	-2210
ehm	-2211
▁Is	-2212
scht	-2213
bauen	-2214
ließen	-2215
▁Markt	-2216
▁teilen	-2217
▁bleiben	-2218
rakt	-2219
▁Per	-2220
▁funktionieren	-2221
iff	-2222
ikaner	-2223
▁Ander	-2224
zip	-2225
▁entscheiden	-2226
are	-2227
mot	-2228
▁ph	-2229
elten	-2230
▁zuvor	-2231
arbeitet	-2232
▁interessant	-2233
gebung	-2234
▁Kraft	-2235
▁suchen	-2236
▁genauso	-2237
▁Oze	-2238
▁ged	-2239
hören	-2240
▁zehn	-2241
get	-2242
zogen	-2243
▁Viele	-2244
▁Monate	-2245
opp	-2246
▁Mikro	-2247
man	-2248
▁Li	-2249
▁eins	-2250
▁Ho	-2251
▁Neur	-2252
▁benöt	-2253
schnitt	-2254
▁sieben	-2255
▁Ländern	-2256
bes	-2257
spr	-2258
osit	-2259
▁stellt	-2260
▁schwierig	-2261
cen	-2262
ool	-2263
wend	-2264
▁Nahr	-2265
▁Tats	-2266
▁Namen	-2267
▁persön	-2268
ond	-2269
elbe	-2270
zeuge	-2271
▁Engl	-2272
▁langsam	-2273
▁DN	-2274
fort	-2275
▁Team	-2276
▁bitte	-2277
▁Gesetz	-2278
aur	-2279
alter	-2280
erstör	-2281
heorie	-2282
▁führt	-2283
ausende	-2284
▁amerikan	-2285
ub	-2286
▁Öl	-2287
▁Ist	-2288
rifft	-2289
▁Lösung	-2290
ilden	-2291
▁Prin	-2292
▁ermö	-2293
▁inte	-2294
▁Ihren	-2295
▁kaufen	-2296
▁Familien	-2297
lin	-2298
▁Tr	-2299
trem	-2300
▁gefunden	-2301
▁Dr	-2302
▁Go	-2303
wirk	-2304
▁Gol	-2305
aktion	-2306
▁Erfolg	-2307
▁verbunden	-2308
bene	-2309
zeigt	-2310
▁stark	-2311
▁zweite	-2312
aren	-2313
▁Gal	-2314
▁verbesser	-2315
▁Liebe	-2316
▁sprach	-2317
▁sterben	-2318
ore	-2319
▁Bro	-2320
ose	-2321
iven	-2322
▁Bru	-2323
licht	-2324
rop	-2325
alien	-2326
ieten	-2327
reiten	-2328
▁gescha	-2329
▁größten	-2330
▁gro	-2331
▁trotz	-2332
▁größte	-2333
▁Fähigkeit	-2334
äuf	-2335
atten	-2336
itein	-2337
▁liebe	-2338
▁Modell	-2339
▁unseres	-2340
vers	-2341
▁lesen	-2342
▁Archite	-2343
▁Co	-2344
auft	-2345
▁Kat	-2346
weisen	-2347
sprochen	-2348
▁welches	-2349
spir	-2350
▁hast	-2351
spiele	-2352
tworten	-2353
jekte	-2354
ählen	-2355
▁Stand	-2356
▁Zellen	-2357
▁Wissenschaftler	-2358
gegen	-2359
▁draußen	-2360
▁komplex	-2361
rän	-2362
▁führ	-2363
▁Labor	-2364
unehmen	-2365
▁Bedeut	-2366
▁hinein	-2367
Das	-2368
▁Autos	-2369
berfläche	-2370
▁dein	-2371
▁Sehen	-2372
▁mitein	-2373
▁Bewegung	-2374
dust	-2375
▁Ind	-2376
gaben	-2377
▁Innov	-2378
▁herauszu	-2379
▁Europ	-2380
▁Heute	-2381
ünstler	-2382
▁erinnern	-2383
aw	-2384
sta	-2385
äuft	-2386
▁Mil	-2387
▁Na	-2388
▁Hoff	-2389
uellen	-2390
▁gelernt	-2391
▁scheint	-2392
▁schließlich	-2393
▁anderer	-2394
jen	-2395
chter	-2396
mo	-2397
▁Fr	-2398
inne	-2399
▁Char	-2400
▁Zahl	-2401
jähr	-2402
▁Eis	-2403
▁Fort	-2404
▁bewusst	-2405
völkerung	-2406
▁Natürlich	-2407
bel	-2408
lassen	-2409
olz	-2410
bend	-2411
▁nahm	-2412
bten	-2413
▁Wert	-2414
▁gewesen	-2415
▁Gemeinschaft	-2416
cker	-2417
ffiz	-2418
ochen	-2419
▁bist	-2420
▁erschaffen	-2421
ätze	-2422
▁Süd	-2423
▁Vir	-2424
▁Reihe	-2425
▁essen	-2426
▁jemals	-2427
aß	-2428
▁sehe	-2429
▁beeinfl	-2430
In	-2431
ift	-2432
fern	-2433
iver	-2434
▁Führ	-2435
▁passieren	-2436
▁Alter	-2437
▁erklären	-2438
▁Verbindung	-2439
▁gegenüber	-2440
▁qu	-2441
ance	-2442
ware	-2443
▁übr	-2444
▁erfolg	-2445
▁fanden	-2446
▁Tatsache	-2447
ja	-2448
oral	-2449
ament	-2450
▁Medien	-2451
▁Muster	-2452
▁Wahrheit	-2453
▁Technologien	-2454
itut	-2455
igung	-2456
gessen	-2457
▁Jeder	-2458
▁mache	-2459
▁Schritt	-2460
▁kleines	-2461
reck	-2462
ehler	-2463
sieht	-2464
▁anfangen	-2465
ese	-2466
▁60	-2467
reibt	-2468
▁Wahl	-2469
wasser	-2470
agieren	-2471
▁Jahrhundert	-2472
line	-2473
rain	-2474
▁nimmt	-2475
▁deshalb	-2476
▁konzentr	-2477
zw	-2478
iko	-2479
igit	-2480
wohn	-2481
▁Unsere	-2482
▁Richtung	-2483
▁glücklich	-2484
▁br	-2485
lett	-2486
▁lei	-2487
gefühl	-2488
gewöhn	-2489
▁Blick	-2490
▁daraus	-2491
▁hinaus	-2492
▁beginnt	-2493
▁wachsen	-2494
▁aussehen	-2495
▁Studenten	-2496
älter	-2497
▁Technik	-2498
▁möchten	-2499
▁geworden	-2500
▁miteinander	-2501
Sch	-2502
▁fr	-2503
gliche	-2504
▁Platz	-2505
▁Anzahl	-2506
▁Erw	-2507
▁neben	-2508
▁länger	-2509
▁nachdem	-2510
▁unterst	-2511
▁wissenschaft	-2512
▁80	-2513
rift	-2514
älfte	-2515
zeugt	-2516
▁Alles	-2517
▁Recht	-2518
▁schwar	-2519
ve	-2520
zus	-2521
immer	-2522
▁Tatsächlich	-2523
▁Alle	-2524
▁Plan	-2525
dustrie	-2526
▁Kranken	-2527
ity	-2528
äß	-2529
▁CA	-2530
wand	-2531
weis	-2532
lauf	-2533
▁plötzlich	-2534
▁Ris	-2535
spekt	-2536
▁Ihrem	-2537
▁danach	-2538
fon	-2539
fäh	-2540
änden	-2541
ämp	-2542
▁bew	-2543
itäten	-2544
▁Bildung	-2545
▁verloren	-2546
gende	-2547
▁gebaut	-2548
▁überras	-2549
▁schlecht	-2550
▁Är	-2551
▁fort	-2552
▁Teile	-2553
merksam	-2554
▁bekommt	-2555
▁schrieb	-2556
ator	-2557
▁erle	-2558
▁Bel	-2559
▁laufen	-2560
asen	-2561
ividu	-2562
▁Medik	-2563
▁Sicht	-2564
▁Einige	-2565
▁Gewalt	-2566
▁Situation	-2567
▁verwendet	-2568
▁Mot	-2569
▁wert	-2570
▁Bürger	-2571
▁genannt	-2572
▁kleiner	-2573
▁hil	-2574
▁Stimme	-2575
▁Aufgabe	-2576
ungsk	-2577
ativen	-2578
▁stellte	-2579
si	-2580
▁Erk	-2581
▁Ihrer	-2582
▁versch	-2583
▁gezeigt	-2584
▁Mathemat	-2585
▁Umgebung	-2586
gn	-2587
▁Fa	-2588
▁Tem	-2589
▁komm	-2590
▁findet	-2591
▁sofort	-2592
▁Deshalb	-2593
▁Krankheit	-2594
▁bi	-2595
aszin	-2596
durch	-2597
▁tief	-2598
▁elekt	-2599
▁Forschung	-2600
lang	-2601
▁Mitte	-2602
▁beschäft	-2603
▁entfernt	-2604
unk	-2605
▁Fuß	-2606
▁acht	-2607
▁aktiv	-2608
▁guten	-2609
▁benutzt	-2610
wusstsein	-2611
▁Bedeutung	-2612
▁Vorstellung	-2613
öst	-2614
▁tö	-2615
▁Blut	-2616
▁Test	-2617
▁Viel	-2618
▁raus	-2619
▁Kamer	-2620
▁einzu	-2621
ct	-2622
ies	-2623
unkte	-2624
▁Foto	-2625
radition	-2626
▁Während	-2627
aler	-2628
esent	-2629
▁bewe	-2630
▁grün	-2631
▁nachzu	-2632
sm	-2633
urt	-2634
▁ind	-2635
sprechen	-2636
▁niemals	-2637
▁nachdenken	-2638
prä	-2639
immen	-2640
zeitig	-2641
▁Ru	-2642
ment	-2643
rans	-2644
rate	-2645
raten	-2646
▁hoffe	-2647
del	-2648
▁Mag	-2649
▁Sonnen	-2650
dete	-2651
▁Tür	-2652
▁Nord	-2653
▁Tele	-2654
trolle	-2655
▁Aktiv	-2656
▁sonst	-2657
▁techn	-2658
.“	-2659
affen	-2660
rauch	-2661
teilt	-2662
ichtet	-2663
▁beide	-2664
ppe	-2665
▁kü	-2666
elte	-2667
▁Rolle	-2668
▁Wirklich	-2669
▁Information	-2670
▁Fä	-2671
ines	-2672
uell	-2673
▁Reise	-2674
▁Hälfte	-2675
▁verrück	-2676
▁Veränderung	-2677
Wir	-2678
▁tat	-2679
▁egal	-2680
▁reich	-2681
▁Größe	-2682
▁Vortrag	-2683
▁erfolgreich	-2684
▁samm	-2685
▁allein	-2686
▁Amerika	-2687
▁erreicht	-2688
iten	-2689
▁höher	-2690
▁schau	-2691
ierungen	-2692
▁Straßen	-2693
ogra	-2694
▁öff	-2695
recht	-2696
tzut	-2697
▁Tat	-2698
immel	-2699
▁zeige	-2700
▁gingen	-2701
eutzut	-2702
eutzutage	-2703
omb	-2704
roh	-2705
▁Nie	-2706
▁rei	-2707
ritten	-2708
▁Herausforderung	-2709
lage	-2710
änge	-2711
▁199	-2712
▁Bar	-2713
▁blau	-2714
zü	-2715
ysik	-2716
▁geh	-2717
ame	-2718
▁Bä	-2719
▁Rad	-2720
▁kre	-2721
▁Schü	-2722
ierend	-2723
▁bekam	-2724
▁gefähr	-2725
▁Meinung	-2726
▁ru	-2727
ändig	-2728
▁toll	-2729
▁daher	-2730
▁He	-2731
▁Erd	-2732
▁rein	-2733
sphäre	-2734
▁Prinzip	-2735
▁bekannt	-2736
▁jemanden	-2737
wirtschaft	-2738
▁veröffent	-2739
app	-2740
orf	-2741
äss	-2742
alls	-2743
▁beste	-2744
▁mögen	-2745
▁genommen	-2746
ram	-2747
ette	-2748
ängen	-2749
▁Geist	-2750
▁kontroll	-2751
nt	-2752
Pro	-2753
rab	-2754
äuser	-2755
▁Straße	-2756
▁ziehen	-2757
▁Demokrat	-2758
antast	-2759
▁alten	-2760
▁extrem	-2761
▁fahren	-2762
▁brachte	-2763
▁gegeben	-2764
▁ur	-2765
itel	-2766
▁DNA	-2767
ertig	-2768
iegen	-2769
▁soziale	-2770
▁komplett	-2771
ari	-2772
▁Ju	-2773
▁ak	-2774
gten	-2775
ehmer	-2776
▁hinzu	-2777
▁Entwicklungs	-2778
uchs	-2779
▁Kil	-2780
edizin	-2781
▁entst	-2782
arbeiten	-2783
kre	-2784
arkt	-2785
fekt	-2786
▁lau	-2787
findet	-2788
▁Kosten	-2789
▁Fähigkeiten	-2790
viel	-2791
dessen	-2792
▁Kolle	-2793
schieht	-2794
▁Wachstum	-2795
▁interessiert	-2796
az	-2797
ezi	-2798
▁Gef	-2799
▁Chem	-2800
▁stand	-2801
jenigen	-2802
▁Bakter	-2803
▁Bücher	-2804
▁Hinter	-2805
▁geschieht	-2806
▁wichtiger	-2807
rech	-2808
stück	-2809
▁liegen	-2810
▁fliegen	-2811
▁11	-2812
lekü	-2813
▁Wör	-2814
▁Papier	-2815
▁setzen	-2816
▁weltweit	-2817
▁Dro	-2818
▁Kal	-2819
▁empf	-2820
▁Sonne	-2821
gebracht	-2822
▁machten	-2823
▁Realität	-2824
▁Generation	-2825
struktur	-2826
▁Medizin	-2827
▁schneller	-2828
af	-2829
▁nein	-2830
▁Strom	-2831
▁geboren	-2832
isse	-2833
itzt	-2834
▁Zeu	-2835
echan	-2836
▁einfache	-2837
▁Vereinigten	-2838
auber	-2839
ftware	-2840
▁faszin	-2841
▁gesamte	-2842
legt	-2843
ssen	-2844
auern	-2845
ister	-2846
▁Ding	-2847
▁Stat	-2848
rim	-2849
ällt	-2850
▁Maß	-2851
▁nennt	-2852
▁Europa	-2853
▁Ergebnis	-2854
▁Maschine	-2855
▁Nur	-2856
▁tot	-2857
▁Einz	-2858
abhäng	-2859
▁Preis	-2860
▁digit	-2861
▁Studie	-2862
▁Zahlen	-2863
▁absolut	-2864
▁herauszufinden	-2865
ikel	-2866
▁Tod	-2867
istan	-2868
ollen	-2869
▁Goog	-2870
▁Firma	-2871
▁Städte	-2872
▁geschrieben	-2873
Die	-2874
▁zer	-2875
ätzen	-2876
▁stimmt	-2877
▁Schauen	-2878
▁Entscheidungen	-2879
inz	-2880
▁OK	-2881
▁Zeich	-2882
▁wirtschaft	-2883
bildung	-2884
▁lieben	-2885
amer	-2886
▁Gel	-2887
▁bed	-2888
ologen	-2889
▁defin	-2890
▁Evolution	-2891
▁App	-2892
schul	-2893
▁gesprochen	-2894
gor	-2895
ile	-2896
imp	-2897
ons	-2898
uchten	-2899
▁übert	-2900
ikation	-2901
▁früher	-2902
▁tragen	-2903
▁Oberfläche	-2904
▁90	-2905
▁bas	-2906
▁Kommun	-2907
▁dachten	-2908
hand	-2909
tten	-2910
schlag	-2911
▁Karte	-2912
▁Fehler	-2913
schlagen	-2914
▁Nachrichten	-2915
obil	-2916
▁Tro	-2917
▁gek	-2918
itter	-2919
▁Ganz	-2920
▁neues	-2921
▁anstatt	-2922
▁zerstör	-2923
merksamkeit	-2924
▁Gesundheits	-2925
tler	-2926
essour	-2927
▁begannen	-2928
twas	-2929
daten	-2930
igens	-2931
indungen	-2932
!"	-2933
ieg	-2934
▁Wieder	-2935
▁Produkt	-2936
▁Aufmerksamkeit	-2937
üss	-2938
glie	-2939
stein	-2940
wissen	-2941
▁finde	-2942
▁Leiden	-2943
▁Beziehung	-2944
dert	-2945
vent	-2946
▁Har	-2947
▁prä	-2948
▁Inte	-2949
▁Auswirk	-2950
▁Experiment	-2951
▁lok	-2952
▁ähnlich	-2953
sell	-2954
▁lern	-2955
▁erfor	-2956
▁großer	-2957
▁Hoffnung	-2958
atte	-2959
fess	-2960
nern	-2961
iegel	-2962
üssel	-2963
▁enor	-2964
indest	-2965
▁Schön	-2966
▁bewegt	-2967
▁Erinner	-2968
▁Revolution	-2969
▁Gu	-2970
isst	-2971
▁Von	-2972
ussen	-2973
▁gebe	-2974
▁Psych	-2975
▁Google	-2976
▁Politik	-2977
▁Ad	-2978
▁Dorf	-2979
▁Jahrz	-2980
▁verurs	-2981
▁ansehen	-2982
▁Künstler	-2983
▁Bewusstsein	-2984
stra	-2985
gendes	-2986
▁zuerst	-2987
▁Wind	-2988
▁heut	-2989
lungen	-2990
ämpfen	-2991
▁Druck	-2992
▁gearbeitet	-2993
deck	-2994
hode	-2995
▁Hoch	-2996
laufen	-2997
▁Super	-2998
▁sahen	-2999
▁vorbei	-3000
▁Pflanzen	-3001
beh	-3002
öpf	-3003
▁fre	-3004
▁kosten	-3005
▁Schulen	-3006
▁passierte	-3007
▁Ka	-3008
hang	-3009
pfen	-3010
▁aut	-3011
▁Meter	-3012
▁Bevölkerung	-3013
co	-3014
▁Wohl	-3015
▁abzu	-3016
▁ernst	-3017
▁Gruppen	-3018
▁Einfluss	-3019
Wie	-3020
ime	-3021
▁Do	-3022
verb	-3023
▁junge	-3024
▁verfü	-3025
▁bestimmt	-3026
▁Kontrolle	-3027
▁Mitgefühl	-3028
▁verlassen	-3029
ivil	-3030
▁Regen	-3031
▁näher	-3032
enk	-3033
▁16	-3034
nete	-3035
▁anf	-3036
hnung	-3037
▁Baum	-3038
eltsam	-3039
▁Genau	-3040
▁Behand	-3041
▁Seiten	-3042
▁spezie	-3043
▁Fortsch	-3044
▁beobachten	-3045
▁bestimmten	-3046
▁gleichzeitig	-3047
win	-3048
zte	-3049
▁HI	-3050
▁Fin	-3051
▁kur	-3052
▁Ange	-3053
▁bein	-3054
▁älter	-3055
▁Regeln	-3056
▁Spezie	-3057
▁Versuch	-3058
▁versuchte	-3059
▁14	-3060
ales	-3061
▁Frü	-3062
▁Sohn	-3063
▁kompl	-3064
▁fantast	-3065
▁sozialen	-3066
ote	-3067
lern	-3068
▁Auch	-3069
▁Himmel	-3070
▁Oh	-3071
▁Ressour	-3072
▁schlechte	-3073
50	-3074
▁Glau	-3075
altung	-3076
▁Ozean	-3077
apan	-3078
▁Kan	-3079
▁einzelne	-3080
▁wichtige	-3081
▁offensichtlich	-3082
▁Orte	-3083
▁stud	-3084
▁sitzen	-3085
▁Monaten	-3086
▁bedeuten	-3087
feld	-3088
▁Ton	-3089
▁nahe	-3090
▁inspir	-3091
▁Konzept	-3092
▁Universität	-3093
▁ehr	-3094
elegen	-3095
▁Fisch	-3096
▁falls	-3097
▁Demokratie	-3098
ey	-3099
abel	-3100
ickt	-3101
bracht	-3102
▁Studien	-3103
▁anschauen	-3104
les	-3105
iell	-3106
letz	-3107
▁Hig	-3108
▁Bill	-3109
▁Verl	-3110
ausend	-3111
▁überw	-3112
▁Zugang	-3113
▁finanz	-3114
kul	-3115
stes	-3116
▁HIV	-3117
▁Sau	-3118
▁Menschheit	-3119
herap	-3120
▁bald	-3121
▁Eines	-3122
▁natür	-3123
ierende	-3124
▁Wörter	-3125
▁bleibt	-3126
▁ständig	-3127
▁Hü	-3128
▁Hel	-3129
orfen	-3130
▁verg	-3131
atisch	-3132
▁prakt	-3133
▁wider	-3134
▁richtige	-3135
itär	-3136
rise	-3137
ützt	-3138
▁kannst	-3139
ständnis	-3140
▁ö	-3141
ama	-3142
▁Ku	-3143
▁Trä	-3144
▁Park	-3145
▁intern	-3146
indigkeit	-3147
▁bemerken	-3148
▁vergessen	-3149
wür	-3150
▁Wel	-3151
▁end	-3152
quenz	-3153
machen	-3154
▁moder	-3155
▁richtigen	-3156
go	-3157
schir	-3158
▁Morgen	-3159
▁Stelle	-3160
▁Software	-3161
▁arbeitete	-3162
blich	-3163
▁Mehr	-3164
▁Spaß	-3165
▁Webs	-3166
▁Arbei	-3167
▁Galax	-3168
▁ihres	-3169
greifen	-3170
abil	-3171
error	-3172
kommt	-3173
▁Phil	-3174
▁Gebiet	-3175
▁bilden	-3176
▁großes	-3177
▁Nachbar	-3178
▁erzählt	-3179
bert	-3180
echt	-3181
ppen	-3182
▁000	-3183
schung	-3184
klär	-3185
ählt	-3186
▁Armut	-3187
▁Besch	-3188
▁Poliz	-3189
▁dahin	-3190
▁deine	-3191
▁links	-3192
ologische	-3193
imul	-3194
ombin	-3195
▁Zeug	-3196
eitung	-3197
gemein	-3198
▁Orten	-3199
▁posit	-3200
schluss	-3201
▁Molekü	-3202
▁invest	-3203
▁Grenzen	-3204
▁möglichen	-3205
▁verlieren	-3206
ix	-3207
rist	-3208
▁blo	-3209
digen	-3210
▁Lauf	-3211
▁wussten	-3212
▁aussieht	-3213
▁Vergangen	-3214
▁zumindest	-3215
bet	-3216
arte	-3217
▁John	-3218
▁Kern	-3219
▁Feuer	-3220
▁fertig	-3221
▁Hände	-3222
▁Schüler	-3223
▁bessere	-3224
▁irgendwo	-3225
▁On	-3226
eits	-3227
▁Wür	-3228
ielten	-3229
▁erlaubt	-3230
▁Personen	-3231
▁verbessern	-3232
▁—	-3233
dass	-3234
▁Gut	-3235
▁Sex	-3236
igner	-3237
▁Baby	-3238
▁Tagen	-3239
▁Spezies	-3240
▁Mathematik	-3241
▁Sc	-3242
dung	-3243
ünft	-3244
▁Bot	-3245
▁Prote	-3246
▁versuche	-3247
▁Nachricht	-3248
ums	-3249
ktor	-3250
▁Gra	-3251
ferenz	-3252
▁voller	-3253
zeichnet	-3254
▁produzieren	-3255
ufen	-3256
▁Ord	-3257
eisen	-3258
▁erklär	-3259
▁Beispiele	-3260
▁nachzudenken	-3261
▁Vergangenheit	-3262
▁Car	-3263
▁Chris	-3264
▁medizin	-3265
▁Institut	-3266
fre	-3267
met	-3268
sor	-3269
äte	-3270
▁17	-3271
▁Th	-3272
stru	-3273
▁Uhr	-3274
▁Ebene	-3275
▁echte	-3276
▁Objekt	-3277
▁Bakterien	-3278
▁Krankheiten	-3279
▁Entscheidung	-3280
ko	-3281
rig	-3282
äst	-3283
▁Mü	-3284
▁Zw	-3285
sion	-3286
▁Jed	-3287
räfte	-3288
ächen	-3289
troffen	-3290
▁arbeitet	-3291
▁gebracht	-3292
▁Innovation	-3293
▁heutzutage	-3294
▁Nerv	-3295
▁Wand	-3296
ierter	-3297
werfen	-3298
▁nenne	-3299
▁führte	-3300
▁seltsam	-3301
▁gewinnen	-3302
▁Wirklichkeit	-3303
aup	-3304
ograph	-3305
▁Daher	-3306
▁Firmen	-3307
▁Terror	-3308
▁befinden	-3309
▁gesamten	-3310
ins	-3311
zer	-3312
▁70	-3313
ckte	-3314
▁vis	-3315
ildet	-3316
teilen	-3317
▁Konfl	-3318
▁Zentr	-3319
▁denkt	-3320
▁schreck	-3321
▁Sekunden	-3322
mut	-3323
emen	-3324
▁Vol	-3325
press	-3326
äufig	-3327
▁gekommen	-3328
falt	-3329
zähl	-3330
▁reg	-3331
▁Gerät	-3332
▁Worte	-3333
▁Können	-3334
igte	-3335
uchte	-3336
folgen	-3337
▁Leist	-3338
▁Linie	-3339
▁gewalt	-3340
▁Theorie	-3341
▁solchen	-3342
Un	-3343
▁Fe	-3344
ital	-3345
▁Ern	-3346
▁Sign	-3347
▁auft	-3348
▁Geschw	-3349
▁manche	-3350
▁Telefon	-3351
▁interessante	-3352
iot	-3353
▁Det	-3354
genie	-3355
holen	-3356
orben	-3357
▁traf	-3358
▁winz	-3359
reitet	-3360
zimmer	-3361
▁keiner	-3362
▁morgen	-3363
▁erzeugen	-3364
▁trotzdem	-3365
to	-3366
sto	-3367
▁Sym	-3368
▁runter	-3369
▁einzelnen	-3370
mt	-3371
ath	-3372
▁et	-3373
rägt	-3374
▁Bus	-3375
altet	-3376
▁Oper	-3377
stelle	-3378
mäß	-3379
oph	-3380
merz	-3381
▁201	-3382
twend	-3383
werke	-3384
▁Dien	-3385
utzung	-3386
▁Monat	-3387
▁aufre	-3388
org	-3389
▁CO	-3390
tert	-3391
▁Rau	-3392
▁Vis	-3393
▁umzu	-3394
▁Stamm	-3395
▁geschehen	-3396
▁Amerikaner	-3397
ail	-3398
▁Miss	-3399
▁alte	-3400
▁stär	-3401
peratur	-3402
▁Frieden	-3403
licherweise	-3404
hei	-3405
▁bau	-3406
▁hab	-3407
▁kaum	-3408
▁vorh	-3409
▁Präsi	-3410
▁unmöglich	-3411
▁Ressourcen	-3412
▁Ir	-3413
▁Nä	-3414
ehme	-3415
▁rund	-3416
ationalen	-3417
▁bestimmte	-3418
▁Ergebnisse	-3419
Oh	-3420
anter	-3421
itten	-3422
wenden	-3423
osition	-3424
▁Bienen	-3425
▁Gefäng	-3426
▁riesige	-3427
▁Netzwerk	-3428
▁aufgrund	-3429
▁Gefü	-3430
▁Bezug	-3431
▁sodass	-3432
▁Arbeits	-3433
▁Regierungen	-3434
ret	-3435
▁danke	-3436
▁irgendw	-3437
▁organis	-3438
▁erfahren	-3439
▁Medikamen	-3440
▁entdecken	-3441
▁Wahrscheinlich	-3442
len	-3443
mmern	-3444
▁Haut	-3445
▁neun	-3446
sprach	-3447
▁Relig	-3448
▁moral	-3449
▁verbinden	-3450
▁Auswirkungen	-3451
ball	-3452
stern	-3453
▁erhö	-3454
otwend	-3455
▁dritte	-3456
▁jungen	-3457
▁Nahrung	-3458
▁»	-3459
arm	-3460
▁13	-3461
▁21	-3462
schön	-3463
▁gefragt	-3464
▁entschieden	-3465
▁198	-3466
▁hol	-3467
▁dest	-3468
▁hilft	-3469
▁leisten	-3470
▁großartige	-3471
▁verstanden	-3472
ry	-3473
emand	-3474
sprün	-3475
▁Höhe	-3476
ingungen	-3477
▁dadurch	-3478
▁Ker	-3479
leist	-3480
reche	-3481
▁fing	-3482
assung	-3483
▁Fotos	-3484
▁psych	-3485
ssystem	-3486
▁Invest	-3487
▁rechts	-3488
▁zeigte	-3489
▁Kollegen	-3490
▁einander	-3491
Sp	-3492
uhr	-3493
ille	-3494
pfer	-3495
schu	-3496
wart	-3497
▁Ben	-3498
asche	-3499
reise	-3500
▁Sinne	-3501
▁läuft	-3502
▁Gelegen	-3503
▁Ordnung	-3504
▁großartig	-3505
▁Verantwort	-3506
▁untersuchen	-3507
fg	-3508
ou	-3509
abr	-3510
▁tä	-3511
aben	-3512
grün	-3513
▁lebt	-3514
▁wann	-3515
glicht	-3516
ometer	-3517
▁Formen	-3518
▁arbeite	-3519
▁übrigens	-3520
▁tradition	-3521
▁My	-3522
▁he	-3523
grupp	-3524
indet	-3525
▁Heim	-3526
▁hält	-3527
stoffe	-3528
▁hörte	-3529
▁Chance	-3530
▁sowohl	-3531
gleichen	-3532
zunehmen	-3533
▁Glauben	-3534
▁herausfinden	-3535
hy	-3536
▁Kur	-3537
▁tie	-3538
▁Berg	-3539
▁Herr	-3540
▁zufä	-3541
▁Außer	-3542
▁Brust	-3543
▁niedr	-3544
▁Landes	-3545
ativität	-3546
▁ermöglicht	-3547
▁normalerweise	-3548
ov	-3549
▁Vo	-3550
▁Bas	-3551
▁Sand	-3552
nungen	-3553
zahlen	-3554
▁Million	-3555
▁zweiten	-3556
▁erzählte	-3557
▁gestellt	-3558
ologischen	-3559
▁Architektur	-3560
volle	-3561
▁Diag	-3562
▁hinge	-3563
▁retten	-3564
ude	-3565
▁1,	-3566
▁is	-3567
zial	-3568
▁Inf	-3569
odell	-3570
▁Disk	-3571
rochen	-3572
▁Geräu	-3573
▁reduz	-3574
▁Transp	-3575
ationale	-3576
▁Systeme	-3577
▁Flugzeug	-3578
▁Freiheit	-3579
▁entdeckt	-3580
▁außerhalb	-3581
▁geschaffen	-3582
ek	-3583
leb	-3584
ven	-3585
▁Ak	-3586
▁ant	-3587
▁Büro	-3588
▁Stre	-3589
▁Geburt	-3590
▁Jahres	-3591
▁warten	-3592
▁Methode	-3593
▁handelt	-3594
▁sammeln	-3595
▁Erwachsen	-3596
▁Maschinen	-3597
▁Krankenhaus	-3598
ym	-3599
▁Lö	-3600
onie	-3601
▁Lei	-3602
▁Fluss	-3603
▁Kampf	-3604
▁verste	-3605
arbeiter	-3606
▁bestehen	-3607
▁diejenigen	-3608
buch	-3609
ießen	-3610
▁gesp	-3611
▁umge	-3612
motion	-3613
stände	-3614
▁Damit	-3615
▁taten	-3616
▁Meeres	-3617
▁befindet	-3618
▁Organisation	-3619
par	-3620
unt	-3621
ürz	-3622
▁ca	-3623
▁of	-3624
ährt	-3625
ücht	-3626
stütz	-3627
▁uner	-3628
aschen	-3629
▁Zivil	-3630
▁globalen	-3631
alle	-3632
▁tau	-3633
deten	-3634
astrop	-3635
▁Wesen	-3636
ständig	-3637
▁einzig	-3638
▁kommun	-3639
▁Entdeck	-3640
▁Ingenie	-3641
▁Schlüssel	-3642
umm	-3643
stre	-3644
inder	-3645
▁Mich	-3646
▁Bühne	-3647
▁Regel	-3648
unächst	-3649
▁gewöhn	-3650
lam	-3651
▁Ök	-3652
schn	-3653
ynam	-3654
fghan	-3655
▁Noch	-3656
▁höch	-3657
änomen	-3658
▁entwe	-3659
ffizien	-3660
isieren	-3661
▁Beginn	-3662
▁messen	-3663
▁Artikel	-3664
▁herunter	-3665
Ja	-3666
Nein	-3667
icks	-3668
zwei	-3669
önen	-3670
▁Not	-3671
illen	-3672
▁König	-3673
▁Finger	-3674
▁Englisch	-3675
▁einzigen	-3676
▁Verständnis	-3677
▁grü	-3678
▁lag	-3679
▁Hirn	-3680
gebaut	-3681
schirm	-3682
▁Abend	-3683
▁Farbe	-3684
▁Verfü	-3685
barkeit	-3686
▁Geheim	-3687
▁Nummer	-3688
▁schützen	-3689
folge	-3690
unger	-3691
▁Mars	-3692
liegen	-3693
▁Liebl	-3694
▁genet	-3695
▁spielt	-3696
▁betrachtet	-3697
▁amerikanischen	-3698
up	-3699
iti	-3700
▁Mark	-3701
▁mächt	-3702
▁bisher	-3703
▁welcher	-3704
▁Interesse	-3705
▁unterstützen	-3706
orn	-3707
nehm	-3708
▁Bis	-3709
schte	-3710
dienen	-3711
▁Gründe	-3712
▁selben	-3713
▁Gehirns	-3714
stellungen	-3715
reg	-3716
urg	-3717
▁Sa	-3718
▁äu	-3719
ifor	-3720
ement	-3721
▁Arzt	-3722
▁Gene	-3723
▁Jungen	-3724
▁benutz	-3725
▁berühm	-3726
▁ebenso	-3727
▁effekt	-3728
▁getroffen	-3729
▁herstellen	-3730
arf	-3731
stä	-3732
gibt	-3733
eller	-3734
▁Muse	-3735
ätzlich	-3736
▁Fakt	-3737
▁Inse	-3738
▁lief	-3739
schiede	-3740
▁Partner	-3741
▁National	-3742
▁Behandlung	-3743
apt	-3744
▁Kä	-3745
ügen	-3746
▁opt	-3747
▁Drogen	-3748
▁Finanz	-3749
▁Lernen	-3750
▁Reaktion	-3751
▁öffentlichen	-3752
lose	-3753
sser	-3754
stag	-3755
umor	-3756
▁The	-3757
▁Name	-3758
frikan	-3759
passen	-3760
▁unver	-3761
▁Punkte	-3762
▁mehrere	-3763
▁Zeitpunkt	-3764
▁grundlegen	-3765
iels	-3766
iter	-3767
▁Fen	-3768
▁Quad	-3769
▁bean	-3770
selben	-3771
▁Ereig	-3772
▁Klimaw	-3773
▁erwarten	-3774
zut	-3775
▁Somm	-3776
▁drin	-3777
▁setz	-3778
▁Einer	-3779
▁Tisch	-3780
▁Herzen	-3781
▁hundert	-3782
▁entweder	-3783
seh	-3784
▁Än	-3785
anen	-3786
ahmen	-3787
▁Komm	-3788
ritann	-3789
▁Gespr	-3790
▁Traum	-3791
▁Einzel	-3792
▁Stunde	-3793
▁Einkommen	-3794
ake	-3795
spl	-3796
tra	-3797
▁Hy	-3798
riere	-3799
▁Anal	-3800
▁unge	-3801
▁Poten	-3802
gefunden	-3803
▁Lösungen	-3804
▁dasselbe	-3805
▁schicken	-3806
▁verkaufen	-3807
▁Beziehungen	-3808
tag	-3809
▁Ok	-3810
▁Mär	-3811
istor	-3812
▁krei	-3813
fassen	-3814
▁spricht	-3815
▁Funktion	-3816
▁Manchmal	-3817
▁Gefängnis	-3818
War	-3819
bed	-3820
urm	-3821
▁kn	-3822
lebt	-3823
▁Ser	-3824
maßen	-3825
▁Inner	-3826
▁belie	-3827
▁desto	-3828
▁verhin	-3829
▁Komplex	-3830
▁durchge	-3831
▁erinnere	-3832
▁heutigen	-3833
▁Jahrhunderts	-3834
Es	-3835
rak	-3836
vie	-3837
öse	-3838
such	-3839
▁akt	-3840
produ	-3841
▁Lond	-3842
▁Instr	-3843
▁nahmen	-3844
▁erfunden	-3845
▁ebenfalls	-3846
hre	-3847
▁Fel	-3848
▁Ball	-3849
▁hart	-3850
▁phys	-3851
▁Japan	-3852
▁fällt	-3853
entlich	-3854
zusagen	-3855
▁Kamera	-3856
▁Teilen	-3857
▁behaup	-3858
▁schlimm	-3859
▁Schönheit	-3860
▁Veränderungen	-3861
kop	-3862
kur	-3863
gnor	-3864
▁San	-3865
scher	-3866
▁Wohn	-3867
▁cool	-3868
achtet	-3869
▁Jedes	-3870
wendung	-3871
▁Zeiten	-3872
ierenden	-3873
▁Industrie	-3874
▁Erfahrungen	-3875
iete	-3876
▁Kol	-3877
enken	-3878
▁Wege	-3879
▁elektr	-3880
▁fühlte	-3881
▁voraus	-3882
▁ehrlich	-3883
ac	-3884
ikt	-3885
ürf	-3886
ivat	-3887
will	-3888
▁Win	-3889
fälle	-3890
ilien	-3891
ütter	-3892
rücken	-3893
▁guter	-3894
brechen	-3895
▁Worten	-3896
▁kultur	-3897
▁gedacht	-3898
▁einfachen	-3899
▁intelligen	-3900
pu	-3901
enze	-3902
webe	-3903
flanz	-3904
krieg	-3905
imente	-3906
▁erwei	-3907
▁gutes	-3908
▁Manche	-3909
▁verrückt	-3910
rastruktur	-3911
▁Vergleich	-3912
▁Eigenschaften	-3913
maß	-3914
▁km	-3915
bald	-3916
räge	-3917
▁500	-3918
isser	-3919
kraft	-3920
wärts	-3921
▁jene	-3922
▁Kreis	-3923
▁sowie	-3924
▁Wunder	-3925
▁selten	-3926
ritannien	-3927
▁jemandem	-3928
▁Charakter	-3929
aul	-3930
örp	-3931
▁mer	-3932
iforn	-3933
istisch	-3934
▁Schwar	-3935
▁wenige	-3936
▁wesent	-3937
▁Individu	-3938
▁unglaubliche	-3939
▁Kommunikation	-3940
kam	-3941
gien	-3942
▁Auge	-3943
▁Liste	-3944
▁Ärzte	-3945
sichtig	-3946
▁erleben	-3947
▁behandeln	-3948
ka	-3949
prü	-3950
▁Cl	-3951
▁pr	-3952
eigt	-3953
▁wün	-3954
▁Öff	-3955
▁Junge	-3956
Ge	-3957
rum	-3958
▁Dav	-3959
▁Wol	-3960
bewer	-3961
etten	-3962
raucht	-3963
▁Haben	-3964
▁Ahnung	-3965
▁Risiko	-3966
▁fangen	-3967
▁sobald	-3968
Warum	-3969
dings	-3970
erstoff	-3971
▁Farben	-3972
▁lernte	-3973
▁wunderbar	-3974
▁überleben	-3975
oo	-3976
ilt	-3977
fter	-3978
pekt	-3979
wech	-3980
▁ans	-3981
▁dür	-3982
lagen	-3983
▁Grad	-3984
▁Wald	-3985
schutz	-3986
▁äußer	-3987
▁London	-3988
▁Zustand	-3989
▁Produkte	-3990
alisierung	-3991
▁Intelligen	-3992
Ver	-3993
▁Bu	-3994
orge	-3995
gress	-3996
masch	-3997
seite	-3998
▁komme	-3999
präsent	-4000
▁Freude	-4001
▁Schutz	-4002
▁frühen	-4003
▁Erkennt	-4004
▁eigenes	-4005
britannien	-4006
▁Verfügung	-4007
▁konzentrieren	-4008
ikas	-4009
seit	-4010
▁zeich	-4011
▁Physik	-4012
▁Region	-4013
▁emotion	-4014
▁geschah	-4015
▁Biologie	-4016
▁angefangen	-4017
frika	-4018
techn	-4019
unkel	-4020
▁gehe	-4021
bieren	-4022
ierungs	-4023
▁seines	-4024
▁trifft	-4025
▁öffnen	-4026
▁Antworten	-4027
▁außergewöhn	-4028
gän	-4029
ails	-4030
oper	-4031
ourn	-4032
weil	-4033
ption	-4034
stimm	-4035
▁bill	-4036
▁Bäume	-4037
▁Werte	-4038
▁perfe	-4039
▁Spitze	-4040
▁Waffen	-4041
▁gegangen	-4042
▁größeren	-4043
▁unabhäng	-4044
▁verbringen	-4045
▁Materialien	-4046
bü	-4047
▁Sh	-4048
▁on	-4049
orgt	-4050
▁Mut	-4051
▁Tal	-4052
▁Plast	-4053
▁Afghan	-4054
▁Sommer	-4055
▁Tieren	-4056
▁Fenster	-4057
▁Projekte	-4058
amb	-4059
ammt	-4060
▁197	-4061
▁echt	-4062
itionen	-4063
▁spreche	-4064
▁Freunden	-4065
▁Sauerstoff	-4066
▁Leidenschaft	-4067
▁Verantwortung	-4068
▁Pil	-4069
▁dank	-4070
isiert	-4071
▁Ident	-4072
▁Erstens	-4073
▁Designer	-4074
▁existiert	-4075
▁aufgenommen	-4076
"-	-4077
▁24	-4078
▁Mö	-4079
eien	-4080
lant	-4081
▁för	-4082
ielle	-4083
konom	-4084
unsch	-4085
▁Arme	-4086
▁Erst	-4087
▁Kons	-4088
▁Nähe	-4089
▁hört	-4090
▁ident	-4091
▁Bedürf	-4092
▁ursprün	-4093
▁begonnen	-4094
reib	-4095
▁Del	-4096
auert	-4097
stieg	-4098
ochter	-4099
▁fallen	-4100
▁Männern	-4101
▁erzeugt	-4102
▁globale	-4103
▁herzustellen	-4104
▁kontrollieren	-4105
ID	-4106
ärm	-4107
anda	-4108
sinn	-4109
▁eng	-4110
▁Zelle	-4111
setzung	-4112
▁Westen	-4113
▁Ausdruck	-4114
▁Gelegenheit	-4115
▁Infrastruktur	-4116
dre	-4117
netz	-4118
▁300	-4119
▁Drei	-4120
▁Krie	-4121
▁entsp	-4122
frieden	-4123
haltung	-4124
stellte	-4125
▁Strate	-4126
▁wählen	-4127
▁Schluss	-4128
▁nachhalt	-4129
sellschaft	-4130
▁geschafft	-4131
▁Unterstütz	-4132
▁Kreativität	-4133
▁erstaunlich	-4134
geg	-4135
▁Bio	-4136
▁Kurz	-4137
▁nutz	-4138
▁west	-4139
ennung	-4140
rachte	-4141
▁Trans	-4142
▁Wider	-4143
▁chines	-4144
▁häufig	-4145
▁entlang	-4146
▁größere	-4147
▁Werkzeuge	-4148
▁Überleben	-4149
▁Großbritannien	-4150
Er	-4151
rael	-4152
▁typ	-4153
hause	-4154
stadt	-4155
uster	-4156
▁Klei	-4157
▁Organ	-4158
▁Osten	-4159
ichtbar	-4160
▁akzept	-4161
▁genutzt	-4162
▁notwend	-4163
▁entstehen	-4164
▁Pe	-4165
gier	-4166
inos	-4167
▁Text	-4168
▁ließ	-4169
▁wirk	-4170
▁Nehmen	-4171
mosphäre	-4172
▁riesigen	-4173
▁irgendein	-4174
▁überraschen	-4175
bol	-4176
irt	-4177
▁Ins	-4178
▁Pal	-4179
hlten	-4180
▁erwähn	-4181
▁Jahrzeh	-4182
▁Tochter	-4183
▁dorthin	-4184
▁Interess	-4185
▁brauchte	-4186
kung	-4187
▁Glas	-4188
▁Prot	-4189
riffen	-4190
▁bezahl	-4191
▁Knochen	-4192
▁Polizei	-4193
ain	-4194
ört	-4195
text	-4196
üsse	-4197
▁196	-4198
▁Ele	-4199
▁kor	-4200
iesen	-4201
▁Dort	-4202
▁auss	-4203
▁lust	-4204
▁Gehir	-4205
▁schaut	-4206
ettbewer	-4207
minister	-4208
▁Gefühle	-4209
▁Version	-4210
▁handeln	-4211
▁mittler	-4212
▁erlauben	-4213
pe	-4214
ana	-4215
cebo	-4216
▁Erf	-4217
frage	-4218
▁fehl	-4219
▁gilt	-4220
▁Suche	-4221
▁nehme	-4222
drücken	-4223
eutlich	-4224
▁langen	-4225
▁kämpfen	-4226
▁Standard	-4227
▁Medikamente	-4228
▁ermöglichen	-4229
abe	-4230
holt	-4231
▁Tim	-4232
bruch	-4233
ilder	-4234
▁High	-4235
▁Loch	-4236
▁Müll	-4237
▁fühlt	-4238
▁kenne	-4239
▁sogen	-4240
zeichnen	-4241
▁Klassen	-4242
▁Schrift	-4243
▁einfacher	-4244
▁verantwort	-4245
stab	-4246
artig	-4247
dimen	-4248
etter	-4249
▁Mond	-4250
▁nütz	-4251
▁David	-4252
▁Frank	-4253
▁Ansatz	-4254
▁endlich	-4255
▁Neuronen	-4256
▁Phänomen	-4257
▁Vielfalt	-4258
geschichte	-4259
▁Geschäfts	-4260
▁Temperatur	-4261
▁produziert	-4262
▁beeinflusst	-4263
An	-4264
mel	-4265
▁Fo	-4266
▁Rä	-4267
leun	-4268
atter	-4269
führer	-4270
▁Todes	-4271
schauen	-4272
istische	-4273
▁Geschwindigkeit	-4274
▁iP	-4275
opul	-4276
neten	-4277
▁Vari	-4278
▁früh	-4279
▁okay	-4280
orgung	-4281
utlich	-4282
▁Typen	-4283
▁fühle	-4284
▁legen	-4285
osystem	-4286
▁Klasse	-4287
spektive	-4288
▁Statist	-4289
▁kompliz	-4290
▁Karriere	-4291
▁deutlich	-4292
▁weiterhin	-4293
▁Komplexität	-4294
▁wichtigsten	-4295
▁Lebensmittel	-4296
angt	-4297
renz	-4298
▁Bank	-4299
▁Hall	-4300
▁Häuser	-4301
▁transp	-4302
▁afrikan	-4303
▁reagieren	-4304
Wenn	-4305
gest	-4306
omin	-4307
▁Wal	-4308
▁nöt	-4309
gorit	-4310
mögen	-4311
▁blie	-4312
▁habt	-4313
▁krit	-4314
fallen	-4315
tember	-4316
▁hielt	-4317
▁Hunder	-4318
▁ändert	-4319
▁entsteht	-4320
▁beeinflussen	-4321
ged	-4322
swer	-4323
heben	-4324
▁Holz	-4325
▁Port	-4326
▁abst	-4327
▁Beruf	-4328
▁Karten	-4329
▁Massen	-4330
▁Ameisen	-4331
▁entschied	-4332
▁Produktion	-4333
▁Unterschiede	-4334
▁Verbindungen	-4335
▁Zusammenhang	-4336
hö	-4337
zur	-4338
pfel	-4339
▁Denk	-4340
▁kostet	-4341
▁Materie	-4342
▁Religion	-4343
▁stellten	-4344
▁Botschaft	-4345
▁Entwicklungsl	-4346
mme	-4347
▁Ep	-4348
geht	-4349
ikal	-4350
atell	-4351
nissen	-4352
▁seien	-4353
▁Kohlen	-4354
▁Kunden	-4355
▁online	-4356
▁Spielen	-4357
▁verkauft	-4358
SA	-4359
fil	-4360
vert	-4361
▁Mir	-4362
▁Zit	-4363
▁and	-4364
▁buch	-4365
▁krie	-4366
▁schn	-4367
istenz	-4368
umente	-4369
▁Opfer	-4370
▁Virus	-4371
▁Gewicht	-4372
▁vertrau	-4373
alisieren	-4374
▁Werkzeug	-4375
▁Wirtschafts	-4376
▁Gesellschaften	-4377
fit	-4378
älte	-4379
akten	-4380
eitet	-4381
▁Haar	-4382
aurier	-4383
▁Position	-4384
▁gewonnen	-4385
▁politischen	-4386
rug	-4387
afen	-4388
gere	-4389
view	-4390
wahr	-4391
▁2000	-4392
▁Blog	-4393
▁Jede	-4394
▁Körp	-4395
andels	-4396
iertel	-4397
indust	-4398
▁verbl	-4399
alismus	-4400
▁Result	-4401
▁passen	-4402
▁Ökosystem	-4403
▁politische	-4404
▁Afghanistan	-4405
▁&	-4406
vel	-4407
▁Mc	-4408
▁Kop	-4409
hilfe	-4410
▁Band	-4411
▁Deut	-4412
▁Eins	-4413
▁Letz	-4414
artige	-4415
schrän	-4416
wohner	-4417
▁Vogel	-4418
änderte	-4419
▁erhält	-4420
▁letztes	-4421
industrie	-4422
üh	-4423
Sie	-4424
etr	-4425
ong	-4426
▁Los	-4427
▁res	-4428
▁saß	-4429
acken	-4430
hoden	-4431
schlä	-4432
▁Satz	-4433
▁Seit	-4434
formen	-4435
recher	-4436
▁Offen	-4437
▁Titel	-4438
▁Privat	-4439
▁Schlag	-4440
▁Spiele	-4441
▁verfüg	-4442
zwischen	-4443
▁Einsatz	-4444
▁Zeichen	-4445
▁Aufgaben	-4446
▁Kilometer	-4447
▁Unterstützung	-4448
cy	-4449
ami	-4450
▁Jo	-4451
gern	-4452
tend	-4453
▁Sal	-4454
▁jün	-4455
▁sex	-4456
impan	-4457
▁Fein	-4458
▁anal	-4459
▁darf	-4460
digung	-4461
ährung	-4462
klärung	-4463
▁Plastik	-4464
▁dagegen	-4465
zubringen	-4466
▁behandelt	-4467
▁Atmosphäre	-4468
▁Zusammenarbeit	-4469
IDS	-4470
oge	-4471
anne	-4472
▁Bef	-4473
lecht	-4474
▁Kein	-4475
cebook	-4476
spielt	-4477
▁davor	-4478
▁Altern	-4479
▁ganzes	-4480
ifornien	-4481
▁Niemand	-4482
▁Sekunde	-4483
▁Städten	-4484
▁Facebook	-4485
▁Insekten	-4486
▁Fernsehen	-4487
▁Ausbildung	-4488
▁übertragen	-4489
ca	-4490
▁.	-4491
how	-4492
ost	-4493
otyp	-4494
▁Kir	-4495
dingt	-4496
halte	-4497
laden	-4498
▁Gang	-4499
▁spür	-4500
▁vern	-4501
aurant	-4502
schloss	-4503
▁klingt	-4504
▁Kontakt	-4505
dimension	-4506
▁Qualität	-4507
▁Schimpan	-4508
▁betrifft	-4509
▁weiteres	-4510
▁erstellen	-4511
▁verursacht	-4512
mung	-4513
▁Hor	-4514
▁Red	-4515
frist	-4516
▁Verk	-4517
▁ober	-4518
▁gaben	-4519
okument	-4520
▁Zentrum	-4521
▁schafft	-4522
▁steigen	-4523
▁benötigen	-4524
▁Universums	-4525
die	-4526
▁sü	-4527
arch	-4528
imal	-4529
▁Bud	-4530
▁rel	-4531
ender	-4532
▁Brie	-4533
▁Eind	-4534
▁Stär	-4535
▁chem	-4536
vollen	-4537
▁dauer	-4538
otograf	-4539
▁Rücken	-4540
▁Sterne	-4541
▁Diskuss	-4542
▁Drittel	-4543
▁Schwier	-4544
▁Soldaten	-4545
▁dieselbe	-4546
▁überzeugt	-4547
▁Hintergrund	-4548
▁Intelligenz	-4549
▁beschreiben	-4550
fs	-4551
appen	-4552
rücke	-4553
▁Heil	-4554
▁West	-4555
▁Babys	-4556
▁Genom	-4557
▁solch	-4558
bereich	-4559
▁leiden	-4560
sächlich	-4561
▁begeister	-4562
▁erforschen	-4563
▁investieren	-4564
▁veröffentlicht	-4565
▁,	-4566
▁us	-4567
bank	-4568
omat	-4569
▁Zur	-4570
▁Abst	-4571
▁Auft	-4572
▁Brot	-4573
▁Feld	-4574
▁Jobs	-4575
▁Szen	-4576
▁inst	-4577
▁Reich	-4578
▁sitzt	-4579
▁wirst	-4580
▁Schiff	-4581
▁Wunsch	-4582
▁perfekt	-4583
▁wiederum	-4584
▁Konferenz	-4585
▁unbedingt	-4586
▁verbreitet	-4587
▁wunderschön	-4588
▁Landwirtschaft	-4589
▁herausgefunden	-4590
asi	-4591
ipp	-4592
reu	-4593
rid	-4594
keln	-4595
serv	-4596
▁Web	-4597
▁Hund	-4598
▁erfü	-4599
derung	-4600
▁Klima	-4601
▁spiel	-4602
▁zentr	-4603
gewicht	-4604
isation	-4605
▁Fällen	-4606
▁Objekte	-4607
▁rechten	-4608
▁außerdem	-4609
▁Untersuch	-4610
▁vollkommen	-4611
▁überzeugen	-4612
▁Bedingungen	-4613
▁Klimawandel	-4614
▁Organisationen	-4615
▁Vö	-4616
▁Mex	-4617
krebs	-4618
losen	-4619
gument	-4620
▁Jugend	-4621
▁Wandel	-4622
▁lautet	-4623
▁Profess	-4624
▁erklärt	-4625
▁umgehen	-4626
▁Gemeinde	-4627
▁benötigt	-4628
▁sozusagen	-4629
0,	-4630
ames	-4631
plan	-4632
port	-4633
▁Che	-4634
▁See	-4635
eligi	-4636
▁Fach	-4637
▁bloß	-4638
▁trau	-4639
ournal	-4640
▁Handy	-4641
▁Zusch	-4642
▁haupt	-4643
▁spezi	-4644
steller	-4645
▁drehen	-4646
▁selber	-4647
▁verdienen	-4648
▁beschäftigt	-4649
ämpf	-4650
▁Bal	-4651
▁Dis	-4652
▁geha	-4653
entwick	-4654
▁leider	-4655
undament	-4656
▁alleine	-4657
▁buchstä	-4658
▁stecken	-4659
▁sicherlich	-4660
▁entwickelten	-4661
▁kommunizieren	-4662
sh	-4663
ieß	-4664
amin	-4665
▁Nor	-4666
▁daß	-4667
▁zuk	-4668
▁Schau	-4669
▁absch	-4670
führung	-4671
▁erstes	-4672
▁Einfach	-4673
▁Mitglie	-4674
▁Modelle	-4675
▁zufällig	-4676
ungssystem	-4677
▁Vertrauen	-4678
sse	-4679
▁Wü	-4680
ford	-4681
orte	-4682
▁Dre	-4683
▁Rom	-4684
▁Säu	-4685
▁Zug	-4686
urcht	-4687
▁Gold	-4688
▁künst	-4689
▁tolle	-4690
athemat	-4691
hältnis	-4692
▁Dienst	-4693
▁hinweg	-4694
▁erwartet	-4695
▁Identität	-4696
stu	-4697
▁Ei	-4698
iden	-4699
▁20.	-4700
▁Ken	-4701
▁Zwe	-4702
folgt	-4703
front	-4704
▁Auss	-4705
▁Will	-4706
▁Basis	-4707
▁Masse	-4708
▁Stoff	-4709
▁krank	-4710
aterial	-4711
▁Nutzen	-4712
aktionen	-4713
richtung	-4714
istischen	-4715
▁bezahlen	-4716
▁vermutlich	-4717
▁durchgeführt	-4718
ada	-4719
dit	-4720
ice	-4721
▁su	-4722
eils	-4723
mann	-4724
▁Hil	-4725
osoph	-4726
platz	-4727
raben	-4728
▁Fabr	-4729
▁Rede	-4730
▁Schn	-4731
▁Kaffe	-4732
▁Keine	-4733
▁dreht	-4734
▁neuer	-4735
herapie	-4736
spieler	-4737
programm	-4738
▁Forscher	-4739
▁besitzen	-4740
▁Bildschirm	-4741
Du	-4742
chtz	-4743
iste	-4744
lege	-4745
ring	-4746
ügel	-4747
▁Fün	-4748
▁usw	-4749
fügen	-4750
haben	-4751
▁Graf	-4752
▁aufw	-4753
emente	-4754
iellen	-4755
▁Affen	-4756
▁weiss	-4757
organis	-4758
▁Geräte	-4759
▁Nichts	-4760
▁Themen	-4761
▁bitten	-4762
▁werfen	-4763
▁geführt	-4764
▁zukünft	-4765
tu	-4766
fält	-4767
riffe	-4768
▁Paar	-4769
▁Sehr	-4770
▁disk	-4771
▁entw	-4772
wirken	-4773
▁wohin	-4774
spielen	-4775
teilung	-4776
zeichen	-4777
▁Museum	-4778
▁Schmerz	-4779
▁anderem	-4780
▁Korallen	-4781
▁individu	-4782
▁modernen	-4783
▁Milliarde	-4784
▁gestalten	-4785
▁repräsent	-4786
▁natürliche	-4787
▁auseinander	-4788
uz	-4789
ruf	-4790
lette	-4791
markt	-4792
▁Gest	-4793
▁Irak	-4794
▁läch	-4795
leisch	-4796
▁Beine	-4797
▁Motor	-4798
▁stolz	-4799
▁töten	-4800
▁Satell	-4801
▁antwor	-4802
ungskraft	-4803
▁Leistung	-4804
▁zurückzu	-4805
▁Fortschritt	-4806
▁buchstäblich	-4807
Re	-4808
grö	-4809
änn	-4810
hört	-4811
ling	-4812
▁erl	-4813
fisch	-4814
ätsel	-4815
▁Bett	-4816
▁Fest	-4817
iertes	-4818
oppelt	-4819
▁Bauern	-4820
▁Schwei	-4821
▁fragten	-4822
forschung	-4823
▁Großteil	-4824
▁Problemen	-4825
,"	-4826
▁at	-4827
ibel	-4828
▁Akt	-4829
▁Ans	-4830
▁Syn	-4831
aktiv	-4832
▁Ecke	-4833
▁Golf	-4834
zeiten	-4835
▁Beste	-4836
▁Mobil	-4837
geladen	-4838
ächtnis	-4839
▁Sorgen	-4840
▁schöne	-4841
▁verwir	-4842
▁Bildern	-4843
▁Wichtig	-4844
▁Galaxien	-4845
▁gelangen	-4846
▁Erinnerung	-4847
▁überrascht	-4848
band	-4849
fert	-4850
onom	-4851
▁Mos	-4852
▁Rat	-4853
▁mot	-4854
ektor	-4855
▁Lern	-4856
▁Jungs	-4857
▁Staat	-4858
▁hängt	-4859
▁religi	-4860
isierung	-4861
▁Führung	-4862
▁Gründen	-4863
▁Kontext	-4864
▁kümmern	-4865
▁Kindheit	-4866
▁erinnert	-4867
▁nächstes	-4868
▁tausende	-4869
▁Präsident	-4870
▁verfolgen	-4871
▁interagieren	-4872
▁Institutionen	-4873
rt	-4874
uh	-4875
▁1.	-4876
nitt	-4877
▁Tre	-4878
chern	-4879
hafte	-4880
▁Iran	-4881
▁laut	-4882
▁Train	-4883
▁Erzähl	-4884
▁Öffent	-4885
alisiert	-4886
▁Gesetze	-4887
▁derzeit	-4888
▁falsche	-4889
▁Gegenteil	-4890
▁gegenseit	-4891
gs	-4892
ox	-4893
▁Tw	-4894
ingu	-4895
uern	-4896
▁Dir	-4897
▁Rich	-4898
▁verh	-4899
▁Colle	-4900
▁eröff	-4901
▁fragt	-4902
▁halte	-4903
▁hohen	-4904
▁dürfen	-4905
▁sorgen	-4906
▁steckt	-4907
▁Depress	-4908
gendetwas	-4909
indestens	-4910
▁Sprachen	-4911
▁Wahrnehm	-4912
▁Zweitens	-4913
▁scheinen	-4914
▁interessanter	-4915
Der	-4916
bern	-4917
ehnt	-4918
▁400	-4919
aptop	-4920
▁Temp	-4921
▁ausl	-4922
▁Falls	-4923
▁Statt	-4924
achtung	-4925
▁Meilen	-4926
▁Online	-4927
▁Rahmen	-4928
▁Zuerst	-4929
▁lieber	-4930
▁schlie	-4931
stellten	-4932
▁Teilchen	-4933
▁verbracht	-4934
▁irgendwann	-4935
▁Kalifornien	-4936
kn	-4937
hmen	-4938
klus	-4939
beweg	-4940
▁Kann	-4941
▁dunk	-4942
▁getö	-4943
▁kürz	-4944
afrika	-4945
▁ignor	-4946
▁Norden	-4947
▁weiteren	-4948
richtungen	-4949
▁entwerfen	-4950
▁schließen	-4951
▁verhindern	-4952
▁Kohlenstoff	-4953
riz	-4954
▁el	-4955
adem	-4956
▁150	-4957
reite	-4958
▁City	-4959
▁sinn	-4960
▁Stein	-4961
▁Stift	-4962
▁Gewebe	-4963
▁beteil	-4964
▁deinen	-4965
▁einsch	-4966
▁gehabt	-4967
▁wächst	-4968
▁stärker	-4969
▁Elektron	-4970
▁verwandeln	-4971
▁möglicherweise	-4972
Nun	-4973
anst	-4974
sver	-4975
inken	-4976
macht	-4977
schau	-4978
▁Filme	-4979
quenzen	-4980
▁Händen	-4981
▁aussch	-4982
▁verlie	-4983
jährigen	-4984
▁Begriff	-4985
▁Patient	-4986
▁gewisse	-4987
▁täglich	-4988
blichkeit	-4989
▁besseren	-4990
▁Strukturen	-4991
▁begeistert	-4992
wissenschaft	-4993
▁hauptsächlich	-4994
pag	-4995
utt	-4996
▁Em	-4997
▁Gar	-4998
eiste	-4999
▁Sein	-5000
jekten	-5001
sweise	-5002
▁Autor	-5003
▁Außen	-5004
▁Sport	-5005
▁Bruder	-5006
▁Nation	-5007
▁Vision	-5008
▁testen	-5009
▁Aktivität	-5010
▁einsetzen	-5011
▁wunderbare	-5012
dige	-5013
▁Log	-5014
▁tue	-5015
krank	-5016
▁Fran	-5017
▁Frem	-5018
▁Brenn	-5019
▁weder	-5020
jährige	-5021
▁Gefahr	-5022
▁Nerven	-5023
▁Zimmer	-5024
▁schick	-5025
▁verein	-5026
ausenden	-5027
▁mathemat	-5028
▁Lieblings	-5029
▁vorhanden	-5030
▁letztendlich	-5031
ace	-5032
kle	-5033
wahl	-5034
▁Col	-5035
▁Sep	-5036
ckten	-5037
fahrt	-5038
▁Lied	-5039
▁ausb	-5040
schule	-5041
spiels	-5042
▁Bitte	-5043
▁Spekt	-5044
▁Fleisch	-5045
▁Militär	-5046
▁bemerkt	-5047
▁schwarz	-5048
▁Experten	-5049
▁zunehmen	-5050
▁Schimpansen	-5051
▁irgendetwas	-5052
▁Öffentlichkeit	-5053
äbe	-5054
▁35	-5055
wood	-5056
▁Asp	-5057
▁rad	-5058
ierer	-5059
▁Bras	-5060
▁Glob	-5061
▁hohe	-5062
▁Ziele	-5063
▁starb	-5064
▁Israel	-5065
▁ausgeb	-5066
▁glaubt	-5067
▁stelle	-5068
▁England	-5069
▁getötet	-5070
▁Außerdem	-5071
▁Verstand	-5072
▁angesehen	-5073
▁bestimmen	-5074
▁gefährlich	-5075
▁versuchten	-5076
▁wichtigste	-5077
▁interessieren	-5078
stau	-5079
weit	-5080
▁Tel	-5081
▁Aben	-5082
▁virt	-5083
▁Metap	-5084
▁begeg	-5085
▁regel	-5086
ammlung	-5087
▁Haufen	-5088
▁Videos	-5089
▁erster	-5090
▁Richard	-5091
▁Verkehr	-5092
▁gewisser	-5093
▁Augenblick	-5094
▁mindestens	-5095
▁vollständig	-5096
ly	-5097
amt	-5098
iag	-5099
▁Ox	-5100
bahn	-5101
läss	-5102
▁Ach	-5103
▁Ehe	-5104
▁Tau	-5105
▁Liter	-5106
▁frage	-5107
▁könnt	-5108
▁setzt	-5109
problem	-5110
vention	-5111
▁Heimat	-5112
▁Mütter	-5113
▁Quadrat	-5114
▁kreativ	-5115
▁schönen	-5116
inosaurier	-5117
▁praktisch	-5118
▁schlimmer	-5119
▁Landschaft	-5120
▁arbeiteten	-5121
▁amerikanische	-5122
▁Zä	-5123
alte	-5124
hingt	-5125
▁Chin	-5126
▁Volk	-5127
mutter	-5128
▁Austr	-5129
▁einst	-5130
▁bieten	-5131
▁sauber	-5132
▁einiger	-5133
▁präsent	-5134
▁September	-5135
▁Restaurant	-5136
▁eingesetzt	-5137
▁verantwortlich	-5138
zy	-5139
ädt	-5140
ekte	-5141
idem	-5142
▁Con	-5143
▁neg	-5144
eucht	-5145
nimmt	-5146
unken	-5147
utzer	-5148
▁Kohle	-5149
▁Schei	-5150
▁kennt	-5151
▁kurze	-5152
schrift	-5153
maschine	-5154
▁Gedanke	-5155
▁Stimmen	-5156
▁Verletz	-5157
▁erzähle	-5158
▁wenigen	-5159
▁Besonder	-5160
▁Nahrungs	-5161
▁fotograf	-5162
▁Wettbewer	-5163
▁durchschnitt	-5164
MS	-5165
hi	-5166
ara	-5167
oth	-5168
▁NA	-5169
schm	-5170
▁Ama	-5171
▁Sil	-5172
▁Ter	-5173
▁Uns	-5174
aufte	-5175
hlung	-5176
ognit	-5177
▁Maus	-5178
bliche	-5179
kehren	-5180
▁klass	-5181
▁teuer	-5182
gegeben	-5183
hington	-5184
ologisch	-5185
verständ	-5186
▁dritten	-5187
▁gehalten	-5188
▁hoffentlich	-5189
▁öffentliche	-5190
▁unterscheiden	-5191
Be	-5192
IT	-5193
wegs	-5194
▁Fle	-5195
▁Sei	-5196
eting	-5197
usion	-5198
▁Beob	-5199
▁Best	-5200
▁Chir	-5201
▁Gras	-5202
▁aufs	-5203
▁eint	-5204
▁halb	-5205
atoren	-5206
▁Innen	-5207
▁Schne	-5208
▁Trend	-5209
▁holen	-5210
agement	-5211
chtzeit	-5212
▁nannte	-5213
▁bekamen	-5214
▁nochmal	-5215
▁meistens	-5216
▁Schwester	-5217
▁existieren	-5218
air	-5219
cks	-5220
omit	-5221
pret	-5222
ieben	-5223
letzt	-5224
▁herr	-5225
▁Dimen	-5226
▁absol	-5227
bewesen	-5228
▁Grenze	-5229
▁dauert	-5230
▁eigent	-5231
▁Elektro	-5232
▁basiert	-5233
▁schaute	-5234
▁Diagramm	-5235
▁normalen	-5236
▁Erkenntnis	-5237
▁Verhaltens	-5238
▁Washington	-5239
▁Experimente	-5240
▁Perspektive	-5241
mon	-5242
▁As	-5243
▁oh	-5244
asste	-5245
▁Fehl	-5246
▁Lang	-5247
▁Mund	-5248
▁Sind	-5249
rennen	-5250
▁Folge	-5251
▁Radio	-5252
▁gener	-5253
▁total	-5254
▁10.000	-5255
▁Beweis	-5256
▁Laptop	-5257
▁Stress	-5258
▁gesund	-5259
▁Eindruck	-5260
▁Konflikt	-5261
▁Nationen	-5262
▁aufhören	-5263
▁entworfen	-5264
Ein	-5265
kan	-5266
urf	-5267
ühr	-5268
digt	-5269
▁Fig	-5270
▁Opt	-5271
▁kap	-5272
swert	-5273
zelle	-5274
▁Bein	-5275
▁Pfer	-5276
▁Rand	-5277
▁priv	-5278
echsel	-5279
sionen	-5280
untern	-5281
▁Fische	-5282
▁Obwohl	-5283
▁berech	-5284
▁ließen	-5285
▁linken	-5286
▁mitten	-5287
gänglich	-5288
▁Algorit	-5289
▁Gleiche	-5290
▁Gespräch	-5291
▁hunderte	-5292
▁beantworten	-5293
2-	-5294
The	-5295
arb	-5296
uft	-5297
ull	-5298
▁Abs	-5299
▁kom	-5300
reien	-5301
ängst	-5302
▁Boot	-5303
fragen	-5304
häuser	-5305
nehmer	-5306
▁Klein	-5307
▁Laufe	-5308
▁lernt	-5309
▁musst	-5310
▁Effekt	-5311
▁Irgend	-5312
▁Minute	-5313
▁Wesent	-5314
▁Gehirne	-5315
▁Folgendes	-5316
▁Katastrop	-5317
▁Zeitalter	-5318
▁Satelliten	-5319
▁hergestellt	-5320
▁vergleichen	-5321
för	-5322
nost	-5323
▁Gas	-5324
▁Imm	-5325
▁Nan	-5326
rasch	-5327
▁Dass	-5328
▁gäbe	-5329
▁verf	-5330
gewalt	-5331
hängig	-5332
▁Klang	-5333
▁Kombin	-5334
▁Sozial	-5335
▁hoffen	-5336
▁lustig	-5337
▁müsste	-5338
▁Journal	-5339
▁Spieler	-5340
▁Moleküle	-5341
▁Gegensatz	-5342
▁entspricht	-5343
▁Unternehmer	-5344
▁unterschiedlich	-5345
hte	-5346
leg	-5347
pte	-5348
heim	-5349
skop	-5350
▁zog	-5351
acher	-5352
rippe	-5353
▁Impf	-5354
gruppe	-5355
wiesen	-5356
▁Defin	-5357
▁Ganze	-5358
▁Niger	-5359
▁meist	-5360
▁nutzt	-5361
▁trägt	-5362
▁wieso	-5363
artigen	-5364
▁Kontin	-5365
▁diskut	-5366
▁erlebt	-5367
▁Zuhause	-5368
▁tausend	-5369
▁Politiker	-5370
▁allerdings	-5371
▁Dinosaurier	-5372
kor	-5373
pft	-5374
▁Spr	-5375
▁Toi	-5376
aster	-5377
▁dran	-5378
▁trin	-5379
▁Momen	-5380
▁roten	-5381
▁wahre	-5382
ständen	-5383
▁Kräfte	-5384
▁Lachen	-5385
▁Rätsel	-5386
▁aufgew	-5387
▁vieler	-5388
▁Körpers	-5389
▁Twitter	-5390
▁dennoch	-5391
▁genauer	-5392
▁reichen	-5393
▁effektiv	-5394
▁erkannte	-5395
▁Brasilien	-5396
▁UN	-5397
jahr	-5398
samt	-5399
▁21.	-5400
eiger	-5401
etrie	-5402
rüben	-5403
▁Phys	-5404
▁fiel	-5405
▁somit	-5406
▁Andere	-5407
▁Zucker	-5408
▁schlau	-5409
▁starke	-5410
▁College	-5411
▁Arbeiten	-5412
▁erfinden	-5413
▁entstanden	-5414
▁verbreiten	-5415
omme	-5416
test	-5417
▁Anw	-5418
ähren	-5419
▁engl	-5420
▁schm	-5421
▁Franc	-5422
▁Insel	-5423
▁Verbr	-5424
▁lebte	-5425
▁echten	-5426
▁schien	-5427
▁Vorteil	-5428
▁relativ	-5429
▁schlagen	-5430
▁brauchten	-5431
▁wichtigen	-5432
▁Eigentlich	-5433
▁entwickelte	-5434
wärt	-5435
ischt	-5436
ologe	-5437
▁zuzu	-5438
riften	-5439
▁Krise	-5440
▁Milch	-5441
ordnung	-5442
schland	-5443
▁Rechte	-5444
▁Steuer	-5445
▁Spiegel	-5446
▁fördern	-5447
▁gelesen	-5448
fähigkeit	-5449
▁brachten	-5450
▁Lebewesen	-5451
▁Bewegungen	-5452
▁Entdeckung	-5453
▁erscheinen	-5454
ld	-5455
oc	-5456
dru	-5457
ates	-5458
ogar	-5459
▁AIDS	-5460
▁Zell	-5461
▁Erleb	-5462
▁Etwas	-5463
▁Solar	-5464
▁Trotz	-5465
ulieren	-5466
▁drüben	-5467
▁kurzen	-5468
▁zahlen	-5469
▁beinhal	-5470
▁bezahlt	-5471
▁brauche	-5472
▁gestern	-5473
▁demokrat	-5474
▁programm	-5475
▁Zuschauer	-5476
▁Organismen	-5477
.,	-5478
ahe	-5479
bas	-5480
use	-5481
▁ag	-5482
adel	-5483
akte	-5484
olly	-5485
öpfe	-5486
▁Deb	-5487
▁Jul	-5488
▁Tie	-5489
▁par	-5490
mäßig	-5491
rafen	-5492
werden	-5493
▁Ihres	-5494
meister	-5495
rizität	-5496
▁Wellen	-5497
▁Wetter	-5498
▁integr	-5499
▁vorber	-5500
▁Buchsta	-5501
▁Mission	-5502
▁Nachdem	-5503
▁aufbauen	-5504
▁zunächst	-5505
▁Generationen	-5506
Ar	-5507
▁45	-5508
▁Gi	-5509
abei	-5510
elev	-5511
ffer	-5512
hmus	-5513
nahm	-5514
osen	-5515
▁Bri	-5516
▁Elef	-5517
▁Empf	-5518
▁Fett	-5519
▁Krit	-5520
▁Tanz	-5521
▁männ	-5522
▁fängt	-5523
amerika	-5524
dlichen	-5525
fordert	-5526
▁Jemand	-5527
▁auftau	-5528
▁Ansicht	-5529
▁Einstein	-5530
▁Hinsicht	-5531
▁Methoden	-5532
▁persönlich	-5533
▁reduzieren	-5534
üge	-5535
üte	-5536
trag	-5537
▁Hom	-5538
▁Hyp	-5539
▁Mem	-5540
▁Wik	-5541
ietet	-5542
igend	-5543
▁Atom	-5544
▁Dabei	-5545
▁Viren	-5546
▁Weile	-5547
ografie	-5548
▁Normal	-5549
sätzlich	-5550
▁gehören	-5551
▁welchen	-5552
▁Netzwerke	-5553
▁Operation	-5554
▁Professor	-5555
▁Individuen	-5556
▁verbrachte	-5557
▁verschwinden	-5558
▁la	-5559
vard	-5560
äuse	-5561
▁Sen	-5562
passt	-5563
▁Dach	-5564
▁jähr	-5565
▁zeit	-5566
agiert	-5567
eicher	-5568
▁Jeden	-5569
▁Aspekt	-5570
▁Fakten	-5571
▁Folgen	-5572
▁Kaffee	-5573
▁Streit	-5574
▁identif	-5575
▁normale	-5576
▁Elemente	-5577
▁Tausende	-5578
▁abhängig	-5579
▁geändert	-5580
▁kürzlich	-5581
echtigkeit	-5582
▁Gemeinden	-5583
▁gestorben	-5584
▁vermittel	-5585
▁definieren	-5586
▁zusammenge	-5587
▁beschlossen	-5588
▁Elektrizität	-5589
by	-5590
ala	-5591
osm	-5592
yse	-5593
▁Tex	-5594
ichen	-5595
▁rede	-5596
▁halbe	-5597
▁nötig	-5598
rauchen	-5599
▁Ausmaß	-5600
▁Grafik	-5601
▁Linien	-5602
▁Mechan	-5603
▁starten	-5604
▁entgegen	-5605
▁beschloss	-5606
▁vergangen	-5607
▁Interessen	-5608
▁Wahrnehmung	-5609
▁traditionellen	-5610
?“	-5611
ube	-5612
▁2,	-5613
▁Ed	-5614
aust	-5615
▁Com	-5616
▁Hei	-5617
▁Pak	-5618
▁Tor	-5619
▁las	-5620
▁Atem	-5621
▁Blau	-5622
▁Eben	-5623
▁rück	-5624
aturen	-5625
igsten	-5626
reisen	-5627
▁Armen	-5628
▁Laden	-5629
▁passt	-5630
▁wobei	-5631
ruption	-5632
scheint	-5633
▁kombin	-5634
▁körper	-5635
▁meiste	-5636
▁nieder	-5637
▁stammt	-5638
ätigkeit	-5639
▁begrenz	-5640
▁Arbeitspl	-5641
▁aufregend	-5642
spielsweise	-5643
▁Deutschland	-5644
edia	-5645
erne	-5646
tial	-5647
▁Exp	-5648
▁MIT	-5649
omben	-5650
onstr	-5651
wagen	-5652
ösung	-5653
▁Ober	-5654
fische	-5655
▁Konse	-5656
▁folgt	-5657
▁wechs	-5658
erseits	-5659
umenten	-5660
▁histor	-5661
▁tiefer	-5662
▁zählen	-5663
ographie	-5664
▁ausgest	-5665
▁ungewöhn	-5666
▁verwende	-5667
▁Abschluss	-5668
▁Wohlstand	-5669
▁erscheint	-5670
▁verbindet	-5671
▁darstellen	-5672
▁entsprechen	-5673
▁grundlegende	-5674
ham	-5675
hek	-5676
ike	-5677
res	-5678
tin	-5679
zon	-5680
▁fäh	-5681
plant	-5682
▁Emot	-5683
▁Null	-5684
▁Orig	-5685
▁dram	-5686
▁eure	-5687
▁fuhr	-5688
endung	-5689
▁Times	-5690
▁angeb	-5691
▁Garten	-5692
▁Staats	-5693
▁analys	-5694
▁kurzem	-5695
▁lebten	-5696
▁Beweise	-5697
▁Details	-5698
▁Francis	-5699
▁Theater	-5700
▁spielte	-5701
▁worüber	-5702
▁Prototyp	-5703
▁anwenden	-5704
▁behalten	-5705
▁Erklärung	-5706
▁verfügbar	-5707
▁zerstören	-5708
▁Forschungs	-5709
▁natürlichen	-5710
▁Schwierigkeiten	-5711
▁Sl	-5712
atik	-5713
klen	-5714
mord	-5715
▁Bon	-5716
geber	-5717
stung	-5718
▁Sens	-5719
▁mass	-5720
olitik	-5721
▁exper	-5722
▁gross	-5723
▁optim	-5724
▁Darwin	-5725
▁reicht	-5726
▁Berechn	-5727
▁Konflik	-5728
▁Website	-5729
▁eindeut	-5730
▁Weltraum	-5731
▁Emotionen	-5732
▁studieren	-5733
▁Mitarbeiter	-5734
möglichkeiten	-5735
▁beschäftigen	-5736
hü	-5737
nü	-5738
yl	-5739
aff	-5740
eise	-5741
▁ruh	-5742
bares	-5743
▁Code	-5744
rechte	-5745
▁train	-5746
▁übrig	-5747
▁Träume	-5748
▁Voraus	-5749
▁Maßstab	-5750
▁morgens	-5751
▁Nachbarn	-5752
▁komplexe	-5753
▁aufgebaut	-5754
▁entdeckte	-5755
▁schlechter	-5756
sa	-5757
gyp	-5758
itt	-5759
umb	-5760
▁Ap	-5761
mmen	-5762
▁Hör	-5763
enter	-5764
llekt	-5765
▁Kerl	-5766
▁zahl	-5767
ischem	-5768
▁Islam	-5769
▁wuchs	-5770
▁Besitz	-5771
▁Umfeld	-5772
▁allgem	-5773
▁dauern	-5774
▁setzte	-5775
▁Arbeiter	-5776
▁gewissen	-5777
▁zerstört	-5778
▁geschickt	-5779
▁wesentlich	-5780
▁medizinische	-5781
20	-5782
flug	-5783
uman	-5784
▁Tom	-5785
▁bat	-5786
ancen	-5787
bliot	-5788
ehren	-5789
▁Pass	-5790
▁Verw	-5791
merzen	-5792
▁Neben	-5793
▁blieb	-5794
▁Batter	-5795
▁Mexiko	-5796
▁Schlaf	-5797
▁formen	-5798
▁umgeben	-5799
▁verschl	-5800
▁deswegen	-5801
▁nützlich	-5802
issenschaft	-5803
▁beobachtet	-5804
▁zugänglich	-5805
äne	-5806
aria	-5807
herr	-5808
ohnt	-5809
ones	-5810
▁Ill	-5811
▁abl	-5812
gerät	-5813
▁Beim	-5814
▁Paul	-5815
▁nerv	-5816
sichts	-5817
▁Vögel	-5818
▁bewer	-5819
▁motiv	-5820
▁quasi	-5821
ersagen	-5822
rachten	-5823
züglich	-5824
▁Inhalt	-5825
▁Persön	-5826
▁Quelle	-5827
▁School	-5828
▁heißen	-5829
▁steigt	-5830
▁Werbung	-5831
▁Freundin	-5832
▁Vorstell	-5833
▁annehmen	-5834
▁langweil	-5835
▁Geschlecht	-5836
▁Korruption	-5837
▁vermitteln	-5838
▁Zivilisation	-5839
IP	-5840
fir	-5841
anzös	-5842
räume	-5843
▁Auff	-5844
▁Fünf	-5845
▁Russ	-5846
▁Sitz	-5847
andert	-5848
▁Fälle	-5849
▁Pingu	-5850
▁Seine	-5851
▁Zitat	-5852
▁ermut	-5853
sprache	-5854
steigen	-5855
▁Gewinn	-5856
▁Größen	-5857
▁Riesen	-5858
▁zusätz	-5859
▁Fernseh	-5860
▁Kapital	-5861
▁erkennt	-5862
verbrauch	-5863
▁Kulturen	-5864
▁ersetzen	-5865
▁sprachen	-5866
▁Vorfahren	-5867
▁beschleun	-5868
▁Australien	-5869
▁Diskussion	-5870
▁Medikament	-5871
▁Architekten	-5872
30	-5873
ica	-5874
ton	-5875
mehr	-5876
ulen	-5877
▁Sam	-5878
▁min	-5879
▁zut	-5880
zieht	-5881
▁grau	-5882
▁Stufe	-5883
▁Tests	-5884
▁vorne	-5885
▁zieht	-5886
▁ausger	-5887
▁Entfern	-5888
▁erwähnt	-5889
▁solcher	-5890
▁Geräusch	-5891
▁schwarze	-5892
▁Bereichen	-5893
▁langfrist	-5894
▁verhalten	-5895
▁Verhältnis	-5896
▁schrecklich	-5897
▁Durchschnitt	-5898
azi	-5899
ozi	-5900
put	-5901
oler	-5902
▁Les	-5903
▁rot	-5904
antas	-5905
eskop	-5906
rennt	-5907
rufen	-5908
stren	-5909
weile	-5910
▁fern	-5911
recken	-5912
spruch	-5913
talien	-5914
▁Neues	-5915
▁Sogar	-5916
▁außen	-5917
ziehung	-5918
▁Zauber	-5919
▁herein	-5920
▁treten	-5921
▁Gericht	-5922
▁Schnitt	-5923
▁gebeten	-5924
▁müssten	-5925
versorgung	-5926
▁Verbesser	-5927
▁industrie	-5928
▁Buchstaben	-5929
▁Situationen	-5930
aat	-5931
▁wü	-5932
ging	-5933
itiv	-5934
▁wes	-5935
▁Teen	-5936
▁Vorh	-5937
▁Zahn	-5938
▁heil	-5939
▁leid	-5940
▁miss	-5941
ategor	-5942
letten	-5943
räumen	-5944
▁Seele	-5945
▁Zweck	-5946
▁unend	-5947
▁Bedroh	-5948
▁Doktor	-5949
▁enorme	-5950
▁hinten	-5951
issionen	-5952
▁Präsent	-5953
▁berührt	-5954
▁seitdem	-5955
▁Schatten	-5956
▁Strategie	-5957
▁notwendig	-5958
▁Großmutter	-5959
▁aufzubauen	-5960
▁inspiriert	-5961
▁fantastisch	-5962
▁persönlichen	-5963
▁Kö	-5964
affe	-5965
▁Got	-5966
▁ide	-5967
▁inf	-5968
antes	-5969
▁Stau	-5970
▁ille	-5971
▁klin	-5972
▁rief	-5973
▁stop	-5974
einbar	-5975
gehend	-5976
▁Gutes	-5977
▁versp	-5978
diglich	-5979
itation	-5980
▁Damals	-5981
▁Erwart	-5982
▁Rechen	-5983
▁Welche	-5984
▁gering	-5985
▁schaff	-5986
▁stabil	-5987
▁Auswahl	-5988
▁hierher	-5989
▁schätzen	-5990
▁feststellen	-5991
▁stattdessen	-5992
ex	-5993
pon	-5994
▁dr	-5995
▁Rot	-5996
▁Sob	-5997
ember	-5998
karte	-5999
▁Wurz	-6000
▁beit	-6001
▁mult	-6002
▁Anrei	-6003
▁Tumor	-6004
▁fähig	-6005
▁heran	-6006
▁Belohn	-6007
▁Chemie	-6008
▁Signal	-6009
▁gelöst	-6010
▁Verlust	-6011
▁Bereiche	-6012
▁entstand	-6013
▁verteilt	-6014
▁Anwendung	-6015
▁Tradition	-6016
▁schlechten	-6017
▁Interaktion	-6018
la	-6019
vol	-6020
ähm	-6021
▁Ke	-6022
▁hü	-6023
iein	-6024
tels	-6025
wach	-6026
uropä	-6027
▁real	-6028
bieten	-6029
jemand	-6030
sprung	-6031
▁Angel	-6032
▁Lager	-6033
▁Parad	-6034
▁betro	-6035
▁geist	-6036
▁poten	-6037
▁voran	-6038
▁Herren	-6039
▁Schuld	-6040
▁Willen	-6041
▁Bestand	-6042
▁Fischer	-6043
▁Student	-6044
▁Viertel	-6045
▁spannen	-6046
▁überprü	-6047
▁erstellt	-6048
▁untersucht	-6049
verständlich	-6050
Pl	-6051
int	-6052
pol	-6053
zig	-6054
ehlt	-6055
▁Teu	-6056
▁Urs	-6057
▁syn	-6058
elben	-6059
▁Trag	-6060
▁Vern	-6061
▁Ägyp	-6062
▁Süden	-6063
▁enorm	-6064
▁kolle	-6065
einhalb	-6066
richtet	-6067
▁Anteil	-6068
▁Gegend	-6069
▁Helden	-6070
▁Leider	-6071
▁Planet	-6072
▁Stärke	-6073
▁Wolken	-6074
▁ergibt	-6075
▁heisst	-6076
▁kannte	-6077
▁langer	-6078
▁vergrö	-6079
besonder	-6080
▁Fahrrad	-6081
▁Galaxie	-6082
▁Harvard	-6083
▁standen	-6084
▁welchem	-6085
▁Aufnahme	-6086
▁gespielt	-6087
▁versteht	-6088
▁aufnehmen	-6089
▁westlichen	-6090
▁Erwachsenen	-6091
▁unterstützt	-6092
▁Erinnerungen	-6093
ird	-6094
etik	-6095
frei	-6096
igem	-6097
ilde	-6098
raht	-6099
▁11.	-6100
euern	-6101
fähig	-6102
ässer	-6103
▁Klin	-6104
▁Rake	-6105
▁Schä	-6106
▁erwä	-6107
▁beweg	-6108
atische	-6109
ikalien	-6110
▁dunkle	-6111
▁junger	-6112
omatisch	-6113
▁Malaria	-6114
▁Risiken	-6115
▁steuern	-6116
▁Echtzeit	-6117
▁speziell	-6118
▁Geheimnis	-6119
▁digitalen	-6120
▁lediglich	-6121
▁beinhaltet	-6122
▁unabhängig	-6123
▁internationalen	-6124
com	-6125
rot	-6126
oßen	-6127
ston	-6128
▁Air	-6129
▁Brü	-6130
▁Gro	-6131
▁You	-6132
▁dur	-6133
eiter	-6134
gener	-6135
▁Früh	-6136
▁Stör	-6137
fernen	-6138
leitet	-6139
▁Hunde	-6140
▁Kreuz	-6141
▁Start	-6142
etische	-6143
gründet	-6144
▁Blumen	-6145
▁Nieder	-6146
▁blauen	-6147
▁kümmer	-6148
gelassen	-6149
▁Charles	-6150
▁Wissens	-6151
▁Anderson	-6152
▁Existenz	-6153
▁Kongress	-6154
▁Lebenser	-6155
▁Zwischen	-6156
▁beweisen	-6157
▁Kontinent	-6158
▁Potential	-6159
▁kollektiv	-6160
▁überwinden	-6161
▁persönliche	-6162
▁wirtschaftliche	-6163
ael	-6164
ida	-6165
pha	-6166
ült	-6167
▁Ta	-6168
aser	-6169
hrop	-6170
hung	-6171
ions	-6172
seln	-6173
star	-6174
▁Tun	-6175
lekul	-6176
▁Eier	-6177
▁Mess	-6178
▁Roll	-6179
▁Wein	-6180
▁expl	-6181
ammelt	-6182
testen	-6183
▁Stuhl	-6184
▁World	-6185
▁domin	-6186
▁stehe	-6187
wärmung	-6188
▁Teufel	-6189
▁Weiter	-6190
▁belieb	-6191
▁profit	-6192
sprozess	-6193
wachstum	-6194
▁Element	-6195
▁Fliegen	-6196
▁Geistes	-6197
▁beinahe	-6198
▁konstru	-6199
▁kriegen	-6200
▁äußerst	-6201
besondere	-6202
▁besuchen	-6203
▁verstehe	-6204
▁vermeiden	-6205
▁verbessert	-6206
▁schwieriger	-6207
▁Wesentlichen	-6208
▁erstaunliche	-6209
▁menschlicher	-6210
▁99	-6211
▁GP	-6212
▁Bem	-6213
▁dün	-6214
artet	-6215
denkt	-6216
euert	-6217
kreis	-6218
▁Post	-6219
▁höre	-6220
flicht	-6221
geschw	-6222
nitten	-6223
▁Gemäl	-6224
▁Pfund	-6225
▁Stock	-6226
▁brill	-6227
▁still	-6228
▁sucht	-6229
blichen	-6230
▁Kampag	-6231
▁Schlei	-6232
▁Winter	-6233
▁meinte	-6234
▁singen	-6235
▁soviel	-6236
▁sparen	-6237
ffizienz	-6238
▁Respekt	-6239
▁gefällt	-6240
▁lokalen	-6241
▁Überrasch	-6242
▁Instrument	-6243
▁Kombination	-6244
▁gegenseitig	-6245
▁kompliziert	-6246
ley	-6247
rang	-6248
äfte	-6249
▁Rhy	-6250
boden	-6251
linge	-6252
rimin	-6253
undes	-6254
▁Kurs	-6255
▁Prim	-6256
▁form	-6257
geregt	-6258
▁Damen	-6259
▁Kabel	-6260
▁Moral	-6261
▁Platt	-6262
▁Wieso	-6263
▁innov	-6264
reibung	-6265
samkeit	-6266
wechsel	-6267
▁Brücke	-6268
▁kognit	-6269
▁lebens	-6270
▁Erkrank	-6271
▁Komment	-6272
▁liefern	-6273
▁moderne	-6274
▁gefangen	-6275
▁kreieren	-6276
▁weiterer	-6277
▁Grundlage	-6278
▁wirkliche	-6279
▁Definition	-6280
▁Bedürfnisse	-6281
▁vorzustellen	-6282
fig	-6283
Mail	-6284
burg	-6285
eier	-6286
ifiz	-6287
kton	-6288
▁etc	-6289
iveau	-6290
weite	-6291
▁Allt	-6292
▁Anim	-6293
▁NASA	-6294
▁arab	-6295
▁brit	-6296
▁neur	-6297
ichter	-6298
rieren	-6299
▁Gehen	-6300
▁Links	-6301
▁Schle	-6302
▁Spezi	-6303
▁Danach	-6304
qualität	-6305
vermögen	-6306
▁Einheit	-6307
▁Richtig	-6308
▁Deswegen	-6309
▁Südafrika	-6310
▁fundament	-6311
▁Aktivitäten	-6312
Hey	-6313
hls	-6314
orp	-6315
lied	-6316
ühen	-6317
▁Jan	-6318
anger	-6319
ringe	-6320
▁Betr	-6321
▁Cent	-6322
▁Wild	-6323
▁seid	-6324
▁spät	-6325
▁verab	-6326
zentrum	-6327
▁George	-6328
▁Gesamt	-6329
▁besagt	-6330
▁durchs	-6331
▁Erfindung	-6332
▁besondere	-6333
▁entfernen	-6334
▁erweitern	-6335
▁transport	-6336
▁gemeinsame	-6337
▁übernehmen	-6338
▁beschrieben	-6339
▁faszinierend	-6340
Na	-6341
ago	-6342
far	-6343
kal	-6344
▁Cy	-6345
reif	-6346
▁19.	-6347
▁Seh	-6348
▁Skl	-6349
▁iPh	-6350
nungs	-6351
▁2008	-6352
▁Astr	-6353
▁Rech	-6354
▁Tour	-6355
▁Trau	-6356
▁stet	-6357
▁tats	-6358
fahrer	-6359
haften	-6360
▁Bauch	-6361
▁Kapit	-6362
▁Kenia	-6363
▁Weihn	-6364
▁armen	-6365
▁drauf	-6366
▁fährt	-6367
▁Inspir	-6368
▁Kirche	-6369
▁Mengen	-6370
▁bauten	-6371
▁gelebt	-6372
▁lachen	-6373
▁moment	-6374
▁verblü	-6375
▁Absicht	-6376
▁Bibliot	-6377
▁erhöhen	-6378
▁Ereignis	-6379
▁Nachhalt	-6380
▁ähnliche	-6381
▁dieselben	-6382
▁eindeutig	-6383
▁gegründet	-6384
▁fasziniert	-6385
▁geschlossen	-6386
▁großartigen	-6387
▁funktionierte	-6388
okus	-6389
rett	-6390
teln	-6391
▁Ehr	-6392
▁Jun	-6393
▁erz	-6394
biert	-6395
nchen	-6396
rustr	-6397
ätter	-6398
imeter	-6399
▁Blatt	-6400
▁Brief	-6401
▁Küste	-6402
▁Würde	-6403
▁innen	-6404
gruppen	-6405
ließend	-6406
▁Zufall	-6407
▁bietet	-6408
▁Schicks	-6409
▁Zeitung	-6410
▁grundle	-6411
▁Bildungs	-6412
▁Pakistan	-6413
▁Russland	-6414
▁Schritte	-6415
▁Vorteile	-6416
▁dahinter	-6417
▁Philosoph	-6418
▁veränderte	-6419
▁Chemikalien	-6420
▁Sicherheits	-6421
▁Statistiken	-6422
▁akzeptieren	-6423
zz	-6424
gas	-6425
osh	-6426
▁23	-6427
krie	-6428
▁Eth	-6429
▁Ren	-6430
▁Ung	-6431
▁Wäl	-6432
staat	-6433
zesse	-6434
▁Gemü	-6435
▁Tief	-6436
▁länd	-6437
▁rote	-6438
gesetz	-6439
▁Theor	-6440
▁Wagen	-6441
▁baute	-6442
▁unbek	-6443
▁vorzu	-6444
▁Führer	-6445
▁Ozeane	-6446
▁ausgew	-6447
▁furcht	-6448
amerikan	-6449
▁Afrikas	-6450
▁Momente	-6451
▁Signale	-6452
▁erhielt	-6453
▁glaubte	-6454
▁Komponen	-6455
▁elektron	-6456
▁konfront	-6457
▁sichtbar	-6458
▁Gegenwart	-6459
▁Interview	-6460
▁gebraucht	-6461
▁Stattdessen	-6462
▁gesellschaft	-6463
anc	-6464
ash	-6465
sum	-6466
beln	-6467
förm	-6468
▁Gre	-6469
▁log	-6470
amour	-6471
eiern	-6472
flekt	-6473
grenz	-6474
noten	-6475
ücken	-6476
▁Merk	-6477
▁froh	-6478
▁genü	-6479
▁trag	-6480
bücher	-6481
drückt	-6482
holfen	-6483
▁Folie	-6484
▁Wüste	-6485
fliegen	-6486
stoffen	-6487
▁Christ	-6488
▁Gottes	-6489
▁inform	-6490
▁willst	-6491
▁Gebiete	-6492
▁Nigeria	-6493
▁ansieht	-6494
▁besitzt	-6495
▁manchen	-6496
losigkeit	-6497
schriften	-6498
▁Mehrheit	-6499
▁Metapher	-6500
▁Ungleich	-6501
▁Zunächst	-6502
▁darunter	-6503
▁folgende	-6504
▁gefallen	-6505
▁perfekte	-6506
▁Überzeug	-6507
▁Francisco	-6508
▁Transport	-6509
▁Einstellung	-6510
▁dargestellt	-6511
▁Informations	-6512
▁beispielsweise	-6513
bür	-6514
mar	-6515
önt	-6516
▁2.	-6517
berg	-6518
esie	-6519
gefü	-6520
inkt	-6521
stud	-6522
urer	-6523
▁Bur	-6524
▁SMS	-6525
▁fil	-6526
▁mut	-6527
▁wüs	-6528
▁Ähn	-6529
▁Verd	-6530
▁heiß	-6531
kelett	-6532
▁Darum	-6533
▁Paten	-6534
▁Steve	-6535
▁jener	-6536
▁Fabrik	-6537
▁Hunger	-6538
▁Tonnen	-6539
▁intens	-6540
scheidet	-6541
▁Kapitel	-6542
▁Lektion	-6543
▁Wirkung	-6544
▁digitale	-6545
▁mögliche	-6546
▁vertraut	-6547
▁Geburtstag	-6548
▁verwandelt	-6549
▁Fortschritte	-6550
▁aufgewachsen	-6551
▁internationale	-6552
bi	-6553
ags	-6554
har	-6555
hnt	-6556
ole	-6557
wen	-6558
ackt	-6559
▁600	-6560
▁Ass	-6561
▁Eng	-6562
▁Roh	-6563
▁Top	-6564
räger	-6565
teile	-6566
▁Mult	-6567
▁erhe	-6568
▁mark	-6569
gesamt	-6570
stechn	-6571
unkten	-6572
▁James	-6573
▁trans	-6574
▁Lungen	-6575
▁Löcher	-6576
▁Pflege	-6577
▁Unfall	-6578
▁realen	-6579
bewegung	-6580
derungen	-6581
▁enthält	-6582
▁gewählt	-6583
verhalten	-6584
▁Erlebnis	-6585
▁angenommen	-6586
▁bezeichnen	-6587
▁automatisch	-6588
▁Unterhaltung	-6589
▁afrikanischen	-6590
▁unglaublichen	-6591
Wo	-6592
kr	-6593
bek	-6594
ics	-6595
ruh	-6596
uck	-6597
▁75	-6598
eten	-6599
iban	-6600
ores	-6601
rast	-6602
▁Tit	-6603
▁Zer	-6604
ippen	-6605
menge	-6606
osten	-6607
▁Show	-6608
▁Symm	-6609
▁arme	-6610
▁zust	-6611
System	-6612
bstoff	-6613
quelle	-6614
ruppen	-6615
▁Einen	-6616
▁Erdbe	-6617
▁Immer	-6618
▁Stahl	-6619
▁blaue	-6620
▁platz	-6621
▁schne	-6622
▁sowas	-6623
▁wofür	-6624
andelte	-6625
schicht	-6626
▁Dunkel	-6627
▁Epidem	-6628
▁Kanada	-6629
▁Sobald	-6630
▁Symbol	-6631
▁Völker	-6632
▁anfing	-6633
▁bedeut	-6634
▁Hindern	-6635
▁dauerte	-6636
▁zeigten	-6637
erstörung	-6638
▁schlafen	-6639
▁wechseln	-6640
▁zurückge	-6641
▁Gedächtnis	-6642
▁Innovationen	-6643
▁Untersuchung	-6644
En	-6645
ward	-6646
öser	-6647
▁Dat	-6648
▁Krä	-6649
▁Pan	-6650
▁the	-6651
▁ult	-6652
▁Alex	-6653
▁Dazu	-6654
▁Nase	-6655
▁moch	-6656
duktiv	-6657
kungen	-6658
▁Popul	-6659
▁extra	-6660
▁staat	-6661
fession	-6662
spiegel	-6663
▁Amazon	-6664
▁Flücht	-6665
▁Kriegs	-6666
▁fingen	-6667
▁leiten	-6668
▁senden	-6669
▁Molekül	-6670
▁Nutzung	-6671
▁führten	-6672
▁unglück	-6673
▁unteren	-6674
▁verring	-6675
▁Webseite	-6676
▁falschen	-6677
▁hinunter	-6678
▁zeichnen	-6679
▁Billionen	-6680
▁Gesichter	-6681
▁Literatur	-6682
▁bekannten	-6683
▁beobachte	-6684
▁Verbrechen	-6685
▁zusammenzu	-6686
▁Jahrzehnten	-6687
▁Terrorismus	-6688
▁bemerkenswer	-6689
▁überraschend	-6690
▁grundsätzlich	-6691
see	-6692
▁ok	-6693
iber	-6694
nach	-6695
tele	-6696
▁194	-6697
▁Dan	-6698
▁Tri	-6699
inter	-6700
reibe	-6701
samen	-6702
uhren	-6703
üssen	-6704
▁Flie	-6705
▁Mach	-6706
▁Phot	-6707
hängen	-6708
schaut	-6709
▁Hallo	-6710
▁Ohren	-6711
▁Phase	-6712
zwungen	-6713
▁Aktion	-6714
▁Eigent	-6715
▁Handel	-6716
▁bestät	-6717
▁reisen	-6718
▁Michael	-6719
▁Musiker	-6720
arbeitung	-6721
▁Resultat	-6722
▁Teenager	-6723
▁springen	-6724
▁verstand	-6725
▁Elefanten	-6726
▁Jahrzehnt	-6727
▁allgemein	-6728
▁kostenlos	-6729
▁schwarzen	-6730
▁überlegen	-6731
▁gemeinsamen	-6732
▁Präsentation	-6733
▁verschwunden	-6734
▁Gerechtigkeit	-6735
-,	-6736
di	-6737
täu	-6738
▁Ac	-6739
icro	-6740
leib	-6741
nütz	-6742
spar	-6743
zipl	-6744
▁Ven	-6745
zepte	-6746
▁isol	-6747
▁verz	-6748
▁Hotel	-6749
▁Räume	-6750
▁Trick	-6751
▁Anwend	-6752
▁Neurow	-6753
▁verknü	-6754
▁weißen	-6755
▁ökonom	-6756
▁Mittler	-6757
▁Quanten	-6758
▁Verwand	-6759
▁tatsäch	-6760
▁trinken	-6761
▁zweimal	-6762
probieren	-6763
unktionen	-6764
▁Geschenk	-6765
▁beeindru	-6766
▁bemerkte	-6767
▁effizien	-6768
▁Geräusche	-6769
▁behaupten	-6770
▁scheinbar	-6771
▁vertrauen	-6772
▁zufrieden	-6773
▁Stammzellen	-6774
▁menschliches	-6775
▁Nachhaltigkeit	-6776
abl	-6777
vis	-6778
▁ök	-6779
anal	-6780
mark	-6781
nose	-6782
ulpt	-6783
▁DNS	-6784
▁Okt	-6785
▁Uni	-6786
▁mil	-6787
behör	-6788
eidet	-6789
ettet	-6790
fällt	-6791
füllt	-6792
▁Chic	-6793
▁Ohne	-6794
▁Stan	-6795
▁baut	-6796
chtern	-6797
lernen	-6798
muster	-6799
reiche	-6800
ysikal	-6801
▁Wikip	-6802
▁stimm	-6803
▁städt	-6804
▁wisst	-6805
▁Schwer	-6806
▁Welten	-6807
▁grünen	-6808
▁landen	-6809
▁Chancen	-6810
▁Wechsel	-6811
▁bekomme	-6812
▁drücken	-6813
▁solange	-6814
▁Versuche	-6815
▁leichter	-6816
leistungen	-6817
▁betreiben	-6818
▁erwachsen	-6819
▁gebrochen	-6820
bevölkerung	-6821
unternehmen	-6822
▁beibringen	-6823
▁speziellen	-6824
▁Ausstellung	-6825
▁Darstellung	-6826
▁durchführen	-6827
▁unterrichten	-6828
ih	-6829
▁["	-6830
azif	-6831
ehrt	-6832
ison	-6833
ombe	-6834
tage	-6835
ästh	-6836
ätzt	-6837
▁Emp	-6838
▁Kom	-6839
▁Pri	-6840
▁erm	-6841
▁Laut	-6842
▁YouT	-6843
Dollar	-6844
punkte	-6845
▁Dafür	-6846
▁Noten	-6847
▁Samen	-6848
▁Spann	-6849
▁super	-6850
▁umher	-6851
▁vorge	-6852
gedacht	-6853
standen	-6854
▁Abfall	-6855
▁Märkte	-6856
▁Strand	-6857
▁achten	-6858
▁anhand	-6859
▁hinauf	-6860
▁iPhone	-6861
▁trafen	-6862
▁worauf	-6863
leistung	-6864
▁Anstatt	-6865
▁Schaden	-6866
▁Sternen	-6867
▁erkannt	-6868
▁mächtig	-6869
▁positiv	-6870
▁überein	-6871
▁übersch	-6872
schneiden	-6873
▁Argument	-6874
▁besseres	-6875
▁geholfen	-6876
▁teilweise	-6877
▁versteckt	-6878
▁sogenannte	-6879
▁irgendjemand	-6880
▁organisieren	-6881
wissenschaften	-6882
▁Vorstellungen	-6883
2.	-6884
lim	-6885
▁27	-6886
frau	-6887
▁Cha	-6888
Techn	-6889
aktor	-6890
bchen	-6891
ordin	-6892
preis	-6893
▁Fast	-6894
▁jung	-6895
bungen	-6896
eilung	-6897
▁Asien	-6898
▁Motiv	-6899
ahnsinn	-6900
▁altern	-6901
▁dunkel	-6902
▁grosse	-6903
▁vieles	-6904
atastrop	-6905
ktivität	-6906
omputern	-6907
▁Quellen	-6908
▁YouTube	-6909
▁einiges	-6910
▁hielten	-6911
▁Teleskop	-6912
▁positive	-6913
▁Ernährung	-6914
▁Marketing	-6915
▁Weltkrieg	-6916
▁berichten	-6917
▁enthalten	-6918
▁Wettbewerb	-6919
▁moralische	-6920
▁nachgedacht	-6921
▁konzentriert	-6922
▁Klassenzimmer	-6923
▁medizinischen	-6924
Le	-6925
oß	-6926
cyc	-6927
hof	-6928
lad	-6929
ähl	-6930
äum	-6931
ober	-6932
phen	-6933
ücke	-6934
▁GPS	-6935
▁kop	-6936
linie	-6937
okuss	-6938
äufer	-6939
▁Adam	-6940
▁Ehem	-6941
▁Koll	-6942
▁Mart	-6943
▁Soll	-6944
▁Stad	-6945
▁Voll	-6946
▁lebe	-6947
karten	-6948
mensch	-6949
nommen	-6950
stands	-6951
▁Beute	-6952
▁Bevor	-6953
▁Micro	-6954
▁lande	-6955
▁repar	-6956
sterben	-6957
▁lokale	-6958
▁wirken	-6959
pflanzen	-6960
▁traurig	-6961
▁treiben	-6962
▁Anführer	-6963
▁Schweden	-6964
▁physikal	-6965
▁wertvoll	-6966
ordentlich	-6967
▁Wikipedia	-6968
▁darstellt	-6969
▁komplexen	-6970
▁langsamer	-6971
▁Jahrzehnte	-6972
▁Unterricht	-6973
▁Schließlich	-6974
▁Gemeinschaften	-6975
ips	-6976
own	-6977
▁Mr	-6978
andt	-6979
holz	-6980
plos	-6981
steh	-6982
▁Alt	-6983
▁Sel	-6984
barer	-6985
hoben	-6986
▁Jung	-6987
▁Rock	-6988
▁Ruhe	-6989
▁frem	-6990
▁merk	-6991
▁zuge	-6992
dienst	-6993
orient	-6994
tragen	-6995
ynamik	-6996
zeigen	-6997
ätzung	-6998
▁Magie	-6999
▁Sympt	-7000
▁Treib	-7001
▁enden	-7002
▁günst	-7003
mitteln	-7004
▁Schnee	-7005
▁Status	-7006
▁europä	-7007
▁merken	-7008
▁spüren	-7009
ollywood	-7010
▁gekauft	-7011
▁weshalb	-7012
scheinend	-7013
▁Bevölker	-7014
▁Regionen	-7015
▁anschaut	-7016
▁Schicksal	-7017
▁Verstehen	-7018
▁betroffen	-7019
▁Frankreich	-7020
▁Regierungs	-7021
▁antwortete	-7022
▁verglichen	-7023
gesellschaft	-7024
geschwindigkeit	-7025
yr	-7026
kst	-7027
van	-7028
▁La	-7029
▁Tö	-7030
▁Dör	-7031
▁Lab	-7032
▁Lad	-7033
▁Ost	-7034
andid	-7035
weich	-7036
▁1000	-7037
▁Gute	-7038
▁Repu	-7039
▁Span	-7040
▁land	-7041
dliche	-7042
kosten	-7043
messen	-7044
▁Fokus	-7045
▁Stern	-7046
▁weiße	-7047
rüstung	-7048
örtlich	-7049
▁Mangel	-7050
▁Presse	-7051
▁Robert	-7052
▁Skulpt	-7053
▁heilen	-7054
▁hörten	-7055
▁mechan	-7056
▁system	-7057
▁Aussage	-7058
▁Gemälde	-7059
▁Meister	-7060
▁starben	-7061
▁Mikroben	-7062
▁schreibt	-7063
▁unmittel	-7064
oberfläche	-7065
▁derselben	-7066
▁folgenden	-7067
▁Prinzipien	-7068
▁weltweiten	-7069
▁wenigstens	-7070
flu	-7071
ias	-7072
ney	-7073
gelt	-7074
groß	-7075
tere	-7076
ugen	-7077
▁Dia	-7078
▁Tab	-7079
▁ums	-7080
icket	-7081
kehrt	-7082
stero	-7083
zweif	-7084
▁2007	-7085
▁Sozi	-7086
▁Zent	-7087
▁fürs	-7088
▁hieß	-7089
ranche	-7090
▁1.000	-7091
▁Feind	-7092
▁Flüss	-7093
▁Paris	-7094
ersonen	-7095
griffen	-7096
schafft	-7097
▁Bundes	-7098
▁Grippe	-7099
▁Kindes	-7100
▁freien	-7101
▁sozial	-7102
ieinhalb	-7103
▁100.000	-7104
▁Bericht	-7105
▁Chicago	-7106
▁durchzu	-7107
▁respekt	-7108
▁verlang	-7109
▁Kampagne	-7110
▁Kleidung	-7111
▁Proteine	-7112
▁Schlacht	-7113
▁beschrän	-7114
▁besessen	-7115
▁genügend	-7116
▁Aufnahmen	-7117
▁betrieben	-7118
▁bezüglich	-7119
▁einfaches	-7120
▁Ereignisse	-7121
▁irgendeine	-7122
▁profession	-7123
Tal	-7124
▁Py	-7125
ilen	-7126
▁Ast	-7127
▁Pho	-7128
▁Pra	-7129
athie	-7130
erien	-7131
▁Gibt	-7132
▁Klav	-7133
▁nett	-7134
ammeln	-7135
bringt	-7136
modell	-7137
werken	-7138
winkel	-7139
▁Angeb	-7140
▁Armee	-7141
▁Lasst	-7142
▁Nadel	-7143
▁Optim	-7144
▁fehlt	-7145
▁woran	-7146
antasie	-7147
▁Besuch	-7148
▁Fläche	-7149
▁Intern	-7150
▁Stücke	-7151
▁Säuget	-7152
▁Annahme	-7153
▁Gedicht	-7154
▁bestand	-7155
▁Ingenieur	-7156
▁produktiv	-7157
▁Inspiration	-7158
▁Instrumente	-7159
▁grundlegend	-7160
sterblichkeit	-7161
▁Konsequenzen	-7162
▁Lebenserwart	-7163
arr	-7164
dro	-7165
its	-7166
rav	-7167
stö	-7168
▁ew	-7169
▁lö	-7170
▁Äl	-7171
▁Mel	-7172
▁Stä	-7173
endes	-7174
küste	-7175
▁2005	-7176
▁Nest	-7177
▁Open	-7178
▁Verp	-7179
▁Vier	-7180
▁Weis	-7181
manden	-7182
▁Chaos	-7183
▁Kurve	-7184
▁anget	-7185
▁dynam	-7186
▁gelie	-7187
▁organ	-7188
▁relev	-7189
▁schwe	-7190
▁wovon	-7191
▁Boston	-7192
▁rechte	-7193
bekommen	-7194
▁Debatte	-7195
▁Zweifel	-7196
▁besorgt	-7197
▁offenen	-7198
▁stoppen	-7199
imulation	-7200
▁Hunderte	-7201
▁dokument	-7202
▁genießen	-7203
▁umfassen	-7204
schmutzung	-7205
ussendlich	-7206
▁Computern	-7207
▁Spielzeug	-7208
▁irgendwel	-7209
▁versorgen	-7210
▁Depression	-7211
▁Entfernung	-7212
▁eingeladen	-7213
▁Algorithmen	-7214
▁Dimensionen	-7215
▁Sonnenlicht	-7216
▁voneinander	-7217
▁Sonnensystem	-7218
▁kontrolliert	-7219
▁Überraschung	-7220
ots	-7221
zum	-7222
azin	-7223
deln	-7224
obel	-7225
▁250	-7226
▁Dad	-7227
▁arm	-7228
auten	-7229
izont	-7230
rüche	-7231
▁Akte	-7232
▁Hühn	-7233
▁Mosk	-7234
▁half	-7235
▁seht	-7236
finder	-7237
ueller	-7238
unklen	-7239
zählen	-7240
▁Higgs	-7241
▁Hilfs	-7242
▁Wegen	-7243
▁gehei	-7244
▁woher	-7245
rittens	-7246
ältigen	-7247
▁Darauf	-7248
▁Faktor	-7249
▁Pollen	-7250
▁Rezept	-7251
▁hängen	-7252
▁nachts	-7253
▁suchte	-7254
▁überqu	-7255
▁Kameras	-7256
▁doppelt	-7257
▁ergeben	-7258
▁neugier	-7259
▁schauten	-7260
▁aufgeregt	-7261
▁bedeutete	-7262
▁beteiligt	-7263
▁definiert	-7264
▁folgendes	-7265
▁umzugehen	-7266
▁Sichtweise	-7267
▁ausgesetzt	-7268
▁Psychologie	-7269
▁biologische	-7270
▁vergangenen	-7271
cin	-7272
iat	-7273
ire	-7274
mat	-7275
ump	-7276
▁Sä	-7277
Okay	-7278
mack	-7279
wald	-7280
▁End	-7281
▁Hem	-7282
▁Lar	-7283
▁gep	-7284
▁zit	-7285
hängt	-7286
lesen	-7287
onien	-7288
▁2010	-7289
▁Biom	-7290
▁Mass	-7291
▁dick	-7292
gelöst	-7293
mittag	-7294
▁Decke	-7295
▁Eisen	-7296
▁Toten	-7297
▁Astero	-7298
▁Atlant	-7299
▁Handys	-7300
▁ausser	-7301
▁deiner	-7302
▁dienen	-7303
▁gelang	-7304
▁Angeles	-7305
▁Krieges	-7306
▁Merkmal	-7307
▁beenden	-7308
▁merkwür	-7309
▁verstär	-7310
erkennung	-7311
▁Freiwill	-7312
▁Zeitraum	-7313
▁begegnen	-7314
▁Programme	-7315
▁basierend	-7316
▁intellekt	-7317
▁unterwegs	-7318
▁Richtungen	-7319
▁University	-7320
▁Zerstörung	-7321
▁bezeichnet	-7322
▁öffentlich	-7323
▁Verbreitung	-7324
▁Entdeckungen	-7325
wahrscheinlich	-7326
▁veröffentlichen	-7327
Bo	-7328
tä	-7329
gab	-7330
▁Wh	-7331
back	-7332
dach	-7333
irbt	-7334
ärme	-7335
▁Hat	-7336
▁Prü	-7337
▁wid	-7338
▁Ära	-7339
halts	-7340
lager	-7341
ünden	-7342
▁Gerü	-7343
▁Kart	-7344
▁Läch	-7345
▁Naja	-7346
▁kalt	-7347
▁naja	-7348
bilder	-7349
flanze	-7350
stücke	-7351
wellen	-7352
▁angen	-7353
▁grüne	-7354
▁schul	-7355
▁Detail	-7356
▁Ganzen	-7357
▁Island	-7358
▁Schalt	-7359
▁Aspekte	-7360
▁Kategor	-7361
▁Taschen	-7362
▁grossen	-7363
▁nannten	-7364
▁Gebäuden	-7365
▁Gegenden	-7366
▁ausgeben	-7367
▁lebendig	-7368
▁momentan	-7369
berflächen	-7370
▁Geschäfte	-7371
▁Potenzial	-7372
▁anzusehen	-7373
▁niemanden	-7374
▁wundervoll	-7375
▁elektrische	-7376
▁inspirieren	-7377
▁dreidimension	-7378
MM	-7379
haf	-7380
ory	-7381
ses	-7382
▁ra	-7383
hana	-7384
omas	-7385
züge	-7386
▁Hal	-7387
▁Übr	-7388
gangs	-7389
ience	-7390
seher	-7391
teils	-7392
teuer	-7393
ttung	-7394
▁Bang	-7395
▁Sing	-7396
▁entz	-7397
▁jahr	-7398
mechan	-7399
ponent	-7400
rimine	-7401
uliert	-7402
▁Berge	-7403
▁Große	-7404
▁wirkt	-7405
isierte	-7406
tztlich	-7407
▁Anders	-7408
▁Extrem	-7409
▁Futter	-7410
▁Gemüse	-7411
▁Hypoth	-7412
▁Konsum	-7413
▁angeht	-7414
▁fokuss	-7415
▁lehren	-7416
abilität	-7417
▁gezogen	-7418
▁gründen	-7419
▁Gesichts	-7420
▁bewirken	-7421
▁verdient	-7422
▁verliert	-7423
▁wünschte	-7424
▁Afrikaner	-7425
▁reduziert	-7426
▁spezielle	-7427
▁zunehmend	-7428
technologie	-7429
▁Ingenieure	-7430
▁Teilnehmer	-7431
▁hinzufügen	-7432
▁Änderungen	-7433
▁Herstellung	-7434
▁eigentliche	-7435
▁vorbereitet	-7436
▁insbesondere	-7437
▁ursprünglich	-7438
Kon	-7439
iox	-7440
zir	-7441
erie	-7442
lymp	-7443
▁Tin	-7444
ahnen	-7445
alent	-7446
unruh	-7447
viele	-7448
ähern	-7449
▁Dial	-7450
▁Nähr	-7451
▁Witz	-7452
▁deut	-7453
▁gebl	-7454
▁gele	-7455
▁hilf	-7456
▁legt	-7457
▁rech	-7458
▁risk	-7459
gnügen	-7460
linien	-7461
▁Erste	-7462
▁Zähne	-7463
eichern	-7464
▁Aufbau	-7465
▁Street	-7466
▁erhöht	-7467
▁erneut	-7468
▁garant	-7469
▁modern	-7470
▁Darüber	-7471
▁Schicht	-7472
▁Erdbeben	-7473
▁bekannte	-7474
▁ernähren	-7475
▁glaubten	-7476
▁untersch	-7477
▁Brustkrebs	-7478
▁Dunkelheit	-7479
▁eingeführt	-7480
▁unsichtbar	-7481
▁Erwartungen	-7482
▁wiederholen	-7483
▁hinterlassen	-7484
▁Normalerweise	-7485
▁interessanten	-7486
▁Persönlichkeit	-7487
▁Lebenserwartung	-7488
kün	-7489
züg	-7490
▁ad	-7491
derm	-7492
fone	-7493
▁pri	-7494
atein	-7495
▁Dsch	-7496
▁Mamm	-7497
▁Wann	-7498
ittelt	-7499
schaff	-7500
▁Obama	-7501
▁Teams	-7502
▁veran	-7503
▁weißt	-7504
lichten	-7505
mitglie	-7506
prozess	-7507
▁Flügel	-7508
▁Medium	-7509
▁Metall	-7510
▁Rechts	-7511
▁Schuhe	-7512
▁Verlauf	-7513
▁letzter	-7514
▁schmerz	-7515
▁Chinesen	-7516
▁Weisheit	-7517
▁Bedrohung	-7518
▁evolution	-7519
zeichnungen	-7520
▁Bibliothek	-7521
▁Erwachsene	-7522
▁wahrnehmen	-7523
▁Terroristen	-7524
▁wunderbaren	-7525
▁Bevölkerungs	-7526
▁fantastische	-7527
▁Krankenhäuser	-7528
500	-7529
Wer	-7530
▁är	-7531
ight	-7532
kauf	-7533
ront	-7534
same	-7535
▁Ban	-7536
▁Box	-7537
▁Spe	-7538
▁ang	-7539
ünder	-7540
▁Dipl	-7541
▁Juni	-7542
▁Knie	-7543
▁trug	-7544
kultur	-7545
messer	-7546
öntgen	-7547
▁Hitze	-7548
▁knapp	-7549
konomen	-7550
stausch	-7551
▁Laufen	-7552
▁Reisen	-7553
▁Schild	-7554
▁kaufte	-7555
▁machst	-7556
▁neigen	-7557
▁oberen	-7558
sproblem	-7559
▁Angriff	-7560
▁General	-7561
▁Klavier	-7562
▁Neugier	-7563
operation	-7564
▁Gebrauch	-7565
▁Männchen	-7566
▁Training	-7567
▁Ursprung	-7568
▁anpassen	-7569
▁erfassen	-7570
▁erfüllen	-7571
▁mehreren	-7572
▁reagiert	-7573
▁Plötzlich	-7574
▁Schreiben	-7575
▁Umständen	-7576
▁Verfahren	-7577
▁Wachstums	-7578
▁begreifen	-7579
▁genetische	-7580
▁ländlichen	-7581
▁verursachen	-7582
▁grundlegenden	-7583
gut	-7584
hst	-7585
ipl	-7586
uar	-7587
▁Sm	-7588
▁sä	-7589
ampe	-7590
emin	-7591
part	-7592
roht	-7593
zten	-7594
▁Ruf	-7595
▁Tur	-7596
▁Täu	-7597
▁int	-7598
aumen	-7599
iness	-7600
ratet	-7601
reift	-7602
these	-7603
▁Anti	-7604
▁Beit	-7605
▁Euch	-7606
▁Haie	-7607
▁diag	-7608
▁gere	-7609
▁koll	-7610
fläche	-7611
schiff	-7612
▁Cyber	-7613
▁Haiti	-7614
▁Kongo	-7615
▁Scham	-7616
▁Schok	-7617
▁Sechs	-7618
▁Tiefe	-7619
▁Wicht	-7620
ichtete	-7621
▁Infekt	-7622
▁Sicher	-7623
▁beherr	-7624
▁deinem	-7625
aufnahme	-7626
▁Inneren	-7627
▁Treffen	-7628
▁mittels	-7629
▁Erinnern	-7630
▁Innerhalb	-7631
▁ausmachen	-7632
▁Eigenschaft	-7633
▁technischen	-7634
▁Nachbarschaft	-7635
2,	-7636
ota	-7637
sun	-7638
vin	-7639
iens	-7640
osex	-7641
park	-7642
zusp	-7643
andet	-7644
asern	-7645
▁2009	-7646
▁Bier	-7647
▁Schm	-7648
▁Such	-7649
▁Trin	-7650
freund	-7651
irgend	-7652
stitut	-7653
▁Anruf	-7654
▁Humor	-7655
▁blind	-7656
▁rufen	-7657
▁worum	-7658
fordern	-7659
schläge	-7660
systeme	-7661
▁Machen	-7662
▁Niveau	-7663
▁berück	-7664
▁höhere	-7665
▁schlug	-7666
▁Verkauf	-7667
▁beunruh	-7668
▁starken	-7669
▁Ägypten	-7670
sprogramm	-7671
▁anhalten	-7672
▁gerettet	-7673
▁studiert	-7674
lichkeiten	-7675
produktion	-7676
▁Angelegen	-7677
▁Mobiltele	-7678
▁mitnehmen	-7679
schnittlich	-7680
▁Heutzutage	-7681
▁kulturelle	-7682
▁verblüffen	-7683
▁beigebracht	-7684
▁konfrontiert	-7685
▁bemerkenswert	-7686
MMY	-7687
vir	-7688
▁0,	-7689
▁Et	-7690
UMMY	-7691
appt	-7692
elen	-7693
gert	-7694
ktes	-7695
raun	-7696
äden	-7697
äufe	-7698
llung	-7699
stete	-7700
▁Bord	-7701
▁Chef	-7702
▁Glet	-7703
▁Male	-7704
▁Nutz	-7705
▁älte	-7706
design	-7707
gebiet	-7708
▁Aller	-7709
▁Alpha	-7710
▁Ghana	-7711
▁Initi	-7712
▁Level	-7713
▁Misch	-7714
▁Subst	-7715
eichert	-7716
▁Center	-7717
▁Thomas	-7718
▁Wahlen	-7719
▁soweit	-7720
▁späten	-7721
▁vorhin	-7722
▁winzig	-7723
atischen	-7724
ikations	-7725
▁besucht	-7726
▁dankbar	-7727
▁Amerikan	-7728
▁Faktoren	-7729
▁Problems	-7730
▁Theorien	-7731
▁besuchte	-7732
▁erwähnen	-7733
▁exponent	-7734
▁vielmehr	-7735
▁Belohnung	-7736
▁Vergnügen	-7737
▁bekämpfen	-7738
▁erforscht	-7739
▁ernsthaft	-7740
▁beeindruck	-7741
▁langweilig	-7742
▁Neuigkeiten	-7743
▁Wasserstoff	-7744
▁Mathematiker	-7745
▁entscheidend	-7746
▁Einrichtungen	-7747
oh	-7748
“.	-7749
ban	-7750
way	-7751
▁Hu	-7752
▁Ve	-7753
Aber	-7754
gste	-7755
ziel	-7756
ßern	-7757
ätte	-7758
▁Mor	-7759
▁wär	-7760
fühlt	-7761
heuer	-7762
oppel	-7763
ppich	-7764
ridge	-7765
stuhl	-7766
▁Frie	-7767
▁Ritu	-7768
decken	-7769
ffekte	-7770
melzen	-7771
▁Bibel	-7772
▁Polio	-7773
▁schei	-7774
enseits	-7775
ktionen	-7776
▁Alters	-7777
▁Reihen	-7778
▁konsum	-7779
▁nervös	-7780
gefallen	-7781
stimmung	-7782
▁Anstieg	-7783
▁Italien	-7784
▁französ	-7785
▁musikal	-7786
▁wieviel	-7787
▁Behinder	-7788
▁Fahrzeug	-7789
▁Physiker	-7790
▁Schulter	-7791
▁Spektrum	-7792
▁Systemen	-7793
▁Transpar	-7794
▁berühren	-7795
▁erklärte	-7796
▁seltsame	-7797
▁visuelle	-7798
▁Projekten	-7799
▁Schmerzen	-7800
▁denselben	-7801
▁kreativen	-7802
▁Verwendung	-7803
▁vorsichtig	-7804
▁sogenannten	-7805
▁elektrischen	-7806
▁Gleichgewicht	-7807
▁außergewöhnlich	-7808
AR	-7809
Sc	-7810
hai	-7811
ils	-7812
rel	-7813
ris	-7814
tex	-7815
xis	-7816
▁28	-7817
▁AB	-7818
▁Lo	-7819
▁Rö	-7820
Welt	-7821
agte	-7822
fand	-7823
inal	-7824
soft	-7825
ters	-7826
tion	-7827
▁Ath	-7828
▁Haw	-7829
▁Hir	-7830
▁Mad	-7831
▁Mio	-7832
▁zwe	-7833
▁Arab	-7834
▁Brow	-7835
▁Kohl	-7836
▁Mama	-7837
▁fein	-7838
▁sens	-7839
auften	-7840
leicht	-7841
schten	-7842
▁Autom	-7843
▁Enkel	-7844
▁Gebur	-7845
▁Posit	-7846
▁manip	-7847
▁ruhig	-7848
▁verkl	-7849
▁zählt	-7850
▁Chirur	-7851
▁Geruch	-7852
▁Gipfel	-7853
▁Schöpf	-7854
▁Studio	-7855
▁gewiss	-7856
▁liebte	-7857
▁lächer	-7858
▁planen	-7859
▁stirbt	-7860
▁wütend	-7861
▁Lächeln	-7862
▁unerwar	-7863
▁Batterie	-7864
▁Gefangen	-7865
▁Richtige	-7866
▁winzigen	-7867
▁Ökonomen	-7868
ologischer	-7869
▁berechnen	-7870
▁gestartet	-7871
ischerweise	-7872
▁investiert	-7873
▁schwierige	-7874
▁moralischen	-7875
▁zurückgehen	-7876
▁biologischen	-7877
▁zurückkehren	-7878
"]	-7879
Je	-7880
ep	-7881
Ach	-7882
▁BG	-7883
▁DH	-7884
▁Ol	-7885
▁pf	-7886
arto	-7887
fung	-7888
üren	-7889
▁Bob	-7890
▁Kle	-7891
▁Kuh	-7892
▁Mig	-7893
▁Ohr	-7894
▁Wut	-7895
brech	-7896
gespr	-7897
ianer	-7898
leger	-7899
ocken	-7900
riebs	-7901
vater	-7902
änner	-7903
▁Acht	-7904
▁Ausl	-7905
▁Benz	-7906
▁Dame	-7907
▁Ment	-7908
▁Verm	-7909
▁hind	-7910
▁spir	-7911
andern	-7912
▁Immun	-7913
▁Sagen	-7914
▁hoher	-7915
▁mikro	-7916
station	-7917
twortet	-7918
▁Früher	-7919
▁Tränen	-7920
▁gewann	-7921
▁Analyse	-7922
▁Konstru	-7923
▁Röntgen	-7924
▁Skelett	-7925
▁abgesch	-7926
▁benutze	-7927
▁brechen	-7928
▁entfern	-7929
▁geteilt	-7930
▁Trotzdem	-7931
▁gelassen	-7932
▁Plattform	-7933
▁Vorschlag	-7934
▁Reaktionen	-7935
▁dazwischen	-7936
▁ignorieren	-7937
▁Oberflächen	-7938
▁Transparenz	-7939
▁verschiedener	-7940
Ex	-7941
dy	-7942
üter	-7943
griff	-7944
ätten	-7945
ürzen	-7946
▁Aufl	-7947
▁Flor	-7948
▁Füße	-7949
▁Glüh	-7950
▁Jack	-7951
▁Konz	-7952
▁Saal	-7953
▁Trei	-7954
▁klet	-7955
▁vorn	-7956
bilden	-7957
▁Beton	-7958
▁Guten	-7959
▁alltä	-7960
▁frühe	-7961
▁jenem	-7962
▁jenen	-7963
▁könne	-7964
▁verpf	-7965
dringen	-7966
fassung	-7967
▁Großen	-7968
▁Leiter	-7969
▁bildet	-7970
▁freund	-7971
▁hassen	-7972
▁tanzen	-7973
▁Spinnen	-7974
▁gesetzt	-7975
▁lernten	-7976
▁Ausnahme	-7977
▁Autismus	-7978
▁Dokument	-7979
▁Hinblick	-7980
▁lebenden	-7981
▁riesiges	-7982
▁vernünft	-7983
▁Denkweise	-7984
▁Konflikte	-7985
▁Microsoft	-7986
▁chemische	-7987
▁interpret	-7988
▁Geschäftsm	-7989
▁besonderen	-7990
▁glücklicher	-7991
▁wunderschöne	-7992
▁identifizieren	-7993
RI	-7994
bie	-7995
bit	-7996
hel	-7997
kol	-7998
uen	-7999
▁26	-8000
▁Zy	-8001
▁nu	-8002
iffe	-8003
pass	-8004
ütte	-8005
▁BIP	-8006
▁Don	-8007
▁Get	-8008
▁Nat	-8009
▁Pen	-8010
▁Rel	-8011
▁Sar	-8012
▁eth	-8013
eiben	-8014
ikale	-8015
ioxid	-8016
ächer	-8017
▁Base	-8018
▁Leid	-8019
▁leer	-8020
▁sorg	-8021
▁stre	-8022
anlage	-8023
eignet	-8024
ichtum	-8025
ivileg	-8026
lichem	-8027
utzend	-8028
▁Block	-8029
▁Figur	-8030
▁Karik	-8031
▁korre	-8032
▁saßen	-8033
aktoren	-8034
brochen	-8035
gemacht	-8036
▁Rollen	-8037
▁Yorker	-8038
▁Zurück	-8039
▁kaputt	-8040
▁kommer	-8041
▁schaue	-8042
▁schock	-8043
▁univer	-8044
▁wenden	-8045
anischen	-8046
ffizient	-8047
funktion	-8048
▁Flächen	-8049
▁Schwarz	-8050
▁dunklen	-8051
▁militär	-8052
▁getrennt	-8053
▁gründete	-8054
▁verfolgt	-8055
▁Effizienz	-8056
▁Jedenfalls	-8057
▁Mitglieder	-8058
▁Präsidenten	-8059
▁anscheinend	-8060
▁chinesische	-8061
▁genetischen	-8062
▁organisiert	-8063
▁mittlerweile	-8064
,5	-8065
So	-8066
car	-8067
kap	-8068
▁Ky	-8069
▁Tu	-8070
▁cm	-8071
▁zü	-8072
summ	-8073
wort	-8074
▁Fal	-8075
▁att	-8076
▁prü	-8077
▁rum	-8078
▁tre	-8079
▁wem	-8080
alley	-8081
istin	-8082
▁Intu	-8083
▁Klar	-8084
▁Näch	-8085
▁Salz	-8086
▁foss	-8087
▁häss	-8088
▁umso	-8089
▁welt	-8090
fachen	-8091
fältig	-8092
ogramm	-8093
waffen	-8094
▁Küche	-8095
▁Szene	-8096
▁atmen	-8097
▁bewir	-8098
▁japan	-8099
▁stieg	-8100
gerufen	-8101
wachsen	-8102
▁Höhlen	-8103
▁Marken	-8104
▁Organe	-8105
▁Proben	-8106
▁Wälder	-8107
▁billig	-8108
▁wahren	-8109
schnitts	-8110
▁Anstren	-8111
▁Schokol	-8112
▁Verschw	-8113
▁Vorgang	-8114
▁höheren	-8115
▁molekul	-8116
▁stimmen	-8117
▁verletz	-8118
ianischen	-8119
ikationen	-8120
▁Entschul	-8121
▁Stanford	-8122
▁Vermögen	-8123
▁diagnost	-8124
▁gemessen	-8125
▁hindurch	-8126
▁nebenbei	-8127
▁beschreibt	-8128
▁irgendeinem	-8129
▁Investitionen	-8130
Man	-8131
gin	-8132
jet	-8133
▁fe	-8134
kopf	-8135
▁Sha	-8136
▁mon	-8137
Spiel	-8138
betes	-8139
deckt	-8140
weils	-8141
▁Brun	-8142
▁Camp	-8143
▁Ener	-8144
▁Grie	-8145
▁Last	-8146
▁gefl	-8147
▁lieb	-8148
fühlen	-8149
geräte	-8150
rinzip	-8151
▁Apple	-8152
▁Carto	-8153
▁Kugel	-8154
▁Tragö	-8155
▁unvor	-8156
▁verur	-8157
▁Atomen	-8158
▁Budget	-8159
▁abstra	-8160
▁drehte	-8161
▁eingeb	-8162
▁fliegt	-8163
aufgaben	-8164
ständige	-8165
tausende	-8166
▁Dadurch	-8167
▁Sequenz	-8168
▁Systems	-8169
▁angehen	-8170
▁erneuer	-8171
▁niedrig	-8172
▁Pinguine	-8173
▁heiraten	-8174
▁höchsten	-8175
▁kleinere	-8176
▁Gespräche	-8177
▁Weihnacht	-8178
▁Motivation	-8179
▁angemessen	-8180
▁arabischen	-8181
▁reparieren	-8182
▁Anwendungen	-8183
▁Einfachheit	-8184
▁unternehmen	-8185
▁wundervolle	-8186
▁Universitäten	-8187
▁Weltbevölkerung	-8188
ds	-8189
ise	-8190
ola	-8191
▁36	-8192
▁Op	-8193
▁Ug	-8194
▁hy	-8195
iums	-8196
umpf	-8197
volv	-8198
wehr	-8199
▁120	-8200
▁195	-8201
▁Act	-8202
▁Eur	-8203
▁Hon	-8204
▁Ros	-8205
▁Sur	-8206
▁mel	-8207
▁rom	-8208
agern	-8209
legte	-8210
▁Kühl	-8211
▁ment	-8212
annter	-8213
archie	-8214
azifik	-8215
etisch	-8216
lichte	-8217
wählen	-8218
ziplin	-8219
▁Katze	-8220
▁Logik	-8221
▁Marke	-8222
▁Sorge	-8223
▁Wände	-8224
▁geöff	-8225
▁harte	-8226
gebiete	-8227
▁Kommen	-8228
▁Muskel	-8229
▁Vertei	-8230
▁explod	-8231
▁keines	-8232
▁potent	-8233
material	-8234
zukommen	-8235
▁Blätter	-8236
▁Muskeln	-8237
▁Protein	-8238
▁Science	-8239
▁Ursache	-8240
▁gewöhnt	-8241
▁jeweils	-8242
▁reflekt	-8243
▁richten	-8244
▁schwere	-8245
▁Gebieten	-8246
▁Liebling	-8247
▁Prozesse	-8248
▁Einschrän	-8249
▁Nachfrage	-8250
▁Treibhaus	-8251
▁benutzten	-8252
▁gesammelt	-8253
▁infiziert	-8254
▁insgesamt	-8255
▁mittleren	-8256
▁neugierig	-8257
▁Organismus	-8258
▁inzwischen	-8259
▁Konsumenten	-8260
▁Philosophie	-8261
▁Schauspieler	-8262
ua	-8263
▁“	-8264
eah	-8265
ule	-8266
▁65	-8267
▁Vi	-8268
▁my	-8269
eige	-8270
eins	-8271
erin	-8272
prov	-8273
städ	-8274
ürzt	-8275
▁Abl	-8276
▁Aug	-8277
▁Tum	-8278
▁Vag	-8279
▁Zie	-8280
▁geg	-8281
▁ärm	-8282
amera	-8283
ektar	-8284
ohlen	-8285
reide	-8286
ämpft	-8287
örder	-8288
▁1990	-8289
▁2006	-8290
▁Ehre	-8291
▁Live	-8292
Wissen	-8293
eigung	-8294
gänger	-8295
klasse	-8296
leiter	-8297
▁Serie	-8298
▁Texas	-8299
▁womit	-8300
▁öfter	-8301
▁Bedarf	-8302
▁Daumen	-8303
▁Glücks	-8304
▁Integr	-8305
▁Kredit	-8306
▁Preise	-8307
▁Sektor	-8308
▁Tasche	-8309
▁beides	-8310
▁beseit	-8311
▁jünger	-8312
▁romant	-8313
▁vierte	-8314
▁Dutzend	-8315
▁Flederm	-8316
▁bedeckt	-8317
▁wirksam	-8318
alisierte	-8319
formation	-8320
▁Symptome	-8321
▁aktuelle	-8322
▁anbieten	-8323
▁anstelle	-8324
▁früheren	-8325
▁kreative	-8326
▁verletzt	-8327
▁wahrhaft	-8328
alisierten	-8329
▁Maßnahmen	-8330
▁Resultate	-8331
▁schwimmen	-8332
▁Funktionen	-8333
▁Handlungen	-8334
▁Wichtigste	-8335
▁emotionale	-8336
▁experiment	-8337
▁regelmäßig	-8338
▁Katastrophe	-8339
iam	-8340
ish	-8341
twa	-8342
räum	-8343
stat	-8344
ämen	-8345
▁Sub	-8346
chtet	-8347
kohol	-8348
▁Feed	-8349
▁flog	-8350
▁gete	-8351
▁rest	-8352
deuten	-8353
fällig	-8354
stoßen	-8355
wendet	-8356
▁Haare	-8357
▁Indem	-8358
▁Proje	-8359
▁human	-8360
▁islam	-8361
angehen	-8362
ogenese	-8363
staaten	-8364
▁Januar	-8365
▁Valley	-8366
▁Vorder	-8367
▁feiern	-8368
▁frustr	-8369
mögliche	-8370
▁Büchern	-8371
▁Designs	-8372
▁Letzten	-8373
▁beträgt	-8374
▁geraten	-8375
▁lebende	-8376
▁setzten	-8377
▁verließ	-8378
▁Schweine	-8379
▁Sensoren	-8380
▁eröffnet	-8381
▁schickte	-8382
▁Änderung	-8383
▁Übrigens	-8384
▁gezwungen	-8385
▁indischen	-8386
▁nachdenkt	-8387
▁Strategien	-8388
▁gemeinnütz	-8389
▁wiederholt	-8390
▁traditionelle	-8391
kö	-8392
üd	-8393
Und	-8394
aku	-8395
bir	-8396
iop	-8397
izz	-8398
ura	-8399
akul	-8400
ches	-8401
enkt	-8402
gefä	-8403
ünde	-8404
▁Arz	-8405
▁Lau	-8406
▁rob	-8407
▁sub	-8408
▁sym	-8409
▁ört	-8410
fache	-8411
gänge	-8412
selbe	-8413
▁1960	-8414
▁1980	-8415
▁Bush	-8416
▁Fels	-8417
▁Jeff	-8418
▁Verz	-8419
▁Wäre	-8420
▁arch	-8421
▁ehem	-8422
▁hand	-8423
▁tanz	-8424
ordnet	-8425
skraft	-8426
▁Leber	-8427
▁Stick	-8428
▁beruh	-8429
▁heben	-8430
▁mobil	-8431
politik	-8432
▁Abhäng	-8433
▁Anweis	-8434
▁Mannes	-8435
▁Metern	-8436
▁Ratten	-8437
▁Therap	-8438
▁echtes	-8439
▁erlaub	-8440
▁mochte	-8441
▁wartet	-8442
▁öffnet	-8443
schieben	-8444
▁Ausland	-8445
▁Ehemann	-8446
▁Erstaun	-8447
▁Schnell	-8448
▁anfängt	-8449
▁enormen	-8450
▁gelegen	-8451
▁höchste	-8452
▁kreiert	-8453
▁trocken	-8454
▁unsicht	-8455
▁zurecht	-8456
▁änderte	-8457
setzungen	-8458
▁Epidemie	-8459
▁Gebäudes	-8460
▁Mitglied	-8461
▁Umstände	-8462
▁Weibchen	-8463
▁begrenzt	-8464
▁eingehen	-8465
▁gesunden	-8466
▁hingehen	-8467
▁leuchten	-8468
▁veränder	-8469
▁Höhepunkt	-8470
▁Versuchen	-8471
▁vergleich	-8472
▁Prototypen	-8473
▁Verteilung	-8474
▁übersetzen	-8475
▁Alternative	-8476
▁diskutieren	-8477
▁Ungleichheit	-8478
▁irgendwelche	-8479
▁komplizierter	-8480
Fl	-8481
▁:	-8482
Ges	-8483
ask	-8484
ony	-8485
yto	-8486
▁BF	-8487
baum	-8488
meid	-8489
reht	-8490
äger	-8491
ürze	-8492
▁Mac	-8493
▁Pop	-8494
▁Wen	-8495
▁san	-8496
asien	-8497
etzen	-8498
▁1950	-8499
▁2004	-8500
▁Kond	-8501
▁Kore	-8502
▁Star	-8503
▁flex	-8504
▁hell	-8505
assten	-8506
eitete	-8507
leiten	-8508
ordnen	-8509
spanne	-8510
steine	-8511
▁Autob	-8512
▁Mount	-8513
▁Pferd	-8514
▁Staub	-8515
▁Waffe	-8516
▁alter	-8517
▁selbe	-8518
chester	-8519
duktion	-8520
quellen	-8521
wandeln	-8522
▁Dialog	-8523
▁danken	-8524
▁füllen	-8525
▁involv	-8526
▁keinem	-8527
▁offene	-8528
▁sonder	-8529
illionen	-8530
▁Auftrag	-8531
▁Entsteh	-8532
▁Fremden	-8533
▁Handeln	-8534
▁Pflanze	-8535
▁Spezial	-8536
▁Verzwei	-8537
▁install	-8538
▁stammen	-8539
▁verbrei	-8540
▁Biologen	-8541
▁gefahren	-8542
▁geöffnet	-8543
▁sinnvoll	-8544
▁Überwach	-8545
▁Symmetrie	-8546
▁antworten	-8547
▁empfinden	-8548
▁gegenwärt	-8549
▁kommerzie	-8550
▁politisch	-8551
▁verrückte	-8552
▁weltweite	-8553
▁ähnlichen	-8554
▁Schwestern	-8555
▁ausgegeben	-8556
▁physischen	-8557
▁Investition	-8558
▁Komponenten	-8559
▁aufeinander	-8560
▁kulturellen	-8561
▁schlimmsten	-8562
▁Berechnungen	-8563
▁Verbesserung	-8564
▁festgestellt	-8565
tn	-8566
uk	-8567
Reg	-8568
aps	-8569
imb	-8570
Amer	-8571
erei	-8572
errt	-8573
gäng	-8574
irca	-8575
kord	-8576
takt	-8577
äude	-8578
▁Bek	-8579
▁Flu	-8580
▁Tee	-8581
▁emp	-8582
▁hüb	-8583
▁leg	-8584
eifen	-8585
fasst	-8586
itute	-8587
weist	-8588
▁Brut	-8589
▁Koch	-8590
▁Musl	-8591
▁Myth	-8592
▁gift	-8593
▁stat	-8594
Mensch	-8595
raktiv	-8596
zenten	-8597
▁Achse	-8598
▁Ernst	-8599
▁Gramm	-8600
▁Löwen	-8601
▁Schon	-8602
▁Wasch	-8603
▁dient	-8604
▁misst	-8605
▁Übung	-8606
anlagen	-8607
gesetzt	-8608
raucher	-8609
▁Explos	-8610
▁Moskit	-8611
▁Uganda	-8612
▁fließt	-8613
▁inklus	-8614
▁nahezu	-8615
▁werdet	-8616
befinden	-8617
schalten	-8618
▁Lehrern	-8619
▁Wurzeln	-8620
▁Überall	-8621
▁Amerikas	-8622
▁Aufstieg	-8623
▁Betracht	-8624
▁Diabetes	-8625
▁Feedback	-8626
▁Kontroll	-8627
▁Schwarze	-8628
▁Therapie	-8629
▁Toilette	-8630
▁ausmacht	-8631
▁befassen	-8632
▁benutzte	-8633
▁geworfen	-8634
▁jenseits	-8635
▁offenbar	-8636
▁verständ	-8637
▁vorwärts	-8638
▁Fahrzeuge	-8639
▁abgesehen	-8640
▁beitragen	-8641
▁weibliche	-8642
▁Ausrüstung	-8643
▁Lebensraum	-8644
▁Flüssigkeit	-8645
▁analysieren	-8646
▁einzigartig	-8647
▁Unternehmens	-8648
▁chinesischen	-8649
▁hinsichtlich	-8650
▁repräsentiert	-8651
▁Globalisierung	-8652
1.	-8653
Os	-8654
vo	-8655
?",	-8656
ios	-8657
por	-8658
▁22	-8659
▁3.	-8660
▁Ah	-8661
▁Kr	-8662
▁to	-8663
komp	-8664
ular	-8665
▁Kok	-8666
▁Meg	-8667
▁Süß	-8668
▁ret	-8669
Inter	-8670
andem	-8671
anzig	-8672
ifest	-8673
ruppe	-8674
sagen	-8675
▁Mahl	-8676
▁Manh	-8677
▁Urkn	-8678
▁fair	-8679
▁qual	-8680
▁trat	-8681
brauch	-8682
drehen	-8683
lament	-8684
ührung	-8685
▁Lesen	-8686
▁Onkel	-8687
▁Stich	-8688
▁Wärme	-8689
▁lasse	-8690
▁lasst	-8691
▁simul	-8692
▁stets	-8693
▁zwang	-8694
▁Bomben	-8695
▁Ebenen	-8696
▁Sprung	-8697
▁entwar	-8698
gebungen	-8699
icherung	-8700
▁Alkohol	-8701
▁Erfolgs	-8702
▁Verhand	-8703
▁zuhören	-8704
▁Konzepte	-8705
▁einziges	-8706
▁freiwill	-8707
▁schwerer	-8708
▁bedeutend	-8709
▁nationale	-8710
▁physische	-8711
▁vergewalt	-8712
▁Versorgung	-8713
▁verstecken	-8714
▁unterhalten	-8715
▁vorgestellt	-8716
▁zukünftigen	-8717
▁Katastrophen	-8718
▁Privatsphäre	-8719
▁verschwindet	-8720
▁beeindruckend	-8721
ci	-8722
sl	-8723
▁y	-8724
bru	-8725
eta	-8726
ood	-8727
ölf	-8728
▁Cr	-8729
▁wä	-8730
aven	-8731
baut	-8732
bein	-8733
gült	-8734
iene	-8735
ives	-8736
unft	-8737
ätig	-8738
▁Anh	-8739
▁Cal	-8740
hafen	-8741
lösen	-8742
meter	-8743
orten	-8744
thmus	-8745
▁Dist	-8746
▁Ever	-8747
▁Life	-8748
▁Stil	-8749
▁gefr	-8750
▁heim	-8751
▁häuf	-8752
eltern	-8753
pflanz	-8754
schild	-8755
sitzen	-8756
steckt	-8757
▁Blase	-8758
▁Titan	-8759
▁exakt	-8760
▁legte	-8761
▁spont	-8762
igungen	-8763
▁Allgem	-8764
▁Analog	-8765
▁Benzin	-8766
▁Kuchen	-8767
▁Partei	-8768
▁Reserv	-8769
▁befest	-8770
▁höchst	-8771
▁innere	-8772
▁muslim	-8773
▁verlor	-8774
beziehen	-8775
eitungen	-8776
jähriger	-8777
▁Kohlend	-8778
▁Lichter	-8779
▁Raketen	-8780
▁gesunde	-8781
igerweise	-8782
wesenheit	-8783
▁Ausgaben	-8784
▁Diagnose	-8785
▁Griechen	-8786
▁ausgehen	-8787
▁befreien	-8788
▁demonstr	-8789
▁erkunden	-8790
▁schreibe	-8791
▁sozialer	-8792
▁Ansichten	-8793
▁Gletscher	-8794
▁Mikroskop	-8795
▁Techniken	-8796
▁Toiletten	-8797
▁betreffen	-8798
▁visuellen	-8799
▁Population	-8800
▁Selbstmord	-8801
▁Treibstoff	-8802
▁teilnehmen	-8803
abhängigkeit	-8804
▁Blickwinkel	-8805
▁Nervenzellen	-8806
▁Wohlbefinden	-8807
▁Schriftsteller	-8808
▁ausschließlich	-8809
▁schlussendlich	-8810
KW	-8811
nä	-8812
Auf	-8813
Gen	-8814
Wei	-8815
afe	-8816
any	-8817
edy	-8818
inf	-8819
ops	-8820
▁PM	-8821
▁bo	-8822
orth	-8823
reut	-8824
▁700	-8825
▁Mak	-8826
▁Mas	-8827
▁Zut	-8828
chron	-8829
firma	-8830
größe	-8831
ismen	-8832
lever	-8833
llige	-8834
twick	-8835
▁1970	-8836
▁Gand	-8837
▁Grav	-8838
▁Kenn	-8839
▁Serv	-8840
▁hung	-8841
▁stra	-8842
ütteln	-8843
▁Frühl	-8844
▁Höhle	-8845
▁Oxyto	-8846
▁Prior	-8847
▁freie	-8848
Projekt	-8849
bezogen	-8850
üchtern	-8851
▁Fahrer	-8852
▁Magnet	-8853
▁Praxis	-8854
▁Stille	-8855
▁Umgang	-8856
▁durfte	-8857
▁fuhren	-8858
▁kooper	-8859
▁schief	-8860
schätzen	-8861
▁Angebot	-8862
▁Inhalte	-8863
▁Schwanz	-8864
▁ersetzt	-8865
▁gelehrt	-8866
▁heutige	-8867
▁schöner	-8868
▁tauchen	-8869
▁verschm	-8870
schreiben	-8871
▁Erfinder	-8872
▁Hinweise	-8873
▁Illusion	-8874
▁Stiftung	-8875
▁Vorträge	-8876
▁behaupte	-8877
▁jährlich	-8878
▁künstler	-8879
▁privaten	-8880
▁verliebt	-8881
▁zentrale	-8882
▁Abenteuer	-8883
▁Internets	-8884
▁Statistik	-8885
▁erhielten	-8886
▁letztlich	-8887
▁niedriger	-8888
▁positiven	-8889
▁ungeheuer	-8890
▁unterhalb	-8891
▁verteilen	-8892
▁Standpunkt	-8893
▁Widerstand	-8894
▁dramatisch	-8895
▁nachhaltig	-8896
▁offensicht	-8897
▁umzusetzen	-8898
▁wirklichen	-8899
▁auszudrücken	-8900
▁zurückkommen	-8901
▁Geschichtener	-8902
▁international	-8903
BI	-8904
kä	-8905
Als	-8906
For	-8907
▁32	-8908
▁Id	-8909
Bahn	-8910
dest	-8911
flie	-8912
ippe	-8913
raut	-8914
▁Dün	-8915
▁Mün	-8916
▁Oel	-8917
▁Tra	-8918
▁mar	-8919
ampag	-8920
igant	-8921
orien	-8922
steht	-8923
sätze	-8924
umpen	-8925
▁Bron	-8926
▁Egal	-8927
▁Etwa	-8928
▁Hard	-8929
▁Türk	-8930
▁frie	-8931
fällen	-8932
lehnen	-8933
straße	-8934
undern	-8935
ändler	-8936
üchtig	-8937
▁Künst	-8938
▁Tempo	-8939
▁circa	-8940
▁herab	-8941
▁leist	-8942
projekt	-8943
▁Alltag	-8944
▁Astron	-8945
▁Ballon	-8946
▁Fliege	-8947
▁Intens	-8948
▁Klinik	-8949
▁Konkur	-8950
▁Martin	-8951
▁Oxford	-8952
▁Ruanda	-8953
▁Sieben	-8954
▁Trends	-8955
▁enttäu	-8956
▁umwelt	-8957
▁verlei	-8958
▁ältere	-8959
gegangen	-8960
ierendes	-8961
▁Entwurf	-8962
▁Schlagz	-8963
▁Zentral	-8964
▁bedroht	-8965
▁berühmt	-8966
▁fließen	-8967
▁gelangt	-8968
▁konserv	-8969
▁kümmert	-8970
▁reicher	-8971
▁widersp	-8972
▁älteren	-8973
▁Baseball	-8974
▁Schreibt	-8975
▁Schülern	-8976
▁Speicher	-8977
▁berühmte	-8978
▁bewahren	-8979
▁gegessen	-8980
▁getestet	-8981
▁zweitens	-8982
▁Bedürfnis	-8983
▁Gleichung	-8984
▁Hollywood	-8985
▁aktuellen	-8986
▁übersetzt	-8987
▁Elektronen	-8988
▁angekommen	-8989
▁entdeckten	-8990
▁technische	-8991
▁verringern	-8992
▁Kooperation	-8993
▁Mechanismus	-8994
▁Videospiele	-8995
▁afrikanische	-8996
▁komplizierte	-8997
PA	-8998
Sh	-8999
Te	-9000
wä	-9001
ary	-9002
gra	-9003
ius	-9004
uth	-9005
igma	-9006
kept	-9007
klar	-9008
llte	-9009
▁Jer	-9010
heber	-9011
krise	-9012
▁Appl	-9013
▁Gift	-9014
▁Homo	-9015
▁Kilo	-9016
▁Lärm	-9017
▁Mist	-9018
▁Spur	-9019
▁dumm	-9020
ingung	-9021
mengen	-9022
ungsst	-9023
▁Carol	-9024
▁Front	-9025
▁Hölle	-9026
▁Kapaz	-9027
▁Knopf	-9028
▁Mathe	-9029
▁Peter	-9030
▁Satur	-9031
▁braun	-9032
▁malen	-9033
▁rüber	-9034
▁Älter	-9035
fischen	-9036
schönen	-9037
stecken	-9038
zugehen	-9039
▁Beinen	-9040
▁Bäumen	-9041
▁Diesen	-9042
▁Dinger	-9043
▁Knoten	-9044
▁Werden	-9045
▁global	-9046
▁konkur	-9047
▁treibt	-9048
Programm	-9049
ächtigen	-9050
▁Betrieb	-9051
▁Schädel	-9052
▁illegal	-9053
▁liefert	-9054
▁schönes	-9055
aktivität	-9056
▁Bedenken	-9057
▁Konzentr	-9058
▁Oxytocin	-9059
▁argument	-9060
▁Geschmack	-9061
▁Mittleren	-9062
▁erfordert	-9063
▁erinnerte	-9064
▁inklusive	-9065
▁komplexer	-9066
▁schrieben	-9067
krankheiten	-9068
▁Asteroiden	-9069
▁Entstehung	-9070
▁angetrieben	-9071
▁verbrauchen	-9072
▁intelligente	-9073
▁Durchschnitts	-9074
▁weiterentwick	-9075
Se	-9076
ku	-9077
col	-9078
mod	-9079
oto	-9080
rix	-9081
uld	-9082
▁95	-9083
▁TV	-9084
grad	-9085
hten	-9086
uste	-9087
▁Lux	-9088
▁Nar	-9089
▁Nov	-9090
▁Zig	-9091
▁irr	-9092
Mails	-9093
aters	-9094
elles	-9095
leute	-9096
werte	-9097
▁Flag	-9098
▁Prop	-9099
▁intu	-9100
▁löst	-9101
▁oper	-9102
▁üben	-9103
ektion	-9104
garten	-9105
grunde	-9106
jenige	-9107
mitten	-9108
spunkt	-9109
terung	-9110
▁Mauer	-9111
▁Pause	-9112
▁Reden	-9113
▁Trink	-9114
▁altes	-9115
▁derer	-9116
▁drück	-9117
▁lagen	-9118
▁theor	-9119
wertung	-9120
zustand	-9121
▁20.000	-9122
▁Europä	-9123
▁Köpfen	-9124
▁Nutzer	-9125
▁Pocken	-9126
▁ehemal	-9127
▁Dynamik	-9128
▁Fußball	-9129
▁Weltall	-9130
▁greifen	-9131
▁nirgend	-9132
▁Fantasie	-9133
▁erlangen	-9134
▁gebildet	-9135
▁schießen	-9136
▁spannend	-9137
▁überlebt	-9138
▁Einheiten	-9139
▁Flughafen	-9140
▁Flugzeuge	-9141
▁Intuition	-9142
▁Tätigkeit	-9143
▁angepasst	-9144
▁errichten	-9145
▁gestaltet	-9146
▁hoffnungs	-9147
▁verlangen	-9148
▁Auswirkung	-9149
▁Gegenstand	-9150
▁Gestaltung	-9151
▁ausdrücken	-9152
▁beschützen	-9153
▁nationalen	-9154
▁vermittelt	-9155
▁zukünftige	-9156
▁überprüfen	-9157
▁Anerkennung	-9158
▁profitieren	-9159
▁verarbeiten	-9160
▁vorhersagen	-9161
▁Depressionen	-9162
▁Kohlendioxid	-9163
▁schreckliche	-9164
▁Produktivität	-9165
▁Nahrungsmittel	-9166
“,	-9167
fro	-9168
äub	-9169
▁PC	-9170
▁kg	-9171
arth	-9172
geld	-9173
hnte	-9174
mith	-9175
oben	-9176
äser	-9177
▁800	-9178
▁Hai	-9179
▁ras	-9180
ahara	-9181
lässt	-9182
ronen	-9183
schel	-9184
sucht	-9185
▁Iron	-9186
▁Kosm	-9187
▁Penn	-9188
▁Thun	-9189
▁befr	-9190
▁beru	-9191
▁ethn	-9192
anders	-9193
binden	-9194
breite	-9195
drücke	-9196
heimer	-9197
ildern	-9198
ropfen	-9199
▁5.000	-9200
▁Apfel	-9201
▁Gates	-9202
▁Nobel	-9203
▁Werke	-9204
▁begrü	-9205
▁offiz	-9206
▁zogen	-9207
▁zweit	-9208
verkehr	-9209
▁Belast	-9210
▁Gerade	-9211
▁Katzen	-9212
▁Werten	-9213
▁Würden	-9214
▁festge	-9215
▁kochen	-9216
▁verhei	-9217
geschäft	-9218
reichend	-9219
▁Beitrag	-9220
▁Drucker	-9221
▁Glühbir	-9222
▁Handels	-9223
▁Letztes	-9224
▁Manhatt	-9225
▁Spenden	-9226
▁gewinnt	-9227
▁trennen	-9228
zeichnung	-9229
▁Einblick	-9230
▁Erschein	-9231
▁beachten	-9232
▁billiger	-9233
▁einziger	-9234
▁zugrunde	-9235
▁Erwärmung	-9236
▁Gleichheit	-9237
▁allgemeine	-9238
▁religiösen	-9239
▁virtuellen	-9240
▁Operationen	-9241
▁allgemeinen	-9242
▁ausgebildet	-9243
▁einzusetzen	-9244
▁schwierigen	-9245
▁zusätzliche	-9246
▁Arbeitsplatz	-9247
▁abgeschlossen	-9248
▁Menschlichkeit	-9249
EC	-9250
ET	-9251
ln	-9252
zo	-9253
agd	-9254
dat	-9255
emp	-9256
▁KB	-9257
eder	-9258
flei	-9259
stel	-9260
vern	-9261
▁Anf	-9262
▁Jim	-9263
▁Jon	-9264
kunst	-9265
rateg	-9266
sorge	-9267
terte	-9268
ucken	-9269
▁Camb	-9270
▁King	-9271
▁halt	-9272
kasten	-9273
orenen	-9274
ramide	-9275
wecken	-9276
▁Beide	-9277
▁Digit	-9278
▁Käfer	-9279
▁Köpfe	-9280
▁Meere	-9281
▁Notiz	-9282
▁Olymp	-9283
▁Party	-9284
▁Smith	-9285
▁block	-9286
▁dicht	-9287
▁schme	-9288
▁verle	-9289
konstru	-9290
▁Inseln	-9291
▁Kandid	-9292
▁Kriege	-9293
▁Saturn	-9294
▁Spuren	-9295
▁Stämme	-9296
▁leeren	-9297
▁reiste	-9298
▁tollen	-9299
gekommen	-9300
isierten	-9301
▁Ausgang	-9302
▁Dennoch	-9303
▁Flasche	-9304
▁Geburts	-9305
▁Hinweis	-9306
▁Magazin	-9307
▁Oktober	-9308
▁Veranst	-9309
▁bevorzu	-9310
▁erfüllt	-9311
▁geredet	-9312
▁klingen	-9313
▁landete	-9314
▁ärmsten	-9315
schaffung	-9316
▁Amazonas	-9317
▁Gefahren	-9318
▁Vorgehen	-9319
▁schnelle	-9320
▁Allgemein	-9321
▁Austausch	-9322
▁Parlament	-9323
▁Zeitungen	-9324
▁ausführen	-9325
▁erledigen	-9326
▁erzählten	-9327
bedingungen	-9328
▁Abendessen	-9329
▁Engagement	-9330
▁angeschaut	-9331
▁verbraucht	-9332
▁zusätzlich	-9333
▁Nordamerika	-9334
▁Unterwasser	-9335
▁stattfinden	-9336
▁Abhängigkeit	-9337
▁Journalisten	-9338
▁ungewöhnlich	-9339
▁unterscheidet	-9340
LA	-9341
MA	-9342
now	-9343
ric	-9344
ymm	-9345
atom	-9346
aver	-9347
otto	-9348
rufe	-9349
verl	-9350
ühle	-9351
▁Dop	-9352
▁Hut	-9353
▁Oft	-9354
▁Pin	-9355
▁Wow	-9356
▁ass	-9357
▁imm	-9358
dacht	-9359
rugen	-9360
örung	-9361
üster	-9362
▁2003	-9363
▁Seil	-9364
▁Tode	-9365
▁Watt	-9366
▁live	-9367
auchen	-9368
gerung	-9369
gungen	-9370
regung	-9371
summen	-9372
▁Hügel	-9373
▁Lehre	-9374
▁Probe	-9375
▁Sätze	-9376
▁liebt	-9377
▁steig	-9378
▁trage	-9379
▁ultim	-9380
aschine	-9381
lechter	-9382
sträger	-9383
▁Berufs	-9384
▁Chines	-9385
▁Dichte	-9386
▁Felsen	-9387
▁Könnte	-9388
▁Schall	-9389
▁Talent	-9390
▁clever	-9391
▁tolles	-9392
bteilung	-9393
designer	-9394
erkennen	-9395
▁Autoren	-9396
▁Pazifik	-9397
▁Punkten	-9398
▁William	-9399
▁beendet	-9400
▁fühlten	-9401
▁gefüllt	-9402
▁zweites	-9403
▁Bewohner	-9404
▁Energien	-9405
▁Minister	-9406
▁Sammlung	-9407
▁schließt	-9408
wohnheiten	-9409
▁Cambridge	-9410
▁Erziehung	-9411
▁geblieben	-9412
▁hilfreich	-9413
▁künstliche	-9414
▁revolution	-9415
▁verhindert	-9416
▁Allgemeinen	-9417
▁Zeichnungen	-9418
▁kombinieren	-9419
▁nachhaltige	-9420
▁Kapitalismus	-9421
▁Medikamenten	-9422
▁ursprüngliche	-9423
▁wunderschönen	-9424
'.	-9425
Ist	-9426
kes	-9427
urr	-9428
öne	-9429
▁85	-9430
▁Av	-9431
ardo	-9432
izop	-9433
quem	-9434
sitz	-9435
ulin	-9436
well	-9437
wjet	-9438
änen	-9439
▁Bew	-9440
▁Fro	-9441
▁Sus	-9442
▁Tes	-9443
▁nör	-9444
▁weh	-9445
antom	-9446
bruar	-9447
ipend	-9448
▁Gast	-9449
▁Kauf	-9450
▁quer	-9451
▁sign	-9452
haufen	-9453
werten	-9454
▁Gehör	-9455
▁Ignor	-9456
▁Kiste	-9457
▁Summe	-9458
▁abend	-9459
▁allzu	-9460
▁heiße	-9461
▁kauft	-9462
▁schie	-9463
▁tiefe	-9464
▁50.000	-9465
▁Besten	-9466
▁Latein	-9467
▁Liefer	-9468
▁Tricks	-9469
▁gigant	-9470
etischen	-9471
izophren	-9472
werkraft	-9473
zweifelt	-9474
▁Chirurg	-9475
▁Februar	-9476
▁Figuren	-9477
▁Komprom	-9478
▁Spitzen	-9479
▁diesmal	-9480
▁dreimal	-9481
▁grösser	-9482
▁negativ	-9483
▁nutzten	-9484
▁suchten	-9485
▁unangen	-9486
▁winzige	-9487
▁Fotograf	-9488
▁Reichtum	-9489
▁Schlange	-9490
▁Versagen	-9491
▁Weltbank	-9492
▁beziehen	-9493
▁erschien	-9494
▁erzielen	-9495
▁gesünder	-9496
▁sexuelle	-9497
▁struktur	-9498
▁wünschen	-9499
unterricht	-9500
▁Anzeichen	-9501
▁Einwohner	-9502
▁Fundament	-9503
▁Täuschung	-9504
▁attraktiv	-9505
▁irgendwas	-9506
▁vielerlei	-9507
geschritten	-9508
ministerium	-9509
▁Allerdings	-9510
▁auftauchen	-9511
▁anzuschauen	-9512
▁Schreibtisch	-9513
▁weitermachen	-9514
▁Bürgermeister	-9515
▁durchzuführen	-9516
▁programmieren	-9517
▁sicherstellen	-9518
wissenschaftler	-9519
].	-9520
va	-9521
bew	-9522
dam	-9523
hil	-9524
äme	-9525
▁CD	-9526
Jähr	-9527
ahre	-9528
dere	-9529
erte	-9530
fäll	-9531
ical	-9532
obby	-9533
omos	-9534
puls	-9535
stil	-9536
strö	-9537
uden	-9538
utet	-9539
uzin	-9540
▁191	-9541
▁Alz	-9542
▁Cra	-9543
▁Hen	-9544
▁Leg	-9545
▁Vul	-9546
▁ert	-9547
▁pol	-9548
▁Äth	-9549
srate	-9550
▁Fund	-9551
▁Hill	-9552
▁Lust	-9553
fanden	-9554
gewebe	-9555
körper	-9556
onomie	-9557
▁Absch	-9558
▁Füßen	-9559
▁Haust	-9560
▁Mäuse	-9561
▁Somit	-9562
▁Welle	-9563
▁Zuhör	-9564
▁schlä	-9565
▁schäd	-9566
▁wirft	-9567
▁zwölf	-9568
lichung	-9569
sonsten	-9570
▁Einmal	-9571
▁Liebes	-9572
▁Lieder	-9573
▁Messer	-9574
▁Schock	-9575
▁Stimmt	-9576
▁Szenar	-9577
▁Tenden	-9578
▁aussah	-9579
▁echter	-9580
▁erfuhr	-9581
▁lenken	-9582
▁region	-9583
▁spiele	-9584
▁stoßen	-9585
▁Äthiop	-9586
andelten	-9587
getragen	-9588
ichteten	-9589
sichtigt	-9590
▁Effekte	-9591
▁Florida	-9592
▁Install	-9593
▁Königin	-9594
▁Studium	-9595
▁beschäd	-9596
▁neulich	-9597
▁private	-9598
▁Benutzer	-9599
▁Fabriken	-9600
▁Tragödie	-9601
▁aufrecht	-9602
▁erledigt	-9603
▁Übergang	-9604
▁Animation	-9605
▁Fernseher	-9606
▁Führungsp	-9607
▁Interpret	-9608
▁Kreislauf	-9609
▁Regenwald	-9610
▁anzugehen	-9611
▁folgender	-9612
▁perfekten	-9613
▁tausenden	-9614
▁Bandbreite	-9615
▁Elektronik	-9616
▁Optimismus	-9617
▁Supermarkt	-9618
▁aufmerksam	-9619
▁chemischen	-9620
▁trainieren	-9621
▁abschließen	-9622
▁irgendeiner	-9623
▁wundervollen	-9624
▁gewissermaßen	-9625
▁interessantes	-9626
▁Untersuchungen	-9627
ati	-9628
eis	-9629
hus	-9630
mph	-9631
obi	-9632
▁33	-9633
Kopf	-9634
aker	-9635
drom	-9636
gner	-9637
mmel	-9638
sens	-9639
wich	-9640
▁Grü	-9641
▁Jes	-9642
▁Kab	-9643
▁LED	-9644
▁Pre	-9645
▁Tän	-9646
▁unf	-9647
achel	-9648
besch	-9649
bogen	-9650
dustr	-9651
ettel	-9652
formt	-9653
geord	-9654
iller	-9655
inson	-9656
spart	-9657
ville	-9658
▁Euro	-9659
▁Hals	-9660
▁Prem	-9661
▁Wale	-9662
▁beur	-9663
▁plus	-9664
iegeln	-9665
ildete	-9666
uchsen	-9667
▁Appar	-9668
▁Genen	-9669
▁Green	-9670
▁Honig	-9671
▁Hyper	-9672
▁Hören	-9673
▁Kluft	-9674
▁Koran	-9675
▁Länge	-9676
▁Nahen	-9677
▁Waren	-9678
▁Woher	-9679
▁endet	-9680
▁kämpf	-9681
▁nukle	-9682
▁reale	-9683
▁synth	-9684
behörde	-9685
fleisch	-9686
ildeten	-9687
tragung	-9688
wirkung	-9689
▁Ameise	-9690
▁Küsten	-9691
▁Phosph	-9692
▁Poster	-9693
▁Spiels	-9694
▁Vagina	-9695
▁akadem	-9696
▁halben	-9697
▁senken	-9698
▁widmen	-9699
▁Ökonom	-9700
tagessen	-9701
zumachen	-9702
▁Balance	-9703
▁Industr	-9704
▁Richter	-9705
▁komisch	-9706
▁verdopp	-9707
▁vermute	-9708
▁zwingen	-9709
wirkungen	-9710
▁Business	-9711
▁Empathie	-9712
▁Frühling	-9713
▁betreten	-9714
▁hundertt	-9715
▁häufiger	-9716
▁inmitten	-9717
▁relevant	-9718
▁verfügen	-9719
▁verlangt	-9720
▁Institute	-9721
▁Manhattan	-9722
▁Strahlung	-9723
▁Störungen	-9724
▁effizient	-9725
▁geschützt	-9726
▁scheitern	-9727
▁transform	-9728
▁täglichen	-9729
Technologie	-9730
▁Betrachten	-9731
▁ansprechen	-9732
▁ausgewählt	-9733
▁einstellen	-9734
▁geschlagen	-9735
▁Gegenstände	-9736
▁Mittelpunkt	-9737
▁Schwerkraft	-9738
▁finanzieren	-9739
▁stattfindet	-9740
▁zweieinhalb	-9741
▁Bewusstseins	-9742
▁Stoffwechsel	-9743
▁entschlossen	-9744
▁optimistisch	-9745
▁Lebensqualität	-9746
▁bemerkenswerte	-9747
',	-9748
cl	-9749
Aus	-9750
ani	-9751
aya	-9752
ima	-9753
ino	-9754
las	-9755
ors	-9756
row	-9757
sex	-9758
uel	-9759
vas	-9760
bell	-9761
iale	-9762
kern	-9763
stoß	-9764
▁17.	-9765
▁Big	-9766
▁Tja	-9767
▁jüd	-9768
flung	-9769
ibiot	-9770
otter	-9771
strom	-9772
▁Farm	-9773
▁Güte	-9774
▁Maße	-9775
▁Rein	-9776
▁herz	-9777
▁kosm	-9778
▁simp	-9779
ierbar	-9780
odelle	-9781
▁Derek	-9782
▁Griff	-9783
▁Kämpf	-9784
▁Laser	-9785
▁Lücke	-9786
▁Straf	-9787
▁liest	-9788
▁linke	-9789
▁mater	-9790
▁tritt	-9791
arakter	-9792
gebäude	-9793
grenzen	-9794
hundert	-9795
pressiv	-9796
setzten	-9797
streben	-9798
▁Brüder	-9799
▁Mandel	-9800
▁Option	-9801
▁Republ	-9802
▁Türkei	-9803
▁herbei	-9804
ensystem	-9805
probleme	-9806
▁Abstand	-9807
▁Genauso	-9808
▁Manager	-9809
▁Schlimm	-9810
▁Urheber	-9811
▁einzeln	-9812
▁erfasst	-9813
▁zugeben	-9814
▁Beschäft	-9815
▁Diplomat	-9816
▁Gewässer	-9817
▁Herkunft	-9818
▁Kontinen	-9819
▁Mischung	-9820
▁Original	-9821
▁Privileg	-9822
▁Skulptur	-9823
▁Vielzahl	-9824
▁aufgeben	-9825
▁bedenken	-9826
▁bedienen	-9827
▁bewerten	-9828
▁herrscht	-9829
▁schaffte	-9830
▁sicherer	-9831
▁unsicher	-9832
▁zugleich	-9833
▁Alzheimer	-9834
▁Großvater	-9835
▁Kreaturen	-9836
▁Schlechte	-9837
▁Vereinten	-9838
▁probieren	-9839
▁vergrößer	-9840
▁westliche	-9841
▁wiederher	-9842
▁Reichweite	-9843
▁Religionen	-9844
▁angesichts	-9845
▁involviert	-9846
▁verdoppelt	-9847
▁Mittagessen	-9848
▁Überzeugung	-9849
▁Verzweiflung	-9850
▁exponentiell	-9851
▁finanziellen	-9852
▁leidenschaft	-9853
▁präsentieren	-9854
Geh	-9855
Ger	-9856
opt	-9857
röh	-9858
ßte	-9859
▁mü	-9860
..."	-9861
able	-9862
achs	-9863
fabr	-9864
icon	-9865
otel	-9866
ähmt	-9867
üben	-9868
▁10,	-9869
▁Aqu	-9870
▁Bay	-9871
▁Clo	-9872
▁Dez	-9873
▁LKW	-9874
▁Mah	-9875
▁Ski	-9876
▁Van	-9877
attet	-9878
dauer	-9879
gsten	-9880
haber	-9881
iffen	-9882
läuft	-9883
ortex	-9884
reter	-9885
ähler	-9886
▁2001	-9887
▁Arzn	-9888
▁Bahn	-9889
▁Hung	-9890
▁Wird	-9891
▁Zehn	-9892
▁bele	-9893
▁lass	-9894
▁wein	-9895
bellen	-9896
eidung	-9897
genden	-9898
handel	-9899
immern	-9900
istent	-9901
lässig	-9902
person	-9903
uchtet	-9904
▁Behör	-9905
▁Conne	-9906
▁Dauer	-9907
▁Dreie	-9908
▁Falle	-9909
▁Möbel	-9910
▁Robot	-9911
▁Taten	-9912
▁Vietn	-9913
▁Wohlt	-9914
▁Zigar	-9915
▁flüss	-9916
▁verne	-9917
enschwe	-9918
imenten	-9919
klichen	-9920
technik	-9921
▁Gehalt	-9922
▁Poesie	-9923
▁Vorles	-9924
▁Winkel	-9925
▁Wüsten	-9926
▁kurzer	-9927
▁primit	-9928
▁sinken	-9929
▁symbol	-9930
▁zusamm	-9931
ierender	-9932
▁Anreize	-9933
▁Betrach	-9934
▁Dopamin	-9935
▁Kolonie	-9936
▁Notwend	-9937
▁Planung	-9938
▁ankommt	-9939
▁beliebt	-9940
▁bewegte	-9941
▁träumen	-9942
▁verhält	-9943
iversität	-9944
▁Handlung	-9945
▁Ignoranz	-9946
▁Norwegen	-9947
▁Vernunft	-9948
▁Vortrags	-9949
▁vielmals	-9950
temperatur	-9951
▁Architekt	-9952
▁Bewegungs	-9953
▁Führungsk	-9954
▁Offenheit	-9955
▁Prozesses	-9956
▁Rollstuhl	-9957
▁berühmten	-9958
▁definitiv	-9959
▁mitteilen	-9960
friedenheit	-9961
▁Herangehen	-9962
▁Management	-9963
▁Schokolade	-9964
▁Wörterbuch	-9965
▁britischen	-9966
▁finanziert	-9967
▁lächerlich	-9968
▁überlassen	-9969
▁Einrichtung	-9970
▁Hindernisse	-9971
▁Institution	-9972
▁Widerspruch	-9973
▁beobachtete	-9974
▁großartiger	-9975
▁Beschreibung	-9976
▁Erkrankungen	-9977
▁Interessante	-9978
▁Verletzungen	-9979
▁fotografiert	-9980
▁individuelle	-9981
▁individuellen	-9982
▁einschließlich	-9983
▁ursprünglichen	-9984
▁fortgeschritten	-9985
ux	-9986
Ber	-9987
beu	-9988
mär	-9989
nel	-9990
osn	-9991
ray	-9992
uge	-9993
▁CE	-9994
Mein	-9995
arzt	-9996
bele	-9997
bole	-9998
ilem	-9999
illa	-10000
itar	-10001
lass	-10002
zenz	-10003
▁10-	-10004
▁Hol	-10005
▁Mai	-10006
▁Sec	-10007
▁Sir	-10008
▁Wün	-10009
▁brä	-10010
agent	-10011
ampen	-10012
board	-10013
erung	-10014
kamen	-10015
onald	-10016
steck	-10017
▁Brit	-10018
▁Dreh	-10019
▁Gore	-10020
▁Mary	-10021
▁Prob	-10022
▁Samm	-10023
▁Sexu	-10024
▁Ther	-10025
▁brei	-10026
▁deta	-10027
▁fett	-10028
▁gekl	-10029
▁tend	-10030
blasen	-10031
kinder	-10032
ladung	-10033
steten	-10034
ustern	-10035
üttern	-10036
▁Bruch	-10037
▁Roman	-10038
▁Weltw	-10039
▁beruf	-10040
▁etabl	-10041
▁präzi	-10042
▁spekt	-10043
artiges	-10044
brachte	-10045
flächen	-10046
iversen	-10047
legenen	-10048
▁Babies	-10049
▁Banken	-10050
▁Blasen	-10051
▁Doppel	-10052
▁Ersatz	-10053
▁Filter	-10054
▁Keiner	-10055
▁Kurzem	-10056
▁Später	-10057
▁Wollen	-10058
▁rennen	-10059
▁Ärzten	-10060
▁Muslime	-10061
▁Platten	-10062
▁Tropfen	-10063
▁bewirkt	-10064
▁detaill	-10065
▁empfind	-10066
▁hierfür	-10067
▁verdien	-10068
▁Demonstr	-10069
▁Dezember	-10070
▁Objekten	-10071
▁Schwefel	-10072
▁Sprecher	-10073
▁andauern	-10074
▁ankommen	-10075
▁spielten	-10076
▁startete	-10077
raditionen	-10078
▁Einzelnen	-10079
▁Tausenden	-10080
▁anstellen	-10081
▁auftreten	-10082
▁berichtet	-10083
▁einnehmen	-10084
▁ermöglich	-10085
▁schickten	-10086
▁speichern	-10087
▁unendlich	-10088
▁ähnliches	-10089
bewusstsein	-10090
▁Leistungen	-10091
▁Umgebungen	-10092
▁englischen	-10093
▁gewöhnlich	-10094
▁Erfindungen	-10095
▁Erforschung	-10096
▁Hilfsmittel	-10097
▁Trinkwasser	-10098
▁beeindrucken	-10099
▁Sterblichkeit	-10100
▁erstaunlichen	-10101
▁Unabhängigkeit	-10102
9.	-10103
Bl	-10104
We	-10105
ya	-10106
▁ä	-10107
Des	-10108
Kön	-10109
Wow	-10110
aby	-10111
krä	-10112
ope	-10113
▁rü	-10114
Null	-10115
alem	-10116
aufe	-10117
hrer	-10118
ocht	-10119
olum	-10120
▁Hey	-10121
▁Joe	-10122
▁Kra	-10123
▁Ult	-10124
▁kat	-10125
Gesch	-10126
aller	-10127
block	-10128
ehrte	-10129
iefer	-10130
ikeln	-10131
kampf	-10132
obile	-10133
otten	-10134
ungsf	-10135
uropa	-10136
▁Budd	-10137
▁Dick	-10138
▁Erle	-10139
▁Fing	-10140
▁Held	-10141
▁Mais	-10142
▁Neun	-10143
▁Vieh	-10144
▁imit	-10145
▁lehr	-10146
graben	-10147
ktoren	-10148
rachen	-10149
reicht	-10150
ymmetr	-10151
▁Kompl	-10152
▁Panik	-10153
▁Rauch	-10154
▁Volks	-10155
▁anerk	-10156
▁befür	-10157
▁behin	-10158
▁illeg	-10159
▁stärk	-10160
▁weich	-10161
▁übers	-10162
enntnis	-10163
gefasst	-10164
laubnis	-10165
▁Ernähr	-10166
▁Howard	-10167
▁Steine	-10168
▁genaue	-10169
schungen	-10170
sorganis	-10171
vielfalt	-10172
▁Motoren	-10173
▁beginne	-10174
▁betonen	-10175
▁beängst	-10176
▁blicken	-10177
▁fortsch	-10178
▁gedreht	-10179
▁inneren	-10180
▁kannten	-10181
▁schwach	-10182
▁wodurch	-10183
katastrop	-10184
schließen	-10185
▁Antibiot	-10186
▁Bedauern	-10187
▁Bescheid	-10188
▁Blutgefä	-10189
▁Gewinner	-10190
▁Hochzeit	-10191
▁Horizont	-10192
▁Rhythmus	-10193
▁geeignet	-10194
▁interakt	-10195
▁steigern	-10196
▁umsetzen	-10197
▁verboten	-10198
▁überwält	-10199
▁Auflösung	-10200
▁Autorität	-10201
▁Dimension	-10202
▁Hypothese	-10203
▁Meinungen	-10204
▁Schichten	-10205
▁ermutigen	-10206
▁genetisch	-10207
▁gewachsen	-10208
▁innovativ	-10209
▁schafften	-10210
▁unvermeid	-10211
▁vorkommen	-10212
riminalität	-10213
▁Auffassung	-10214
▁Emissionen	-10215
▁Königreich	-10216
▁Nachmittag	-10217
▁Simulation	-10218
▁aktivieren	-10219
▁verbrennen	-10220
▁vergrößern	-10221
▁wahrschein	-10222
▁Immunsystem	-10223
▁Vorhersagen	-10224
▁effizienter	-10225
▁experimente	-10226
▁städtischen	-10227
▁Krankenschwe	-10228
▁darzustellen	-10229
▁Aufzeichnungen	-10230
▁Entschuldigung	-10231
▁Offensichtlich	-10232
▁eingeschlossen	-10233
▁sicherzustellen	-10234
Ch	-10235
NA	-10236
aj	-10237
do	-10238
yt	-10239
okl	-10240
pal	-10241
tzu	-10242
une	-10243
wol	-10244
▁3,	-10245
Test	-10246
belt	-10247
film	-10248
imon	-10249
istr	-10250
kind	-10251
odie	-10252
üten	-10253
▁1,5	-10254
▁Bör	-10255
▁Cap	-10256
▁Dok	-10257
▁Göt	-10258
▁max	-10259
▁met	-10260
▁str	-10261
allel	-10262
apier	-10263
klang	-10264
loser	-10265
ropie	-10266
stock	-10267
▁Agen	-10268
▁Foss	-10269
▁Jose	-10270
▁Papa	-10271
▁Prof	-10272
▁Reis	-10273
▁euer	-10274
▁iPod	-10275
▁klug	-10276
▁phil	-10277
▁wozu	-10278
aneben	-10279
aufbau	-10280
besitz	-10281
firmen	-10282
ilität	-10283
lösung	-10284
ranten	-10285
sektor	-10286
uelles	-10287
ussten	-10288
weiten	-10289
▁Blogs	-10290
▁Bären	-10291
▁Exped	-10292
▁Leder	-10293
▁Media	-10294
▁Smart	-10295
▁Story	-10296
▁draht	-10297
▁flach	-10298
▁ständ	-10299
▁teure	-10300
okraten	-10301
spruchs	-10302
theorie	-10303
▁Akadem	-10304
▁Anreiz	-10305
▁TEDTal	-10306
▁Virgin	-10307
▁brauch	-10308
▁drüber	-10309
▁erfand	-10310
▁großem	-10311
▁legten	-10312
gefangen	-10313
sprecher	-10314
ulierung	-10315
wechseln	-10316
▁Antarkt	-10317
▁Anthrop	-10318
▁Einkauf	-10319
▁Könnten	-10320
▁Phantom	-10321
▁Rechner	-10322
▁Umfrage	-10323
▁blieben	-10324
▁gerecht	-10325
▁glamour	-10326
▁schlägt	-10327
▁würdest	-10328
arenergie	-10329
maschinen	-10330
▁Flaschen	-10331
▁basieren	-10332
▁eröffnen	-10333
▁nochmals	-10334
▁soziales	-10335
▁verdammt	-10336
▁Feuerwehr	-10337
▁Fischerei	-10338
▁Impfstoff	-10339
▁Standards	-10340
▁gewaltige	-10341
▁spektakul	-10342
▁verkaufte	-10343
▁virtuelle	-10344
▁bewältigen	-10345
▁klassische	-10346
▁verurteilt	-10347
▁überqueren	-10348
▁überwachen	-10349
▁Reihenfolge	-10350
▁ausreichend	-10351
▁verzweifelt	-10352
▁Angestellten	-10353
▁Diskussionen	-10354
▁Unsicherheit	-10355
▁beizubringen	-10356
▁industrielle	-10357
▁unterrichtet	-10358
issenschaftler	-10359
▁entscheidende	-10360
/&	-10361
Ab	-10362
lem	-10363
rah	-10364
sey	-10365
wäl	-10366
▁55	-10367
▁EU	-10368
▁fä	-10369
agos	-10370
ahme	-10371
arma	-10372
ehle	-10373
eide	-10374
erry	-10375
ffin	-10376
flos	-10377
gase	-10378
oole	-10379
pern	-10380
rien	-10381
zirk	-10382
älen	-10383
▁18.	-10384
▁Hub	-10385
▁Kub	-10386
▁Neg	-10387
▁Rio	-10388
▁Tax	-10389
▁Tut	-10390
▁bzw	-10391
▁eur	-10392
▁gol	-10393
▁zun	-10394
agert	-10395
ehnte	-10396
figur	-10397
gehör	-10398
▁Farb	-10399
▁Flut	-10400
▁Käse	-10401
▁Lass	-10402
▁Lego	-10403
▁Mont	-10404
▁Poly	-10405
▁Qual	-10406
▁Song	-10407
▁Stap	-10408
▁Tank	-10409
kräfte	-10410
leiden	-10411
rucken	-10412
▁Extra	-10413
▁Kopie	-10414
▁Liber	-10415
▁Luxus	-10416
▁Paras	-10417
▁Proto	-10418
▁Sturm	-10419
▁Wende	-10420
▁freue	-10421
▁meint	-10422
▁tötet	-10423
führten	-10424
ulation	-10425
▁August	-10426
▁Buches	-10427
▁Kreise	-10428
▁Methan	-10429
▁Wirbel	-10430
▁prüfen	-10431
▁tiefen	-10432
computer	-10433
▁Laptops	-10434
▁Niederl	-10435
▁Taliban	-10436
▁Tendenz	-10437
▁Töchter	-10438
▁Urknall	-10439
▁Vietnam	-10440
▁Zweiten	-10441
▁ausländ	-10442
▁bezieht	-10443
▁wüssten	-10444
▁züchten	-10445
bereitung	-10446
istischer	-10447
▁Anhänger	-10448
▁Friedens	-10449
▁Spannung	-10450
▁draussen	-10451
▁erwähnte	-10452
▁gebunden	-10453
▁geringer	-10454
▁Chirurgen	-10455
▁Orchester	-10456
▁Produkten	-10457
▁Unterhalt	-10458
▁keinerlei	-10459
▁komplette	-10460
▁studierte	-10461
▁umgekehrt	-10462
▁wiederver	-10463
▁Brennstoff	-10464
▁Stabilität	-10465
▁anzunehmen	-10466
▁biologisch	-10467
▁schlechtes	-10468
▁Beobachtung	-10469
▁Restaurants	-10470
▁aufzunehmen	-10471
▁eingestellt	-10472
▁großartiges	-10473
▁Konstruktion	-10474
▁Solarenergie	-10475
▁eigentlichen	-10476
▁Notwendigkeit	-10477
▁Wohltätigkeit	-10478
▁beschleunigen	-10479
▁Bildungssystem	-10480
▁Kommunikations	-10481
▁Menschenrechte	-10482
▁transportieren	-10483
abb	-10484
aot	-10485
das	-10486
geh	-10487
kür	-10488
äle	-10489
▁MT	-10490
▁RB	-10491
appe	-10492
dene	-10493
fiel	-10494
flex	-10495
gels	-10496
ihad	-10497
kins	-10498
osis	-10499
rein	-10500
zell	-10501
▁FBI	-10502
▁Fer	-10503
▁Mod	-10504
▁kal	-10505
burgh	-10506
ehlen	-10507
hielt	-10508
hinge	-10509
ision	-10510
liste	-10511
otern	-10512
ource	-10513
rägen	-10514
zeige	-10515
▁Chip	-10516
▁Halb	-10517
▁Matt	-10518
▁Tsun	-10519
▁fröh	-10520
▁wach	-10521
Untern	-10522
altete	-10523
attung	-10524
averei	-10525
bereit	-10526
echnet	-10527
führte	-10528
voller	-10529
▁Count	-10530
▁Werbe	-10531
▁besie	-10532
▁breit	-10533
▁chaot	-10534
▁geprä	-10535
▁redet	-10536
▁verbr	-10537
▁zivil	-10538
schwing	-10539
▁Bergen	-10540
▁Besser	-10541
▁Frucht	-10542
▁Insekt	-10543
▁Jedoch	-10544
▁Nächst	-10545
▁Sowjet	-10546
▁falten	-10547
▁jahrel	-10548
▁wüsste	-10549
▁zutief	-10550
bereiten	-10551
stheorie	-10552
änderung	-10553
▁Brücken	-10554
▁Connect	-10555
▁Kleider	-10556
▁Sendung	-10557
▁Teppich	-10558
▁gelingt	-10559
▁radikal	-10560
▁regener	-10561
ungsweise	-10562
▁Fettleib	-10563
▁Getreide	-10564
▁Kalorien	-10565
▁Neandert	-10566
▁Substanz	-10567
▁erstaunt	-10568
▁intensiv	-10569
▁streiten	-10570
▁Explosion	-10571
▁aufstehen	-10572
▁auswählen	-10573
▁berechnet	-10574
▁erweitert	-10575
▁niemandem	-10576
▁Berechnung	-10577
▁Einkommens	-10578
▁Individuum	-10579
▁Verpflicht	-10580
▁akzeptiert	-10581
▁anzuwenden	-10582
▁effektiver	-10583
▁zueinander	-10584
▁Algorithmus	-10585
▁Geheimnisse	-10586
▁Verbraucher	-10587
▁Klimawandels	-10588
▁vergewaltigt	-10589
▁Arbeitsplätze	-10590
▁fantastischen	-10591
▁landwirtschaft	-10592
▁repräsentieren	-10593
-1	-10594
4.	-10595
Kl	-10596
RT	-10597
],	-10598
häu	-10599
ini	-10600
ith	-10601
val	-10602
ßig	-10603
öch	-10604
▁4,	-10605
face	-10606
ftig	-10607
hett	-10608
prim	-10609
reng	-10610
▁Lou	-10611
▁Ted	-10612
elson	-10613
flüss	-10614
ieber	-10615
iffer	-10616
lings	-10617
ophen	-10618
probe	-10619
ummer	-10620
äuber	-10621
▁Cous	-10622
▁Dikt	-10623
▁Fert	-10624
▁Josh	-10625
▁Lein	-10626
▁Real	-10627
▁Yeah	-10628
▁lese	-10629
bergen	-10630
brüche	-10631
ersage	-10632
izität	-10633
runken	-10634
senden	-10635
terten	-10636
▁Atome	-10637
▁Endes	-10638
▁Pilot	-10639
▁chron	-10640
▁coole	-10641
▁warst	-10642
▁wiegt	-10643
passung	-10644
stimmen	-10645
ungslos	-10646
▁Felder	-10647
▁Gerüst	-10648
▁Glaube	-10649
▁Hacker	-10650
▁Mittag	-10651
▁Patent	-10652
▁Solche	-10653
▁Wortes	-10654
▁assozi	-10655
▁gelben	-10656
▁kontin	-10657
▁lauter	-10658
▁sendet	-10659
▁vollen	-10660
▁weinen	-10661
gebnisse	-10662
izierten	-10663
undation	-10664
▁Heilung	-10665
▁Indiens	-10666
▁Rettung	-10667
▁Symbole	-10668
▁Unglück	-10669
▁Vertrag	-10670
▁Vorbild	-10671
▁Wohnung	-10672
▁brennen	-10673
▁fressen	-10674
▁gefolgt	-10675
▁korrekt	-10676
▁schmutz	-10677
▁sequenz	-10678
▁unschul	-10679
▁versagt	-10680
otherapie	-10681
sichtigen	-10682
ventionen	-10683
▁Freizeit	-10684
▁Lehrerin	-10685
▁Primaten	-10686
▁angewand	-10687
▁geleitet	-10688
▁gleicher	-10689
▁globaler	-10690
▁normales	-10691
▁zutiefst	-10692
▁Datenbank	-10693
▁Karikatur	-10694
▁aktiviert	-10695
▁getrieben	-10696
▁jedermann	-10697
▁kleineren	-10698
▁männliche	-10699
▁religiöse	-10700
▁verpflich	-10701
▁Großeltern	-10702
▁Grundlagen	-10703
▁Initiative	-10704
▁Investoren	-10705
▁Stickstoff	-10706
▁Zentimeter	-10707
▁Anweisungen	-10708
▁Durchmesser	-10709
▁Wichtigkeit	-10710
▁durchlaufen	-10711
▁intelligent	-10712
▁tiefgreifen	-10713
▁verheiratet	-10714
verschmutzung	-10715
▁einzigartige	-10716
▁europäischen	-10717
▁gemeinschaft	-10718
▁Interaktionen	-10719
▁Interessanter	-10720
7,	-10721
9,	-10722
ams	-10723
ect	-10724
erz	-10725
gei	-10726
med	-10727
▁tr	-10728
ahen	-10729
coln	-10730
meld	-10731
paar	-10732
stär	-10733
▁Soc	-10734
▁Vit	-10735
▁biz	-10736
▁sau	-10737
anner	-10738
itäre	-10739
laubt	-10740
llten	-10741
onanz	-10742
riech	-10743
sters	-10744
öhnen	-10745
▁Böse	-10746
▁Dete	-10747
▁Geom	-10748
▁Jazz	-10749
▁Juli	-10750
▁Pilz	-10751
▁Wall	-10752
▁Weiß	-10753
▁line	-10754
▁pein	-10755
▁russ	-10756
▁warm	-10757
▁wild	-10758
hafter	-10759
ivität	-10760
legten	-10761
plätze	-10762
regend	-10763
reißen	-10764
▁Andre	-10765
▁Black	-10766
▁Höhen	-10767
▁Jesus	-10768
▁Leser	-10769
▁Pläne	-10770
▁Rhyth	-10771
▁Seife	-10772
▁Slums	-10773
▁State	-10774
▁Tiger	-10775
▁Väter	-10776
▁Zwill	-10777
▁jagen	-10778
▁konst	-10779
▁lügen	-10780
▁sicht	-10781
▁unaus	-10782
anische	-10783
eilchen	-10784
oleranz	-10785
ometern	-10786
rategie	-10787
schrank	-10788
zentren	-10789
▁Albert	-10790
▁Allein	-10791
▁Bereit	-10792
▁Fasern	-10793
▁Paläst	-10794
▁Sinnes	-10795
▁bricht	-10796
▁gelegt	-10797
▁mittel	-10798
eimittel	-10799
ferenzen	-10800
freiheit	-10801
ifiziert	-10802
schafter	-10803
zutreten	-10804
▁Drohnen	-10805
▁Glamour	-10806
▁Konserv	-10807
▁Streben	-10808
▁drinnen	-10809
▁fürchte	-10810
▁gesucht	-10811
▁großzüg	-10812
▁strateg	-10813
▁versich	-10814
▁öffnete	-10815
aufnahmen	-10816
gegenwärt	-10817
ifizieren	-10818
▁Analogie	-10819
▁Anliegen	-10820
▁Besitzer	-10821
▁Entropie	-10822
▁Nächstes	-10823
▁Personal	-10824
▁Phosphor	-10825
▁Sprechen	-10826
▁Ungefähr	-10827
▁bewiesen	-10828
▁dringend	-10829
▁mithilfe	-10830
▁schlicht	-10831
▁typische	-10832
▁wahnsinn	-10833
▁Erlaubnis	-10834
▁Selektion	-10835
▁Verlangen	-10836
▁angeboten	-10837
▁eingebaut	-10838
▁schneiden	-10839
▁trainiert	-10840
▁Dankeschön	-10841
▁Foundation	-10842
▁Kommentare	-10843
▁beteiligen	-10844
▁glückliche	-10845
▁jedenfalls	-10846
▁sorgfältig	-10847
▁Schizophren	-10848
▁beantwortet	-10849
▁eingeschrän	-10850
▁fokussieren	-10851
▁konsumieren	-10852
▁Erkenntnisse	-10853
▁Schlagzeilen	-10854
▁Studierenden	-10855
▁Größenordnung	-10856
▁Programmierer	-10857
▁mathematische	-10858
▁schrecklichen	-10859
▁tatsächlichen	-10860
▁Fettleibigkeit	-10861
8,	-10862
BM	-10863
Up	-10864
Fre	-10865
ilz	-10866
ora	-10867
ros	-10868
sal	-10869
yle	-10870
ärt	-10871
▁Dü	-10872
▁Sw	-10873
▁pu	-10874
Naja	-10875
fügt	-10876
herz	-10877
king	-10878
lles	-10879
rand	-10880
▁Arg	-10881
▁Cel	-10882
▁Ray	-10883
▁Squ	-10884
▁füt	-10885
▁hey	-10886
▁kle	-10887
▁maß	-10888
▁spr	-10889
▁Äqu	-10890
agten	-10891
derte	-10892
diger	-10893
ekten	-10894
günst	-10895
ickte	-10896
iland	-10897
ließt	-10898
oskop	-10899
oster	-10900
right	-10901
spezi	-10902
▁Gumm	-10903
▁Hipp	-10904
▁Long	-10905
▁klop	-10906
▁räum	-10907
ission	-10908
schuss	-10909
treten	-10910
üsseln	-10911
▁2.000	-10912
▁Brand	-10913
▁Hafen	-10914
▁Lügen	-10915
▁Rande	-10916
▁Ratte	-10917
▁Sonnt	-10918
▁leise	-10919
▁umgew	-10920
▁verfl	-10921
anthrop	-10922
blicken	-10923
gezogen	-10924
kriegen	-10925
leitung	-10926
osophen	-10927
▁Anlage	-10928
▁Beutel	-10929
▁Dörfer	-10930
▁Garage	-10931
▁Impuls	-10932
▁Kochen	-10933
▁Kortex	-10934
▁Nelson	-10935
▁Obdach	-10936
▁Seiden	-10937
▁Vaters	-10938
▁Weißen	-10939
▁Wurzel	-10940
▁befand	-10941
▁denkst	-10942
▁fassen	-10943
▁geheim	-10944
▁stimul	-10945
gespräch	-10946
schnitte	-10947
zuhalten	-10948
▁Behaupt	-10949
▁Chromos	-10950
▁Dichter	-10951
▁Gelände	-10952
▁Konvers	-10953
▁Premier	-10954
▁Sklaven	-10955
▁Unglaub	-10956
▁Verrück	-10957
▁direkte	-10958
▁minimal	-10959
▁problem	-10960
▁wandern	-10961
▁Dschihad	-10962
▁Gesetzen	-10963
▁besserer	-10964
▁getragen	-10965
▁riesiger	-10966
▁schuldig	-10967
▁verraten	-10968
▁woanders	-10969
▁Kommentar	-10970
▁Schätzung	-10971
▁Sklaverei	-10972
▁herstellt	-10973
▁interview	-10974
▁kognitive	-10975
▁technisch	-10976
▁Kunststoff	-10977
▁Nährstoffe	-10978
▁beschränkt	-10979
▁durchgehen	-10980
▁gewaltigen	-10981
▁kombiniert	-10982
▁Psychologen	-10983
▁Traditionen	-10984
▁Nervensystem	-10985
▁beschleunigt	-10986
▁außerordentlich	-10987
3.	-10988
5.	-10989
▁0	-10990
gst	-10991
low	-10992
rät	-10993
uts	-10994
▁37	-10995
▁7.	-10996
▁hä	-10997
▁ue	-10998
▁üb	-10999
Komm	-11000
ahll	-11001
ckel	-11002
eilt	-11003
empf	-11004
idee	-11005
ideo	-11006
izza	-11007
kömm	-11008
sätz	-11009
uckt	-11010
zung	-11011
ören	-11012
▁Alb	-11013
▁Zun	-11014
▁süß	-11015
aucht	-11016
blatt	-11017
raham	-11018
welle	-11019
▁2050	-11020
▁Ford	-11021
▁Tast	-11022
▁serv	-11023
▁spaz	-11024
achtel	-11025
barung	-11026
becken	-11027
dachte	-11028
endete	-11029
haftes	-11030
iction	-11031
strahl	-11032
ündung	-11033
▁Bombe	-11034
▁Freit	-11035
▁Güter	-11036
▁Shang	-11037
▁Türen	-11038
▁Wolke	-11039
▁loszu	-11040
▁traur	-11041
abdruck	-11042
imieren	-11043
iologie	-11044
ografen	-11045
wohnern	-11046
▁Anwalt	-11047
▁Kritik	-11048
▁Pandem	-11049
▁Profit	-11050
▁Rakete	-11051
▁Rennen	-11052
▁Schach	-11053
▁Tempel	-11054
▁Treppe	-11055
▁Weizen	-11056
▁abgest	-11057
▁auszur	-11058
▁binden	-11059
▁flogen	-11060
▁halfen	-11061
▁merkte	-11062
forscher	-11063
leuchten	-11064
orischen	-11065
probiert	-11066
▁Gestalt	-11067
▁Johnson	-11068
▁Koordin	-11069
▁Lincoln	-11070
▁Meisten	-11071
▁Silicon	-11072
▁Spanien	-11073
▁Stammes	-11074
▁Strecke	-11075
▁Tiefsee	-11076
▁Ursprün	-11077
▁abhängt	-11078
▁allerer	-11079
▁archite	-11080
▁automat	-11081
▁daneben	-11082
▁leichte	-11083
▁spontan	-11084
▁umfasst	-11085
▁zuletzt	-11086
▁Aussehen	-11087
▁Direktor	-11088
▁Robotern	-11089
▁erlaubte	-11090
▁mächtige	-11091
▁neuesten	-11092
riminellen	-11093
verstanden	-11094
▁Computers	-11095
▁Erzählung	-11096
▁Schweigen	-11097
▁Veröffent	-11098
▁bedeutsam	-11099
▁einfallen	-11100
▁gestohlen	-11101
▁rückwärts	-11102
▁schwarzes	-11103
▁typischen	-11104
▁zentralen	-11105
▁Konkurrenz	-11106
▁Säugetiere	-11107
▁Werkzeugen	-11108
▁bescheiden	-11109
▁verrückten	-11110
organisation	-11111
▁Atomenergie	-11112
▁Versprechen	-11113
▁emotionalen	-11114
▁mitgebracht	-11115
▁staatlichen	-11116
▁verblüffend	-11117
▁verbreitete	-11118
▁verwendeten	-11119
▁Freiwilligen	-11120
▁ausprobieren	-11121
▁erfolgreiche	-11122
▁persönlicher	-11123
▁tatsächliche	-11124
▁wahrgenommen	-11125
▁Angelegenheit	-11126
▁elektronische	-11127
CA	-11128
CH	-11129
wa	-11130
Syn	-11131
krö	-11132
neu	-11133
sol	-11134
ött	-11135
▁ED	-11136
▁II	-11137
▁sc	-11138
Also	-11139
Zeit	-11140
ania	-11141
delt	-11142
kurs	-11143
onds	-11144
quot	-11145
seel	-11146
ustr	-11147
▁Att	-11148
▁Kün	-11149
▁Law	-11150
▁Lok	-11151
▁Pla	-11152
▁hor	-11153
agnet	-11154
armen	-11155
eiert	-11156
ierst	-11157
izenz	-11158
ohnen	-11159
ometr	-11160
opter	-11161
organ	-11162
pfern	-11163
riebe	-11164
rüsen	-11165
ugend	-11166
usste	-11167
▁Benj	-11168
▁Clin	-11169
▁Delf	-11170
▁Eric	-11171
▁Funk	-11172
▁Hell	-11173
▁Mühe	-11174
▁Nick	-11175
▁Prog	-11176
▁Sech	-11177
▁Sich	-11178
▁böse	-11179
▁ewig	-11180
▁warf	-11181
Modell	-11182
bricht	-11183
iftung	-11184
männer	-11185
ragend	-11186
ächter	-11187
▁3.000	-11188
▁Baumk	-11189
▁Brian	-11190
▁Erwei	-11191
▁Inder	-11192
▁Minen	-11193
▁Power	-11194
▁Schad	-11195
▁greif	-11196
▁jenes	-11197
▁klare	-11198
▁lehrt	-11199
▁lokal	-11200
▁teilt	-11201
▁wette	-11202
▁überl	-11203
kreisen	-11204
ühungen	-11205
▁Briefe	-11206
▁Filmem	-11207
▁Lichts	-11208
▁Pferde	-11209
▁Raumes	-11210
▁Wander	-11211
▁freuen	-11212
▁geschl	-11213
▁grauen	-11214
▁landet	-11215
▁objekt	-11216
▁person	-11217
▁spirit	-11218
atienten	-11219
basierte	-11220
euchtung	-11221
faktoren	-11222
gebildet	-11223
gesteuer	-11224
ographic	-11225
springen	-11226
▁Anderen	-11227
▁Branche	-11228
▁Einzige	-11229
▁Insulin	-11230
▁Kollege	-11231
▁Märkten	-11232
▁Schreib	-11233
▁aggress	-11234
▁verteid	-11235
▁wartete	-11236
▁zuhause	-11237
ungskette	-11238
▁Arbeitsk	-11239
▁Beobacht	-11240
▁Drittens	-11241
▁Frequenz	-11242
▁Kolonien	-11243
▁Rauschen	-11244
▁fürchten	-11245
▁größeres	-11246
▁indische	-11247
▁pflanzen	-11248
▁Alexander	-11249
▁Bakterium	-11250
▁Besonders	-11251
▁Gemeinsam	-11252
▁Irgendwie	-11253
▁Schlangen	-11254
▁Verbrauch	-11255
▁Vergewalt	-11256
▁angewandt	-11257
▁anspruchs	-11258
▁benötigte	-11259
▁einführen	-11260
▁empfangen	-11261
▁kleinsten	-11262
▁kritische	-11263
▁verknüpft	-11264
▁verletzen	-11265
▁vertreten	-11266
▁wichtiges	-11267
▁Äthiopien	-11268
übergreifen	-11269
▁Durchbruch	-11270
▁Fotografie	-11271
▁Interviews	-11272
▁Kandidaten	-11273
▁Polizisten	-11274
▁Rückenmark	-11275
▁Wohnzimmer	-11276
▁aufregende	-11277
▁einbringen	-11278
▁konvention	-11279
▁motivieren	-11280
▁restlichen	-11281
▁verdoppeln	-11282
▁beherrschen	-11283
▁natürlicher	-11284
▁ausgestorben	-11285
▁entsprechend	-11286
▁Interessantes	-11287
▁Interpretation	-11288
▁technologische	-11289
▁Einschränkungen	-11290
.'	-11291
8.	-11292
DA	-11293
De	-11294
IS	-11295
bä	-11296
sw	-11297
Fil	-11298
Ihr	-11299
Mit	-11300
Rob	-11301
ets	-11302
ink	-11303
kod	-11304
mte	-11305
ova	-11306
pul	-11307
rif	-11308
ror	-11309
zel	-11310
änz	-11311
▁DV	-11312
▁JH	-11313
▁No	-11314
▁Sn	-11315
aner	-11316
hlst	-11317
iser	-11318
komm	-11319
kund	-11320
leid	-11321
ruhe	-11322
uert	-11323
zone	-11324
▁Amy	-11325
▁Ert	-11326
▁Tar	-11327
▁flu	-11328
▁hom	-11329
asten	-11330
genda	-11331
ostet	-11332
stamm	-11333
wechs	-11334
öpfen	-11335
öscht	-11336
▁Arkt	-11337
▁Bell	-11338
▁Enzy	-11339
▁Feyn	-11340
▁Hang	-11341
▁Hass	-11342
▁Leit	-11343
▁Leon	-11344
▁News	-11345
▁Pest	-11346
▁Raub	-11347
▁Sper	-11348
▁allm	-11349
▁farb	-11350
▁verp	-11351
achter	-11352
cherch	-11353
derten	-11354
gender	-11355
ilemma	-11356
itären	-11357
kunden	-11358
setzte	-11359
ündete	-11360
▁Algen	-11361
▁Arist	-11362
▁Blind	-11363
▁Detro	-11364
▁Ernte	-11365
▁Ethik	-11366
▁Korea	-11367
▁Miner	-11368
▁Pizza	-11369
▁Stolz	-11370
▁Zehen	-11371
▁baten	-11372
▁gehst	-11373
▁gesen	-11374
▁kraft	-11375
▁sorgt	-11376
▁Ärger	-11377
ristall	-11378
örungen	-11379
▁Fangen	-11380
▁Flagge	-11381
▁Formel	-11382
▁Hektar	-11383
▁Schein	-11384
▁Second	-11385
▁Stufen	-11386
▁Termin	-11387
▁Vermut	-11388
▁Weisen	-11389
▁bringe	-11390
▁deprim	-11391
▁folgte	-11392
geworfen	-11393
heimlich	-11394
ibilität	-11395
▁Konzert	-11396
▁Unfälle	-11397
▁Wörtern	-11398
▁Zivilis	-11399
▁anschau	-11400
▁geplant	-11401
▁geringe	-11402
▁lächeln	-11403
▁präzise	-11404
▁willkür	-11405
strahlung	-11406
▁Hardware	-11407
▁Projekts	-11408
▁anderswo	-11409
▁durchaus	-11410
▁entschul	-11411
▁fossilen	-11412
▁hingegen	-11413
▁schenken	-11414
▁schweren	-11415
▁universe	-11416
▁versorgt	-11417
▁Absichten	-11418
▁Angesicht	-11419
▁Kapazität	-11420
▁aufhalten	-11421
▁beschrieb	-11422
▁betrachte	-11423
▁erkannten	-11424
▁hinterher	-11425
▁klinische	-11426
▁leistungs	-11427
▁moralisch	-11428
▁motiviert	-11429
▁zustimmen	-11430
▁Elektroden	-11431
▁Erkrankung	-11432
▁menschlich	-11433
▁übernommen	-11434
▁Bestandteil	-11435
▁Bürgerkrieg	-11436
▁architekton	-11437
▁finanzielle	-11438
▁gefährliche	-11439
▁kollektiven	-11440
▁politischer	-11441
▁vorschlagen	-11442
▁Landschaften	-11443
▁programmiert	-11444
▁Schizophrenie	-11445
▁einzigartigen	-11446
▁transportiert	-11447
▁Transformation	-11448
▁interpretieren	-11449
▁zusammenfassen	-11450
.:	-11451
Qu	-11452
Met	-11453
aks	-11454
bem	-11455
mil	-11456
äge	-11457
▁46	-11458
▁Fi	-11459
▁Hä	-11460
▁LG	-11461
▁SO	-11462
▁SW	-11463
▁Wi	-11464
▁Yo	-11465
Netz	-11466
aste	-11467
atar	-11468
bran	-11469
code	-11470
hern	-11471
izit	-11472
onym	-11473
trän	-11474
▁350	-11475
▁Amb	-11476
▁Ego	-11477
▁Jur	-11478
▁Kos	-11479
▁Kri	-11480
▁McD	-11481
▁Mer	-11482
▁Mur	-11483
▁Sav	-11484
▁Som	-11485
▁Sud	-11486
▁ann	-11487
▁med	-11488
ansas	-11489
arden	-11490
arent	-11491
digte	-11492
ester	-11493
ichts	-11494
irurg	-11495
oresz	-11496
zahlt	-11497
ärten	-11498
ühren	-11499
▁2011	-11500
▁Bern	-11501
▁Cola	-11502
▁Grös	-11503
▁Kühe	-11504
▁März	-11505
▁Nano	-11506
▁Rick	-11507
▁Töne	-11508
▁Vent	-11509
▁Zelt	-11510
▁hebt	-11511
▁prim	-11512
▁stol	-11513
atives	-11514
füllen	-11515
indern	-11516
presse	-11517
steigt	-11518
ördert	-11519
▁Berat	-11520
▁Bogen	-11521
▁Fried	-11522
▁Geben	-11523
▁Lange	-11524
▁Moder	-11525
▁Motto	-11526
▁Tafel	-11527
▁drast	-11528
▁exter	-11529
▁formt	-11530
▁gestr	-11531
▁missb	-11532
▁solle	-11533
Problem	-11534
ampagne	-11535
atschen	-11536
berecht	-11537
itution	-11538
viertel	-11539
▁Berlin	-11540
▁Beteil	-11541
▁Brookl	-11542
▁County	-11543
▁Erklär	-11544
▁Feucht	-11545
▁Genome	-11546
▁Küchen	-11547
▁Räumen	-11548
▁Urlaub	-11549
▁abends	-11550
▁absolu	-11551
▁graben	-11552
▁riecht	-11553
▁schmal	-11554
altungen	-11555
behalten	-11556
schlägen	-11557
▁Abraham	-11558
▁Antrieb	-11559
▁Anwälte	-11560
▁Distanz	-11561
▁Haltung	-11562
▁Irgendw	-11563
▁Sterben	-11564
▁anhören	-11565
▁bislang	-11566
▁entsetz	-11567
▁geformt	-11568
▁gemeint	-11569
▁gewohnt	-11570
▁hierbei	-11571
▁logisch	-11572
▁massive	-11573
▁schufen	-11574
▁vierten	-11575
Industrie	-11576
irtschaft	-11577
▁Eigentum	-11578
▁Merkmale	-11579
▁Parteien	-11580
▁Schalter	-11581
▁Shanghai	-11582
▁anfingen	-11583
▁anziehen	-11584
▁erstmals	-11585
▁geglaubt	-11586
▁gesunken	-11587
▁jegliche	-11588
▁national	-11589
▁rational	-11590
▁recherch	-11591
▁Berührung	-11592
▁Rückseite	-11593
▁Schwellen	-11594
▁Zeichnung	-11595
▁begleitet	-11596
▁britische	-11597
▁erreichte	-11598
▁führenden	-11599
▁negativen	-11600
▁verborgen	-11601
▁verleihen	-11602
▁wiederhol	-11603
▁wohlhaben	-11604
formationen	-11605
▁Ausschnitt	-11606
▁Verwandten	-11607
▁existierte	-11608
▁festhalten	-11609
▁integriert	-11610
▁klinischen	-11611
▁männlichen	-11612
▁willkommen	-11613
▁Ökosysteme	-11614
▁Antibiotika	-11615
▁Naturschutz	-11616
▁aufgestellt	-11617
▁ausprobiert	-11618
▁beeindruckt	-11619
▁gewöhnliche	-11620
▁schmerzhaft	-11621
▁umgewandelt	-11622
▁unabhängige	-11623
▁Andererseits	-11624
▁Experimenten	-11625
▁Hausaufgaben	-11626
▁allgegenwärt	-11627
▁historischen	-11628
▁Entwicklungen	-11629
▁durcheinander	-11630
▁faszinierende	-11631
▁festzustellen	-11632
▁fotografieren	-11633
▁industriellen	-11634
▁intelligenten	-11635
▁verwirklichen	-11636
▁Premierminister	-11637
4,	-11638
Me	-11639
ibr	-11640
not	-11641
que	-11642
▁42	-11643
▁NG	-11644
▁Ti	-11645
'000	-11646
AIDS	-11647
lers	-11648
opäd	-11649
orea	-11650
rief	-11651
rümm	-11652
tech	-11653
wege	-11654
▁Dür	-11655
▁fix	-11656
ialen	-11657
minen	-11658
onach	-11659
steri	-11660
union	-11661
uther	-11662
äusen	-11663
▁Gall	-11664
▁Gefä	-11665
▁Hilf	-11666
▁Hong	-11667
▁Kalk	-11668
▁Pack	-11669
▁Panz	-11670
▁Strö	-11671
▁Tony	-11672
▁brut	-11673
▁fuer	-11674
▁hing	-11675
▁isst	-11676
▁kart	-11677
▁sech	-11678
▁skal	-11679
alente	-11680
rechts	-11681
renzen	-11682
schrau	-11683
sslich	-11684
▁Amate	-11685
▁Brown	-11686
▁Earth	-11687
▁Henry	-11688
▁South	-11689
▁Sucht	-11690
▁Warte	-11691
▁Wohin	-11692
▁einig	-11693
▁eurem	-11694
▁gefil	-11695
▁müsst	-11696
▁recyc	-11697
büchern	-11698
fahrung	-11699
schafts	-11700
▁Balken	-11701
▁Frosch	-11702
▁Gandhi	-11703
▁Matrix	-11704
▁Meiner	-11705
▁Monter	-11706
▁Newton	-11707
▁Plätze	-11708
▁Portra	-11709
▁ausgel	-11710
▁befrie	-11711
▁halbes	-11712
▁riesig	-11713
▁wohnen	-11714
lichsten	-11715
olumines	-11716
periment	-11717
standard	-11718
ventuell	-11719
ästhesie	-11720
▁Cricket	-11721
▁Feynman	-11722
▁Körpern	-11723
▁Mandela	-11724
▁Meeting	-11725
▁Prostat	-11726
▁Rituale	-11727
▁Robotik	-11728
▁gelähmt	-11729
▁kontinu	-11730
▁sammelt	-11731
▁stehlen	-11732
▁steuert	-11733
▁verdeut	-11734
▁verwirr	-11735
▁weitaus	-11736
gebrochen	-11737
kontrolle	-11738
leitungen	-11739
sprechend	-11740
▁Abwasser	-11741
▁Annahmen	-11742
▁Atlantik	-11743
▁Behörden	-11744
▁Glaubens	-11745
▁Haushalt	-11746
▁Strassen	-11747
▁Wahnsinn	-11748
▁aufwuchs	-11749
▁drittens	-11750
▁geflogen	-11751
▁gelaufen	-11752
▁liebsten	-11753
▁physisch	-11754
▁sicheren	-11755
▁vermuten	-11756
▁Antarktis	-11757
▁Automobil	-11758
▁Geometrie	-11759
▁Kategorie	-11760
▁Probanden	-11761
▁Wohnungen	-11762
▁ansonsten	-11763
▁bestätigt	-11764
▁erschafft	-11765
▁gestiegen	-11766
▁jederzeit	-11767
▁möglichst	-11768
▁umgesetzt	-11769
▁wachsende	-11770
▁zuzuhören	-11771
▁Grundstück	-11772
▁Netzwerken	-11773
▁Völkermord	-11774
▁angewendet	-11775
▁bedeutende	-11776
▁bestätigen	-11777
▁generieren	-11778
▁unheimlich	-11779
▁überdenken	-11780
▁Anwesenheit	-11781
▁integrieren	-11782
▁konstruiert	-11783
▁unmittelbar	-11784
▁Alternativen	-11785
▁ausgestattet	-11786
▁muslimischen	-11787
▁verpflichtet	-11788
▁wesentlichen	-11789
▁Artenvielfalt	-11790
▁untereinander	-11791
▁auszuprobieren	-11792
▁physikalischen	-11793
▁Verletzlichkeit	-11794
▁experimentieren	-11795
:"	-11796
na	-11797
ETI	-11798
hur	-11799
irm	-11800
lös	-11801
▁48	-11802
▁BM	-11803
▁Ec	-11804
▁ah	-11805
Tech	-11806
Zahl	-11807
auch	-11808
aßen	-11809
enke	-11810
haut	-11811
ible	-11812
iche	-11813
last	-11814
weiß	-11815
ypen	-11816
▁10.	-11817
▁Agr	-11818
▁Bin	-11819
▁DVD	-11820
▁Rem	-11821
▁Roy	-11822
▁Sat	-11823
▁anz	-11824
▁bot	-11825
▁ele	-11826
▁här	-11827
▁mod	-11828
Weißt	-11829
brett	-11830
dungs	-11831
jahre	-11832
reckt	-11833
▁Affe	-11834
▁Just	-11835
▁Kell	-11836
▁Neue	-11837
▁Prie	-11838
▁Ring	-11839
▁Skiz	-11840
▁Visu	-11841
▁bahn	-11842
▁iron	-11843
▁nimm	-11844
▁ruft	-11845
esseln	-11846
griffe	-11847
ikalen	-11848
proben	-11849
schern	-11850
volles	-11851
würdig	-11852
▁Engel	-11853
▁Graph	-11854
▁Magen	-11855
▁North	-11856
▁Repar	-11857
▁Skala	-11858
▁Sprit	-11859
▁Texte	-11860
▁Zunge	-11861
▁ankam	-11862
▁fange	-11863
▁fügen	-11864
▁gelei	-11865
▁popul	-11866
▁sinkt	-11867
▁toten	-11868
auschen	-11869
digungs	-11870
euchten	-11871
▁30.000	-11872
▁Filmen	-11873
▁Finden	-11874
▁Hauses	-11875
▁Histor	-11876
▁Hühner	-11877
▁Ironie	-11878
▁Ozeans	-11879
▁Phasen	-11880
▁Tiefen	-11881
▁Tunnel	-11882
▁bedroh	-11883
▁fehlen	-11884
▁korrig	-11885
▁kurzes	-11886
▁magnet	-11887
▁untere	-11888
gebieten	-11889
gewiesen	-11890
ianische	-11891
ilometer	-11892
produkte	-11893
romagnet	-11894
schaltet	-11895
stellbar	-11896
zutragen	-11897
▁Abweich	-11898
▁Anzeige	-11899
▁Ausgabe	-11900
▁Delfine	-11901
▁Detroit	-11902
▁Dörfern	-11903
▁Genetik	-11904
▁Himmels	-11905
▁Hungers	-11906
▁Indones	-11907
▁Origami	-11908
▁Zuhören	-11909
▁agieren	-11910
▁erstmal	-11911
▁solches	-11912
▁sowieso	-11913
▁streben	-11914
▁teilten	-11915
Regierung	-11916
gerichtet	-11917
schätzung	-11918
▁Benjamin	-11919
▁Halluzin	-11920
▁Kliniken	-11921
▁Leinwand	-11922
▁Mögliche	-11923
▁Pyramide	-11924
▁Streifen	-11925
▁gelungen	-11926
▁generell	-11927
▁handelte	-11928
▁negative	-11929
▁verläuft	-11930
▁versetzt	-11931
▁verwirrt	-11932
▁ältesten	-11933
bewegungen	-11934
▁Anpassung	-11935
▁Disziplin	-11936
▁Unternehm	-11937
▁Vergessen	-11938
▁angezogen	-11939
▁emotional	-11940
▁englische	-11941
▁furchtbar	-11942
▁kommenden	-11943
▁schwanger	-11944
▁wenigsten	-11945
▁örtlichen	-11946
entwicklung	-11947
▁Einführung	-11948
▁Journalist	-11949
▁Kategorien	-11950
▁Unterdrück	-11951
▁Vorhersage	-11952
▁beseitigen	-11953
▁eineinhalb	-11954
▁entfernten	-11955
▁kontinuier	-11956
▁schlimmste	-11957
▁wachsenden	-11958
stechnologie	-11959
▁Heimatstadt	-11960
▁Lebensunter	-11961
▁ausgedrückt	-11962
▁institution	-11963
▁transparent	-11964
▁verschaffen	-11965
▁Republikaner	-11966
▁fundamentale	-11967
▁größtenteils	-11968
▁langfristige	-11969
amerikanischen	-11970
▁Zufriedenheit	-11971
▁demokratische	-11972
▁identifiziert	-11973
▁Überzeugungen	-11974
▁Führungskräfte	-11975
▁berücksichtigt	-11976
▁veröffentlichte	-11977
"?	-11978
He	-11979
▁?	-11980
Ste	-11981
Vor	-11982
ads	-11983
bry	-11984
bus	-11985
ody	-11986
ufe	-11987
übt	-11988
▁29	-11989
▁31	-11990
▁JA	-11991
▁Os	-11992
Boot	-11993
Stud	-11994
ader	-11995
bard	-11996
bart	-11997
etro	-11998
etts	-11999
gets	-12000
ials	-12001
ockt	-12002
otte	-12003
vort	-12004
zehn	-12005
▁2,5	-12006
▁Gig	-12007
▁Kro	-12008
▁Sag	-12009
▁Vin	-12010
▁gra	-12011
▁kan	-12012
ablen	-12013
atsch	-12014
azier	-12015
eiler	-12016
herum	-12017
ignen	-12018
kespe	-12019
masse	-12020
reuen	-12021
rüger	-12022
ämmer	-12023
ündet	-12024
▁Dein	-12025
▁Dunk	-12026
▁Mord	-12027
▁Pion	-12028
▁Rate	-12029
▁Riff	-12030
▁Spir	-12031
▁Tenn	-12032
▁Ufer	-12033
▁bild	-12034
▁grös	-12035
▁vari	-12036
▁zert	-12037
apital	-12038
dichte	-12039
kommun	-12040
reiber	-12041
rollen	-12042
rungen	-12043
teilte	-12044
ökonom	-12045
ützten	-12046
▁Blitz	-12047
▁Blume	-12048
▁Dampf	-12049
▁Davon	-12050
▁Dicht	-12051
▁Fahrt	-12052
▁Ideal	-12053
▁Juden	-12054
▁Klass	-12055
▁Saudi	-12056
▁Seide	-12057
▁angel	-12058
▁enthü	-12059
▁eurer	-12060
▁hinab	-12061
▁raten	-12062
▁stamm	-12063
▁stieß	-12064
bestand	-12065
füllung	-12066
produkt	-12067
wichtig	-12068
zession	-12069
ämpfung	-12070
äuschen	-12071
▁Archiv	-12072
▁Chinas	-12073
▁Comics	-12074
▁Erdgas	-12075
▁Feinde	-12076
▁Herbst	-12077
▁Mythos	-12078
▁Schafe	-12079
▁Schöne	-12080
▁Singap	-12081
▁Teller	-12082
▁Würfel	-12083
▁Zeitra	-12084
▁frisch	-12085
▁griech	-12086
▁konkre	-12087
▁nutzte	-12088
▁orient	-12089
▁packen	-12090
▁teurer	-12091
▁trugen	-12092
aschinen	-12093
breitung	-12094
ituation	-12095
steuropa	-12096
versicht	-12097
▁Applaus	-12098
▁Fingern	-12099
▁Herzinf	-12100
▁Häusern	-12101
▁Mitleid	-12102
▁Schweiz	-12103
▁Steuern	-12104
▁Stärken	-12105
▁Welches	-12106
▁Zugriff	-12107
▁Zuhörer	-12108
▁dunkler	-12109
▁geschei	-12110
▁gewaltt	-12111
▁herkömm	-12112
▁herumzu	-12113
▁rechnen	-12114
▁riechen	-12115
▁schätze	-12116
eisterung	-12117
maßnahmen	-12118
stelligen	-12119
▁Autobahn	-12120
▁Beginnen	-12121
▁Kritiker	-12122
▁Schulden	-12123
▁kopieren	-12124
▁normaler	-12125
▁vielfält	-12126
▁Beschleun	-12127
▁Einladung	-12128
▁Frühstück	-12129
▁Infektion	-12130
▁ausgelöst	-12131
▁begriffen	-12132
▁charakter	-12133
▁ergreifen	-12134
▁seltsamen	-12135
▁Überfluss	-12136
▁übersehen	-12137
Unternehmen	-12138
▁Beispielen	-12139
▁Diejenigen	-12140
▁Expedition	-12141
▁Hersteller	-12142
▁Innenstadt	-12143
▁Irgendwann	-12144
▁analysiert	-12145
▁anzufangen	-12146
▁diskutiert	-12147
▁finanziell	-12148
▁garantiert	-12149
▁psychische	-12150
▁verschwand	-12151
▁weiblichen	-12152
▁Erzählungen	-12153
▁Fledermäuse	-12154
▁Hoffentlich	-12155
▁verschieben	-12156
▁veränderten	-12157
▁Arzneimittel	-12158
▁Quadratmeter	-12159
▁untersuchten	-12160
▁Gelegenheiten	-12161
▁Konzentration	-12162
▁Treibhausgase	-12163
▁nebeneinander	-12164
▁Zivilisationen	-12165
SP	-12166
Zu	-12167
ny	-12168
yd	-12169
Ent	-12170
ado	-12171
cel	-12172
ibl	-12173
log	-12174
mie	-12175
▁38	-12176
▁po	-12177
▁wa	-12178
,000	-12179
Gott	-12180
arer	-12181
eife	-12182
ican	-12183
iode	-12184
malt	-12185
pril	-12186
umpe	-12187
öden	-12188
ürme	-12189
▁192	-12190
▁Fra	-12191
▁Gän	-12192
▁Hum	-12193
▁IBM	-12194
▁kün	-12195
▁seh	-12196
DUMMY	-12197
aisen	-12198
atent	-12199
auben	-12200
igste	-12201
ritts	-12202
samer	-12203
splan	-12204
thent	-12205
ächte	-12206
▁Darf	-12207
▁Erbe	-12208
▁Grau	-12209
▁Kreb	-12210
▁Meme	-12211
▁Rohr	-12212
▁SETI	-12213
▁Snow	-12214
▁Tabe	-12215
▁Vaku	-12216
▁Wats	-12217
▁Wett	-12218
▁drän	-12219
▁inne	-12220
▁käme	-12221
▁müde	-12222
▁post	-12223
ammern	-12224
anfall	-12225
etzung	-12226
gefügt	-12227
halter	-12228
kreise	-12229
langen	-12230
porter	-12231
produz	-12232
wollen	-12233
▁Bronx	-12234
▁Chile	-12235
▁DUMMY	-12236
▁Elend	-12237
▁Ethan	-12238
▁Genie	-12239
▁Kanal	-12240
▁Kurse	-12241
▁Liban	-12242
▁Nebel	-12243
▁Pilze	-12244
▁Still	-12245
▁Tinte	-12246
▁Veget	-12247
▁auton	-12248
▁ehren	-12249
▁gelbe	-12250
▁suche	-12251
bleiben	-12252
branche	-12253
euerung	-12254
glicher	-12255
orische	-12256
▁Andrew	-12257
▁Gegner	-12258
▁Sender	-12259
▁Sonder	-12260
▁Tänzer	-12261
▁Umfang	-12262
▁Versch	-12263
▁begrün	-12264
▁kalten	-12265
▁reiche	-12266
▁schwei	-12267
▁unterr	-12268
▁wärmer	-12269
eigerung	-12270
frequenz	-12271
menschen	-12272
örderung	-12273
▁Charlie	-12274
▁Mitteln	-12275
▁Rechten	-12276
▁Redwood	-12277
▁Schwein	-12278
▁Störung	-12279
▁Truppen	-12280
▁Zutaten	-12281
▁aktiven	-12282
▁authent	-12283
▁benannt	-12284
▁entschl	-12285
▁erheben	-12286
▁erlebte	-12287
▁geprägt	-12288
▁gerufen	-12289
▁meinten	-12290
▁oftmals	-12291
▁veranst	-12292
▁wünsche	-12293
▁zwanzig	-12294
ordnungen	-12295
▁Behälter	-12296
▁Brooklyn	-12297
▁Christen	-12298
▁Erzähler	-12299
▁Führungs	-12300
▁Gedichte	-12301
▁Shakespe	-12302
▁absolute	-12303
▁befanden	-12304
▁forschen	-12305
▁gestoßen	-12306
▁globales	-12307
▁isoliert	-12308
▁kleinste	-12309
▁verwandt	-12310
▁vorkommt	-12311
ologisches	-12312
▁Biosphäre	-12313
▁Künstlern	-12314
▁Leistungs	-12315
▁Schwimmen	-12316
▁Wichtiges	-12317
▁erschwing	-12318
▁eventuell	-12319
▁gefährdet	-12320
▁jahrelang	-12321
▁nirgendwo	-12322
▁starteten	-12323
verständnis	-12324
▁DUMMYDUMMY	-12325
▁Indonesien	-12326
▁erschienen	-12327
▁freiwillig	-12328
▁vergrößert	-12329
▁Botschaften	-12330
▁Ergebnissen	-12331
▁Erschaffung	-12332
▁Forschungen	-12333
▁Gleichungen	-12334
▁Gravitation	-12335
▁Sowjetunion	-12336
▁entscheidet	-12337
▁ermöglichte	-12338
▁Begeisterung	-12339
▁Finanzierung	-12340
▁Jahrhunderte	-12341
▁Jugendlichen	-12342
▁beschäftigte	-12343
▁Demonstration	-12344
▁Verschmutzung	-12345
▁interessierte	-12346
▁konzentrierte	-12347
▁unglaubliches	-12348
▁diagnostiziert	-12349
▁herausgestellt	-12350
▁mathematischen	-12351
▁Lebensunterhalt	-12352
Fi	-12353
Ne	-12354
uv	-12355
ble	-12356
hes	-12357
kar	-12358
ket	-12359
ows	-12360
pra	-12361
öss	-12362
ürt	-12363
▁2:	-12364
▁4.	-12365
▁EM	-12366
▁li	-12367
Hier	-12368
alog	-12369
amie	-12370
erkt	-12371
esst	-12372
höhe	-12373
itor	-12374
ness	-12375
rebs	-12376
sehe	-12377
stad	-12378
öcke	-12379
▁12.	-12380
▁Bol	-12381
▁Bor	-12382
▁Dra	-12383
▁Emm	-12384
▁Hab	-12385
▁Las	-12386
▁Moz	-12387
▁Reh	-12388
▁Tas	-12389
Bitte	-12390
Schau	-12391
arter	-12392
halle	-12393
liebe	-12394
mitte	-12395
reden	-12396
szeit	-12397
▁2020	-12398
▁Angi	-12399
▁Blei	-12400
▁Comp	-12401
▁Doug	-12402
▁Fang	-12403
▁Kino	-12404
▁besp	-12405
▁dünn	-12406
▁harm	-12407
ativer	-12408
genöss	-12409
haftet	-12410
holung	-12411
legung	-12412
linder	-12413
wendig	-12414
zyklus	-12415
ätigen	-12416
ättern	-12417
▁Antik	-12418
▁Elite	-12419
▁Erden	-12420
▁Franz	-12421
▁Gange	-12422
▁Grand	-12423
▁Jäger	-12424
▁Nukle	-12425
▁Prakt	-12426
▁Rente	-12427
▁Risik	-12428
▁Scott	-12429
▁absor	-12430
▁quant	-12431
▁ueber	-12432
▁unber	-12433
aufgabe	-12434
eistern	-12435
erkrank	-12436
fertigt	-12437
förmige	-12438
issheit	-12439
nutzung	-12440
osphäre	-12441
portion	-12442
▁Faszin	-12443
▁Flüsse	-12444
▁Lippen	-12445
▁Mentor	-12446
▁Minder	-12447
▁Nieren	-12448
▁Profil	-12449
▁Redner	-12450
▁Sahara	-12451
▁Schätz	-12452
▁Umlauf	-12453
▁austau	-12454
▁drückt	-12455
▁elegan	-12456
▁leidet	-12457
▁liefen	-12458
▁toller	-12459
▁treffe	-12460
fertigen	-12461
grenzung	-12462
ähnliche	-12463
▁Erfolge	-12464
▁Experte	-12465
▁Hundert	-12466
▁Neuseel	-12467
▁Notfall	-12468
▁Prüfung	-12469
▁Smartph	-12470
▁Sondern	-12471
▁Stipend	-12472
▁Tsunami	-12473
▁anrufen	-12474
▁drucken	-12475
▁erstens	-12476
▁gereist	-12477
▁hungrig	-12478
▁italien	-12479
▁mischen	-12480
▁symmetr	-12481
▁vereint	-12482
▁zusehen	-12483
▁zweiter	-12484
ifikation	-12485
istisches	-12486
riminelle	-12487
▁Carolina	-12488
▁McDonald	-12489
▁Singapur	-12490
▁Stimmung	-12491
▁annähern	-12492
▁ermutigt	-12493
▁fluoresz	-12494
▁synchron	-12495
▁tauschen	-12496
mitglieder	-12497
▁Aristotel	-12498
▁Bausteine	-12499
▁Kunstwerk	-12500
▁Ressource	-12501
▁Trainings	-12502
▁Versicher	-12503
▁aufweisen	-12504
▁genannten	-12505
▁ignoriert	-12506
▁komplexes	-12507
▁philosoph	-12508
▁stärksten	-12509
▁umwandeln	-12510
▁versetzen	-12511
▁zeichnete	-12512
geschrieben	-12513
▁Aktivisten	-12514
▁Hierarchie	-12515
▁Lebensstil	-12516
▁Schlussfol	-12517
▁Transplant	-12518
▁aufstellen	-12519
▁beurteilen	-12520
▁einfachste	-12521
▁engagieren	-12522
▁merkwürdig	-12523
▁Beleuchtung	-12524
▁Flüchtlinge	-12525
▁Prioritäten	-12526
▁Variationen	-12527
▁angegriffen	-12528
▁irgendeinen	-12529
▁körperliche	-12530
▁künstlichen	-12531
▁spezifische	-12532
▁verarbeitet	-12533
▁Überwachung	-12534
amerikanische	-12535
dimensionalen	-12536
▁Umweltschutz	-12537
▁andererseits	-12538
▁gewöhnlichen	-12539
▁herausfanden	-12540
▁herausstellt	-12541
▁manipulieren	-12542
▁aufgezeichnet	-12543
▁Geschäftsmodell	-12544
BC	-12545
Em	-12546
fa	-12547
lö	-12548
box	-12549
eiß	-12550
ila	-12551
seg	-12552
set	-12553
stü	-12554
üht	-12555
üre	-12556
▁%.	-12557
▁Up	-12558
▁Ze	-12559
▁sk	-12560
Eine	-12561
Plan	-12562
Vort	-12563
bett	-12564
fell	-12565
ites	-12566
izon	-12567
real	-12568
ript	-12569
senz	-12570
verw	-12571
ögen	-12572
öten	-12573
ütze	-12574
▁16.	-12575
▁193	-12576
▁Cre	-12577
▁Lib	-12578
▁Mau	-12579
▁Nav	-12580
▁Out	-12581
▁Que	-12582
▁unn	-12583
▁urb	-12584
▁öst	-12585
azine	-12586
brach	-12587
igere	-12588
lauch	-12589
nosen	-12590
posit	-12591
regel	-12592
räder	-12593
sonst	-12594
thalb	-12595
weren	-12596
äuben	-12597
▁100-	-12598
▁1900	-12599
▁Beam	-12600
▁Beat	-12601
▁Chor	-12602
▁Darm	-12603
▁Hack	-12604
▁Mike	-12605
▁Mini	-12606
▁Pfad	-12607
▁anre	-12608
▁impl	-12609
▁pack	-12610
eichen	-12611
gewinn	-12612
himmel	-12613
mäßige	-12614
region	-12615
sehbar	-12616
sprech	-12617
städte	-12618
swerte	-12619
wander	-12620
▁Anten	-12621
▁Bewer	-12622
▁Ecken	-12623
▁Femin	-12624
▁Gross	-12625
▁Herrn	-12626
▁Human	-12627
▁Hütte	-12628
▁Jones	-12629
▁Lunge	-12630
▁Orbit	-12631
▁Parks	-12632
▁Raums	-12633
▁Recyc	-12634
▁Roten	-12635
▁Stirn	-12636
▁abgel	-12637
▁euren	-12638
▁lohnt	-12639
▁obere	-12640
▁rasch	-12641
▁sitze	-12642
▁zuver	-12643
alteten	-12644
analyse	-12645
bewegen	-12646
digkeit	-12647
dlicher	-12648
kennung	-12649
wiegend	-12650
▁Agenda	-12651
▁Autoun	-12652
▁Daraus	-12653
▁Ebenso	-12654
▁Fremde	-12655
▁Gitter	-12656
▁Klänge	-12657
▁Kokain	-12658
▁Krähen	-12659
▁Lücken	-12660
▁Nachts	-12661
▁Square	-12662
▁beauft	-12663
▁einher	-12664
▁ernten	-12665
▁pflanz	-12666
▁raffin	-12667
▁redete	-12668
▁result	-12669
Institut	-12670
passungs	-12671
▁Denkens	-12672
▁Fischen	-12673
▁Nordpol	-12674
▁Stephen	-12675
▁Tausend	-12676
▁Wildnis	-12677
▁eingesp	-12678
▁endgült	-12679
▁kauften	-12680
▁typisch	-12681
▁vernetz	-12682
▁wuchsen	-12683
ständigen	-12684
▁Alphabet	-12685
▁Anspruch	-12686
▁Einkaufs	-12687
▁Entweder	-12688
▁Gehirnen	-12689
▁Gewissen	-12690
▁Langzeit	-12691
▁November	-12692
▁Reformen	-12693
▁Verkehrs	-12694
▁antreibt	-12695
▁einladen	-12696
▁könntest	-12697
▁vergeben	-12698
▁vorlesen	-12699
▁Ökologie	-12700
▁Durchfall	-12701
▁Empfänger	-12702
▁Forschern	-12703
▁Metaphern	-12704
▁Techniker	-12705
▁abstrakte	-12706
▁gerichtet	-12707
▁kreativer	-12708
▁kurzfrist	-12709
▁niedrigen	-12710
▁rekonstru	-12711
▁tendieren	-12712
gehörigkeit	-12713
▁Charaktere	-12714
▁Demokraten	-12715
▁Fallschirm	-12716
▁Geographic	-12717
▁Nachdenken	-12718
▁Neuseeland	-12719
▁Zeitspanne	-12720
▁beinhalten	-12721
▁beliebigen	-12722
▁bestimmtes	-12723
▁gezeichnet	-12724
▁kognitiven	-12725
▁kritischen	-12726
▁verwendete	-12727
▁wahrhaftig	-12728
gemeinschaft	-12729
▁Anstrengung	-12730
▁Aristoteles	-12731
▁Kühlschrank	-12732
▁Solarzellen	-12733
▁absichtlich	-12734
▁gespeichert	-12735
▁historische	-12736
▁kooperieren	-12737
▁kostengünst	-12738
▁unglücklich	-12739
▁ökonomische	-12740
▁Bestandteile	-12741
▁Letztendlich	-12742
▁spezifischen	-12743
▁öffentlicher	-12744
▁Beschäftigung	-12745
▁Einstellungen	-12746
▁Korallenriffe	-12747
▁Meeresspiegel	-12748
▁angeschlossen	-12749
▁demonstrieren	-12750
▁Verbesserungen	-12751
▁wirtschaftlich	-12752
li	-12753
aka	-12754
bur	-12755
ktu	-12756
ypt	-12757
▁5.	-12758
▁8.	-12759
▁Ag	-12760
▁IQ	-12761
▁OP	-12762
▁SI	-12763
dose	-12764
eben	-12765
empl	-12766
heil	-12767
hema	-12768
klin	-12769
meer	-12770
stro	-12771
tein	-12772
west	-12773
ähle	-12774
▁15.	-12775
▁Dod	-12776
▁Ema	-12777
▁Erb	-12778
▁Fan	-12779
▁Frö	-12780
▁Jet	-12781
▁MRT	-12782
▁Max	-12783
▁Nic	-12784
▁Pir	-12785
▁gez	-12786
▁hyp	-12787
▁lud	-12788
▁ser	-12789
▁sim	-12790
▁sor	-12791
▁sur	-12792
Beweg	-12793
abeth	-12794
attle	-12795
denen	-12796
diges	-12797
ering	-12798
farbe	-12799
iften	-12800
insel	-12801
kugel	-12802
mente	-12803
offen	-12804
üpfen	-12805
▁Brad	-12806
▁Coca	-12807
▁Geht	-12808
▁Grab	-12809
▁Guer	-12810
▁Harm	-12811
▁Kong	-12812
▁Krab	-12813
▁Mall	-12814
▁Mumb	-12815
▁Note	-12816
▁Renn	-12817
▁Wirk	-12818
▁tier	-12819
▁tote	-12820
Source	-12821
acheln	-12822
ameter	-12823
andten	-12824
drucks	-12825
effekt	-12826
fabrik	-12827
felder	-12828
frauen	-12829
gentin	-12830
gingen	-12831
inktiv	-12832
molekü	-12833
ordent	-12834
physik	-12835
ragten	-12836
school	-12837
schöpf	-12838
sprodu	-12839
▁Anzug	-12840
▁Biene	-12841
▁Bonob	-12842
▁Cloud	-12843
▁Deine	-12844
▁Draht	-12845
▁Glied	-12846
▁Kamel	-12847
▁Kathe	-12848
▁Lande	-12849
▁Meile	-12850
▁Tauch	-12851
▁Zwang	-12852
▁ergän	-12853
▁sagst	-12854
▁schuf	-12855
▁verdr	-12856
▁weise	-12857
▁wollt	-12858
artikel	-12859
energie	-12860
ragende	-12861
spunkte	-12862
urteile	-12863
▁Bildes	-12864
▁Choler	-12865
▁Denker	-12866
▁Dutzen	-12867
▁Ganzes	-12868
▁Helium	-12869
▁Keller	-12870
▁Kleine	-12871
▁Letzte	-12872
▁Pestiz	-12873
▁Portug	-12874
▁bedarf	-12875
▁beruht	-12876
▁klasse	-12877
▁leitet	-12878
▁nähern	-12879
▁rollen	-12880
▁teilte	-12881
▁weiten	-12882
istenten	-12883
omöglich	-12884
reaktion	-12885
strecken	-12886
tzündung	-12887
▁200.000	-12888
▁Anlagen	-12889
▁Eingang	-12890
▁Gewinne	-12891
▁Scheibe	-12892
▁Spender	-12893
▁Tomaten	-12894
▁Trocken	-12895
▁begehen	-12896
▁gefühlt	-12897
▁löschen	-12898
▁mysteri	-12899
▁optimal	-12900
▁schwamm	-12901
▁starkes	-12902
▁stunden	-12903
▁stärken	-12904
▁waschen	-12905
▁zurzeit	-12906
allererst	-12907
schmerzen	-12908
vertrauen	-12909
wertungen	-12910
zeichnete	-12911
▁Dasselbe	-12912
▁Einzelne	-12913
▁Errungen	-12914
▁Perspekt	-12915
▁Standort	-12916
▁Ursachen	-12917
▁auslösen	-12918
▁begraben	-12919
▁bereitet	-12920
▁gewaltig	-12921
▁markiert	-12922
▁möchtest	-12923
▁schweben	-12924
▁zerbrech	-12925
landschaft	-12926
ografische	-12927
ungsmittel	-12928
▁Ausnahmen	-12929
▁Erfüllung	-12930
▁Fußgänger	-12931
▁Lektionen	-12932
▁Parkinson	-12933
▁Rezession	-12934
▁Schachtel	-12935
▁Versionen	-12936
▁demselben	-12937
▁eintreten	-12938
▁einzelnes	-12939
▁markieren	-12940
▁stattfand	-12941
▁verhaftet	-12942
geschichten	-12943
▁Kilometern	-12944
▁Raumschiff	-12945
▁Zusätzlich	-12946
▁ausbreiten	-12947
▁auszusehen	-12948
▁beschaffen	-12949
▁regulieren	-12950
▁unangenehm	-12951
▁vergleicht	-12952
▁Erweiterung	-12953
▁Gesichtsaus	-12954
▁Richtlinien	-12955
▁langfristig	-12956
▁Übersetzung	-12957
▁Nationalpark	-12958
▁Verteidigung	-12959
▁gelegentlich	-12960
▁systematisch	-12961
▁dokumentieren	-12962
▁Krankenhäusern	-12963
▁folgendermaßen	-12964
▁berücksichtigen	-12965
5,	-12966
7.	-12967
Al	-12968
IA	-12969
Or	-12970
Um	-12971
▁x	-12972
aal	-12973
enh	-12974
esh	-12975
ids	-12976
old	-12977
sth	-12978
udd	-12979
wel	-12980
yer	-12981
öre	-12982
▁6.	-12983
▁72	-12984
frar	-12985
geiz	-12986
hole	-12987
ifik	-12988
irus	-12989
unen	-12990
uzen	-12991
ußer	-12992
Über	-12993
öhne	-12994
▁1,2	-12995
▁190	-12996
▁30-	-12997
▁Abt	-12998
▁Hof	-12999
▁Ori	-13000
▁Wes	-13001
▁klü	-13002
Achse	-13003
blase	-13004
denke	-13005
echte	-13006
famil	-13007
geist	-13008
heken	-13009
iefel	-13010
länge	-13011
ology	-13012
pidem	-13013
prech	-13014
useum	-13015
verse	-13016
äuren	-13017
▁100%	-13018
▁Abed	-13019
▁Data	-13020
▁Dich	-13021
▁Diät	-13022
▁Eint	-13023
▁Fass	-13024
▁Hans	-13025
▁Haup	-13026
▁Palm	-13027
▁Plat	-13028
▁Quer	-13029
▁Tans	-13030
▁Taxi	-13031
▁Wolf	-13032
▁bekl	-13033
▁dopp	-13034
▁litt	-13035
▁nord	-13036
▁reag	-13037
▁subt	-13038
▁treu	-13039
▁visu	-13040
Effekt	-13041
dresse	-13042
entrum	-13043
etings	-13044
farben	-13045
grippe	-13046
märkte	-13047
ration	-13048
strafe	-13049
ächern	-13050
önland	-13051
▁Büros	-13052
▁Ferne	-13053
▁Grenz	-13054
▁Hawai	-13055
▁Kevin	-13056
▁Raubt	-13057
▁Schäd	-13058
▁Sorte	-13059
▁Unger	-13060
▁autor	-13061
▁beten	-13062
▁betrü	-13063
▁damal	-13064
▁dünne	-13065
▁gemäß	-13066
▁hohem	-13067
▁holte	-13068
▁hyper	-13069
▁klang	-13070
▁preis	-13071
▁volle	-13072
▁wegzu	-13073
bewusst	-13074
bindung	-13075
gefühls	-13076
gesehen	-13077
lsystem	-13078
methode	-13079
raktion	-13080
schenkt	-13081
teilten	-13082
▁Bühnen	-13083
▁Fusion	-13084
▁Geduld	-13085
▁Götter	-13086
▁Joseph	-13087
▁Mozart	-13088
▁Pharma	-13089
▁Prophe	-13090
▁Recher	-13091
▁Stapel	-13092
▁Strafe	-13093
▁Tasman	-13094
▁Trauer	-13095
▁Unsinn	-13096
▁Watson	-13097
▁bewerk	-13098
▁endete	-13099
▁fehler	-13100
▁greift	-13101
▁improv	-13102
▁langes	-13103
▁modell	-13104
▁rettet	-13105
▁ähnelt	-13106
bewohner	-13107
gerissen	-13108
hingegen	-13109
jähriges	-13110
ommunity	-13111
▁Bananen	-13112
▁Bindung	-13113
▁Cartoon	-13114
▁Dienste	-13115
▁Französ	-13116
▁Freitag	-13117
▁Geräten	-13118
▁Landwir	-13119
▁Monster	-13120
▁Mustern	-13121
▁Müttern	-13122
▁Protest	-13123
▁Rauchen	-13124
▁Verpack	-13125
▁Vertrau	-13126
▁Währung	-13127
▁Wünsche	-13128
▁beeintr	-13129
▁durften	-13130
▁entwarf	-13131
▁fördert	-13132
▁koennen	-13133
▁steckte	-13134
▁umsonst	-13135
▁verfolg	-13136
▁wechsel	-13137
programme	-13138
tschaften	-13139
▁Biomasse	-13140
▁Cartoons	-13141
▁Meinungs	-13142
▁Monterey	-13143
▁Priester	-13144
▁Republik	-13145
▁Rückgang	-13146
▁Schwelle	-13147
▁Tastatur	-13148
▁Virginia	-13149
▁beliebte	-13150
▁einfluss	-13151
▁intuitiv	-13152
▁niedrige	-13153
▁radikale	-13154
▁schreien	-13155
▁tägliche	-13156
▁ungleich	-13157
▁verlässt	-13158
▁wörtlich	-13159
Nullsummen	-13160
gesundheit	-13161
ikanischen	-13162
▁Parasiten	-13163
▁Recycling	-13164
▁Repräsent	-13165
▁Scheitern	-13166
▁Schwanger	-13167
▁Tatsachen	-13168
▁Therapien	-13169
▁angeblich	-13170
▁Aussterben	-13171
▁Besonderes	-13172
▁Elternteil	-13173
▁Konflikten	-13174
▁Meerwasser	-13175
▁Verletzung	-13176
▁Wochenende	-13177
▁Zigaretten	-13178
▁anderthalb	-13179
▁angewiesen	-13180
▁instinktiv	-13181
▁platzieren	-13182
▁simulieren	-13183
▁versteckte	-13184
▁verstärken	-13185
▁Angiogenese	-13186
▁Behandlungs	-13187
▁Erscheinung	-13188
▁Prozentsatz	-13189
▁Vermächtnis	-13190
▁klassischen	-13191
▁Behandlungen	-13192
▁Gleichzeitig	-13193
▁Griechenland	-13194
▁Kriminalität	-13195
▁Mobiltelefon	-13196
▁konkurrieren	-13197
▁unsichtbaren	-13198
▁ökonomischen	-13199
▁Behinderungen	-13200
▁Beobachtungen	-13201
▁Chemotherapie	-13202
▁International	-13203
▁Zeitschriften	-13204
▁Zusammenbruch	-13205
▁eingeschränkt	-13206
▁physikalische	-13207
▁Nebenwirkungen	-13208
▁demokratischen	-13209
▁Geschäftsführer	-13210
▁Halluzinationen	-13211
.-	-13212
Mo	-13213
Lie	-13214
act	-13215
ars	-13216
ave	-13217
bri	-13218
dio	-13219
dis	-13220
gur	-13221
hir	-13222
igh	-13223
ita	-13224
urb	-13225
zit	-13226
▁43	-13227
▁DP	-13228
▁IT	-13229
▁SP	-13230
Feld	-13231
Mann	-13232
Vers	-13233
ades	-13234
aida	-13235
amas	-13236
blog	-13237
brot	-13238
fass	-13239
itis	-13240
oche	-13241
reen	-13242
rüch	-13243
umin	-13244
unts	-13245
wies	-13246
ückt	-13247
ührt	-13248
ümer	-13249
▁Gru	-13250
▁Hür	-13251
▁Rap	-13252
▁Vom	-13253
▁elf	-13254
▁zug	-13255
Meine	-13256
abend	-13257
andte	-13258
appte	-13259
arium	-13260
eihen	-13261
kette	-13262
namen	-13263
orene	-13264
ottet	-13265
ruckt	-13266
ziell	-13267
örter	-13268
▁1998	-13269
▁Bald	-13270
▁Gelb	-13271
▁Habe	-13272
▁Hero	-13273
▁Horm	-13274
▁Inde	-13275
▁Koff	-13276
▁Kram	-13277
▁Prov	-13278
▁Sant	-13279
▁Seni	-13280
▁aßen	-13281
▁null	-13282
ameras	-13283
beding	-13284
flügel	-13285
gelenk	-13286
gesell	-13287
inseln	-13288
ischte	-13289
kaufen	-13290
ochten	-13291
perten	-13292
skrise	-13293
zähler	-13294
▁April	-13295
▁Astro	-13296
▁Busch	-13297
▁Netze	-13298
▁Paare	-13299
▁Route	-13300
▁Rover	-13301
▁Sarah	-13302
▁Veter	-13303
▁ansah	-13304
▁bösen	-13305
▁gewün	-13306
▁glaub	-13307
▁liber	-13308
▁malte	-13309
▁merkt	-13310
▁nutze	-13311
▁tätig	-13312
▁unbeh	-13313
einheit	-13314
enhagen	-13315
medizin	-13316
mäßigen	-13317
prozent	-13318
stunden	-13319
zahlung	-13320
▁Action	-13321
▁Aktien	-13322
▁Arthur	-13323
▁Erstes	-13324
▁Essens	-13325
▁Exempl	-13326
▁Farmer	-13327
▁Flucht	-13328
▁Master	-13329
▁Michel	-13330
▁Mumbai	-13331
▁Orient	-13332
▁Sprich	-13333
▁Zwecke	-13334
▁Zweite	-13335
▁deines	-13336
▁harten	-13337
▁jeweil	-13338
▁stimme	-13339
▁taucht	-13340
▁wander	-13341
▁weisen	-13342
▁zweier	-13343
Computer	-13344
handlung	-13345
sprojekt	-13346
strahlen	-13347
▁Ankunft	-13348
▁Blinden	-13349
▁Gründer	-13350
▁Kartoff	-13351
▁Koralle	-13352
▁Kreatur	-13353
▁Melodie	-13354
▁Perfekt	-13355
▁Pinguin	-13356
▁Strasse	-13357
▁abgeben	-13358
▁dringen	-13359
▁fordern	-13360
abschluss	-13361
absichtig	-13362
arbeitern	-13363
möglichen	-13364
scheidung	-13365
sterreich	-13366
verfahren	-13367
▁Angriffe	-13368
▁Betriebs	-13369
▁Grönland	-13370
▁Hühnchen	-13371
▁Meistens	-13372
▁Rückmeld	-13373
▁Schaffen	-13374
▁Tansania	-13375
▁Trennung	-13376
▁Versuchs	-13377
▁Vollzeit	-13378
▁erwischt	-13379
▁peinlich	-13380
▁phänomen	-13381
▁schieben	-13382
▁weiterzu	-13383
▁überlegt	-13384
▁Interface	-13385
▁Rohstoffe	-13386
▁Schwarzen	-13387
▁Teilnahme	-13388
▁Universen	-13389
▁entlassen	-13390
▁glamourös	-13391
▁gründeten	-13392
▁identisch	-13393
▁schnellen	-13394
▁verstärkt	-13395
▁wertvolle	-13396
▁womöglich	-13397
▁Aufklärung	-13398
▁Betrachter	-13399
▁Hoffnungen	-13400
▁Komponente	-13401
▁Kopenhagen	-13402
▁Skulpturen	-13403
▁Videospiel	-13404
▁angebracht	-13405
▁anzupassen	-13406
▁bearbeiten	-13407
▁enttäuscht	-13408
▁verkauften	-13409
▁verringert	-13410
▁versichern	-13411
▁wahnsinnig	-13412
▁zeitgenöss	-13413
▁Angestellte	-13414
▁Auseinander	-13415
▁Betrachtung	-13416
▁Erklärungen	-13417
▁Herzinfarkt	-13418
▁Meeresboden	-13419
▁Studierende	-13420
▁austauschen	-13421
▁beigetragen	-13422
▁islamischen	-13423
▁realisieren	-13424
▁untersuchte	-13425
▁Übertragung	-13426
▁hinterfragen	-13427
▁konstruieren	-13428
▁teilzunehmen	-13429
▁vergleichbar	-13430
▁verschmelzen	-13431
▁zusätzlichen	-13432
gesellschaften	-13433
▁Anstrengungen	-13434
▁ausgesprochen	-13435
▁Vorgehensweise	-13436
▁Weltwirtschaft	-13437
▁amerikanischer	-13438
▁psychologische	-13439
▁Voraussetzungen	-13440
▁zusammengefasst	-13441
10	-13442
6.	-13443
NG	-13444
OL	-13445
hä	-13446
jo	-13447
App	-13448
Gem	-13449
ays	-13450
bon	-13451
bro	-13452
ela	-13453
hod	-13454
wan	-13455
wis	-13456
wor	-13457
zog	-13458
▁44	-13459
▁Mi	-13460
▁aß	-13461
Team	-13462
ilzt	-13463
inte	-13464
korn	-13465
krut	-13466
lade	-13467
luft	-13468
merk	-13469
mpor	-13470
phin	-13471
rede	-13472
schü	-13473
sius	-13474
sper	-13475
ärer	-13476
▁130	-13477
▁Acc	-13478
▁Amt	-13479
▁Gor	-13480
▁Kas	-13481
▁Nam	-13482
▁Tok	-13483
▁eis	-13484
▁ero	-13485
▁inj	-13486
▁inn	-13487
▁jun	-13488
Krieg	-13489
akult	-13490
anzug	-13491
dreht	-13492
fangs	-13493
freie	-13494
gerte	-13495
heits	-13496
level	-13497
motor	-13498
opard	-13499
ssinn	-13500
zählt	-13501
▁3000	-13502
▁Cany	-13503
▁Diam	-13504
▁Foie	-13505
▁Isol	-13506
▁Jagd	-13507
▁Link	-13508
▁Oben	-13509
▁Rund	-13510
▁Tatt	-13511
▁gäng	-13512
▁jetz	-13513
▁läng	-13514
▁strö	-13515
▁trop	-13516
echten	-13517
ehrten	-13518
einern	-13519
emonie	-13520
faktor	-13521
grenze	-13522
schuhe	-13523
werben	-13524
zieren	-13525
ämpfer	-13526
▁Brett	-13527
▁Comic	-13528
▁Erdöl	-13529
▁Harry	-13530
▁Hebel	-13531
▁Indus	-13532
▁Jemen	-13533
▁Linse	-13534
▁Polar	-13535
▁Sieht	-13536
▁Suppe	-13537
▁Söhne	-13538
▁besaß	-13539
▁natur	-13540
▁traum	-13541
▁Äußer	-13542
achläss	-13543
flossen	-13544
ingenie	-13545
izierte	-13546
otische	-13547
schulen	-13548
▁Bestes	-13549
▁Briten	-13550
▁Campus	-13551
▁Daniel	-13552
▁Delfin	-13553
▁Essenz	-13554
▁Falten	-13555
▁Folien	-13556
▁Frustr	-13557
▁Gewehr	-13558
▁Kannst	-13559
▁Kontro	-13560
▁Künste	-13561
▁Raster	-13562
▁Schaut	-13563
▁Sollte	-13564
▁Vakuum	-13565
▁Vögeln	-13566
▁Waisen	-13567
▁Winden	-13568
▁Wright	-13569
▁aktive	-13570
▁bewohn	-13571
▁schrit	-13572
▁siehst	-13573
▁ungehe	-13574
▁unterm	-13575
▁vorder	-13576
derweise	-13577
endungen	-13578
mechanik	-13579
▁Celsius	-13580
▁Cholera	-13581
▁Clinton	-13582
▁Dilemma	-13583
▁Dollars	-13584
▁Fiktion	-13585
▁Geister	-13586
▁Sonntag	-13587
▁Steinen	-13588
▁Träumen	-13589
▁Verschl	-13590
▁aktuell	-13591
▁anstren	-13592
▁atember	-13593
▁ausgeht	-13594
▁belohnt	-13595
▁bemühen	-13596
▁beschul	-13597
▁erholen	-13598
▁erkläre	-13599
▁kontakt	-13600
▁multipl	-13601
▁schlage	-13602
▁sichere	-13603
▁unbesch	-13604
▁visuell	-13605
▁Übungen	-13606
▁Auslöser	-13607
▁Beschrän	-13608
▁Eingriff	-13609
▁Einsicht	-13610
▁Freundes	-13611
▁Harmonie	-13612
▁Leonardo	-13613
▁Motorrad	-13614
▁Partikel	-13615
▁Rückkehr	-13616
▁Szenario	-13617
▁abnehmen	-13618
▁bereiten	-13619
▁komische	-13620
▁reproduz	-13621
▁vereinen	-13622
▁versagen	-13623
▁versehen	-13624
▁üblichen	-13625
▁Argumente	-13626
▁Aufregung	-13627
▁Batterien	-13628
▁Einnahmen	-13629
▁Mobilität	-13630
▁Schweizer	-13631
▁Umsetzung	-13632
▁aussuchen	-13633
▁bekannter	-13634
▁bemerkten	-13635
▁beruhigen	-13636
▁einzelner	-13637
▁entkommen	-13638
▁errichtet	-13639
▁geleistet	-13640
▁hinweisen	-13641
▁loswerden	-13642
▁umbringen	-13643
wasserstoff	-13644
▁Bemühungen	-13645
▁Kompromiss	-13646
▁Konsequenz	-13647
▁Millimeter	-13648
▁Mitgefühls	-13649
▁Weihnachts	-13650
▁bevorzugen	-13651
▁gebrauchen	-13652
▁gesundheit	-13653
▁kostenlose	-13654
▁weitgehend	-13655
verarbeitung	-13656
▁Brennstoffe	-13657
▁Freiwillige	-13658
▁befriedigen	-13659
▁glücklichen	-13660
▁wunderbares	-13661
▁Perspektiven	-13662
▁Temperaturen	-13663
▁Verarbeitung	-13664
▁überwältigen	-13665
▁Jahrhunderten	-13666
▁Veranstaltung	-13667
▁Verhandlungen	-13668
▁Verteidigungs	-13669
▁argumentieren	-13670
▁weitergegeben	-13671
sorganisationen	-13672
▁elektronischen	-13673
▁zusammenkommen	-13674
▁Angelegenheiten	-13675
60	-13676
NC	-13677
RA	-13678
hh	-13679
▁]	-13680
Aut	-13681
ata	-13682
mor	-13683
nie	-13684
ols	-13685
pel	-13686
rey	-13687
tum	-13688
via	-13689
üll	-13690
▁-,	-13691
▁34	-13692
▁AM	-13693
▁IM	-13694
▁Ig	-13695
▁Lü	-13696
▁SS	-13697
Groß	-13698
Show	-13699
akat	-13700
ares	-13701
chem	-13702
eley	-13703
etze	-13704
gers	-13705
hamm	-13706
hent	-13707
impf	-13708
kter	-13709
sern	-13710
ädag	-13711
öpft	-13712
▁20,	-13713
▁20-	-13714
▁Caf	-13715
▁Cor	-13716
▁Dal	-13717
▁Ess	-13718
▁Int	-13719
▁Nah	-13720
▁Off	-13721
▁Rab	-13722
▁Twe	-13723
▁blö	-13724
apfen	-13725
dehnt	-13726
istik	-13727
korea	-13728
kunde	-13729
ocker	-13730
rasil	-13731
rohen	-13732
seits	-13733
unker	-13734
wirft	-13735
ätige	-13736
ützer	-13737
▁2012	-13738
▁2030	-13739
▁Ekel	-13740
▁Fuss	-13741
▁Gebe	-13742
▁Hind	-13743
▁Logo	-13744
▁Sach	-13745
▁Sier	-13746
▁Spag	-13747
▁Woll	-13748
▁blut	-13749
▁fert	-13750
▁gelb	-13751
▁grob	-13752
▁gänz	-13753
▁proj	-13754
▁Ästh	-13755
Moment	-13756
bertät	-13757
ehntel	-13758
fungen	-13759
gängig	-13760
ittern	-13761
letter	-13762
locken	-13763
ologin	-13764
omaten	-13765
packen	-13766
sender	-13767
usalem	-13768
zenden	-13769
▁Agrar	-13770
▁Altru	-13771
▁Atomb	-13772
▁Bruno	-13773
▁Favor	-13774
▁Feier	-13775
▁Fleck	-13776
▁Kunde	-13777
▁Kyros	-13778
▁Myzel	-13779
▁Rasse	-13780
▁River	-13781
▁Ruder	-13782
▁Symph	-13783
▁Tolle	-13784
▁Winde	-13785
▁Witze	-13786
▁dumme	-13787
▁führe	-13788
▁hasse	-13789
▁nette	-13790
▁neutr	-13791
▁reine	-13792
▁unkon	-13793
▁verär	-13794
▁wilde	-13795
▁worin	-13796
Syndrom	-13797
artiger	-13798
hielten	-13799
ichtung	-13800
inieren	-13801
planung	-13802
platten	-13803
zurufen	-13804
▁Disney	-13805
▁Fertig	-13806
▁Furcht	-13807
▁Grösse	-13808
▁Hawaii	-13809
▁Hormon	-13810
▁Innere	-13811
▁Irland	-13812
▁Kämpfe	-13813
▁Linken	-13814
▁Misser	-13815
▁Mosche	-13816
▁Mücken	-13817
▁Normen	-13818
▁Regime	-13819
▁Strich	-13820
▁Supern	-13821
▁Säulen	-13822
▁Tinten	-13823
▁allmäh	-13824
▁brasil	-13825
▁breite	-13826
▁düster	-13827
▁fällen	-13828
▁gefiel	-13829
▁israel	-13830
▁jugend	-13831
▁klaren	-13832
▁schrum	-13833
▁talent	-13834
▁unzähl	-13835
▁veranl	-13836
▁wonach	-13837
▁Ängste	-13838
▁ähneln	-13839
Menschen	-13840
ifferenz	-13841
irdische	-13842
personen	-13843
regionen	-13844
streifen	-13845
stritten	-13846
▁Alltags	-13847
▁Atlanta	-13848
▁Aufwand	-13849
▁Bestech	-13850
▁Bürgern	-13851
▁Digital	-13852
▁Everest	-13853
▁Kondome	-13854
▁Museums	-13855
▁Neigung	-13856
▁Ozeanen	-13857
▁Project	-13858
▁Schwimm	-13859
▁Seattle	-13860
▁Service	-13861
▁Spazier	-13862
▁begeben	-13863
▁begriff	-13864
▁element	-13865
▁gefilmt	-13866
▁günstig	-13867
▁kopiert	-13868
▁redeten	-13869
▁saubere	-13870
▁starker	-13871
▁vorherr	-13872
hältnisse	-13873
irdischen	-13874
liegenden	-13875
schichten	-13876
▁Arbeitsm	-13877
▁Besucher	-13878
▁Gefühlen	-13879
▁Pandemie	-13880
▁Pubertät	-13881
▁Reporter	-13882
▁abhängen	-13883
▁gelandet	-13884
▁geradezu	-13885
▁geringen	-13886
▁gespannt	-13887
▁gewissem	-13888
▁jüngeren	-13889
▁klettern	-13890
▁schrittw	-13891
▁Ästhetik	-13892
▁Ökonomie	-13893
Amerikaner	-13894
▁Bedingung	-13895
▁Dokumente	-13896
▁Intellekt	-13897
▁Messungen	-13898
▁Schöpfung	-13899
▁annähernd	-13900
▁antreiben	-13901
▁aufgehört	-13902
▁bestanden	-13903
▁drastisch	-13904
▁dynamisch	-13905
▁entnehmen	-13906
▁erwartete	-13907
▁geschenkt	-13908
▁hunderten	-13909
▁verpassen	-13910
▁übernimmt	-13911
▁Baumkronen	-13912
▁Fotografen	-13913
▁Künstlerin	-13914
▁Mahlzeiten	-13915
▁Schlimmste	-13916
▁Tageslicht	-13917
▁Verfassung	-13918
▁anzubieten	-13919
▁aufgegeben	-13920
▁aufzugeben	-13921
▁effiziente	-13922
▁frustriert	-13923
▁geschossen	-13924
▁informiert	-13925
▁körperlich	-13926
▁ordentlich	-13927
▁praktische	-13928
▁schockiert	-13929
▁ultimative	-13930
▁verbleiben	-13931
▁Dankbarkeit	-13932
▁Filmemacher	-13933
▁Genauigkeit	-13934
▁Infektionen	-13935
▁Philosophen	-13936
▁Relativität	-13937
▁Sehvermögen	-13938
▁aufgefallen	-13939
▁dreieinhalb	-13940
▁informieren	-13941
▁präsentiert	-13942
▁unsichtbare	-13943
▁weitergeben	-13944
▁Kindergarten	-13945
▁Konversation	-13946
▁Lautsprecher	-13947
▁alltäglichen	-13948
▁angesprochen	-13949
▁französische	-13950
▁herauskommen	-13951
▁körperlichen	-13952
▁persönliches	-13953
▁unterbrochen	-13954
▁verständlich	-13955
▁zehntausende	-13956
▁ökologischen	-13957
organisationen	-13958
▁Mobiltelefone	-13959
▁organisierten	-13960
▁üblicherweise	-13961
▁entscheidenden	-13962
▁Herzkrankheiten	-13963
▁offensichtliche	-13964
1,	-13965
3,	-13966
6,	-13967
Po	-13968
ba	-13969
da	-13970
oy	-13971
Per	-13972
bod	-13973
bär	-13974
eme	-13975
fle	-13976
hut	-13977
llo	-13978
nik	-13979
ußt	-13980
zed	-13981
▁UV	-13982
Dies	-13983
alie	-13984
aute	-13985
bast	-13986
enix	-13987
eres	-13988
igan	-13989
imit	-13990
ippt	-13991
konz	-13992
loss	-13993
ppel	-13994
prei	-13995
tent	-13996
uana	-13997
▁Bün	-13998
▁Gir	-13999
▁McC	-14000
▁Non	-14001
▁Oma	-14002
▁Pix	-14003
▁Syl	-14004
▁bös	-14005
▁kod	-14006
▁leb	-14007
▁wuß	-14008
gemäß	-14009
ideos	-14010
idmet	-14011
ählte	-14012
▁Back	-14013
▁Bade	-14014
▁Berk	-14015
▁Clip	-14016
▁Dumm	-14017
▁Foot	-14018
▁Hamb	-14019
▁Ikon	-14020
▁Mand	-14021
▁Rass	-14022
▁Sche	-14023
▁Takt	-14024
▁Zero	-14025
▁bege	-14026
▁lege	-14027
▁orig	-14028
▁rauf	-14029
▁witz	-14030
Gemein	-14031
bedarf	-14032
bürger	-14033
flucht	-14034
frarot	-14035
gesagt	-14036
größte	-14037
hieren	-14038
iarden	-14039
lauben	-14040
ombard	-14041
reuung	-14042
sparen	-14043
spitze	-14044
uverne	-14045
zettel	-14046
zeugte	-14047
ächtig	-14048
äglich	-14049
üsselt	-14050
▁4.000	-14051
▁Asthm	-14052
▁Blüte	-14053
▁Bösen	-14054
▁Craig	-14055
▁Darin	-14056
▁Erder	-14057
▁Haken	-14058
▁Helik	-14059
▁Himal	-14060
▁Hülle	-14061
▁Kälte	-14062
▁Larry	-14063
▁Louis	-14064
▁Moore	-14065
▁Union	-14066
▁engag	-14067
▁legal	-14068
▁stört	-14069
▁zehnt	-14070
▁ängst	-14071
Theorie	-14072
altungs	-14073
erische	-14074
händler	-14075
okratie	-14076
sprüche	-14077
verlust	-14078
zeugung	-14079
▁40.000	-14080
▁Bäcker	-14081
▁Drohne	-14082
▁Geträn	-14083
▁Kompon	-14084
▁Lehren	-14085
▁Luther	-14086
▁Marath	-14087
▁Mauern	-14088
▁Montag	-14089
▁Panzer	-14090
▁Romant	-14091
▁Soldat	-14092
▁Syrien	-14093
▁Südpol	-14094
▁Untert	-14095
▁Wunden	-14096
▁auszut	-14097
▁bewaff	-14098
▁bewahr	-14099
▁filmen	-14100
▁geschw	-14101
▁klappt	-14102
▁kollab	-14103
▁kommst	-14104
▁scharf	-14105
Maschine	-14106
formance	-14107
spolitik	-14108
ssysteme	-14109
▁Elefant	-14110
▁Patente	-14111
▁Talente	-14112
▁abläuft	-14113
▁anfühlt	-14114
▁aufhört	-14115
▁befreit	-14116
▁beraten	-14117
▁breiten	-14118
▁eigener	-14119
▁fesseln	-14120
▁folgten	-14121
▁geliebt	-14122
▁gemerkt	-14123
▁hiermit	-14124
▁klicken	-14125
▁koordin	-14126
▁maximal	-14127
▁pflegen	-14128
▁richtet	-14129
▁schickt	-14130
▁spenden	-14131
▁springt	-14132
▁stimmte	-14133
▁südlich	-14134
▁vorüber	-14135
kilometer	-14136
reibungen	-14137
ähnlichen	-14138
▁Aussicht	-14139
▁Intensiv	-14140
▁Kontrast	-14141
▁Rechnung	-14142
▁Referenz	-14143
▁Schleimp	-14144
▁Zustände	-14145
▁auftritt	-14146
▁bedecken	-14147
▁benennen	-14148
▁besiegen	-14149
▁gedauert	-14150
▁heiligen	-14151
▁horizont	-14152
▁schlauer	-14153
▁tiefgrün	-14154
▁wieviele	-14155
▁zeichnet	-14156
▁zutrifft	-14157
▁überholt	-14158
haftigkeit	-14159
krankungen	-14160
vollziehen	-14161
änderungen	-14162
▁Haushalts	-14163
▁Hindernis	-14164
▁Jerusalem	-14165
▁Paradigma	-14166
▁Parkplatz	-14167
▁Supernova	-14168
▁bewundern	-14169
▁dauerhaft	-14170
▁erheblich	-14171
▁gesteuert	-14172
▁herkommen	-14173
▁mitmachen	-14174
▁platziert	-14175
▁schmelzen	-14176
▁schönsten	-14177
▁spazieren	-14178
▁vornehmen	-14179
herstellung	-14180
möglichkeit	-14181
▁Hinterkopf	-14182
▁Schauspiel	-14183
▁anerkennen	-14184
▁beunruhigt	-14185
▁erreichten	-14186
▁herzlichen	-14187
▁ineinander	-14188
▁potentiell	-14189
▁unendliche	-14190
▁verknüpfen	-14191
katastrophen	-14192
unterschiede	-14193
▁Grundschule	-14194
▁Jugendliche	-14195
▁Krebszellen	-14196
▁Weihnachten	-14197
▁Zeitschrift	-14198
▁alternative	-14199
▁anschließen	-14200
▁hinzugefügt	-14201
▁japanischen	-14202
▁natürliches	-14203
▁stundenlang	-14204
▁unbekannten	-14205
▁unternommen	-14206
▁Gewohnheiten	-14207
▁Rechenschaft	-14208
▁Wiederaufbau	-14209
▁anschließend	-14210
▁betrachteten	-14211
▁gefährlichen	-14212
▁militärische	-14213
▁nachhaltigen	-14214
▁respektieren	-14215
▁Lateinamerika	-14216
▁Wissenschafts	-14217
▁existierenden	-14218
▁hervorbringen	-14219
▁vorgeschlagen	-14220
▁Funktionsweise	-14221
▁intellektuelle	-14222
▁hunderttausende	-14223
ES	-14224
IN	-14225
Stu	-14226
Wel	-14227
ano	-14228
bal	-14229
bor	-14230
cer	-14231
red	-14232
sbe	-14233
wal	-14234
▁Hi	-14235
▁MS	-14236
▁zo	-14237
Bild	-14238
Kann	-14239
alth	-14240
auce	-14241
auto	-14242
eher	-14243
ftel	-14244
glas	-14245
haie	-14246
icke	-14247
ipel	-14248
ithm	-14249
ival	-14250
kürz	-14251
länd	-14252
mass	-14253
onto	-14254
räte	-14255
urce	-14256
uver	-14257
ßten	-14258
▁15-	-14259
▁450	-14260
▁50%	-14261
▁Por	-14262
▁Sue	-14263
▁Tha	-14264
▁Tät	-14265
▁abt	-14266
▁ehe	-14267
▁rut	-14268
aurus	-14269
bauer	-14270
bären	-14271
erken	-14272
etenz	-14273
loses	-14274
mmert	-14275
neter	-14276
okoll	-14277
opath	-14278
tiere	-14279
ungel	-14280
urger	-14281
ärmen	-14282
ärzte	-14283
äumen	-14284
üstet	-14285
▁2002	-14286
▁5000	-14287
▁Bach	-14288
▁Finn	-14289
▁Lehm	-14290
▁Obst	-14291
▁Sied	-14292
▁Spar	-14293
▁Supr	-14294
▁Ware	-14295
▁grat	-14296
▁quad	-14297
▁unzu	-14298
anntes	-14299
bahnen	-14300
banken	-14301
deutet	-14302
etiker	-14303
igment	-14304
inchen	-14305
mungen	-14306
opädie	-14307
ratete	-14308
regeln	-14309
spuren	-14310
stream	-14311
zessen	-14312
▁Alice	-14313
▁Bälle	-14314
▁Domin	-14315
▁Ehren	-14316
▁Feder	-14317
▁Fäden	-14318
▁Kolon	-14319
▁Kommt	-14320
▁Kosov	-14321
▁Lobby	-14322
▁Maler	-14323
▁Pille	-14324
▁Runde	-14325
▁Synap	-14326
▁Traur	-14327
▁Venus	-14328
▁absur	-14329
▁kürze	-14330
▁leere	-14331
▁minus	-14332
▁skept	-14333
▁verhe	-14334
▁warte	-14335
▁weite	-14336
▁änder	-14337
alisten	-14338
brecher	-14339
flasche	-14340
rottung	-14341
steiger	-14342
uminium	-14343
▁Abholz	-14344
▁Betrag	-14345
▁Columb	-14346
▁Fahren	-14347
▁Falsch	-14348
▁Gesten	-14349
▁Improv	-14350
▁Kasten	-14351
▁Ladung	-14352
▁Lampen	-14353
▁Linsen	-14354
▁Macher	-14355
▁Maßstä	-14356
▁Monats	-14357
▁Mäusen	-14358
▁Reflex	-14359
▁Reform	-14360
▁Schaff	-14361
▁Server	-14362
▁Sierra	-14363
▁Stellt	-14364
▁beacht	-14365
▁freier	-14366
▁gemalt	-14367
▁geschm	-14368
▁kehrte	-14369
▁landes	-14370
▁netten	-14371
▁riefen	-14372
▁vorant	-14373
▁wachte	-14374
ammelten	-14375
ineering	-14376
▁Abfolge	-14377
▁Homosex	-14378
▁Membran	-14379
▁Schiffe	-14380
▁Schlamm	-14381
▁Stewart	-14382
▁Unsicht	-14383
▁Verzerr	-14384
▁Wassers	-14385
▁anbauen	-14386
▁anlegen	-14387
▁chirurg	-14388
▁extreme	-14389
▁implant	-14390
▁lautete	-14391
▁registr	-14392
▁verdamm	-14393
▁wählten	-14394
▁älteste	-14395
chnologie	-14396
regierung	-14397
schiebung	-14398
schrecken	-14399
sprobleme	-14400
twörtlich	-14401
▁Beachten	-14402
▁Berkeley	-14403
▁Chemiker	-14404
▁Kreation	-14405
▁Magazine	-14406
▁Momenten	-14407
▁Nervenze	-14408
▁Optionen	-14409
▁Spaghett	-14410
▁Variante	-14411
▁Verluste	-14412
▁angenehm	-14413
▁befolgen	-14414
▁beiseite	-14415
▁eingebet	-14416
▁erwecken	-14417
▁flexibel	-14418
▁massiven	-14419
▁probiert	-14420
▁schienen	-14421
▁verpasst	-14422
▁warteten	-14423
▁wiederzu	-14424
▁zustande	-14425
▁Abschnitt	-14426
▁Eigentums	-14427
▁Endeffekt	-14428
▁Geschehen	-14429
▁Phänomene	-14430
▁Raumfahrt	-14431
▁Reduktion	-14432
▁Schultern	-14433
▁Thunfisch	-14434
▁Varianten	-14435
▁abspielen	-14436
▁behauptet	-14437
▁generiert	-14438
▁katastrop	-14439
▁mikroskop	-14440
▁riskieren	-14441
▁verlaufen	-14442
▁verließen	-14443
ournalismus	-14444
▁Fortpflanz	-14445
▁Hauptstadt	-14446
▁Politikern	-14447
▁Positionen	-14448
▁Sicherlich	-14449
▁Verwaltung	-14450
▁aufwachsen	-14451
▁benötigten	-14452
▁beschädigt	-14453
▁entschloss	-14454
▁herausfand	-14455
▁häufigsten	-14456
▁vereinfach	-14457
▁zahlreiche	-14458
▁Bedrohungen	-14459
▁Behinderung	-14460
▁Geschwister	-14461
▁Ingenieuren	-14462
▁Philanthrop	-14463
▁Shakespeare	-14464
▁erneuerbare	-14465
▁hervorrufen	-14466
▁psychischen	-14467
▁schnellsten	-14468
▁verteidigen	-14469
▁vorbereiten	-14470
▁Älterwerden	-14471
▁Erderwärmung	-14472
▁Geschlechter	-14473
▁Installation	-14474
▁Mammographie	-14475
▁beängstigend	-14476
▁katastrophal	-14477
▁musikalische	-14478
▁reflektieren	-14479
▁verschwanden	-14480
▁Partnerschaft	-14481
▁erfolgreichen	-14482
▁gemeinnützige	-14483
▁herausfordern	-14484
▁intelligenter	-14485
▁komplizierten	-14486
▁schwierigsten	-14487
▁stattgefunden	-14488
▁ungewöhnliche	-14489
▁vorzubereiten	-14490
▁Visualisierung	-14491
▁zurückzukehren	-14492
▁Quantenmechanik	-14493
▁bewerkstelligen	-14494
ps	-14495
200	-14496
mas	-14497
spf	-14498
ugh	-14499
usk	-14500
wes	-14501
ätt	-14502
▁Ew	-14503
▁Wa	-14504
▁–,	-14505
Jahr	-14506
abwe	-14507
arin	-14508
frem	-14509
ikon	-14510
illt	-14511
itts	-14512
ller	-14513
opft	-14514
pten	-14515
rott	-14516
team	-14517
ölfe	-14518
▁160	-14519
▁Gur	-14520
▁Heu	-14521
[...]
